{
  "version": "1.0",
  "truncation": null,
  "padding": null,
  "added_tokens": [
    {
      "id": 0,
      "content": "[UNK]",
      "single_word": false,
      "lstrip": false,
      "rstrip": false,
      "normalized": false,
      "special": true
    }
  ],
  "normalizer": {
    "type": "NFC"
  },
  "pre_tokenizer": {
    "type": "WhitespaceSplit"
  },
  "post_processor": null,
  "decoder": {
    "type": "ByteFallback"
  },
  "model": {
    "type": "BPE",
    "dropout": null,
    "unk_token": "[UNK]",
    "continuing_subword_prefix": null,
    "end_of_word_suffix": null,
    "fuse_unk": false,
    "byte_fallback": true,
    "ignore_merges": false,
    "vocab": {
      "[UNK]": 0,
      "<0x00>": 1,
      "<0x01>": 2,
      "<0x02>": 3,
      "<0x03>": 4,
      "<0x04>": 5,
      "<0x05>": 6,
      "<0x06>": 7,
      "<0x07>": 8,
      "<0x08>": 9,
      "<0x09>": 10,
      "<0x0A>": 11,
      "<0x0B>": 12,
      "<0x0C>": 13,
      "<0x0D>": 14,
      "<0x0E>": 15,
      "<0x0F>": 16,
      "<0x10>": 17,
      "<0x11>": 18,
      "<0x12>": 19,
      "<0x13>": 20,
      "<0x14>": 21,
      "<0x15>": 22,
      "<0x16>": 23,
      "<0x17>": 24,
      "<0x18>": 25,
      "<0x19>": 26,
      "<0x1A>": 27,
      "<0x1B>": 28,
      "<0x1C>": 29,
      "<0x1D>": 30,
      "<0x1E>": 31,
      "<0x1F>": 32,
      "<0x20>": 33,
      "<0x21>": 34,
      "<0x22>": 35,
      "<0x23>": 36,
      "<0x24>": 37,
      "<0x25>": 38,
      "<0x26>": 39,
      "<0x27>": 40,
      "<0x28>": 41,
      "<0x29>": 42,
      "<0x2A>": 43,
      "<0x2B>": 44,
      "<0x2C>": 45,
      "<0x2D>": 46,
      "<0x2E>": 47,
      "<0x2F>": 48,
      "<0x30>": 49,
      "<0x31>": 50,
      "<0x32>": 51,
      "<0x33>": 52,
      "<0x34>": 53,
      "<0x35>": 54,
      "<0x36>": 55,
      "<0x37>": 56,
      "<0x38>": 57,
      "<0x39>": 58,
      "<0x3A>": 59,
      "<0x3B>": 60,
      "<0x3C>": 61,
      "<0x3D>": 62,
      "<0x3E>": 63,
      "<0x3F>": 64,
      "<0x40>": 65,
      "<0x41>": 66,
      "<0x42>": 67,
      "<0x43>": 68,
      "<0x44>": 69,
      "<0x45>": 70,
      "<0x46>": 71,
      "<0x47>": 72,
      "<0x48>": 73,
      "<0x49>": 74,
      "<0x4A>": 75,
      "<0x4B>": 76,
      "<0x4C>": 77,
      "<0x4D>": 78,
      "<0x4E>": 79,
      "<0x4F>": 80,
      "<0x50>": 81,
      "<0x51>": 82,
      "<0x52>": 83,
      "<0x53>": 84,
      "<0x54>": 85,
      "<0x55>": 86,
      "<0x56>": 87,
      "<0x57>": 88,
      "<0x58>": 89,
      "<0x59>": 90,
      "<0x5A>": 91,
      "<0x5B>": 92,
      "<0x5C>": 93,
      "<0x5D>": 94,
      "<0x5E>": 95,
      "<0x5F>": 96,
      "<0x60>": 97,
      "<0x61>": 98,
      "<0x62>": 99,
      "<0x63>": 100,
      "<0x64>": 101,
      "<0x65>": 102,
      "<0x66>": 103,
      "<0x67>": 104,
      "<0x68>": 105,
      "<0x69>": 106,
      "<0x6A>": 107,
      "<0x6B>": 108,
      "<0x6C>": 109,
      "<0x6D>": 110,
      "<0x6E>": 111,
      "<0x6F>": 112,
      "<0x70>": 113,
      "<0x71>": 114,
      "<0x72>": 115,
      "<0x73>": 116,
      "<0x74>": 117,
      "<0x75>": 118,
      "<0x76>": 119,
      "<0x77>": 120,
      "<0x78>": 121,
      "<0x79>": 122,
      "<0x7A>": 123,
      "<0x7B>": 124,
      "<0x7C>": 125,
      "<0x7D>": 126,
      "<0x7E>": 127,
      "<0x7F>": 128,
      "<0x80>": 129,
      "<0x81>": 130,
      "<0x82>": 131,
      "<0x83>": 132,
      "<0x84>": 133,
      "<0x85>": 134,
      "<0x86>": 135,
      "<0x87>": 136,
      "<0x88>": 137,
      "<0x89>": 138,
      "<0x8A>": 139,
      "<0x8B>": 140,
      "<0x8C>": 141,
      "<0x8D>": 142,
      "<0x8E>": 143,
      "<0x8F>": 144,
      "<0x90>": 145,
      "<0x91>": 146,
      "<0x92>": 147,
      "<0x93>": 148,
      "<0x94>": 149,
      "<0x95>": 150,
      "<0x96>": 151,
      "<0x97>": 152,
      "<0x98>": 153,
      "<0x99>": 154,
      "<0x9A>": 155,
      "<0x9B>": 156,
      "<0x9C>": 157,
      "<0x9D>": 158,
      "<0x9E>": 159,
      "<0x9F>": 160,
      "<0xA0>": 161,
      "<0xA1>": 162,
      "<0xA2>": 163,
      "<0xA3>": 164,
      "<0xA4>": 165,
      "<0xA5>": 166,
      "<0xA6>": 167,
      "<0xA7>": 168,
      "<0xA8>": 169,
      "<0xA9>": 170,
      "<0xAA>": 171,
      "<0xAB>": 172,
      "<0xAC>": 173,
      "<0xAD>": 174,
      "<0xAE>": 175,
      "<0xAF>": 176,
      "<0xB0>": 177,
      "<0xB1>": 178,
      "<0xB2>": 179,
      "<0xB3>": 180,
      "<0xB4>": 181,
      "<0xB5>": 182,
      "<0xB6>": 183,
      "<0xB7>": 184,
      "<0xB8>": 185,
      "<0xB9>": 186,
      "<0xBA>": 187,
      "<0xBB>": 188,
      "<0xBC>": 189,
      "<0xBD>": 190,
      "<0xBE>": 191,
      "<0xBF>": 192,
      "<0xC0>": 193,
      "<0xC1>": 194,
      "<0xC2>": 195,
      "<0xC3>": 196,
      "<0xC4>": 197,
      "<0xC5>": 198,
      "<0xC6>": 199,
      "<0xC7>": 200,
      "<0xC8>": 201,
      "<0xC9>": 202,
      "<0xCA>": 203,
      "<0xCB>": 204,
      "<0xCC>": 205,
      "<0xCD>": 206,
      "<0xCE>": 207,
      "<0xCF>": 208,
      "<0xD0>": 209,
      "<0xD1>": 210,
      "<0xD2>": 211,
      "<0xD3>": 212,
      "<0xD4>": 213,
      "<0xD5>": 214,
      "<0xD6>": 215,
      "<0xD7>": 216,
      "<0xD8>": 217,
      "<0xD9>": 218,
      "<0xDA>": 219,
      "<0xDB>": 220,
      "<0xDC>": 221,
      "<0xDD>": 222,
      "<0xDE>": 223,
      "<0xDF>": 224,
      "<0xE0>": 225,
      "<0xE1>": 226,
      "<0xE2>": 227,
      "<0xE3>": 228,
      "<0xE4>": 229,
      "<0xE5>": 230,
      "<0xE6>": 231,
      "<0xE7>": 232,
      "<0xE8>": 233,
      "<0xE9>": 234,
      "<0xEA>": 235,
      "<0xEB>": 236,
      "<0xEC>": 237,
      "<0xED>": 238,
      "<0xEE>": 239,
      "<0xEF>": 240,
      "<0xF0>": 241,
      "<0xF1>": 242,
      "<0xF2>": 243,
      "<0xF3>": 244,
      "<0xF4>": 245,
      "<0xF5>": 246,
      "<0xF6>": 247,
      "<0xF7>": 248,
      "<0xF8>": 249,
      "<0xF9>": 250,
      "<0xFA>": 251,
      "<0xFB>": 252,
      "<0xFC>": 253,
      "<0xFD>": 254,
      "<0xFE>": 255,
      "<0xFF>": 256,
      "!": 257,
      "\"": 258,
      "#": 259,
      "$": 260,
      "%": 261,
      "&": 262,
      "'": 263,
      "(": 264,
      ")": 265,
      "*": 266,
      "+": 267,
      ",": 268,
      "-": 269,
      ".": 270,
      "/": 271,
      "0": 272,
      "1": 273,
      "2": 274,
      "3": 275,
      "4": 276,
      "5": 277,
      "6": 278,
      "7": 279,
      "8": 280,
      "9": 281,
      ":": 282,
      ";": 283,
      "<": 284,
      "=": 285,
      ">": 286,
      "?": 287,
      "A": 288,
      "B": 289,
      "C": 290,
      "D": 291,
      "E": 292,
      "F": 293,
      "G": 294,
      "H": 295,
      "I": 296,
      "J": 297,
      "K": 298,
      "L": 299,
      "M": 300,
      "N": 301,
      "O": 302,
      "P": 303,
      "Q": 304,
      "R": 305,
      "S": 306,
      "T": 307,
      "U": 308,
      "V": 309,
      "W": 310,
      "X": 311,
      "Y": 312,
      "Z": 313,
      "[": 314,
      "]": 315,
      "^": 316,
      "_": 317,
      "`": 318,
      "a": 319,
      "b": 320,
      "c": 321,
      "d": 322,
      "e": 323,
      "f": 324,
      "g": 325,
      "h": 326,
      "i": 327,
      "j": 328,
      "k": 329,
      "l": 330,
      "m": 331,
      "n": 332,
      "o": 333,
      "p": 334,
      "q": 335,
      "r": 336,
      "s": 337,
      "t": 338,
      "u": 339,
      "v": 340,
      "w": 341,
      "x": 342,
      "y": 343,
      "z": 344,
      "{": 345,
      "|": 346,
      "}": 347,
      "~": 348,
      "«": 349,
      "°": 350,
      "²": 351,
      "»": 352,
      "À": 353,
      "Á": 354,
      "Â": 355,
      "È": 356,
      "É": 357,
      "Ì": 358,
      "Í": 359,
      "Ò": 360,
      "Ó": 361,
      "×": 362,
      "Ú": 363,
      "à": 364,
      "á": 365,
      "â": 366,
      "ã": 367,
      "ä": 368,
      "æ": 369,
      "ç": 370,
      "è": 371,
      "é": 372,
      "ê": 373,
      "ë": 374,
      "ì": 375,
      "í": 376,
      "î": 377,
      "ï": 378,
      "ñ": 379,
      "ò": 380,
      "ó": 381,
      "ô": 382,
      "ö": 383,
      "ù": 384,
      "ú": 385,
      "û": 386,
      "ü": 387,
      "ā": 388,
      "ē": 389,
      "ī": 390,
      "ń": 391,
      "ō": 392,
      "œ": 393,
      "š": 394,
      "ū": 395,
      "Ɗ": 396,
      "Ƙ": 397,
      "ƙ": 398,
      "Ƴ": 399,
      "ƴ": 400,
      "ǹ": 401,
      "ɓ": 402,
      "ɗ": 403,
      "ə": 404,
      "ˈ": 405,
      "ː": 406,
      "̀": 407,
      "́": 408,
      "̣": 409,
      "ί": 410,
      "α": 411,
      "ε": 412,
      "ι": 413,
      "κ": 414,
      "λ": 415,
      "μ": 416,
      "ν": 417,
      "ο": 418,
      "π": 419,
      "ρ": 420,
      "ς": 421,
      "σ": 422,
      "τ": 423,
      "υ": 424,
      "а": 425,
      "в": 426,
      "д": 427,
      "е": 428,
      "и": 429,
      "к": 430,
      "л": 431,
      "м": 432,
      "н": 433,
      "о": 434,
      "р": 435,
      "с": 436,
      "т": 437,
      "ו": 438,
      "י": 439,
      "أ": 440,
      "إ": 441,
      "ا": 442,
      "ب": 443,
      "ة": 444,
      "ت": 445,
      "ج": 446,
      "ح": 447,
      "د": 448,
      "ر": 449,
      "س": 450,
      "ش": 451,
      "ع": 452,
      "ف": 453,
      "ق": 454,
      "ك": 455,
      "ل": 456,
      "م": 457,
      "ن": 458,
      "ه": 459,
      "و": 460,
      "ى": 461,
      "ي": 462,
      "َ": 463,
      "ُ": 464,
      "ِ": 465,
      "ّ": 466,
      "ْ": 467,
      "अ": 468,
      "क": 469,
      "घ": 470,
      "च": 471,
      "ሀ": 472,
      "ሁ": 473,
      "ሂ": 474,
      "ሃ": 475,
      "ሄ": 476,
      "ህ": 477,
      "ሆ": 478,
      "ለ": 479,
      "ሉ": 480,
      "ሊ": 481,
      "ላ": 482,
      "ሌ": 483,
      "ል": 484,
      "ሎ": 485,
      "ሏ": 486,
      "ሐ": 487,
      "ሑ": 488,
      "ሒ": 489,
      "ሓ": 490,
      "ሔ": 491,
      "ሕ": 492,
      "መ": 493,
      "ሙ": 494,
      "ሚ": 495,
      "ማ": 496,
      "ሜ": 497,
      "ም": 498,
      "ሞ": 499,
      "ሟ": 500,
      "ሠ": 501,
      "ሡ": 502,
      "ሢ": 503,
      "ሣ": 504,
      "ሥ": 505,
      "ሦ": 506,
      "ረ": 507,
      "ሩ": 508,
      "ሪ": 509,
      "ራ": 510,
      "ሬ": 511,
      "ር": 512,
      "ሮ": 513,
      "ሯ": 514,
      "ሰ": 515,
      "ሱ": 516,
      "ሲ": 517,
      "ሳ": 518,
      "ሴ": 519,
      "ስ": 520,
      "ሶ": 521,
      "ሷ": 522,
      "ሸ": 523,
      "ሹ": 524,
      "ሺ": 525,
      "ሻ": 526,
      "ሼ": 527,
      "ሽ": 528,
      "ሾ": 529,
      "ቀ": 530,
      "ቁ": 531,
      "ቂ": 532,
      "ቃ": 533,
      "ቄ": 534,
      "ቅ": 535,
      "ቆ": 536,
      "ቋ": 537,
      "በ": 538,
      "ቡ": 539,
      "ቢ": 540,
      "ባ": 541,
      "ቤ": 542,
      "ብ": 543,
      "ቦ": 544,
      "ቧ": 545,
      "ቨ": 546,
      "ቪ": 547,
      "ቫ": 548,
      "ቬ": 549,
      "ቭ": 550,
      "ቮ": 551,
      "ተ": 552,
      "ቱ": 553,
      "ቲ": 554,
      "ታ": 555,
      "ቴ": 556,
      "ት": 557,
      "ቶ": 558,
      "ቷ": 559,
      "ቸ": 560,
      "ቹ": 561,
      "ቺ": 562,
      "ቻ": 563,
      "ቼ": 564,
      "ች": 565,
      "ቾ": 566,
      "ቿ": 567,
      "ኀ": 568,
      "ኃ": 569,
      "ኅ": 570,
      "ኋ": 571,
      "ነ": 572,
      "ኑ": 573,
      "ኒ": 574,
      "ና": 575,
      "ኔ": 576,
      "ን": 577,
      "ኖ": 578,
      "ኗ": 579,
      "ኘ": 580,
      "ኙ": 581,
      "ኚ": 582,
      "ኛ": 583,
      "ኝ": 584,
      "ኞ": 585,
      "አ": 586,
      "ኡ": 587,
      "ኢ": 588,
      "ኣ": 589,
      "ኤ": 590,
      "እ": 591,
      "ኦ": 592,
      "ከ": 593,
      "ኩ": 594,
      "ኪ": 595,
      "ካ": 596,
      "ኬ": 597,
      "ክ": 598,
      "ኮ": 599,
      "ኲ": 600,
      "ኳ": 601,
      "ኸ": 602,
      "ኹ": 603,
      "ኻ": 604,
      "ኽ": 605,
      "ኾ": 606,
      "ዅ": 607,
      "ወ": 608,
      "ዉ": 609,
      "ዊ": 610,
      "ዋ": 611,
      "ዌ": 612,
      "ው": 613,
      "ዎ": 614,
      "ዐ": 615,
      "ዑ": 616,
      "ዒ": 617,
      "ዓ": 618,
      "ዔ": 619,
      "ዕ": 620,
      "ዖ": 621,
      "ዘ": 622,
      "ዙ": 623,
      "ዚ": 624,
      "ዛ": 625,
      "ዜ": 626,
      "ዝ": 627,
      "ዞ": 628,
      "ዟ": 629,
      "ዠ": 630,
      "ዢ": 631,
      "ዣ": 632,
      "ዥ": 633,
      "ዦ": 634,
      "የ": 635,
      "ዩ": 636,
      "ዪ": 637,
      "ያ": 638,
      "ዬ": 639,
      "ይ": 640,
      "ዮ": 641,
      "ደ": 642,
      "ዱ": 643,
      "ዲ": 644,
      "ዳ": 645,
      "ዴ": 646,
      "ድ": 647,
      "ዶ": 648,
      "ዷ": 649,
      "ጀ": 650,
      "ጁ": 651,
      "ጂ": 652,
      "ጃ": 653,
      "ጄ": 654,
      "ጅ": 655,
      "ጆ": 656,
      "ገ": 657,
      "ጉ": 658,
      "ጊ": 659,
      "ጋ": 660,
      "ጌ": 661,
      "ግ": 662,
      "ጎ": 663,
      "ጐ": 664,
      "ጓ": 665,
      "ጝ": 666,
      "ጠ": 667,
      "ጡ": 668,
      "ጢ": 669,
      "ጣ": 670,
      "ጤ": 671,
      "ጥ": 672,
      "ጦ": 673,
      "ጧ": 674,
      "ጨ": 675,
      "ጩ": 676,
      "ጪ": 677,
      "ጫ": 678,
      "ጭ": 679,
      "ጮ": 680,
      "ጲ": 681,
      "ጳ": 682,
      "ጴ": 683,
      "ጵ": 684,
      "ጸ": 685,
      "ጹ": 686,
      "ጻ": 687,
      "ጼ": 688,
      "ጽ": 689,
      "ጾ": 690,
      "ፀ": 691,
      "ፁ": 692,
      "ፃ": 693,
      "ፄ": 694,
      "ፅ": 695,
      "ፈ": 696,
      "ፉ": 697,
      "ፊ": 698,
      "ፋ": 699,
      "ፌ": 700,
      "ፍ": 701,
      "ፎ": 702,
      "ፏ": 703,
      "ፐ": 704,
      "ፑ": 705,
      "ፒ": 706,
      "ፓ": 707,
      "ፔ": 708,
      "ፕ": 709,
      "ፖ": 710,
      "፡": 711,
      "።": 712,
      "፣": 713,
      "፤": 714,
      "፥": 715,
      "፦": 716,
      "፧": 717,
      "፩": 718,
      "፪": 719,
      "፫": 720,
      "፬": 721,
      "፭": 722,
      "፮": 723,
      "፯": 724,
      "፰": 725,
      "፱": 726,
      "፲": 727,
      "፳": 728,
      "፴": 729,
      "፵": 730,
      "፶": 731,
      "፷": 732,
      "፸": 733,
      "፹": 734,
      "፺": 735,
      "፻": 736,
      "ḥ": 737,
      "Ṣ": 738,
      "ṣ": 739,
      "Ẹ": 740,
      "ẹ": 741,
      "Ọ": 742,
      "ọ": 743,
      "​": 744,
      "‎": 745,
      "–": 746,
      "—": 747,
      "‘": 748,
      "’": 749,
      "“": 750,
      "”": 751,
      "†": 752,
      "•": 753,
      "…": 754,
      "‹": 755,
      "›": 756,
      "an": 757,
      "ar": 758,
      "in": 759,
      "wa": 760,
      "on": 761,
      "er": 762,
      "en": 763,
      "ka": 764,
      "ti": 765,
      "ya": 766,
      "da": 767,
      "ta": 768,
      "ma": 769,
      "es": 770,
      "li": 771,
      "un": 772,
      "la": 773,
      "is": 774,
      "he": 775,
      "or": 776,
      "le": 777,
      "ba": 778,
      "na": 779,
      "ku": 780,
      "ha": 781,
      "de": 782,
      "sa": 783,
      "ur": 784,
      "to": 785,
      "hi": 786,
      "si": 787,
      "re": 788,
      "ki": 789,
      "te": 790,
      "ni": 791,
      "al": 792,
      "19": 793,
      "di": 794,
      "ri": 795,
      "ga": 796,
      "ra": 797,
      "the": 798,
      "mi": 799,
      "of": 800,
      "us": 801,
      "ẹ̀": 802,
      "ci": 803,
      "bi": 804,
      "ce": 805,
      "ara": 806,
      "om": 807,
      "za": 808,
      "wọ": 809,
      "20": 810,
      "ẹ́": 811,
      "ana": 812,
      "gb": 813,
      "as": 814,
      "and": 815,
      "ent": 816,
      "fi": 817,
      "ke": 818,
      "ol": 819,
      "th": 820,
      "ani": 821,
      "tion": 822,
      "ní": 823,
      "ing": 824,
      "ro": 825,
      "ch": 826,
      "am": 827,
      "ne": 828,
      "ji": 829,
      "ko": 830,
      "el": 831,
      "qu": 832,
      "ari": 833,
      "ọ́": 834,
      "wọn": 835,
      "et": 836,
      "su": 837,
      "il": 838,
      "tu": 839,
      "me": 840,
      "du": 841,
      "se": 842,
      "Ma": 843,
      "mu": 844,
      "kin": 845,
      "pa": 846,
      "gi": 847,
      "lo": 848,
      "fa": 849,
      "po": 850,
      "እን": 851,
      "ali": 852,
      "tí": 853,
      "ọ̀": 854,
      "bu": 855,
      "ነው": 856,
      "eri": 857,
      "ina": 858,
      "au": 859,
      "zi": 860,
      "ún": 861,
      "kan": 862,
      "kar": 863,
      "sh": 864,
      "kwa": 865,
      "ou": 866,
      "tan": 867,
      "ye": 868,
      "mo": 869,
      "wan": 870,
      "are": 871,
      "ter": 872,
      "it": 873,
      "gu": 874,
      "ge": 875,
      "she": 876,
      "yan": 877,
      "pe": 878,
      "les": 879,
      "hu": 880,
      "ve": 881,
      "yar": 882,
      "ir": 883,
      "so": 884,
      "dan": 885,
      "je": 886,
      "shi": 887,
      "san": 888,
      "kuma": 889,
      "ja": 890,
      "ነው።": 891,
      "ini": 892,
      "go": 893,
      "vi": 894,
      "des": 895,
      "yo": 896,
      "st": 897,
      "18": 898,
      "be": 899,
      "kati": 900,
      "at": 901,
      "ran": 902,
      "con": 903,
      "yi": 904,
      "ment": 905,
      "200": 906,
      "rí": 907,
      "est": 908,
      "pi": 909,
      "የሚ": 910,
      "man": 911,
      "ቸው": 912,
      "for": 913,
      "201": 914,
      "bo": 915,
      "par": 916,
      "ré": 917,
      "የአ": 918,
      "do": 919,
      "lu": 920,
      "ል።": 921,
      "ine": 922,
      "ver": 923,
      "sí": 924,
      "ca": 925,
      "lá": 926,
      "fu": 927,
      "ts": 928,
      "ai": 929,
      "ሳሌ": 930,
      "que": 931,
      "lẹ̀": 932,
      "ምሳሌ": 933,
      "መን": 934,
      "we": 935,
      "toka": 936,
      "ly": 937,
      "bí": 938,
      "ban": 939,
      "mar": 940,
      "l'": 941,
      "Ba": 942,
      "ነበ": 943,
      "ori": 944,
      "àwọn": 945,
      "waka": 946,
      ").": 947,
      "har": 948,
      "wi": 949,
      "àn": 950,
      "ere": 951,
      "um": 952,
      "com": 953,
      "res": 954,
      "In": 955,
      "cha": 956,
      "The": 957,
      "war": 958,
      "dé": 959,
      "Wa": 960,
      "uni": 961,
      "00": 962,
      "kuwa": 963,
      "የተ": 964,
      "ad": 965,
      "yin": 966,
      "ru": 967,
      "An": 968,
      "ንድ": 969,
      "),": 970,
      "Na": 971,
      "una": 972,
      "tar": 973,
      "co": 974,
      "s,": 975,
      "ዎች": 976,
      "cikin": 977,
      "Àwọn": 978,
      "kara": 979,
      "chi": 980,
      "ati": 981,
      "እና": 982,
      "rin": 983,
      "cin": 984,
      "ላይ": 985,
      "Ki": 986,
      "mba": 987,
      "ed": 988,
      "ct": 989,
      "ነት": 990,
      "jẹ́": 991,
      "ul": 992,
      "daga": 993,
      "Ni": 994,
      "son": 995,
      "zo": 996,
      "d'": 997,
      "እንደ": 998,
      "Am": 999,
      "199": 1000,
      "àti": 1001,
      "aka": 1002,
      "ho": 1003,
      "gba": 1004,
      "won": 1005,
      "wo": 1006,
      "ማር": 1007,
      "katika": 1008,
      "pro": 1009,
      "rẹ̀": 1010,
      "lé": 1011,
      "ted": 1012,
      "tsa": 1013,
      "no": 1014,
      "Al": 1015,
      "ọd": 1016,
      "fe": 1017,
      "ber": 1018,
      "jeri": 1019,
      "ist": 1020,
      "oni": 1021,
      "jeriya": 1022,
      "mwaka": 1023,
      "ty": 1024,
      "gh": 1025,
      "ili": 1026,
      "une": 1027,
      "ab": 1028,
      "wọ́": 1029,
      "ለው": 1030,
      "jo": 1031,
      "ìn": 1032,
      "Af": 1033,
      "lú": 1034,
      "ris": 1035,
      "té": 1036,
      "shekar": 1037,
      "yu": 1038,
      "ùn": 1039,
      "ከተ": 1040,
      "ju": 1041,
      "mai": 1042,
      "ll": 1043,
      "s.": 1044,
      "ap": 1045,
      "op": 1046,
      "No": 1047,
      "don": 1048,
      "sar": 1049,
      "mp": 1050,
      "wen": 1051,
      "ያን": 1052,
      "ex": 1053,
      "isi": 1054,
      "ṣe": 1055,
      "Le": 1056,
      "zu": 1057,
      "ሆን": 1058,
      "gbà": 1059,
      "198": 1060,
      "dè": 1061,
      "La": 1062,
      "fin": 1063,
      "nan": 1064,
      "hai": 1065,
      "lan": 1066,
      "በአ": 1067,
      "kun": 1068,
      "Wali": 1069,
      "ọdún": 1070,
      "a.": 1071,
      "nin": 1072,
      "እስ": 1073,
      "kọ́": 1074,
      "tun": 1075,
      "far": 1076,
      "pu": 1077,
      "ada": 1078,
      "ces": 1079,
      "197": 1080,
      "was": 1081,
      "ዚህ": 1082,
      "shekara": 1083,
      "ትዮ": 1084,
      "ማርኛ": 1085,
      "በመ": 1086,
      "ወደ": 1087,
      "ረት": 1088,
      "olo": 1089,
      "gan": 1090,
      "196": 1091,
      "ኢትዮ": 1092,
      "ለት": 1093,
      "Sa": 1094,
      "በት": 1095,
      "od": 1096,
      "by": 1097,
      "ነበር": 1098,
      "ure": 1099,
      "han": 1100,
      "ነገ": 1101,
      "Ta": 1102,
      "mọ": 1103,
      "can": 1104,
      "ኢትዮጵ": 1105,
      "ló": 1106,
      "a,": 1107,
      "Afri": 1108,
      "shekarar": 1109,
      "wọ́n": 1110,
      "17": 1111,
      "ín": 1112,
      "tokasi": 1113,
      "tó": 1114,
      "tic": 1115,
      "sì": 1116,
      "ውስ": 1117,
      "orí": 1118,
      "ትር": 1119,
      "Najeriya": 1120,
      "Itokasi": 1121,
      "ኢትዮጵያ": 1122,
      "የአማርኛ": 1123,
      "ìj": 1124,
      "che": 1125,
      "liwa": 1126,
      "èdè": 1127,
      "ten": 1128,
      "sha": 1129,
      "shin": 1130,
      "wanda": 1131,
      "gun": 1132,
      "asa": 1133,
      "kutoka": 1134,
      "bar": 1135,
      "rom": 1136,
      "tes": 1137,
      "kọ": 1138,
      "bá": 1139,
      "ac": 1140,
      "16": 1141,
      "áà": 1142,
      "15": 1143,
      "per": 1144,
      "fun": 1145,
      "fan": 1146,
      "wana": 1147,
      "pé": 1148,
      "his": 1149,
      "sun": 1150,
      "አይ": 1151,
      "Mu": 1152,
      "ene": 1153,
      "ስት": 1154,
      "ther": 1155,
      "bel": 1156,
      "fún": 1157,
      "Ro": 1158,
      "qui": 1159,
      "yana": 1160,
      "kó": 1161,
      "Se": 1162,
      "der": 1163,
      "ኛው": 1164,
      "በተ": 1165,
      "kama": 1166,
      "with": 1167,
      "tra": 1168,
      "ግን": 1169,
      "gbo": 1170,
      "Pa": 1171,
      "ck": 1172,
      "gar": 1173,
      "lọ": 1174,
      "lin": 1175,
      "ቶች": 1176,
      "nín": 1177,
      "ውስጥ": 1178,
      "ሪያ": 1179,
      "ph": 1180,
      "uri": 1181,
      "min": 1182,
      "wali": 1183,
      "ስተ": 1184,
      "Ar": 1185,
      "10": 1186,
      "'s": 1187,
      "hat": 1188,
      "ction": 1189,
      "ወይ": 1190,
      "os": 1191,
      "din": 1192,
      "jọ́": 1193,
      "ire": 1194,
      "ጊዜ": 1195,
      "En": 1196,
      "Mar": 1197,
      "up": 1198,
      "jú": 1199,
      "tin": 1200,
      "ariki": 1201,
      "አን": 1202,
      "ይህ": 1203,
      "mon": 1204,
      "195": 1205,
      "፡፡": 1206,
      "matsa": 1207,
      "gra": 1208,
      "dans": 1209,
      "እንዲ": 1210,
      "Da": 1211,
      "náà": 1212,
      "mata": 1213,
      "የመ": 1214,
      "Ra": 1215,
      "ውን": 1216,
      "ren": 1217,
      "ክል": 1218,
      "ምን": 1219,
      "fo": 1220,
      "cal": 1221,
      "14": 1222,
      "ንጉ": 1223,
      "tare": 1224,
      "ርስ": 1225,
      "ita": 1226,
      "ṣẹ́": 1227,
      "zuwa": 1228,
      "De": 1229,
      "ስለ": 1230,
      "zar": 1231,
      "men": 1232,
      "ọmọ": 1233,
      "es,": 1234,
      "va": 1235,
      "ትርጉ": 1236,
      "ቀን": 1237,
      "usu": 1238,
      "Ka": 1239,
      "kuu": 1240,
      "nínú": 1241,
      "ሆነ": 1242,
      "መንግ": 1243,
      "Uni": 1244,
      "eré": 1245,
      "e,": 1246,
      "Ne": 1247,
      "sur": 1248,
      "ዘመ": 1249,
      "y,": 1250,
      "yí": 1251,
      "isha": 1252,
      "írí": 1253,
      "dá": 1254,
      "12": 1255,
      "Jo": 1256,
      "Mi": 1257,
      "ሪክ": 1258,
      "asar": 1259,
      "'a": 1260,
      "Nobel": 1261,
      "from": 1262,
      "Tan": 1263,
      "kò": 1264,
      "amba": 1265,
      "አገ": 1266,
      "Re": 1267,
      "zaliwa": 1268,
      "tà": 1269,
      "por": 1270,
      "lar": 1271,
      "né": 1272,
      "láti": 1273,
      "lia": 1274,
      "tre": 1275,
      "Tu": 1276,
      "that": 1277,
      "wasan": 1278,
      "matsayin": 1279,
      "mb": 1280,
      "ለም": 1281,
      "wani": 1282,
      "pọ̀": 1283,
      "194": 1284,
      "gbe": 1285,
      "ድር": 1286,
      "ሲሆን": 1287,
      "wenye": 1288,
      "Ku": 1289,
      "ዓ.": 1290,
      "II": 1291,
      "ant": 1292,
      "cor": 1293,
      "sion": 1294,
      "ሰው": 1295,
      "ወይም": 1296,
      "gbé": 1297,
      "ld": 1298,
      "wà": 1299,
      "jọ": 1300,
      "ትርጉሙ": 1301,
      "Li": 1302,
      "hin": 1303,
      "watan": 1304,
      "fir": 1305,
      "mé": 1306,
      "kà": 1307,
      "mọ̀": 1308,
      "13": 1309,
      "ux": 1310,
      "lla": 1311,
      "ነበር።": 1312,
      "ኋላ": 1313,
      "ṣù": 1314,
      "tions": 1315,
      "Vi": 1316,
      "ìí": 1317,
      "Mo": 1318,
      "Nà": 1319,
      "ሳይ": 1320,
      "ong": 1321,
      "yake": 1322,
      "nchi": 1323,
      "ከተማ": 1324,
      "ድረ": 1325,
      "pour": 1326,
      "ለመ": 1327,
      "ay": 1328,
      "íríà": 1329,
      "bli": 1330,
      "Nàìj": 1331,
      "nì": 1332,
      "bin": 1333,
      "ut": 1334,
      "ደረ": 1335,
      "ዓ.ም": 1336,
      "risto": 1337,
      "lus": 1338,
      "Nàìjíríà": 1339,
      "vo": 1340,
      "gẹ́": 1341,
      "wá": 1342,
      "kani": 1343,
      "le-": 1344,
      "suka": 1345,
      "Mare": 1346,
      "bir": 1347,
      "one": 1348,
      "ታት": 1349,
      "pen": 1350,
      "sance": 1351,
      "rè": 1352,
      "isa": 1353,
      "ins": 1354,
      "ence": 1355,
      "በኋላ": 1356,
      "yàn": 1357,
      "urs": 1358,
      "kana": 1359,
      "pia": 1360,
      "mma": 1361,
      "ers": 1362,
      "ibi": 1363,
      "duni": 1364,
      "ጀመ": 1365,
      "Ji": 1366,
      "Ch": 1367,
      "ry": 1368,
      "ዓመ": 1369,
      "asi": 1370,
      "ሪካ": 1371,
      "gaba": 1372,
      "cu": 1373,
      "cho": 1374,
      "pin": 1375,
      "dis": 1376,
      "Ja": 1377,
      "uli": 1378,
      "und": 1379,
      "land": 1380,
      "ያል": 1381,
      "እስከ": 1382,
      "má": 1383,
      "1,": 1384,
      "zama": 1385,
      "ዘመን": 1386,
      "pín": 1387,
      "ania": 1388,
      "..": 1389,
      "ọjọ́": 1390,
      "ረትና": 1391,
      "ደግ": 1392,
      "ṣè": 1393,
      "awon": 1394,
      "Me": 1395,
      "ilé": 1396,
      "eni": 1397,
      "ትን": 1398,
      "Nig": 1399,
      "orílẹ̀": 1400,
      "lọ́": 1401,
      "tional": 1402,
      "Walio": 1403,
      "Mana": 1404,
      "ìlú": 1405,
      "ለማ": 1406,
      "ተረትና": 1407,
      "193": 1408,
      "gha": 1409,
      "ክፍ": 1410,
      "ƙasar": 1411,
      "ሮች": 1412,
      "lati": 1413,
      "ser": 1414,
      "Waliozaliwa": 1415,
      "Si": 1416,
      "jin": 1417,
      "sta": 1418,
      "Ya": 1419,
      "tur": 1420,
      "gwa": 1421,
      "ሥት": 1422,
      "vel": 1423,
      "sé": 1424,
      "ust": 1425,
      "ble": 1426,
      "vya": 1427,
      "Kan": 1428,
      "-èdè": 1429,
      "አንድ": 1430,
      "ise": 1431,
      "sti": 1432,
      "gin": 1433,
      "ary": 1434,
      "t,": 1435,
      "ofariki": 1436,
      "af": 1437,
      "Bo": 1438,
      "Ameri": 1439,
      "ede": 1440,
      "Waliofariki": 1441,
      "ida": 1442,
      "ንግ": 1443,
      "ala": 1444,
      "Tuzo": 1445,
      "kasance": 1446,
      "lè": 1447,
      "ton": 1448,
      "pri": 1449,
      "rẹ": 1450,
      "ደር": 1451,
      "jẹ": 1452,
      "ishi": 1453,
      "mia": 1454,
      "ዓ.ም.": 1455,
      "ques": 1456,
      "zarta": 1457,
      "bwa": 1458,
      "cent": 1459,
      "ሉ።": 1460,
      "ère": 1461,
      "jihar": 1462,
      "jì": 1463,
      "Co": 1464,
      "Afrika": 1465,
      "loka": 1466,
      "id": 1467,
      "1.": 1468,
      "በር": 1469,
      "ele": 1470,
      "Manazarta": 1471,
      "Marekani": 1472,
      "000": 1473,
      "ms": 1474,
      "shu": 1475,
      "pre": 1476,
      "Ha": 1477,
      "መስ": 1478,
      "gaban": 1479,
      "gen": 1480,
      "ingi": 1481,
      "kí": 1482,
      "tana": 1483,
      "sy": 1484,
      "mes": 1485,
      "ነበረ": 1486,
      "án": 1487,
      "hii": 1488,
      "kon": 1489,
      "mili": 1490,
      "He": 1491,
      "ard": 1492,
      "nu": 1493,
      "መል": 1494,
      "ሆኑ": 1495,
      "bab": 1496,
      "Gu": 1497,
      "Par": 1498,
      "mber": 1499,
      "አብ": 1500,
      "Nigeri": 1501,
      "Ju": 1502,
      "já": 1503,
      "kasa": 1504,
      "fara": 1505,
      "olu": 1506,
      "tì": 1507,
      "ጋር": 1508,
      "awọn": 1509,
      "kubwa": 1510,
      "wé": 1511,
      "አል": 1512,
      "ọ́n": 1513,
      "whi": 1514,
      "So": 1515,
      "husu": 1516,
      "pas": 1517,
      "mas": 1518,
      "dí": 1519,
      "ven": 1520,
      "yen": 1521,
      "jer": 1522,
      "pínlẹ̀": 1523,
      "ናት": 1524,
      "tro": 1525,
      "vu": 1526,
      "Baada": 1527,
      "ese": 1528,
      "ya.": 1529,
      "ará": 1530,
      "ልጅ": 1531,
      "Fran": 1532,
      "iṣẹ́": 1533,
      "ile": 1534,
      "ችን": 1535,
      "ታወ": 1536,
      "plus": 1537,
      "ናቸው": 1538,
      "እንግ": 1539,
      "ron": 1540,
      "shindi": 1541,
      "wn": 1542,
      "ff": 1543,
      "ደግሞ": 1544,
      "lẹ́": 1545,
      "use": 1546,
      "Ní": 1547,
      "በማ": 1548,
      "ስም": 1549,
      "ደብ": 1550,
      "wor": 1551,
      "2,": 1552,
      "farko": 1553,
      "ziki": 1554,
      "Ali": 1555,
      "iya": 1556,
      "Kar": 1557,
      "Yor": 1558,
      "Papa": 1559,
      "gé": 1560,
      "ተረ": 1561,
      "hadi": 1562,
      "ny": 1563,
      "ብዙ": 1564,
      "nom": 1565,
      "mshindi": 1566,
      "የኢትዮጵያ": 1567,
      "llon": 1568,
      "tt": 1569,
      "ታሪክ": 1570,
      "ya,": 1571,
      "pré": 1572,
      "uru": 1573,
      "omo": 1574,
      "አባ": 1575,
      "ilẹ̀": 1576,
      "le,": 1577,
      "suna": 1578,
      "ክልበ": 1579,
      "ish": 1580,
      "tawa": 1581,
      "ድረስ": 1582,
      "wò": 1583,
      "Maka": 1584,
      "ዓክልበ": 1585,
      "አስ": 1586,
      "ation": 1587,
      "le.": 1588,
      "rùn": 1589,
      "መንግሥት": 1590,
      "kio": 1591,
      "oro": 1592,
      "Di": 1593,
      "pla": 1594,
      "Mas": 1595,
      "0,": 1596,
      "sai": 1597,
      "tal": 1598,
      "25": 1599,
      "ore": 1600,
      "ges": 1601,
      "gbá": 1602,
      "mbo": 1603,
      "ranar": 1604,
      "ors": 1605,
      "Ri": 1606,
      "rò": 1607,
      "Ita": 1608,
      "hari": 1609,
      "bayan": 1610,
      "mani": 1611,
      "cri": 1612,
      "ዓክልበ.": 1613,
      "versi": 1614,
      "(200": 1615,
      "Ab": 1616,
      "haife": 1617,
      "yìn": 1618,
      "gbè": 1619,
      "ብር": 1620,
      "mer": 1621,
      "New": 1622,
      "የሚገ": 1623,
      "ƙa": 1624,
      "Con": 1625,
      "yau": 1626,
      "ራት": 1627,
      "yìí": 1628,
      "ta,": 1629,
      "pan": 1630,
      "ses": 1631,
      "ome": 1632,
      "tún": 1633,
      "giyar": 1634,
      "Ti": 1635,
      "oló": 1636,
      "masu": 1637,
      "amo": 1638,
      "To": 1639,
      "Is": 1640,
      "vec": 1641,
      "hun": 1642,
      "lement": 1643,
      "ሎች": 1644,
      "ቤት": 1645,
      "ተኛ": 1646,
      "ze": 1647,
      "him": 1648,
      "tukio": 1649,
      "ura": 1650,
      "ርት": 1651,
      "ባለ": 1652,
      "ላል።": 1653,
      "ቋን": 1654,
      "kẹ": 1655,
      "Com": 1656,
      "lokacin": 1657,
      "kasar": 1658,
      "Bi": 1659,
      "Au": 1660,
      "biyu": 1661,
      "Tanz": 1662,
      "orílẹ̀-èdè": 1663,
      "tọ́": 1664,
      "እግ": 1665,
      "dar": 1666,
      "aux": 1667,
      "መር": 1668,
      "dia": 1669,
      "ነገር": 1670,
      "2.": 1671,
      "kwai": 1672,
      "hali": 1673,
      "ɗan": 1674,
      "chini": 1675,
      "Lu": 1676,
      "ንጉሥ": 1677,
      "o,": 1678,
      "ungu": 1679,
      "አለ": 1680,
      "kọ̀": 1681,
      "ትም": 1682,
      "ast": 1683,
      "wó": 1684,
      "23": 1685,
      "ዋና": 1686,
      "eneo": 1687,
      "Ke": 1688,
      "Su": 1689,
      "kum": 1690,
      "shen": 1691,
      "Po": 1692,
      "ርያ": 1693,
      "\".": 1694,
      "ang": 1695,
      "ቤተ": 1696,
      "ቋንቋ": 1697,
      "ward": 1698,
      "Matukio": 1699,
      "Il": 1700,
      "Kwa": 1701,
      "fal": 1702,
      "which": 1703,
      "karan": 1704,
      "tta": 1705,
      "ይገ": 1706,
      "bẹ̀": 1707,
      "ory": 1708,
      "col": 1709,
      "istori": 1710,
      "avec": 1711,
      "ያልተ": 1712,
      "ዚያ": 1713,
      "ንም": 1714,
      "ራዊ": 1715,
      "Jam": 1716,
      "yawan": 1717,
      "inda": 1718,
      "mun": 1719,
      "nes": 1720,
      "kini": 1721,
      "gy": 1722,
      "Ho": 1723,
      "ማለት": 1724,
      "mji": 1725,
      "tane": 1726,
      "birnin": 1727,
      "4,": 1728,
      "alikuwa": 1729,
      "እንግሊ": 1730,
      "ée": 1731,
      "phi": 1732,
      "ste": 1733,
      "nìyàn": 1734,
      "mbali": 1735,
      "anu": 1736,
      "mna": 1737,
      "oṣù": 1738,
      "uku": 1739,
      "ላት": 1740,
      "wa,": 1741,
      "11": 1742,
      "sont": 1743,
      "ተረጎ": 1744,
      "6,": 1745,
      "Har": 1746,
      "189": 1747,
      "Les": 1748,
      "0.": 1749,
      "ሁሉ": 1750,
      "orin": 1751,
      "kú": 1752,
      "As": 1753,
      "5,": 1754,
      "yè": 1755,
      "ẹ̀kọ́": 1756,
      "ጥር": 1757,
      "ዳን": 1758,
      "ght": 1759,
      "አካ": 1760,
      "ክርስ": 1761,
      "le-ede": 1762,
      "7,": 1763,
      "ዘመነ": 1764,
      "ona": 1765,
      "tai": 1766,
      "190": 1767,
      "ans": 1768,
      "cer": 1769,
      "ባቢ": 1770,
      "hara": 1771,
      "ongo": 1772,
      "publi": 1773,
      "Lo": 1774,
      "thi": 1775,
      "ƙwa": 1776,
      "yya": 1777,
      "dì": 1778,
      "pẹ̀": 1779,
      "lle": 1780,
      "፲፱": 1781,
      "zai": 1782,
      "lugha": 1783,
      "ereza": 1784,
      "ansa": 1785,
      "ɗa": 1786,
      "wu": 1787,
      "ግብ": 1788,
      "es.": 1789,
      "mwana": 1790,
      "ጥን": 1791,
      "moja": 1792,
      "የማ": 1793,
      "ingereza": 1794,
      "hn": 1795,
      "የም": 1796,
      "tive": 1797,
      "its": 1798,
      "d,": 1799,
      "6.": 1800,
      "ድን": 1801,
      "kwenye": 1802,
      "ባል": 1803,
      "Fi": 1804,
      "ገር": 1805,
      "vyo": 1806,
      "ok": 1807,
      "--": 1808,
      "enti": 1809,
      "Sta": 1810,
      "የሚያ": 1811,
      "ènìyàn": 1812,
      "kali": 1813,
      "Fe": 1814,
      "ríkà": 1815,
      "ቱን": 1816,
      "inter": 1817,
      "ding": 1818,
      "Nijeriya": 1819,
      "4.": 1820,
      "ንያ": 1821,
      "ውያን": 1822,
      "yẹ": 1823,
      "mí": 1824,
      "ninu": 1825,
      "cul": 1826,
      "Universi": 1827,
      "uti": 1828,
      "3,": 1829,
      "ንስ": 1830,
      "dha": 1831,
      "Kristo": 1832,
      "አም": 1833,
      "ata": 1834,
      "ተረጎመ": 1835,
      "tò": 1836,
      "Do": 1837,
      "car": 1838,
      "ከል": 1839,
      "int": 1840,
      "ens": 1841,
      "ce,": 1842,
      "gine": 1843,
      "jen": 1844,
      "dà": 1845,
      "pres": 1846,
      "እንግሊዝ": 1847,
      "፲፱፻": 1848,
      "ሞች": 1849,
      "langu": 1850,
      "Makala": 1851,
      "watu": 1852,
      "er,": 1853,
      "tique": 1854,
      "ያልተተረጎመ": 1855,
      "21": 1856,
      "t.": 1857,
      "ìgbà": 1858,
      "kai": 1859,
      "aiki": 1860,
      "were": 1861,
      "ys": 1862,
      "ig": 1863,
      "yé": 1864,
      "tri": 1865,
      "bre": 1866,
      "kafa": 1867,
      "7.": 1868,
      "las": 1869,
      "laya": 1870,
      "e.": 1871,
      "28": 1872,
      "አመ": 1873,
      "Jihar": 1874,
      "lai": 1875,
      "mis": 1876,
      "Ge": 1877,
      "ké": 1878,
      "inahusu": 1879,
      "uran": 1880,
      "cewa": 1881,
      "ዛት": 1882,
      "ላል": 1883,
      "yà": 1884,
      "Go": 1885,
      "mul": 1886,
      "University": 1887,
      "Far": 1888,
      "5.": 1889,
      "ቸውን": 1890,
      "ded": 1891,
      "dom": 1892,
      "alá": 1893,
      "waki": 1894,
      "mọ́": 1895,
      "orile-ede": 1896,
      "firka": 1897,
      "Col": 1898,
      "pte": 1899,
      "ture": 1900,
      "3.": 1901,
      "ken": 1902,
      "Afirka": 1903,
      "wọ̀": 1904,
      "soci": 1905,
      "wata": 1906,
      "Ad": 1907,
      "ዋል።": 1908,
      "/ም": 1909,
      "አስተ": 1910,
      "hemu": 1911,
      "maka": 1912,
      "29": 1913,
      "ምሮ": 1914,
      "ob": 1915,
      "out": 1916,
      "wake": 1917,
      "John": 1918,
      "ree": 1919,
      "ዓ/ም": 1920,
      "Kristo).": 1921,
      "Ben": 1922,
      "በሚ": 1923,
      "ma,": 1924,
      "(Baada": 1925,
      "mw": 1926,
      "visi": 1927,
      "òṣè": 1928,
      "Tanzania": 1929,
      "Be": 1930,
      "በዚህ": 1931,
      "ፈረ": 1932,
      "ne,": 1933,
      "bara": 1934,
      "kwan": 1935,
      "30": 1936,
      "Du": 1937,
      "bà": 1938,
      "ነበሩ": 1939,
      "pel": 1940,
      "mpi": 1941,
      "እንዳ": 1942,
      "ora": 1943,
      "Man": 1944,
      "ታዊ": 1945,
      "ord": 1946,
      "wa.": 1947,
      "low": 1948,
      "Ìpínlẹ̀": 1949,
      "እር": 1950,
      "had": 1951,
      "vent": 1952,
      "arin": 1953,
      "22": 1954,
      "ወረ": 1955,
      "cre": 1956,
      "umani": 1957,
      "ƙwallon": 1958,
      "qu'": 1959,
      "led": 1960,
      "my": 1961,
      "pà": 1962,
      "ወን": 1963,
      "ሜሪካ": 1964,
      "ake": 1965,
      "ṣà": 1966,
      "cy": 1967,
      "Ko": 1968,
      "l’": 1969,
      "ጠር": 1970,
      "parti": 1971,
      "ጦር": 1972,
      "val": 1973,
      "sini": 1974,
      "ìbí": 1975,
      "amma": 1976,
      "med": 1977,
      "ves": 1978,
      "ger": 1979,
      "ame": 1980,
      "24": 1981,
      "gro": 1982,
      "uro": 1983,
      "lamu": 1984,
      "dake": 1985,
      "hili": 1986,
      "jama": 1987,
      "kì": 1988,
      "tant": 1989,
      "Kati": 1990,
      "መለ": 1991,
      "ድም": 1992,
      "jerumani": 1993,
      "amoja": 1994,
      "(an": 1995,
      "ሰዎች": 1996,
      "den": 1997,
      "ሌላ": 1998,
      "'ar": 1999,
      "but": 2000,
      "pè": 2001,
      "là": 2002,
      "poli": 2003,
      ".አ": 2004,
      "mutu": 2005,
      "mita": 2006,
      "ons": 2007,
      "katifu": 2008,
      "Bri": 2009,
      "ምና": 2010,
      "lli": 2011,
      "ity": 2012,
      "Ok": 2013,
      "ቅር": 2014,
      "ṣẹ": 2015,
      "ዝብ": 2016,
      "ria": 2017,
      "sel": 2018,
      "ta.": 2019,
      "babban": 2020,
      "ዲስ": 2021,
      "wannan": 2022,
      "cation": 2023,
      "rans": 2024,
      "Nai": 2025,
      "anzi": 2026,
      "all": 2027,
      "falme": 2028,
      "Bu": 2029,
      "Hi": 2030,
      "o.": 2031,
      "1-": 2032,
      "Pro": 2033,
      "Th": 2034,
      "siku": 2035,
      "tọ́ka": 2036,
      "ሉት": 2037,
      "ከፍ": 2038,
      "also": 2039,
      "gẹ́gẹ́": 2040,
      "ting": 2041,
      "BK": 2042,
      "gbẹ́": 2043,
      "ologi": 2044,
      "ሥራ": 2045,
      "Ọ̀": 2046,
      "hana": 2047,
      "ussi": 2048,
      "fí": 2049,
      "ràn": 2050,
      "vil": 2051,
      "jù": 2052,
      "yyar": 2053,
      "ያለ": 2054,
      "lórí": 2055,
      "5)": 2056,
      "chan": 2057,
      "mara": 2058,
      "ሰብ": 2059,
      "ጨረ": 2060,
      "is,": 2061,
      "hen": 2062,
      "samu": 2063,
      "እነ": 2064,
      "ka.": 2065,
      "kari": 2066,
      "Karne": 2067,
      "ሆኖ": 2068,
      "fer": 2069,
      "ስራ": 2070,
      "jà": 2071,
      "Jami": 2072,
      "jina": 2073,
      "lam": 2074,
      "መደብ": 2075,
      "(201": 2076,
      "gún": 2077,
      "pẹ̀lú": 2078,
      "27": 2079,
      "War": 2080,
      "Chi": 2081,
      "mẹ́": 2082,
      "ka,": 2083,
      "Wil": 2084,
      "Asi": 2085,
      "national": 2086,
      "comme": 2087,
      "yankin": 2088,
      "sana": 2089,
      "maji": 2090,
      "bili": 2091,
      "Pi": 2092,
      "ጀመሪያ": 2093,
      "lex": 2094,
      "sọ": 2095,
      "sehemu": 2096,
      "ally": 2097,
      "not": 2098,
      "d.": 2099,
      "ተው": 2100,
      "zina": 2101,
      "comp": 2102,
      "ዓመት": 2103,
      "rès": 2104,
      "mú": 2105,
      "kamar": 2106,
      "bila": 2107,
      "ብሎ": 2108,
      "Wi": 2109,
      "ká": 2110,
      "6)": 2111,
      "dda": 2112,
      "fon": 2113,
      "ፊት": 2114,
      "Abu": 2115,
      "anci": 2116,
      "pamoja": 2117,
      "ረው": 2118,
      "2019": 2119,
      "Ingi": 2120,
      "other": 2121,
      "era": 2122,
      "ምክ": 2123,
      "fani": 2124,
      "cou": 2125,
      "ዓም": 2126,
      "met": 2127,
      "tari": 2128,
      "sou": 2129,
      "ጠቀ": 2130,
      "mkuu": 2131,
      "ይወ": 2132,
      "ማሪ": 2133,
      "lakini": 2134,
      "nje": 2135,
      "rọ̀": 2136,
      "ƙafa": 2137,
      "ved": 2138,
      "ቅዱ": 2139,
      "gir": 2140,
      "bia": 2141,
      "8,": 2142,
      "ች።": 2143,
      "ọba": 2144,
      "Amẹ́": 2145,
      "Ana": 2146,
      "Janu": 2147,
      "Te": 2148,
      "bun": 2149,
      "Inter": 2150,
      "miaka": 2151,
      "Amẹ́ríkà": 2152,
      "መካ": 2153,
      "Pe": 2154,
      "ments": 2155,
      "cra": 2156,
      "Ca": 2157,
      "anan": 2158,
      "\",": 2159,
      "kuna": 2160,
      "ላቸው": 2161,
      "m,": 2162,
      "daya": 2163,
      "eshi": 2164,
      "ያስ": 2165,
      "saba": 2166,
      "On": 2167,
      "9,": 2168,
      "Ken": 2169,
      "ወር": 2170,
      "has": 2171,
      "teur": 2172,
      "usul": 2173,
      "clu": 2174,
      "on,": 2175,
      "4)": 2176,
      "Kam": 2177,
      "elle": 2178,
      "Shu": 2179,
      "mwa": 2180,
      "shugaban": 2181,
      "Ga": 2182,
      "2018": 2183,
      "wasu": 2184,
      "ዝር": 2185,
      "first": 2186,
      "ቦች": 2187,
      "lation": 2188,
      "zili": 2189,
      "She": 2190,
      "omi": 2191,
      "7)": 2192,
      "አበ": 2193,
      "3)": 2194,
      "(A": 2195,
      "26": 2196,
      "ፈር": 2197,
      "ous": 2198,
      "ilu": 2199,
      "Je": 2200,
      "chool": 2201,
      "te,": 2202,
      "lù": 2203,
      "ከዚህ": 2204,
      "indi": 2205,
      "bon": 2206,
      "bru": 2207,
      "len": 2208,
      "èyí": 2209,
      "máa": 2210,
      "òṣèré": 2211,
      "1)": 2212,
      "tara": 2213,
      "tàbí": 2214,
      "ilé-": 2215,
      "የሚገኝ": 2216,
      "Mwaka": 2217,
      "age": 2218,
      "ne.": 2219,
      "ባህ": 2220,
      "Ingila": 2221,
      "Was": 2222,
      "ምር": 2223,
      "188": 2224,
      "oní": 2225,
      "9.": 2226,
      "été": 2227,
      "tawala": 2228,
      "ተቀ": 2229,
      "bẹ̀rẹ̀": 2230,
      "ብቻ": 2231,
      "mì": 2232,
      "ወለ": 2233,
      "ክርስቲ": 2234,
      "van": 2235,
      "kea": 2236,
      "sin": 2237,
      "istan": 2238,
      "ds": 2239,
      "ሁለ": 2240,
      "ደቡ": 2241,
      "Nor": 2242,
      "jali": 2243,
      "ም።": 2244,
      "mutane": 2245,
      "ተር": 2246,
      "istoria": 2247,
      "ኤል": 2248,
      "bur": 2249,
      "Mata": 2250,
      "sig": 2251,
      "Or": 2252,
      "8.": 2253,
      "ling": 2254,
      "ua": 2255,
      "ባት": 2256,
      "tain": 2257,
      "baada": 2258,
      "'i": 2259,
      "hasa": 2260,
      "fici": 2261,
      "tọ́kasí": 2262,
      "tte": 2263,
      "gbogbo": 2264,
      "Bar": 2265,
      "ogra": 2266,
      "ሥር": 2267,
      "fẹ́": 2268,
      "Cha": 2269,
      "ww": 2270,
      "ሁም": 2271,
      "kwanza": 2272,
      "rand": 2273,
      "ክት": 2274,
      "andishi": 2275,
      "Yan": 2276,
      "ሁን": 2277,
      "አር": 2278,
      "garin": 2279,
      "Nigeria": 2280,
      "ቢያ": 2281,
      "ዘንድ": 2282,
      "Septe": 2283,
      "ላንድ": 2284,
      "bẹ́": 2285,
      "dele": 2286,
      "በብ": 2287,
      "Ala": 2288,
      "zini": 2289,
      "kawa": 2290,
      "ohun": 2291,
      "Jap": 2292,
      "ማን": 2293,
      "fina": 2294,
      "duk": 2295,
      "አገር": 2296,
      "በኢትዮጵያ": 2297,
      "BC": 2298,
      ".ኤ": 2299,
      "ọ̀n": 2300,
      "entre": 2301,
      "ral": 2302,
      "ገድ": 2303,
      "y.": 2304,
      "2)": 2305,
      "ኖች": 2306,
      "wakazi": 2307,
      "Hau": 2308,
      "imp": 2309,
      "San": 2310,
      "ታቸው": 2311,
      "mag": 2312,
      "liki": 2313,
      "At": 2314,
      "እንግሊዝኛ": 2315,
      "dún": 2316,
      "oc": 2317,
      "50": 2318,
      "produ": 2319,
      "ba,": 2320,
      "aikin": 2321,
      "Duni": 2322,
      "premi": 2323,
      "stru": 2324,
      "ሁለት": 2325,
      "Ib": 2326,
      "mù": 2327,
      "Ru": 2328,
      "ገን": 2329,
      "have": 2330,
      "ተመ": 2331,
      "Muha": 2332,
      "fil": 2333,
      "ef": 2334,
      "ወቅ": 2335,
      "ጀምሮ": 2336,
      "olù": 2337,
      "kàn": 2338,
      "'yan": 2339,
      "King": 2340,
      "dogo": 2341,
      "és": 2342,
      "ell": 2343,
      "ak": 2344,
      "karantar": 2345,
      "ayé": 2346,
      "dai": 2347,
      "አው": 2348,
      "vie": 2349,
      "ofin": 2350,
      "sá": 2351,
      "For": 2352,
      "የር": 2353,
      "ቅም": 2354,
      "kazini": 2355,
      "ቃል": 2356,
      "ቆጣ": 2357,
      ".አ.": 2358,
      "እ.ኤ": 2359,
      "dio": 2360,
      "éri": 2361,
      "pò": 2362,
      "chu": 2363,
      "Kas": 2364,
      "dara": 2365,
      "temp": 2366,
      "wengi": 2367,
      "ቅዱስ": 2368,
      "mafi": 2369,
      "red": 2370,
      "bai": 2371,
      "Qu": 2372,
      "dú": 2373,
      "s'": 2374,
      "jan": 2375,
      "yoyin": 2376,
      "ungo": 2377,
      "Dan": 2378,
      "መሰ": 2379,
      "tho": 2380,
      "የት": 2381,
      "shine": 2382,
      "jami": 2383,
      "fuata": 2384,
      "ናቸው።": 2385,
      "ìwé": 2386,
      "Car": 2387,
      "ለያ": 2388,
      "ሔር": 2389,
      "kam": 2390,
      "faransa": 2391,
      "Febru": 2392,
      "lili": 2393,
      "gli": 2394,
      "ojo": 2395,
      "Shi": 2396,
      "huri": 2397,
      "nígbà": 2398,
      "Ap": 2399,
      "ትና": 2400,
      "Nove": 2401,
      "run": 2402,
      "yasa": 2403,
      "emp": 2404,
      "ag": 2405,
      "takatifu": 2406,
      "Hu": 2407,
      "sen": 2408,
      "cen": 2409,
      "zaidi": 2410,
      "Ghana": 2411,
      "Africa": 2412,
      "ear": 2413,
      "tàn": 2414,
      "lẹ": 2415,
      "ተከ": 2416,
      "pr": 2417,
      "ንዳ": 2418,
      "ዋል": 2419,
      "ጽሐ": 2420,
      "sau": 2421,
      "ትምህ": 2422,
      "dur": 2423,
      "sed": 2424,
      "Award": 2425,
      "Ban": 2426,
      "tam": 2427,
      "በረ": 2428,
      "this": 2429,
      "bor": 2430,
      "ያለው": 2431,
      "Bir": 2432,
      "esi": 2433,
      "Ada": 2434,
      "stitu": 2435,
      "RD": 2436,
      "dau": 2437,
      "rou": 2438,
      "km": 2439,
      "ƙar": 2440,
      "ይል": 2441,
      "aribi": 2442,
      "nchini": 2443,
      "ƙasa": 2444,
      "ገብ": 2445,
      "hada": 2446,
      "zaji": 2447,
      "ont": 2448,
      "Sou": 2449,
      "dre": 2450,
      "ግራ": 2451,
      "ልጣ": 2452,
      "ቁጥር": 2453,
      "seri": 2454,
      "ገኘ": 2455,
      "non": 2456,
      "Wor": 2457,
      "Yo": 2458,
      "in,": 2459,
      "Fo": 2460,
      "kanin": 2461,
      "ሌሎች": 2462,
      "በላይ": 2463,
      "እንዲሁም": 2464,
      "isho": 2465,
      "ọdun": 2466,
      "kungiyar": 2467,
      "who": 2468,
      "àrùn": 2469,
      "phy": 2470,
      "jini": 2471,
      "ጀር": 2472,
      "pata": 2473,
      "tani": 2474,
      "ስን": 2475,
      "wí": 2476,
      "riki": 2477,
      "ደቡብ": 2478,
      "Sha": 2479,
      "Wan": 2480,
      "Wọ́n": 2481,
      "forma": 2482,
      "spe": 2483,
      "ዓለም": 2484,
      "rubu": 2485,
      "zan": 2486,
      "Okto": 2487,
      "gbò": 2488,
      "odun": 2489,
      "her": 2490,
      "amfani": 2491,
      "koa": 2492,
      "k.": 2493,
      "ወጣ": 2494,
      "Viungo": 2495,
      "Apri": 2496,
      "us,": 2497,
      "gion": 2498,
      "ንን": 2499,
      "ano": 2500,
      "United": 2501,
      "His": 2502,
      "cas": 2503,
      "d’": 2504,
      "unci": 2505,
      "Gi": 2506,
      "ማዊ": 2507,
      "Muhamma": 2508,
      "king": 2509,
      "shiga": 2510,
      "Ber": 2511,
      "fran": 2512,
      "መረ": 2513,
      "በቀ": 2514,
      "መጠ": 2515,
      "ባይ": 2516,
      "used": 2517,
      "ታል።": 2518,
      "ill": 2519,
      "rì": 2520,
      "ving": 2521,
      "esa": 2522,
      "trans": 2523,
      "take": 2524,
      "School": 2525,
      "mais": 2526,
      "gasar": 2527,
      "velop": 2528,
      "ከአ": 2529,
      "kọ́kọ́": 2530,
      "i,": 2531,
      "ለይ": 2532,
      "//": 2533,
      "Are": 2534,
      "ስታ": 2535,
      "ናዊ": 2536,
      "Naiji": 2537,
      "cce": 2538,
      "sannan": 2539,
      "tr": 2540,
      "ner": 2541,
      "ùbá": 2542,
      "ሜን": 2543,
      "their": 2544,
      "Bab": 2545,
      "Tur": 2546,
      "bíi": 2547,
      "puis": 2548,
      "የው": 2549,
      "dy": 2550,
      "pá": 2551,
      "ሲያ": 2552,
      "mor": 2553,
      "aki": 2554,
      "ìnrin": 2555,
      "በሰ": 2556,
      "kasu": 2557,
      "American": 2558,
      "jalisar": 2559,
      "ሳት": 2560,
      "Bur": 2561,
      "ró": 2562,
      "ቦታ": 2563,
      "Un": 2564,
      "ገና": 2565,
      "tarehe": 2566,
      "joba": 2567,
      "ጣል": 2568,
      "rayu": 2569,
      "100": 2570,
      "sent": 2571,
      "ባለው": 2572,
      "ben": 2573,
      "fim": 2574,
      "ọjọ́ìbí": 2575,
      "kùn": 2576,
      "duniya": 2577,
      "ande": 2578,
      "2020": 2579,
      "tokana": 2580,
      "sílẹ̀": 2581,
      "dín": 2582,
      "tation": 2583,
      "deux": 2584,
      "huku": 2585,
      "Yorùbá": 2586,
      "ፈረን": 2587,
      "al-": 2588,
      "posi": 2589,
      "xi": 2590,
      "leur": 2591,
      "part": 2592,
      "0)": 2593,
      "IS": 2594,
      "Ara": 2595,
      "te.": 2596,
      "Aug": 2597,
      "Bra": 2598,
      "kè": 2599,
      "main": 2600,
      "year": 2601,
      "በስ": 2602,
      "ብራ": 2603,
      "wakati": 2604,
      "lima": 2605,
      "186": 2606,
      "(C": 2607,
      "9)": 2608,
      "liam": 2609,
      "ዘር": 2610,
      "juu": 2611,
      "Min": 2612,
      "Kus": 2613,
      "baya": 2614,
      "L'": 2615,
      "hy": 2616,
      "187": 2617,
      "Geor": 2618,
      "ttp": 2619,
      "hiyo": 2620,
      "jam": 2621,
      "endele": 2622,
      "http": 2623,
      "ሚያ": 2624,
      "ከዚያ": 2625,
      "l'é": 2626,
      "pinle": 2627,
      "sara": 2628,
      "ge,": 2629,
      "bert": 2630,
      "cé": 2631,
      "Amur": 2632,
      "yali": 2633,
      "ሥታት": 2634,
      "መካከል": 2635,
      "ዎቹ": 2636,
      "sis": 2637,
      "anti": 2638,
      "ungiyar": 2639,
      "gue": 2640,
      "ced": 2641,
      "Mis": 2642,
      "ጠራ": 2643,
      "://": 2644,
      "cs": 2645,
      "ይታ": 2646,
      "bay": 2647,
      "እ.ኤ.አ.": 2648,
      "Ujerumani": 2649,
      "shir": 2650,
      "inclu": 2651,
      "gwamna": 2652,
      "Por": 2653,
      "ìmọ̀": 2654,
      "sa,": 2655,
      "cro": 2656,
      "wadan": 2657,
      "ba.": 2658,
      "úkọ": 2659,
      "ታላ": 2660,
      "buga": 2661,
      "ጨረሻ": 2662,
      "Kis": 2663,
      "Uingereza": 2664,
      "kristo": 2665,
      "nípa": 2666,
      "itwa": 2667,
      "Mari": 2668,
      "dent": 2669,
      "rent": 2670,
      "ከመ": 2671,
      "ከነ": 2672,
      "lie": 2673,
      "kno": 2674,
      "ሰራ": 2675,
      "shekaru": 2676,
      "pon": 2677,
      "time": 2678,
      "ce.": 2679,
      "iliyo": 2680,
      "jama'a": 2681,
      "ሴት": 2682,
      "በዘመነ": 2683,
      "Gre": 2684,
      "Euro": 2685,
      "kira": 2686,
      "daban": 2687,
      "mawa": 2688,
      "ẹ́r": 2689,
      "eno": 2690,
      "Per": 2691,
      "ople": 2692,
      "da,": 2693,
      "ሃይ": 2694,
      "8)": 2695,
      "jia": 2696,
      "jáde": 2697,
      "Najeriya.": 2698,
      "tres": 2699,
      "It": 2700,
      "gal": 2701,
      "ham": 2702,
      "lò": 2703,
      "nd": 2704,
      "ach": 2705,
      "kẹ́": 2706,
      "pẹ": 2707,
      "ìdì": 2708,
      "ça": 2709,
      "dro": 2710,
      "pọ": 2711,
      "jir": 2712,
      "boda": 2713,
      "uwa": 2714,
      "ሥነ": 2715,
      "ኖር": 2716,
      "maso": 2717,
      "lí": 2718,
      "eral": 2719,
      "kejì": 2720,
      "yanzu": 2721,
      "karatun": 2722,
      "ctor": 2723,
      "የቀ": 2724,
      "hanyar": 2725,
      "Nàìjíríà.": 2726,
      "para": 2727,
      "taka": 2728,
      "Fa": 2729,
      "zaman": 2730,
      "ires": 2731,
      "Lago": 2732,
      "core": 2733,
      "prin": 2734,
      "lori": 2735,
      "sami": 2736,
      "vita": 2737,
      "bet": 2738,
      "c.": 2739,
      "zwa": 2740,
      "akan": 2741,
      "u,": 2742,
      "Indi": 2743,
      "ks": 2744,
      "sama": 2745,
      "ètò": 2746,
      "ሰማ": 2747,
      "sa.": 2748,
      "(199": 2749,
      "ilikuwa": 2750,
      "dini": 2751,
      "kol": 2752,
      "cour": 2753,
      "m.": 2754,
      "rá": 2755,
      "ስና": 2756,
      "ትል": 2757,
      "upande": 2758,
      "Kusini": 2759,
      "እግዚ": 2760,
      "diff": 2761,
      "40": 2762,
      "tis": 2763,
      "Katika": 2764,
      "vers": 2765,
      "gre": 2766,
      "abin": 2767,
      "Hai": 2768,
      "gari": 2769,
      "dhi": 2770,
      "ክፍለ": 2771,
      "fà": 2772,
      "tement": 2773,
      "port": 2774,
      "S.": 2775,
      "cep": 2776,
      "ìdí": 2777,
      "ẹgbẹ́": 2778,
      "la,": 2779,
      "2-": 2780,
      "usi": 2781,
      "yawa": 2782,
      "Bayan": 2783,
      "ìjọba": 2784,
      "walio": 2785,
      "ምክንያ": 2786,
      "kazi": 2787,
      "Jami'ar": 2788,
      "pli": 2789,
      "éta": 2790,
      "ደን": 2791,
      "than": 2792,
      "num": 2793,
      "gbọ́n": 2794,
      "ቆጣጠር": 2795,
      "some": 2796,
      "yun": 2797,
      "wato": 2798,
      "dire": 2799,
      "ishwa": 2800,
      "African": 2801,
      "ግዛት": 2802,
      "most": 2803,
      "ስብ": 2804,
      "ታይ": 2805,
      "lah": 2806,
      "d'un": 2807,
      "hon": 2808,
      "Ger": 2809,
      "ፍራ": 2810,
      "nyingi": 2811,
      "Oro": 2812,
      "huru": 2813,
      "fami": 2814,
      "Char": 2815,
      "ምዕ": 2816,
      "ይና": 2817,
      "ያው": 2818,
      "እግዚአብ": 2819,
      "bri": 2820,
      "baki": 2821,
      "karne": 2822,
      "fé": 2823,
      "ምድር": 2824,
      "aro": 2825,
      "pos": 2826,
      "ራሱ": 2827,
      "cur": 2828,
      "አት": 2829,
      "እጅ": 2830,
      "ደት": 2831,
      "World": 2832,
      "Oktoba": 2833,
      "been": 2834,
      "ወሰ": 2835,
      "ይባ": 2836,
      "አካባቢ": 2837,
      "game": 2838,
      "nor": 2839,
      "ot": 2840,
      "ጆች": 2841,
      "wacce": 2842,
      "Europe": 2843,
      "ስር": 2844,
      "ሽን": 2845,
      "kafin": 2846,
      "tsakanin": 2847,
      "ከፍተኛ": 2848,
      "Bel": 2849,
      "n.": 2850,
      "ኞች": 2851,
      "dun": 2852,
      "sub": 2853,
      "sunan": 2854,
      "sàn": 2855,
      "Alex": 2856,
      "ሆነው": 2857,
      "de,": 2858,
      "alif": 2859,
      "sor": 2860,
      "gina": 2861,
      "Lon": 2862,
      "ሊያ": 2863,
      "ገለ": 2864,
      "ጎር": 2865,
      "gor": 2866,
      "omin": 2867,
      "isiwa": 2868,
      "im": 2869,
      "መሠ": 2870,
      "ገደ": 2871,
      "ṣẹ̀": 2872,
      "anza": 2873,
      "ler": 2874,
      "kula": 2875,
      "gas": 2876,
      "gharibi": 2877,
      "vari": 2878,
      "ግር": 2879,
      "digi": 2880,
      "ls": 2881,
      "kópa": 2882,
      "William": 2883,
      "በል": 2884,
      "ême": 2885,
      "Pau": 2886,
      "ime": 2887,
      "ክር": 2888,
      "gbó": 2889,
      "A.": 2890,
      "tor": 2891,
      "tẹ́": 2892,
      "ክርስቲያን": 2893,
      "Pres": 2894,
      "utili": 2895,
      "ይገኛ": 2896,
      "ras": 2897,
      "ité": 2898,
      "ib": 2899,
      "ገባ": 2900,
      "fanin": 2901,
      "ojú": 2902,
      "እግዚአብሔር": 2903,
      "i.": 2904,
      "mto": 2905,
      "ወንድ": 2906,
      "ዶች": 2907,
      "አንዱ": 2908,
      "tion,": 2909,
      "k,": 2910,
      "ማስ": 2911,
      "rie": 2912,
      "cti": 2913,
      "III": 2914,
      "uta": 2915,
      "yá": 2916,
      "pati": 2917,
      "Ade": 2918,
      "iki": 2919,
      "yọ": 2920,
      "||": 2921,
      "ክፍል": 2922,
      "Rom": 2923,
      "ጠቅ": 2924,
      "ጦርነት": 2925,
      "ሩት": 2926,
      "ግል": 2927,
      "ẹlẹ́": 2928,
      "danar": 2929,
      "ts,": 2930,
      "ple": 2931,
      "al'": 2932,
      "mwandishi": 2933,
      "kas": 2934,
      "gida": 2935,
      "ይስ": 2936,
      "sauran": 2937,
      "biyar": 2938,
      "Oba": 2939,
      "new": 2940,
      "እግር": 2941,
      "tso": 2942,
      "erre": 2943,
      "vol": 2944,
      "ɗin": 2945,
      "እንደሚ": 2946,
      "asili": 2947,
      "ìpínlẹ̀": 2948,
      "በላ": 2949,
      "muziki": 2950,
      "mbalimbali": 2951,
      "ትምህርት": 2952,
      "የነበረ": 2953,
      "toire": 2954,
      "jùlọ": 2955,
      "vis": 2956,
      "kili": 2957,
      "lui": 2958,
      "ሞት": 2959,
      "ይች": 2960,
      "kék": 2961,
      "d'une": 2962,
      "aika": 2963,
      "kékeré": 2964,
      "vin": 2965,
      "lán": 2966,
      "sui": 2967,
      "ኒያ": 2968,
      "rú": 2969,
      "'est": 2970,
      "Ci": 2971,
      "dari": 2972,
      "ባር": 2973,
      "saboda": 2974,
      "መድ": 2975,
      "matai": 2976,
      "መጣ": 2977,
      "ingine": 2978,
      "የስ": 2979,
      "gbègbè": 2980,
      "Amerika": 2981,
      "girma": 2982,
      "vir": 2983,
      "àà": 2984,
      "rika": 2985,
      "lára": 2986,
      "pha": 2987,
      "Mon": 2988,
      "ቀር": 2989,
      "ፍት": 2990,
      "Babban": 2991,
      "samar": 2992,
      "ለን": 2993,
      "ደም": 2994,
      "ọ̀rọ̀": 2995,
      "w.": 2996,
      "ልክ": 2997,
      "gidan": 2998,
      "ደረገ": 2999,
      "Tara": 3000,
      "mman": 3001,
      "Ag": 3002,
      "Cor": 3003,
      "aru": 3004,
      "tabi": 3005,
      "መጽሐ": 3006,
      "gbegbe": 3007,
      "nà": 3008,
      "Ilé": 3009,
      "ተራ": 3010,
      "ቱም": 3011,
      "አረ": 3012,
      "haifi": 3013,
      "ẹni": 3014,
      "tele.": 3015,
      "kumbu": 3016,
      "አዲስ": 3017,
      "into": 3018,
      "National": 3019,
      "unt": 3020,
      "kwamba": 3021,
      "ቀት": 3022,
      "Sun": 3023,
      "Ex": 3024,
      "ato": 3025,
      "more": 3026,
      "ዕለ": 3027,
      "Ẹ̀": 3028,
      "ful": 3029,
      "Orodha": 3030,
      "sous": 3031,
      "ony": 3032,
      "ma.": 3033,
      "ዮን": 3034,
      "የመጀመሪያ": 3035,
      "We": 3036,
      "nuna": 3037,
      "ipa": 3038,
      "ራል": 3039,
      "አቆጣጠር": 3040,
      "በተለይ": 3041,
      "koloni": 3042,
      "line": 3043,
      "mwi": 3044,
      "que,": 3045,
      "cle": 3046,
      "http://": 3047,
      "ዋን": 3048,
      "vant": 3049,
      "አፍ": 3050,
      "oly": 3051,
      "láà": 3052,
      "centur": 3053,
      "ታል": 3054,
      "ṣi": 3055,
      "ከተሞች": 3056,
      "Ah": 3057,
      "domin": 3058,
      "óò": 3059,
      "kyau": 3060,
      "ክስ": 3061,
      "ters": 3062,
      "Ste": 3063,
      "an,": 3064,
      "guda": 3065,
      "insi": 3066,
      "haka": 3067,
      "after": 3068,
      "በጣ": 3069,
      "mala": 3070,
      "ጥንታዊ": 3071,
      "sababu": 3072,
      "frança": 3073,
      "sẹ̀": 3074,
      "sìn": 3075,
      "mal": 3076,
      "Colle": 3077,
      "cond": 3078,
      "ሕዝብ": 3079,
      "ጠቃ": 3080,
      "ግብጽ": 3081,
      "aussi": 3082,
      "August": 3083,
      "London": 3084,
      "kusini": 3085,
      "old": 3086,
      "bisa": 3087,
      "fito": 3088,
      "kokin": 3089,
      "wood": 3090,
      "ology": 3091,
      "ድሞ": 3092,
      "eria": 3093,
      "Daga": 3094,
      "Aust": 3095,
      "mulkin": 3096,
      "ምዕራ": 3097,
      "ኩል": 3098,
      "International": 3099,
      "su.": 3100,
      "tangu": 3101,
      "ቀው": 3102,
      "ዳር": 3103,
      "ship": 3104,
      "Musul": 3105,
      "ani.": 3106,
      "tanen": 3107,
      "ራስ": 3108,
      "ክለ": 3109,
      "Kenya": 3110,
      "two": 3111,
      "በው": 3112,
      "anz": 3113,
      "urin": 3114,
      "gon": 3115,
      "ọ́ìdì": 3116,
      "fanya": 3117,
      "ẹ́rọ́ìdì": 3118,
      "ást": 3119,
      "under": 3120,
      "አበባ": 3121,
      "Arewa": 3122,
      "ander": 3123,
      "abu": 3124,
      "here": 3125,
      "ástẹ́rọ́ìdì": 3126,
      "ማኖ": 3127,
      "(S": 3128,
      "Pet": 3129,
      "ልዩ": 3130,
      "የሱ": 3131,
      "makarantar": 3132,
      "kia": 3133,
      "such": 3134,
      "Kara": 3135,
      "fait": 3136,
      "Hausa": 3137,
      "gí": 3138,
      "ogun": 3139,
      "በፊት": 3140,
      "ከሚ": 3141,
      "yenye": 3142,
      "Her": 3143,
      "bùn": 3144,
      "ème": 3145,
      "cré": 3146,
      "ጥቅም": 3147,
      "tern": 3148,
      "usa": 3149,
      "This": 3150,
      "rìn": 3151,
      "Lá": 3152,
      "arabu": 3153,
      "pal": 3154,
      "tour": 3155,
      "ለያዩ": 3156,
      "tumi": 3157,
      "anzia": 3158,
      "Us": 3159,
      "vid": 3160,
      "ልድ": 3161,
      "samun": 3162,
      "60": 3163,
      "siasa": 3164,
      "ታው": 3165,
      "rọ": 3166,
      "hivyo": 3167,
      "Jamhuri": 3168,
      "gùn": 3169,
      "Èkó": 3170,
      "ki,": 3171,
      "fá": 3172,
      "ላም": 3173,
      "ካል": 3174,
      "tech": 3175,
      "filamu": 3176,
      "Ago": 3177,
      "anné": 3178,
      "toliki": 3179,
      "sic": 3180,
      "ined": 3181,
      "known": 3182,
      "ako": 3183,
      "yayin": 3184,
      "እነዚህ": 3185,
      "être": 3186,
      "over": 3187,
      "sina": 3188,
      "yon": 3189,
      "ዓመታት": 3190,
      "ue": 3191,
      ",000": 3192,
      "l,": 3193,
      "ọ̀kan": 3194,
      "ille": 3195,
      "ህል": 3196,
      "የሰ": 3197,
      "wer": 3198,
      "ተኛው": 3199,
      "tumia": 3200,
      "ወቅት": 3201,
      "wasa": 3202,
      "tish": 3203,
      "sup": 3204,
      "ሱም": 3205,
      "popu": 3206,
      "ነገሥታት": 3207,
      "méjì": 3208,
      "gano": 3209,
      "መጥ": 3210,
      "ቀጥ": 3211,
      "warar": 3212,
      "3-": 3213,
      "wajen": 3214,
      "person": 3215,
      "paka": 3216,
      "nombre": 3217,
      "South": 3218,
      "Bro": 3219,
      "ዮሐ": 3220,
      "manyan": 3221,
      "Tari": 3222,
      "rán": 3223,
      "cted": 3224,
      "plan": 3225,
      "ሮፓ": 3226,
      "Aus": 3227,
      "Ipinle": 3228,
      "Ufaransa": 3229,
      "185": 3230,
      "Nijeriya.": 3231,
      "ma'": 3232,
      "ገኝ": 3233,
      "ፈል": 3234,
      "inf": 3235,
      "sanya": 3236,
      "dition": 3237,
      "ተወ": 3238,
      "ይህም": 3239,
      "semb": 3240,
      "glish": 3241,
      "CO": 3242,
      "Fil": 3243,
      "rà": 3244,
      "tẹ": 3245,
      "ሪካዊ": 3246,
      "même": 3247,
      "gaji": 3248,
      "Italia": 3249,
      "clas": 3250,
      "sci": 3251,
      "inayo": 3252,
      "tatta": 3253,
      "lake": 3254,
      "tou": 3255,
      "níbi": 3256,
      "አይነት": 3257,
      "80": 3258,
      "በግ": 3259,
      "St": 3260,
      "ines": 3261,
      "Oṣù": 3262,
      "ረተ": 3263,
      "lect": 3264,
      "Of": 3265,
      "irin": 3266,
      "Gwa": 3267,
      "lis": 3268,
      "ley": 3269,
      "ojoibi": 3270,
      "Oc": 3271,
      "set": 3272,
      "weza": 3273,
      "English": 3274,
      "Ili": 3275,
      "en,": 3276,
      "plu": 3277,
      "Bor": 3278,
      "ይን": 3279,
      "day": 3280,
      "lánẹ́": 3281,
      "ነበረ።": 3282,
      "ጀርመን": 3283,
      "May": 3284,
      "ሬት": 3285,
      "Shugaban": 3286,
      "lor": 3287,
      "ures": 3288,
      "ማዕ": 3289,
      "ኳስ": 3290,
      "bayyana": 3291,
      "cette": 3292,
      "Allah": 3293,
      "ባቸው": 3294,
      "koma": 3295,
      "184": 3296,
      "risti": 3297,
      "ዮሐንስ": 3298,
      "ches": 3299,
      "huo": 3300,
      "dont": 3301,
      "Awọn": 3302,
      "ambayo": 3303,
      "lánẹ́tì": 3304,
      "uis": 3305,
      "they": 3306,
      "ስፋ": 3307,
      "ዕለት": 3308,
      "ìgbàjá": 3309,
      "Sy": 3310,
      "ከለ": 3311,
      "ጠረ": 3312,
      "ẹ̀yẹ": 3313,
      "yukan": 3314,
      "...": 3315,
      "FA": 3316,
      "enne": 3317,
      "géné": 3318,
      "Ce": 3319,
      "wri": 3320,
      "tical": 3321,
      "way": 3322,
      "ተን": 3323,
      "gne": 3324,
      "yadda": 3325,
      "lau": 3326,
      "Januari": 3327,
      "sù": 3328,
      "የግ": 3329,
      "wadanda": 3330,
      "ning": 3331,
      "bas": 3332,
      "name": 3333,
      "ያም": 3334,
      "reli": 3335,
      "ጀመርያ": 3336,
      "China": 3337,
      "Nigerian": 3338,
      "tle": 3339,
      "Mal": 3340,
      "iko": 3341,
      "jari": 3342,
      "plánẹ́tì": 3343,
      "tẹ̀": 3344,
      "አድር": 3345,
      "kudu": 3346,
      "prof": 3347,
      "ties": 3348,
      "aliye": 3349,
      "Kad": 3350,
      "Wana": 3351,
      "Agosti": 3352,
      "bali": 3353,
      "voir": 3354,
      "wara": 3355,
      "ያዘ": 3356,
      "ashara": 3357,
      "ዎችን": 3358,
      "language": 3359,
      "ሙሉ": 3360,
      "comm": 3361,
      "AN": 3362,
      "ሠራ": 3363,
      "ግድም": 3364,
      "wahili": 3365,
      "Ingila.": 3366,
      "kaskazini": 3367,
      "ft": 3368,
      "ፕሬ": 3369,
      "bẹ́ẹ̀": 3370,
      "Duniya": 3371,
      "ères": 3372,
      "sho": 3373,
      "aṣ": 3374,
      "inu": 3375,
      "35": 3376,
      "bro": 3377,
      "aji": 3378,
      "andi": 3379,
      "31": 3380,
      "ብት": 3381,
      "ውድ": 3382,
      "orúkọ": 3383,
      "chagu": 3384,
      "serikali": 3385,
      "ástẹ́rọ́ìdì.": 3386,
      "Yuni": 3387,
      "jeshi": 3388,
      "iso": 3389,
      "Lagos": 3390,
      "Zi": 3391,
      "Sar": 3392,
      "amp": 3393,
      "ገበ": 3394,
      "()": 3395,
      "dist": 3396,
      "Lugha": 3397,
      "akwai": 3398,
      "islamu": 3399,
      "zikia": 3400,
      "አስተዳ": 3401,
      "Pri": 3402,
      "gani": 3403,
      "ዓት": 3404,
      "የሆነ": 3405,
      "ይለ": 3406,
      "end": 3407,
      "taba": 3408,
      "àmì": 3409,
      "fasi": 3410,
      "Historia": 3411,
      "ናል።": 3412,
      "ደው": 3413,
      "lat": 3414,
      "esti": 3415,
      "ብሔ": 3416,
      "ቴዎ": 3417,
      "ፈው": 3418,
      "Julai": 3419,
      "kand": 3420,
      "እም": 3421,
      "sie": 3422,
      "ፈረንሳይ": 3423,
      "endelea": 3424,
      "cher": 3425,
      "kh": 3426,
      "ሰን": 3427,
      "maeneo": 3428,
      "ker": 3429,
      "pita": 3430,
      "Ogun": 3431,
      "siyasa": 3432,
      "Mash": 3433,
      "Yar": 3434,
      "mbe": 3435,
      "ምንም": 3436,
      "Nchi": 3437,
      "akọ": 3438,
      "refu": 3439,
      "tele": 3440,
      "Roma": 3441,
      "ላክ": 3442,
      "መት": 3443,
      "gudanar": 3444,
      "public": 3445,
      "Dis": 3446,
      "Kat": 3447,
      "እው": 3448,
      "del": 3449,
      "city": 3450,
      "Saint": 3451,
      "Han": 3452,
      "ህዝብ": 3453,
      "ታሪካዊ": 3454,
      "ጨማሪ": 3455,
      "ned": 3456,
      "lógún": 3457,
      "bé": 3458,
      "bò": 3459,
      "jar": 3460,
      "ign": 3461,
      "ia": 3462,
      "pti": 3463,
      "ቲካ": 3464,
      "ንና": 3465,
      "ences": 3466,
      "vern": 3467,
      "Za": 3468,
      "die": 3469,
      "70": 3470,
      "zer": 3471,
      "አቀ": 3472,
      "ki.": 3473,
      "ration": 3474,
      "ናል": 3475,
      "ገኙ": 3476,
      "suke": 3477,
      "gbajú": 3478,
      "istory": 3479,
      "Juni": 3480,
      "dó": 3481,
      "r.": 3482,
      "Mtakatifu": 3483,
      "princi": 3484,
      "ልም": 3485,
      "kiya": 3486,
      "Machi": 3487,
      "El": 3488,
      "ough": 3489,
      "Gra": 3490,
      "well": 3491,
      "tokea": 3492,
      "gel": 3493,
      "ርክ": 3494,
      "Mashariki": 3495,
      "Bal": 3496,
      "lon": 3497,
      "dama": 3498,
      "ላለ": 3499,
      "ኢን": 3500,
      "ጥናት": 3501,
      "kilo": 3502,
      "upe": 3503,
      "ìtọ́kasí": 3504,
      "ላዊ": 3505,
      "አማ": 3506,
      "ይታወ": 3507,
      "Mai": 3508,
      "mbi": 3509,
      "consi": 3510,
      "ween": 3511,
      "ctions": 3512,
      "came": 3513,
      "አሜሪካ": 3514,
      "peke": 3515,
      "በጣም": 3516,
      "Ser": 3517,
      "TV": 3518,
      "rín": 3519,
      "ath": 3520,
      "tuna": 3521,
      "መሪ": 3522,
      "ould": 3523,
      "vile": 3524,
      "form": 3525,
      "ምክንያት": 3526,
      "Anna": 3527,
      "gizaji": 3528,
      "ራቸው": 3529,
      "ይት": 3530,
      "Najeriya,": 3531,
      "cts": 3532,
      "wípé": 3533,
      "Kaduna": 3534,
      "tafi": 3535,
      "ered": 3536,
      "abo": 3537,
      "yayi": 3538,
      "Wakristo": 3539,
      "cade": 3540,
      "Aare": 3541,
      "ህን": 3542,
      "kina": 3543,
      "BN": 3544,
      "ሰር": 3545,
      "autres": 3546,
      "vement": 3547,
      "Mala": 3548,
      "Orí": 3549,
      "ባሕ": 3550,
      "tak": 3551,
      "ደረጃ": 3552,
      "York": 3553,
      "Abdu": 3554,
      "State": 3555,
      "partic": 3556,
      "cess": 3557,
      "Awon": 3558,
      "mfalme": 3559,
      "ልማ": 3560,
      "tat": 3561,
      "Mei": 3562,
      "ated": 3563,
      "cus": 3564,
      "jour": 3565,
      "gabatar": 3566,
      "ሳብ": 3567,
      "መነ": 3568,
      "Tazama": 3569,
      "ance": 3570,
      "የኤ": 3571,
      "fuat": 3572,
      "2011": 3573,
      "bú": 3574,
      "ደል": 3575,
      "ዓመቱ": 3576,
      "act": 3577,
      "vé": 3578,
      "90": 3579,
      "መንገድ": 3580,
      "West": 3581,
      "contin": 3582,
      "Party": 3583,
      "agba": 3584,
      "uba": 3585,
      "ሮማ": 3586,
      "many": 3587,
      "Ibi": 3588,
      "tex": 3589,
      "lack": 3590,
      "biashara": 3591,
      "ዮች": 3592,
      "cember": 3593,
      "ganda": 3594,
      "dára": 3595,
      "karibu": 3596,
      "January": 3597,
      "àkọ́kọ́": 3598,
      "wanci": 3599,
      "yao": 3600,
      "Dar": 3601,
      "Ed": 3602,
      "aye": 3603,
      "mò": 3604,
      "teurs": 3605,
      "arewa": 3606,
      "ወንዝ": 3607,
      "bra": 3608,
      "ልጆች": 3609,
      "Muhammad": 3610,
      "maza": 3611,
      "pendan": 3612,
      "yer": 3613,
      "fen": 3614,
      "tọ̀": 3615,
      "ምህ": 3616,
      "ዛሬ": 3617,
      "waje": 3618,
      "alo": 3619,
      "vision": 3620,
      "RD1-": 3621,
      "AS": 3622,
      "impor": 3623,
      "só": 3624,
      "Hen": 3625,
      "mat": 3626,
      "ung": 3627,
      "September": 3628,
      "'an": 3629,
      "የካ": 3630,
      "volu": 3631,
      "yamma": 3632,
      "ይወት": 3633,
      "Dese": 3634,
      "Pu": 3635,
      "Itali": 3636,
      "ም፣": 3637,
      "ነጻ": 3638,
      "kamma": 3639,
      "(198": 3640,
      "ino": 3641,
      "2015": 3642,
      "nis": 3643,
      "zungu": 3644,
      "kuli": 3645,
      "sè": 3646,
      "ምስ": 3647,
      "may": 3648,
      "kir": 3649,
      "lọ́wọ́": 3650,
      "zon": 3651,
      "ress": 3652,
      "37": 3653,
      "àgbà": 3654,
      "ሙዚ": 3655,
      "የበ": 3656,
      "ofu": 3657,
      "December": 3658,
      "clo": 3659,
      "rais": 3660,
      "mìn": 3661,
      "ቶስ": 3662,
      "huko": 3663,
      "2007": 3664,
      "ɗaya": 3665,
      "ሃይማኖ": 3666,
      "Desemba": 3667,
      "www.": 3668,
      "birni": 3669,
      "score": 3670,
      "bari": 3671,
      "utar": 3672,
      "ሳዊ": 3673,
      "ከት": 3674,
      "unda": 3675,
      "thio": 3676,
      "kammala": 3677,
      "Es": 3678,
      "ይህን": 3679,
      "taifa": 3680,
      "nou": 3681,
      "dépar": 3682,
      "Ulaya": 3683,
      "agbègbè": 3684,
      "kù": 3685,
      "tori": 3686,
      "vre": 3687,
      "መው": 3688,
      "kuanzia": 3689,
      "እንዲህ": 3690,
      "jirgin": 3691,
      "jé": 3692,
      "agbá": 3693,
      "padà": 3694,
      "Rayu": 3695,
      "Aprili": 3696,
      "sake": 3697,
      "tofa": 3698,
      "2010": 3699,
      "pt": 3700,
      "ልብ": 3701,
      "ኛ፦": 3702,
      "ani,": 3703,
      "leo": 3704,
      "Rais": 3705,
      "'in": 3706,
      "thé": 3707,
      "pele": 3708,
      "masa": 3709,
      "dili": 3710,
      "kumomin": 3711,
      "Septemba": 3712,
      "Zam": 3713,
      "aga": 3714,
      "36": 3715,
      "uko": 3716,
      "Naijiria": 3717,
      "Ori": 3718,
      "peut": 3719,
      "grand": 3720,
      "ርድ": 3721,
      "orun": 3722,
      "wọ̀n": 3723,
      "between": 3724,
      "quel": 3725,
      "rough": 3726,
      "8-": 3727,
      "hàn": 3728,
      "ተብሎ": 3729,
      "commun": 3730,
      "hukumar": 3731,
      "Air": 3732,
      "ንቲ": 3733,
      "አፈ": 3734,
      "iru": 3735,
      "መልክ": 3736,
      "Abi": 3737,
      "Wal": 3738,
      "àgbé": 3739,
      "ጎን": 3740,
      "''": 3741,
      "Mji": 3742,
      "bìnrin": 3743,
      "በቅ": 3744,
      "ብረት": 3745,
      "als": 3746,
      "chake": 3747,
      "(19": 3748,
      "alth": 3749,
      "ሉቃ": 3750,
      "የአሜሪካ": 3751,
      "Ay": 3752,
      "mama": 3753,
      "2012": 3754,
      "ውም": 3755,
      "kundi": 3756,
      "ሆነ።": 3757,
      "kwaikwa": 3758,
      "ቋንቋዎች": 3759,
      "long": 3760,
      "pra": 3761,
      "éga": 3762,
      "ṣu": 3763,
      "Atlan": 3764,
      "jum": 3765,
      "James": 3766,
      "Amurka": 3767,
      "Mto": 3768,
      "US": 3769,
      "Áf": 3770,
      "ፓር": 3771,
      "ind": 3772,
      "visiwa": 3773,
      "ila": 3774,
      "jus": 3775,
      "mic": 3776,
      "Sh": 3777,
      "waɗan": 3778,
      "pris": 3779,
      "where": 3780,
      "ል፣": 3781,
      "anar": 3782,
      "kuta": 3783,
      "yara": 3784,
      "mi,": 3785,
      "መንግስት": 3786,
      "(ከ": 3787,
      "iye": 3788,
      "ሚኒ": 3789,
      "እየ": 3790,
      "ይቀ": 3791,
      "mati": 3792,
      "ልጣን": 3793,
      "180": 3794,
      "2014": 3795,
      "British": 3796,
      "suc": 3797,
      "2006": 3798,
      "ked": 3799,
      "Pla": 3800,
      "Ìtọ́kasí": 3801,
      "ular": 3802,
      "ስለዚህ": 3803,
      "ṣèlú": 3804,
      "fol": 3805,
      "when": 3806,
      "di,": 3807,
      "Jose": 3808,
      "igba": 3809,
      "ሊክ": 3810,
      "ደጋ": 3811,
      "historia": 3812,
      "ለምሳሌ": 3813,
      "art": 3814,
      "samman": 3815,
      "ISBN": 3816,
      "eli": 3817,
      "iste": 3818,
      "C.": 3819,
      "ሀገ": 3820,
      "very": 3821,
      "kọ̀ọ́": 3822,
      "ወረዳ": 3823,
      "Ac": 3824,
      "ìmù": 3825,
      "ልግ": 3826,
      "እያ": 3827,
      "tala": 3828,
      "እንጂ": 3829,
      "mwigizaji": 3830,
      "br": 3831,
      "ss": 3832,
      "uhuru": 3833,
      "àì": 3834,
      "ፖለ": 3835,
      "Februari": 3836,
      "nal": 3837,
      "Àà": 3838,
      "kutokana": 3839,
      "ọ̀pọ̀": 3840,
      "ረብ": 3841,
      "ጉዳ": 3842,
      "ፈለ": 3843,
      "mash": 3844,
      "fannin": 3845,
      "Lan": 3846,
      "halar": 3847,
      "off": 3848,
      "tofauti": 3849,
      "tsi": 3850,
      "tia": 3851,
      "les,": 3852,
      "Iba": 3853,
      "ሉቃስ": 3854,
      "FI": 3855,
      "Ethio": 3856,
      "አዳ": 3857,
      "mutanen": 3858,
      "sani": 3859,
      "tab": 3860,
      "VI": 3861,
      "òrùn": 3862,
      "ብለው": 3863,
      "ጽሑ": 3864,
      "kila": 3865,
      "Watu": 3866,
      "Novemba": 3867,
      "ndani": 3868,
      "(P": 3869,
      "maru": 3870,
      "Austra": 3871,
      "dra": 3872,
      "George": 3873,
      "ṣí": 3874,
      "ine,": 3875,
      "በሽ": 3876,
      "ዋቂ": 3877,
      "kiyar": 3878,
      "náà.": 3879,
      "ነበሩ።": 3880,
      "ombe": 3881,
      "àwon": 3882,
      "ìtàn": 3883,
      "45": 3884,
      "work": 3885,
      "Des": 3886,
      "Lou": 3887,
      "mur": 3888,
      "only": 3889,
      "cture": 3890,
      "States": 3891,
      "ኖሩ": 3892,
      "trou": 3893,
      "ainsi": 3894,
      "exp": 3895,
      "ስሙ": 3896,
      "baba": 3897,
      "Tun": 3898,
      "ይዘ": 3899,
      "አለቃ": 3900,
      "minist": 3901,
      "gram": 3902,
      "pelu": 3903,
      "Mil": 3904,
      "atta": 3905,
      "ከተማው": 3906,
      "kilomita": 3907,
      "yay": 3908,
      "fore": 3909,
      "Agba": 3910,
      "ኖስ": 3911,
      "omini": 3912,
      "zamani": 3913,
      "4-": 3914,
      "offici": 3915,
      "France": 3916,
      "hol": 3917,
      "sing": 3918,
      "Majalisar": 3919,
      "karamar": 3920,
      "gawa": 3921,
      "jet": 3922,
      "yóò": 3923,
      "ተፈ": 3924,
      "film": 3925,
      "jeo": 3926,
      "Bahari": 3927,
      "mission": 3928,
      "አሁን": 3929,
      "fini": 3930,
      "Kẹ": 3931,
      "cis": 3932,
      "naa": 3933,
      "2000": 3934,
      "City": 3935,
      "jí": 3936,
      "number": 3937,
      "ተና": 3938,
      "ጥሩ": 3939,
      "katoliki": 3940,
      "ይባላል።": 3941,
      "ṣeré": 3942,
      "kashin": 3943,
      "juli": 3944,
      "Jina": 3945,
      "Tana": 3946,
      "g,": 3947,
      "የእስ": 3948,
      "Lat": 3949,
      "bus": 3950,
      "ቻይና": 3951,
      "ጮች": 3952,
      "ነገሮች": 3953,
      "jọba": 3954,
      "then": 3955,
      "gent": 3956,
      "መዝ": 3957,
      "ኔታ": 3958,
      "tsarin": 3959,
      "wilaya": 3960,
      "መጨረሻ": 3961,
      "about": 3962,
      "ola": 3963,
      "utawala": 3964,
      "ላማ": 3965,
      "ወች": 3966,
      "site": 3967,
      "(N": 3968,
      "ver,": 3969,
      "tés": 3970,
      "position": 3971,
      "Gir": 3972,
      "November": 3973,
      "dou": 3974,
      "Bas": 3975,
      "Cent": 3976,
      "dù": 3977,
      "histori": 3978,
      "àkó": 3979,
      "ረዳ": 3980,
      "ሮስ": 3981,
      "nation": 3982,
      "mataifa": 3983,
      "Octo": 3984,
      "mocra": 3985,
      "2003": 3986,
      "Charles": 3987,
      "tá": 3988,
      "usta": 3989,
      "እንስ": 3990,
      "group": 3991,
      "ፖለቲካ": 3992,
      "ps": 3993,
      "ero": 3994,
      "በም": 3995,
      "ፍል": 3996,
      "hala": 3997,
      "sia": 3998,
      "የሚለው": 3999,
      "omen": 4000,
      "de.": 4001,
      "97": 4002,
      "Tare": 4003,
      "ws": 4004,
      "(M": 4005,
      "6-": 4006,
      "syste": 4007,
      "Che": 4008,
      "Den": 4009,
      "ሶች": 4010,
      "ድል": 4011,
      "lafi": 4012,
      "tics": 4013,
      "February": 4014,
      "idi": 4015,
      "gbon": 4016,
      "during": 4017,
      "Pre": 4018,
      "Sal": 4019,
      "ate": 4020,
      "stu": 4021,
      "òun": 4022,
      "net": 4023,
      "terri": 4024,
      "century": 4025,
      "(ojoibi": 4026,
      "ዋቢ": 4027,
      "ዝርዝር": 4028,
      "dali": 4029,
      "habi": 4030,
      "2005": 4031,
      "se,": 4032,
      "karni": 4033,
      "Katsina": 4034,
      "où": 4035,
      "maa": 4036,
      "cial": 4037,
      "ette": 4038,
      "Sam": 4039,
      "ci,": 4040,
      "ድርጅ": 4041,
      "to,": 4042,
      "musul": 4043,
      "መጀመርያ": 4044,
      "nement": 4045,
      "qu'il": 4046,
      "ilé-ẹ̀kọ́": 4047,
      "lina": 4048,
      "fois": 4049,
      "ologie": 4050,
      "c,": 4051,
      "የኢ": 4052,
      "ደራ": 4053,
      "aláì": 4054,
      "digiri": 4055,
      "ti,": 4056,
      "esha": 4057,
      "Kano": 4058,
      "mpire": 4059,
      "'Yan": 4060,
      "hukumomin": 4061,
      "March": 4062,
      "Cam": 4063,
      "ረም": 4064,
      "ይሆ": 4065,
      "1960": 4066,
      "également": 4067,
      "October": 4068,
      "u.": 4069,
      "lashe": 4070,
      "ት፣": 4071,
      "koso": 4072,
      "nínu": 4073,
      "darí": 4074,
      "1892": 4075,
      "መጽሐፍ": 4076,
      "vernment": 4077,
      "Ver": 4078,
      "nel": 4079,
      "fano": 4080,
      "ሕዝ": 4081,
      "milli": 4082,
      "ክሉ": 4083,
      "conomi": 4084,
      "rasmi": 4085,
      "ን፡": 4086,
      "faf": 4087,
      "manin": 4088,
      "ami": 4089,
      "ነሳ": 4090,
      "lejin": 4091,
      "olly": 4092,
      "ነው፡፡": 4093,
      "Sara": 4094,
      "2013": 4095,
      "ẹ̀ẹ́": 4096,
      "ter,": 4097,
      "wezi": 4098,
      "ክርስቶስ": 4099,
      "alors": 4100,
      "musamman": 4101,
      "አንዳ": 4102,
      "Dola": 4103,
      "Faransa": 4104,
      "kw": 4105,
      "ሎት": 4106,
      "UN": 4107,
      "mkubwa": 4108,
      "binci": 4109,
      "iwe": 4110,
      "litta": 4111,
      "Del": 4112,
      "-o": 4113,
      "ts.": 4114,
      "34": 4115,
      "arti": 4116,
      "loso": 4117,
      "Jean": 4118,
      "ነቱ": 4119,
      "rẹ̀.": 4120,
      "Siku": 4121,
      "partie": 4122,
      "Tra": 4123,
      "tú": 4124,
      "ume": 4125,
      "እኔ": 4126,
      "esta": 4127,
      "is.": 4128,
      "there": 4129,
      "mutum": 4130,
      "nau": 4131,
      "pes": 4132,
      "ከሰ": 4133,
      "Kiingereza": 4134,
      "julo": 4135,
      "anga": 4136,
      "Gree": 4137,
      "Tai": 4138,
      "mwan": 4139,
      "ẹlẹ́bùn": 4140,
      "Chan": 4141,
      "kuji": 4142,
      "ለች": 4143,
      "bahari": 4144,
      "Ibadan": 4145,
      "Ele": 4146,
      "ال": 4147,
      "College": 4148,
      "dri": 4149,
      "pania": 4150,
      "ሁኔታ": 4151,
      "in.": 4152,
      "let": 4153,
      "sinimá": 4154,
      "pẹlu": 4155,
      "miji": 4156,
      "Adé": 4157,
      "ròyìn": 4158,
      "hom": 4159,
      "char": 4160,
      "ቢሆን": 4161,
      "yal": 4162,
      "fíìmù": 4163,
      "North": 4164,
      "kwaikwayo": 4165,
      "Kir": 4166,
      "arab": 4167,
      "population": 4168,
      "ሁኑ": 4169,
      "ካር": 4170,
      "ጠው": 4171,
      "Ààrẹ": 4172,
      "Fasi": 4173,
      "Stu": 4174,
      "sas": 4175,
      "Sala": 4176,
      "Kuna": 4177,
      "ées": 4178,
      "ሀገር": 4179,
      "magharibi": 4180,
      "wón": 4181,
      "would": 4182,
      "July": 4183,
      "Oló": 4184,
      "ከር": 4185,
      "ṣiṣẹ́": 4186,
      "yoyi": 4187,
      "zed": 4188,
      "ቆስ": 4189,
      "ፈን": 4190,
      "ፋት": 4191,
      "jagor": 4192,
      "አመት": 4193,
      "Japan": 4194,
      "kamfanin": 4195,
      "መንፈ": 4196,
      "on.": 4197,
      "Asia": 4198,
      "ነጋ": 4199,
      "ዲያ": 4200,
      "mace": 4201,
      "Al-": 4202,
      "Fizikia": 4203,
      "gbajúmọ̀": 4204,
      "1999": 4205,
      "ቅድ": 4206,
      "mali": 4207,
      "Mutane": 4208,
      "wájú": 4209,
      "Fasihi": 4210,
      "ijoba": 4211,
      "llo": 4212,
      "organ": 4213,
      "tout": 4214,
      "idadi": 4215,
      "yote": 4216,
      "tto": 4217,
      "አይደ": 4218,
      "thern": 4219,
      "ko,": 4220,
      "ፍጥ": 4221,
      "gbọ̀n": 4222,
      "wiki": 4223,
      "pàá": 4224,
      "ville": 4225,
      "ራን": 4226,
      "ተሰ": 4227,
      "ane": 4228,
      "መሆኑ": 4229,
      "ruwa": 4230,
      "asalin": 4231,
      "moder": 4232,
      "2016": 4233,
      "አያ": 4234,
      "አለው": 4235,
      "ያህል": 4236,
      "malla": 4237,
      "karkashin": 4238,
      "haifin": 4239,
      "ayyukan": 4240,
      "lambar": 4241,
      "rayuwa": 4242,
      "Kiswahili": 4243,
      "IV": 4244,
      "inú": 4245,
      "kiri": 4246,
      "constitu": 4247,
      "stan": 4248,
      "maj": 4249,
      "ing,": 4250,
      "ሙዚቃ": 4251,
      "da.": 4252,
      "graphi": 4253,
      "ቀበ": 4254,
      "ቁር": 4255,
      "tion.": 4256,
      "hukuma": 4257,
      "shirye": 4258,
      "techni": 4259,
      "Ak": 4260,
      "Cro": 4261,
      "iṣẹ": 4262,
      "torí": 4263,
      "መራ": 4264,
      "ቻቸው": 4265,
      "péri": 4266,
      "julikana": 4267,
      "appel": 4268,
      "Don": 4269,
      "Mkoa": 4270,
      "Prin": 4271,
      "kayan": 4272,
      "ẹ̀yà": 4273,
      "ase": 4274,
      "91": 4275,
      "ga,": 4276,
      "Lẹ́": 4277,
      "ፈላ": 4278,
      "able": 4279,
      "በአንድ": 4280,
      "Kananan": 4281,
      "lẹ́yìn": 4282,
      "ይስጥ": 4283,
      "n,": 4284,
      "diyo": 4285,
      "gbẹ": 4286,
      "keo": 4287,
      "ንጉስ": 4288,
      "Marejeo": 4289,
      "patikana": 4290,
      "ቴዎስ": 4291,
      "Aba": 4292,
      "Olu": 4293,
      "Mungu": 4294,
      "ዘጋ": 4295,
      "yabo": 4296,
      "ምንጮች": 4297,
      "Kongo": 4298,
      "gur": 4299,
      "gran": 4300,
      "tif": 4301,
      "musi": 4302,
      "fur": 4303,
      "ገዛ": 4304,
      "ጌታ": 4305,
      "yansi": 4306,
      "rench": 4307,
      "Tiba": 4308,
      "ራዊት": 4309,
      "Haifaf": 4310,
      "ይገኛል።": 4311,
      "tsohon": 4312,
      "pays": 4313,
      "|-": 4314,
      "ም፡": 4315,
      "ስላ": 4316,
      "ታዋቂ": 4317,
      "département": 4318,
      "Joseph": 4319,
      "mashariki": 4320,
      "Acade": 4321,
      "sà": 4322,
      "arch": 4323,
      "hesa": 4324,
      "òfin": 4325,
      "fai": 4326,
      "2009": 4327,
      "forme": 4328,
      "em": 4329,
      "nada": 4330,
      "sive": 4331,
      "Kuma": 4332,
      "B.": 4333,
      "ሪዎች": 4334,
      "የላ": 4335,
      "kifo": 4336,
      "sul": 4337,
      "kwallon": 4338,
      "shirin": 4339,
      "via": 4340,
      "Gen": 4341,
      "compo": 4342,
      "dévelop": 4343,
      "ምዕራብ": 4344,
      "mand": 4345,
      "June": 4346,
      "ቷል።": 4347,
      "fia": 4348,
      "situ": 4349,
      "ged": 4350,
      "zin": 4351,
      "ጋራ": 4352,
      "son,": 4353,
      "ongozi": 4354,
      "selu": 4355,
      "ሥርወ": 4356,
      "Uru": 4357,
      "mare": 4358,
      "adar": 4359,
      "lì": 4360,
      "ማረ": 4361,
      "Roma,": 4362,
      "lọpọ̀": 4363,
      "Haifaffun": 4364,
      "’ar": 4365,
      "high": 4366,
      "tena": 4367,
      "était": 4368,
      "fẹ̀": 4369,
      "p.": 4370,
      "ወል": 4371,
      "inst": 4372,
      "shed": 4373,
      "የተሰ": 4374,
      "Kudu": 4375,
      "Christi": 4376,
      "huwa": 4377,
      "2008": 4378,
      "Bí": 4379,
      "መሳ": 4380,
      "ፕሮ": 4381,
      "kusa": 4382,
      "tus": 4383,
      "AD": 4384,
      "French": 4385,
      "Jac": 4386,
      "Val": 4387,
      "(T": 4388,
      "pili": 4389,
      "http://www.": 4390,
      "ወገን": 4391,
      "hudu": 4392,
      "became": 4393,
      "Miji": 4394,
      "Gar": 4395,
      "h,": 4396,
      "hata": 4397,
      "viron": 4398,
      "(I": 4399,
      "win": 4400,
      "kuhusu": 4401,
      "fasa": 4402,
      "called": 4403,
      "nyingine": 4404,
      "kis": 4405,
      "goma": 4406,
      "taire": 4407,
      "ፈርዖ": 4408,
      "ባህር": 4409,
      "kùnrin": 4410,
      "re,": 4411,
      "ambao": 4412,
      "ንት": 4413,
      "አሸ": 4414,
      "ይመስ": 4415,
      "gbọ́": 4416,
      "ብርሃ": 4417,
      "kata": 4418,
      "yika": 4419,
      "Paul": 4420,
      "gori": 4421,
      "ƙi": 4422,
      "ችው": 4423,
      "huwar": 4424,
      "que.": 4425,
      "permet": 4426,
      "'yar": 4427,
      "talla": 4428,
      "karatu": 4429,
      "binrin": 4430,
      "eniyan": 4431,
      "’a": 4432,
      "unge": 4433,
      "sour": 4434,
      "place": 4435,
      "ስቴ": 4436,
      "ክፍላ": 4437,
      "ria.": 4438,
      "premier": 4439,
      "ጋል": 4440,
      "ፓን": 4441,
      "ọn": 4442,
      "ents": 4443,
      "lẹ̀-èdè": 4444,
      "በተጨማሪ": 4445,
      "Kanisa": 4446,
      "cè": 4447,
      "yari": 4448,
      "vili": 4449,
      "gn": 4450,
      "njia": 4451,
      "ልት": 4452,
      "ፎች": 4453,
      "BBC": 4454,
      "mnan": 4455,
      "culture": 4456,
      "Roman": 4457,
      "\")": 4458,
      "Dans": 4459,
      "ale": 4460,
      "très": 4461,
      "እየተ": 4462,
      "après": 4463,
      "አገልግ": 4464,
      "ታላቅ": 4465,
      "Musulunci": 4466,
      "2004": 4467,
      "ilimi": 4468,
      "yayyun": 4469,
      "later": 4470,
      "bes": 4471,
      "ento": 4472,
      "himu": 4473,
      "tano": 4474,
      "région": 4475,
      "kunan": 4476,
      "jerin": 4477,
      "Sin": 4478,
      "2017": 4479,
      "apa": 4480,
      "በዚያ": 4481,
      "ወታ": 4482,
      "riwa": 4483,
      "cause": 4484,
      "mil": 4485,
      "zake": 4486,
      "through": 4487,
      "Anti": 4488,
      "Yamma": 4489,
      "mbili": 4490,
      "ሩን": 4491,
      "የታ": 4492,
      "ety": 4493,
      "mìnà": 4494,
      "kra": 4495,
      "second": 4496,
      "ographi": 4497,
      "Ebun": 4498,
      "Fin": 4499,
      "ng": 4500,
      "pwani": 4501,
      "majalisar": 4502,
      "ashi": 4503,
      "wote": 4504,
      "Alexander": 4505,
      "Musa": 4506,
      "ollywood": 4507,
      "Kasa": 4508,
      "bọ́": 4509,
      "»,": 4510,
      "ly,": 4511,
      "mari": 4512,
      "kab": 4513,
      "urch": 4514,
      "constru": 4515,
      "sieurs": 4516,
      "eyi": 4517,
      "ጣት": 4518,
      "takar": 4519,
      "Wannan": 4520,
      "v.": 4521,
      "lead": 4522,
      "Lam": 4523,
      "hùn": 4524,
      "ሳን": 4525,
      "ብሪ": 4526,
      "አላ": 4527,
      "archi": 4528,
      "respon": 4529,
      "1980": 4530,
      "Kemia": 4531,
      "39": 4532,
      "kuku": 4533,
      "ብላ": 4534,
      "ዚሁ": 4535,
      "bakar": 4536,
      "elles": 4537,
      "origin": 4538,
      "ቶችን": 4539,
      "Rayayyun": 4540,
      "ይታወቃ": 4541,
      "75": 4542,
      "Kai": 4543,
      "fina-": 4544,
      "ጋይ": 4545,
      "state": 4546,
      "masana": 4547,
      "gá": 4548,
      "oko": 4549,
      "rap": 4550,
      "(በ": 4551,
      "ግባ": 4552,
      "ዘመናዊ": 4553,
      "kawaida": 4554,
      "Kaskazini": 4555,
      "መሠረት": 4556,
      "années": 4557,
      "Pr": 4558,
      "ጥሮ": 4559,
      "peu": 4560,
      "people": 4561,
      "opé": 4562,
      "air": 4563,
      "uses": 4564,
      "-ì": 4565,
      "Pen": 4566,
      "mìí": 4567,
      "ሜትር": 4568,
      "table": 4569,
      "tẹ́lẹ̀": 4570,
      "ule": 4571,
      "cifi": 4572,
      "Ai": 4573,
      "bẹ": 4574,
      "jẹ̀": 4575,
      "ሳቸው": 4576,
      "ፍሬ": 4577,
      "ጣልያን": 4578,
      "e-": 4579,
      "onge": 4580,
      "ómìnà": 4581,
      "ሲን": 4582,
      "Tanzani": 4583,
      "term": 4584,
      "zil": 4585,
      "ce-": 4586,
      "muhimu": 4587,
      "écri": 4588,
      "rik": 4589,
      "tanga": 4590,
      "People": 4591,
      "Iṣẹ́": 4592,
      "Omo": 4593,
      "ገል": 4594,
      "badili": 4595,
      "us.": 4596,
      "gene": 4597,
      "informa": 4598,
      "Open": 4599,
      "cla": 4600,
      "rest": 4601,
      "wenyewe": 4602,
      "Wilaya": 4603,
      "ball": 4604,
      "Tangu": 4605,
      "Mor": 4606,
      "ሳል": 4607,
      "ባን": 4608,
      "ናን": 4609,
      "lokaci": 4610,
      "waɗanda": 4611,
      "Pas": 4612,
      "Island": 4613,
      "ለች።": 4614,
      "ማቴዎስ": 4615,
      "ኮች": 4616,
      "1990": 4617,
      "léwò": 4618,
      "ilimin": 4619,
      "n.k.": 4620,
      "al'um": 4621,
      "(\"": 4622,
      "ሎን": 4623,
      "ራሉ።": 4624,
      "yuka": 4625,
      "AC": 4626,
      "anta": 4627,
      "ንጉሠ": 4628,
      "olórin": 4629,
      "Mer": 4630,
      "tel": 4631,
      "wed": 4632,
      "Kiarabu": 4633,
      "1970": 4634,
      "magana": 4635,
      "tent": 4636,
      "Ibra": 4637,
      "Empire": 4638,
      "d-": 4639,
      "ማህ": 4640,
      "life": 4641,
      "français": 4642,
      "Tho": 4643,
      "gẹ": 4644,
      "oloselu": 4645,
      "mwanamuziki": 4646,
      "ሆኖም": 4647,
      "ወለደ": 4648,
      "Kin": 4649,
      "».": 4650,
      "mfu": 4651,
      "nigba": 4652,
      "ject": 4653,
      "ፓርቲ": 4654,
      "depen": 4655,
      "My": 4656,
      "kabi": 4657,
      "olú": 4658,
      "farkon": 4659,
      "ref": 4660,
      "Vol": 4661,
      "«የ": 4662,
      "ተነ": 4663,
      "ዙሪያ": 4664,
      "ዝም": 4665,
      "urar": 4666,
      "stand": 4667,
      "elect": 4668,
      "chumi": 4669,
      "Ré": 4670,
      "star": 4671,
      "if": 4672,
      "ena": 4673,
      "yaani": 4674,
      "500": 4675,
      "Institu": 4676,
      "All": 4677,
      "rus": 4678,
      "መቀ": 4679,
      "like": 4680,
      "Baba": 4681,
      "ነገሠ": 4682,
      "bó": 4683,
      "bata": 4684,
      "(E": 4685,
      "/)": 4686,
      "ky": 4687,
      "en.": 4688,
      "kal": 4689,
      "entifi": 4690,
      "Black": 4691,
      "Gro": 4692,
      "dàn": 4693,
      "kya": 4694,
      "ዩኒ": 4695,
      "titu": 4696,
      "la.": 4697,
      "harshen": 4698,
      "di.": 4699,
      "የነበሩ": 4700,
      "ይሰ": 4701,
      "àgbéléwò": 4702,
      "siya": 4703,
      "33": 4704,
      "FM": 4705,
      "German": 4706,
      "Lit": 4707,
      "ቀረ": 4708,
      "made": 4709,
      "jimbo": 4710,
      "ድረግ": 4711,
      "Kwalejin": 4712,
      "finai": 4713,
      "ዕለታት": 4714,
      "sol": 4715,
      "olog": 4716,
      "four": 4717,
      "ዮር": 4718,
      "ji,": 4719,
      "ped": 4720,
      "dhaa": 4721,
      "diffé": 4722,
      "mìíràn": 4723,
      "Dur": 4724,
      "Eli": 4725,
      "eur": 4726,
      "ፈት": 4727,
      "Love": 4728,
      "obìnrin": 4729,
      "አንዳንድ": 4730,
      "natur": 4731,
      "sasa": 4732,
      "Wakati": 4733,
      "Awards": 4734,
      "influ": 4735,
      "halarci": 4736,
      "Tarehe": 4737,
      "BA": 4738,
      "DP": 4739,
      "Ibrahim": 4740,
      "Alá": 4741,
      "Vo": 4742,
      "ሩ።": 4743,
      "ባዊ": 4744,
      "ይጠ": 4745,
      "three": 4746,
      "tamment": 4747,
      "5-": 4748,
      "lors": 4749,
      "sans": 4750,
      "2002": 4751,
      "hoto": 4752,
      "rún": 4753,
      "ከበ": 4754,
      "Soci": 4755,
      "gwamnatin": 4756,
      "በየ": 4757,
      "ከራ": 4758,
      "ዘን": 4759,
      "ገዳ": 4760,
      "damu": 4761,
      "kusan": 4762,
      "lọ́dún": 4763,
      "ገኘው": 4764,
      "Ahma": 4765,
      "ode": 4766,
      "zabe": 4767,
      "being": 4768,
      "Kyau": 4769,
      "Pat": 4770,
      "roni": 4771,
      "er.": 4772,
      "notamment": 4773,
      "Alakoso": 4774,
      "rubuta": 4775,
      "April": 4776,
      ")፣": 4777,
      "agbegbe": 4778,
      "kisiwa": 4779,
      "ቀናት": 4780,
      "ባሉ": 4781,
      "ግጥ": 4782,
      "sifi": 4783,
      "zaben": 4784,
      "sosai": 4785,
      "cutar": 4786,
      "Abubakar": 4787,
      "tarihi": 4788,
      "gíga": 4789,
      "tains": 4790,
      "And": 4791,
      "ክራ": 4792,
      "lic": 4793,
      "J.": 4794,
      "neman": 4795,
      "ford": 4796,
      "7-": 4797,
      "t-": 4798,
      "ሥላ": 4799,
      "አጥ": 4800,
      "kiran": 4801,
      "ric": 4802,
      "sociation": 4803,
      "Can": 4804,
      "Academy": 4805,
      "Huku": 4806,
      "Yana": 4807,
      "kún": 4808,
      "husi": 4809,
      "veau": 4810,
      "book": 4811,
      "አካል": 4812,
      "(197": 4813,
      "band": 4814,
      "David": 4815,
      "ipò": 4816,
      "ጠና": 4817,
      "gali": 4818,
      "face": 4819,
      "ክልል": 4820,
      "zinazo": 4821,
      "ààyè": 4822,
      "ባሕር": 4823,
      "AM": 4824,
      "tats": 4825,
      "including": 4826,
      "rẹ́": 4827,
      "ልደት": 4828,
      "ስያ": 4829,
      "enta": 4830,
      "male": 4831,
      "ciki": 4832,
      "kasuwanci": 4833,
      "የሱስ": 4834,
      "kistan": 4835,
      "mbu": 4836,
      "radi": 4837,
      "coun": 4838,
      "(የ": 4839,
      "Sch": 4840,
      "ቀል": 4841,
      "ገው": 4842,
      "ọwọ́": 4843,
      "bal": 4844,
      "abubu": 4845,
      "pekee": 4846,
      "ጽሑፍ": 4847,
      "tha": 4848,
      "amin": 4849,
      "bour": 4850,
      "hairi": 4851,
      "velopment": 4852,
      "uwan": 4853,
      "መጻ": 4854,
      "ሦስት": 4855,
      "ቀዳ": 4856,
      "ያሉ": 4857,
      "any": 4858,
      "sation": 4859,
      "zilizo": 4860,
      "You": 4861,
      "years": 4862,
      "Lab": 4863,
      "Os": 4864,
      "dọ́": 4865,
      "owo": 4866,
      "ìgbé": 4867,
      "an.": 4868,
      "lewa": 4869,
      "mie": 4870,
      "exemp": 4871,
      "Annabi": 4872,
      "Uganda": 4873,
      "ile-": 4874,
      "ón": 4875,
      "ra,": 4876,
      "sìkò": 4877,
      "présent": 4878,
      "première": 4879,
      "plusieurs": 4880,
      "East": 4881,
      "early": 4882,
      "Umoja": 4883,
      "iṣ": 4884,
      "ዕል": 4885,
      "Ọjọ́": 4886,
      "dancin": 4887,
      "vuti": 4888,
      "ደብረ": 4889,
      "philoso": 4890,
      "ከብ": 4891,
      "ወዳ": 4892,
      "ወጥ": 4893,
      "Ọdún": 4894,
      "nifi": 4895,
      "taima": 4896,
      "burg": 4897,
      "Tarihi": 4898,
      "Kal": 4899,
      "gement": 4900,
      "መቶ": 4901,
      "ማይ": 4902,
      "ቨር": 4903,
      "Nijar": 4904,
      "ማርያም": 4905,
      "ሁሉም": 4906,
      "ika": 4907,
      "Guine": 4908,
      "oun": 4909,
      "environ": 4910,
      "makaran": 4911,
      "የተለያዩ": 4912,
      "zote": 4913,
      "ምናል": 4914,
      "Abuja": 4915,
      "ፕሬዚ": 4916,
      "Hun": 4917,
      "bina": 4918,
      "si.": 4919,
      "cours": 4920,
      "99": 4921,
      "Jer": 4922,
      "bles": 4923,
      "ctive": 4924,
      "ሻዎች": 4925,
      "በእ": 4926,
      "ጥረ": 4927,
      "rashin": 4928,
      "dinin": 4929,
      "0,000": 4930,
      "pande": 4931,
      "vit": 4932,
      "ƙin": 4933,
      "ማች": 4934,
      "ቲን": 4935,
      "የህ": 4936,
      "ẹyẹ": 4937,
      "org": 4938,
      "si,": 4939,
      "Robert": 4940,
      "PC": 4941,
      "idan": 4942,
      "ugu": 4943,
      "dubu": 4944,
      "Medi": 4945,
      "(እንግሊዝኛ": 4946,
      "ተዋ": 4947,
      "አራ": 4948,
      "riban": 4949,
      "crip": 4950,
      "ክርስቲያ": 4951,
      "z,": 4952,
      "hawa": 4953,
      "ton,": 4954,
      "-I": 4955,
      "ism": 4956,
      "web": 4957,
      "tary": 4958,
      "Martin": 4959,
      "sée": 4960,
      "àkọ́": 4961,
      "ማጣ": 4962,
      "ካም": 4963,
      "ውሮፓ": 4964,
      "saka": 4965,
      "ge.": 4966,
      "itace": 4967,
      "dhidi": 4968,
      "aláìsí": 4969,
      "Ola": 4970,
      "Jana": 4971,
      "ƙungiyar": 4972,
      "Ọba": 4973,
      "til": 4974,
      "የሚል": 4975,
      "tàkì": 4976,
      "የምት": 4977,
      "38": 4978,
      "Lin": 4979,
      "Pol": 4980,
      "cara": 4981,
      "48": 4982,
      "uel": 4983,
      "እርሱ": 4984,
      "የነበረው": 4985,
      "ሥላሴ": 4986,
      "Fir": 4987,
      "M.": 4988,
      "Mara": 4989,
      "maduni": 4990,
      "pou": 4991,
      "peti": 4992,
      "masara": 4993,
      "kọ̀wé": 4994,
      "Vita": 4995,
      "mam": 4996,
      "unga": 4997,
      "By": 4998,
      "Ye": 4999,
      "ሄድ": 5000,
      "የሰው": 5001,
      "light": 5002,
      "cel": 5003,
      "ṣùgbọ́n": 5004,
      "biwa": 5005,
      "ji.": 5006,
      "point": 5007,
      "Isa": 5008,
      "Olú": 5009,
      "Ras": 5010,
      "mist": 5011,
      "bawa": 5012,
      "bihi": 5013,
      "bijin": 5014,
      "dunia": 5015,
      "Áfríkà": 5016,
      "Ile": 5017,
      "kwe": 5018,
      "appe": 5019,
      "Best": 5020,
      "Sci": 5021,
      "Whi": 5022,
      "hor": 5023,
      "ttu": 5024,
      "ìdá": 5025,
      "ላን": 5026,
      "bayar": 5027,
      "ried": 5028,
      "go,": 5029,
      "wever,": 5030,
      "አምላክ": 5031,
      "ማስታወ": 5032,
      "(d.": 5033,
      "ታቸውን": 5034,
      "እድ": 5035,
      "dif": 5036,
      "ገንዘ": 5037,
      "ጠቃላይ": 5038,
      "score0": 5039,
      "Sikukuu": 5040,
      "jó": 5041,
      "zari": 5042,
      "zation": 5043,
      "type": 5044,
      "Rich": 5045,
      "possi": 5046,
      "nun": 5047,
      "ሌክት": 5048,
      "osere": 5049,
      "እጅግ": 5050,
      "Gwamna": 5051,
      "Ina": 5052,
      "vient": 5053,
      "contr": 5054,
      "lowing": 5055,
      "mjini": 5056,
      "wù": 5057,
      "ስቱ": 5058,
      "ጠን": 5059,
      "zaɓ": 5060,
      "mulki": 5061,
      "found": 5062,
      "Que": 5063,
      "ti.": 5064,
      "list": 5065,
      "tum": 5066,
      "Amerika.": 5067,
      "bàdàn": 5068,
      "th,": 5069,
      "tribu": 5070,
      "pù": 5071,
      "òṣeré": 5072,
      "bada": 5073,
      "these": 5074,
      "differ": 5075,
      "fiel": 5076,
      "peri": 5077,
      "ዮስ": 5078,
      "Tanbihi": 5079,
      "milioni": 5080,
      "anzibar": 5081,
      "Ful": 5082,
      "Fed": 5083,
      "History": 5084,
      "Spa": 5085,
      "mfuata": 5086,
      "ware": 5087,
      "ላው": 5088,
      "ይቻ": 5089,
      "ደስ": 5090,
      "ግ.": 5091,
      "jira": 5092,
      "እንቅ": 5093,
      "common": 5094,
      "miliyan": 5095,
      "ጠቀም": 5096,
      "ሃይማኖት": 5097,
      "TA": 5098,
      "pren": 5099,
      "Ear": 5100,
      "Zanzibar": 5101,
      "fẹ": 5102,
      "li,": 5103,
      "2015,": 5104,
      "Democra": 5105,
      "shirya": 5106,
      "-19": 5107,
      "mou": 5108,
      "same": 5109,
      "Agbegbe": 5110,
      "Cibi": 5111,
      "Nuwa": 5112,
      "jò": 5113,
      "Òun": 5114,
      "ላሉ።": 5115,
      "በእንግሊዝኛ": 5116,
      "tayi": 5117,
      "kan.": 5118,
      "ሳይሆን": 5119,
      "mwanasiasa": 5120,
      "tarihin": 5121,
      "dúgbò": 5122,
      "gbara": 5123,
      "buil": 5124,
      "Ter": 5125,
      "ሴቶች": 5126,
      "በደቡብ": 5127,
      "ዓይ": 5128,
      "የሩ": 5129,
      "ዳግ": 5130,
      "ገነ": 5131,
      "muda": 5132,
      "tsawon": 5133,
      "pàtàkì": 5134,
      "chaguzi": 5135,
      "yama": 5136,
      "tatu": 5137,
      "mea": 5138,
      "úsù": 5139,
      "ቀድሞ": 5140,
      "bakwai": 5141,
      "gabar": 5142,
      "fice": 5143,
      "giriki": 5144,
      "wari": 5145,
      "inte": 5146,
      "leurs": 5147,
      "world": 5148,
      "Sai": 5149,
      "kwen": 5150,
      "nord": 5151,
      "kiwa": 5152,
      "babbar": 5153,
      "depuis": 5154,
      "1998": 5155,
      "Ama": 5156,
      "Sau": 5157,
      "labara": 5158,
      "refer": 5159,
      "jimi": 5160,
      "náà,": 5161,
      "ìbílẹ̀": 5162,
      "Naijiria.": 5163,
      "ክርስት": 5164,
      "tattalin": 5165,
      "momi": 5166,
      "dọ̀": 5167,
      "ባብ": 5168,
      "አሳ": 5169,
      "maana": 5170,
      "nítorí": 5171,
      "kom": 5172,
      "kere": 5173,
      "uf": 5174,
      "chama": 5175,
      "Bat": 5176,
      "s)": 5177,
      "yn": 5178,
      "በታ": 5179,
      "በኩል": 5180,
      "hel": 5181,
      "alààyè": 5182,
      "me,": 5183,
      "kare": 5184,
      "gbáyé": 5185,
      "langue": 5186,
      "ወርቅ": 5187,
      "Rayuwar": 5188,
      "marubu": 5189,
      "Micha": 5190,
      "Greek": 5191,
      "ፖሊ": 5192,
      "syst": 5193,
      "አባል": 5194,
      "yàwó": 5195,
      "laire": 5196,
      "volution": 5197,
      "64": 5198,
      "aina": 5199,
      "owó": 5200,
      "ፍና": 5201,
      "gbẹ̀": 5202,
      "ሲሆን፣": 5203,
      "ሁለተኛው": 5204,
      "born": 5205,
      "Karamar": 5206,
      "ep": 5207,
      "auto": 5208,
      "version": 5209,
      "River": 5210,
      "Portu": 5211,
      "Fer": 5212,
      "ክብ": 5213,
      "የነ": 5214,
      "su,": 5215,
      "papa": 5216,
      "ነትን": 5217,
      "ጀመረ": 5218,
      "kasashen": 5219,
      "68": 5220,
      "Wo": 5221,
      "team": 5222,
      "nia": 5223,
      "O.": 5224,
      "P.": 5225,
      "gọ́": 5226,
      "kta": 5227,
      "ተቋ": 5228,
      "ዋት": 5229,
      "tiques": 5230,
      "mada": 5231,
      "sili": 5232,
      "የተባለው": 5233,
      "መረጃ": 5234,
      "anzishwa": 5235,
      "Cas": 5236,
      "mtu": 5237,
      "uka": 5238,
      "wurin": 5239,
      "አቶ": 5240,
      "ṣì": 5241,
      "hilo": 5242,
      "ወለዱ": 5243,
      "የመጀመሪያው": 5244,
      "400": 5245,
      "damar": 5246,
      "አድ": 5247,
      "ondo": 5248,
      "haki": 5249,
      "biya": 5250,
      "ils": 5251,
      "2014,": 5252,
      "hankali": 5253,
      "Paris": 5254,
      "Hukumar": 5255,
      "Elle": 5256,
      "vy": 5257,
      "Ijoba": 5258,
      "ተዋል።": 5259,
      "ኮን": 5260,
      "times": 5261,
      "unin": 5262,
      "ilẹ": 5263,
      "servi": 5264,
      "gres": 5265,
      "ዕዝ": 5266,
      "death": 5267,
      "»)": 5268,
      "ሕግ": 5269,
      "መዋ": 5270,
      "ትው": 5271,
      "ያዊ": 5272,
      "mitin": 5273,
      "ing.": 5274,
      "Mayu": 5275,
      "2017,": 5276,
      "1994": 5277,
      "ingia": 5278,
      "Turai": 5279,
      "ES": 5280,
      "gg": 5281,
      "féren": 5282,
      "-ẹ̀yẹ": 5283,
      "Juli": 5284,
      "mm": 5285,
      "rù": 5286,
      "ላሉ": 5287,
      "የን": 5288,
      "ይሄ": 5289,
      "ግሪክ": 5290,
      "tali": 5291,
      "kimanin": 5292,
      "teau": 5293,
      "2011,": 5294,
      "2016,": 5295,
      "የተክሉ": 5296,
      "signifi": 5297,
      "takriban": 5298,
      "jou": 5299,
      "bien": 5300,
      "gie": 5301,
      "Gómìnà": 5302,
      "ሪቱ": 5303,
      "ጠፋ": 5304,
      "dawo": 5305,
      "keji": 5306,
      "stra": 5307,
      "appli": 5308,
      "exi": 5309,
      "በመሆኑ": 5310,
      "olojia": 5311,
      "olóṣèlú": 5312,
      "ọ̀pọ̀lọpọ̀": 5313,
      "Seri": 5314,
      "ite": 5315,
      "pur": 5316,
      "moins": 5317,
      "2012,": 5318,
      "cultur": 5319,
      "ሚካ": 5320,
      "ቲክ": 5321,
      "ቶቹ": 5322,
      "የኦ": 5323,
      "ጥያ": 5324,
      "nasara": 5325,
      "sant": 5326,
      "Lakini": 5327,
      "mwisho": 5328,
      "dò": 5329,
      "gou": 5330,
      "els": 5331,
      "Peter": 5332,
      "Louis": 5333,
      "ሦር": 5334,
      "አየር": 5335,
      "ገኛ": 5336,
      "sil": 5337,
      "papọ̀": 5338,
      "rẹ̀,": 5339,
      "Isra": 5340,
      "wakil": 5341,
      "elf": 5342,
      "cations": 5343,
      "major": 5344,
      "Nas": 5345,
      "pẹ́": 5346,
      "እንኳ": 5347,
      "ምንጭ": 5348,
      "Union": 5349,
      "lea": 5350,
      "fut": 5351,
      "appro": 5352,
      "Lib": 5353,
      "ስማ": 5354,
      "ቢት": 5355,
      "ካሌ": 5356,
      "ግለ": 5357,
      "onimo": 5358,
      "apá": 5359,
      "himman": 5360,
      "መጠን": 5361,
      "ትልቅ": 5362,
      "2001": 5363,
      "2019,": 5364,
      "32": 5365,
      "ide": 5366,
      "ባል።": 5367,
      "ዲህ": 5368,
      "ፊደል": 5369,
      "wadda": 5370,
      "kiti": 5371,
      "ያንዳን": 5372,
      "Legas": 5373,
      "dínlógún": 5374,
      "ይችላል።": 5375,
      "Michael": 5376,
      "rd": 5377,
      "ziri": 5378,
      "contre": 5379,
      "ine.": 5380,
      "ፖር": 5381,
      "mapo": 5382,
      "sayansi": 5383,
      "Magharibi": 5384,
      "sanin": 5385,
      "kungi": 5386,
      "ident": 5387,
      "Yohan": 5388,
      "Fas": 5389,
      "Mul": 5390,
      "et,": 5391,
      "pital": 5392,
      "do,": 5393,
      "menti": 5394,
      "km²": 5395,
      "Oly": 5396,
      "Pop": 5397,
      "Ƴan": 5398,
      "ኃይል": 5399,
      "ኘው": 5400,
      "ጡት": 5401,
      "chuku": 5402,
      "contra": 5403,
      "adhim": 5404,
      "ይታወቃል።": 5405,
      "ምናልባት": 5406,
      "Hali": 5407,
      "pani": 5408,
      "Book": 5409,
      "(196": 5410,
      "0-": 5411,
      "egbe": 5412,
      "ታን": 5413,
      "የሆኑ": 5414,
      "ስለሆነ": 5415,
      "angla": 5416,
      "አይደለም": 5417,
      "ister": 5418,
      "-daban": 5419,
      "mana": 5420,
      "ዜና": 5421,
      "ይዩ": 5422,
      "ግዛ": 5423,
      "hau": 5424,
      "በትን": 5425,
      "sune": 5426,
      "limi": 5427,
      "safi": 5428,
      "trois": 5429,
      "Sul": 5430,
      "toni": 5431,
      "ዝና": 5432,
      "estern": 5433,
      "cika": 5434,
      "1987": 5435,
      "አባት": 5436,
      "Japani": 5437,
      "jam'i": 5438,
      "(;": 5439,
      "Cette": 5440,
      "now": 5441,
      "acti": 5442,
      "Maria": 5443,
      "=\"": 5444,
      "Moro": 5445,
      "ima": 5446,
      "ር-": 5447,
      "ብሊክ": 5448,
      "ከማ": 5449,
      "ganin": 5450,
      "kumbukumbu": 5451,
      "FIFA": 5452,
      "ይር": 5453,
      "ፓንያ": 5454,
      "nafasi": 5455,
      "እንደሆነ": 5456,
      "Royal": 5457,
      "Lẹ́yìn": 5458,
      "mapokeo": 5459,
      "9-": 5460,
      "ሐይ": 5461,
      "tabu": 5462,
      "ista": 5463,
      "Bank": 5464,
      "58": 5465,
      "በሌላ": 5466,
      "kabila": 5467,
      "town": 5468,
      "alle": 5469,
      "raba": 5470,
      "kanta": 5471,
      "ature": 5472,
      "lilikuwa": 5473,
      "physi": 5474,
      "suite": 5475,
      "Tarayyar": 5476,
      "fuatana": 5477,
      "....": 5478,
      "(kwa": 5479,
      "አለም": 5480,
      "inté": 5481,
      "hal": 5482,
      "both": 5483,
      "umba": 5484,
      "1993": 5485,
      "onekana": 5486,
      "kẹrin": 5487,
      "certain": 5488,
      "daban-daban": 5489,
      "ajili": 5490,
      "entomon": 5491,
      "Kana": 5492,
      "gege": 5493,
      "Andre": 5494,
      "178": 5495,
      "-ún": 5496,
      "Akin": 5497,
      "Glo": 5498,
      "በቃ": 5499,
      "ይጠቀ": 5500,
      "ገቡ": 5501,
      "mahaifin": 5502,
      "lations": 5503,
      "hizi": 5504,
      "alu": 5505,
      "mirefu": 5506,
      "member": 5507,
      "com/": 5508,
      "1997": 5509,
      "mengine": 5510,
      "hindi": 5511,
      "milima": 5512,
      "prési": 5513,
      "Thomas": 5514,
      "Cibiyar": 5515,
      "St.": 5516,
      "lit": 5517,
      "150": 5518,
      "Son": 5519,
      "sp": 5520,
      "Ìbàdàn": 5521,
      "ƙida": 5522,
      "ሊዮን": 5523,
      "ምል": 5524,
      "በዓ": 5525,
      "kale": 5526,
      "እንደገና": 5527,
      "ማርቆስ": 5528,
      "Nigeria.": 5529,
      "míràn": 5530,
      "Bau": 5531,
      "Russi": 5532,
      "neo": 5533,
      "1991": 5534,
      "Muhammadu": 5535,
      "Tri": 5536,
      "mwen": 5537,
      "haɗa": 5538,
      "shida": 5539,
      "baadaye": 5540,
      "dian": 5541,
      "Mac": 5542,
      "cated": 5543,
      "dd": 5544,
      "imu": 5545,
      "mkoa": 5546,
      "ራል።": 5547,
      "ውጤ": 5548,
      "ዛኛው": 5549,
      "የእ": 5550,
      "ዳዊ": 5551,
      "mahali": 5552,
      "dies": 5553,
      "cell": 5554,
      "walikuwa": 5555,
      "rayuwar": 5556,
      "ado": 5557,
      "opo": 5558,
      "anda": 5559,
      "ch,": 5560,
      "ques,": 5561,
      "against": 5562,
      "wú": 5563,
      "wun": 5564,
      "ɗau": 5565,
      "ነቶች": 5566,
      "fika": 5567,
      "Makarantar": 5568,
      "before": 5569,
      "wengine": 5570,
      "Enugu": 5571,
      "ደረጉ": 5572,
      "ọ̀nà": 5573,
      "ጎርጎር": 5574,
      "ṣẹ̀lẹ̀": 5575,
      "Richard": 5576,
      "ages": 5577,
      "tsar": 5578,
      "Bre": 5579,
      "pol": 5580,
      "በነ": 5581,
      "ብን": 5582,
      "ጠል": 5583,
      "’i": 5584,
      "isari": 5585,
      "babu": 5586,
      "sile": 5587,
      "jiji": 5588,
      "Mutu": 5589,
      "Eng": 5590,
      "kwenda": 5591,
      "Cal": 5592,
      "Women": 5593,
      "while": 5594,
      "estival": 5595,
      "-à": 5596,
      "Kol": 5597,
      "Phili": 5598,
      "gbi": 5599,
      "ችል": 5600,
      "wao": 5601,
      "taken": 5602,
      "lated": 5603,
      "omina": 5604,
      "count": 5605,
      "Benin": 5606,
      "Ethiopia": 5607,
      "re.": 5608,
      "sítì": 5609,
      "በብዛት": 5610,
      "Hispania": 5611,
      "በሽታ": 5612,
      "eu": 5613,
      "gni": 5614,
      "étu": 5615,
      "bi,": 5616,
      "ko.": 5617,
      "Film": 5618,
      "aje": 5619,
      "kofu": 5620,
      "tran": 5621,
      "በጥ": 5622,
      "ṣò": 5623,
      "tes,": 5624,
      "moni": 5625,
      "yahu": 5626,
      "ess": 5627,
      "muka": 5628,
      "47": 5629,
      "መቅ": 5630,
      "፲፰": 5631,
      "ṣir": 5632,
      "yi,": 5633,
      "2016.": 5634,
      "ሳይን": 5635,
      "Bello": 5636,
      "መንፈስ": 5637,
      "jeni": 5638,
      "n'": 5639,
      "fili": 5640,
      "berg": 5641,
      "généra": 5642,
      "bọ̀": 5643,
      "pú": 5644,
      "Ìlú": 5645,
      "ìgb": 5646,
      "ሲል": 5647,
      "ብዛት": 5648,
      "nipa": 5649,
      "wọn.": 5650,
      "less": 5651,
      "Angel": 5652,
      "እስያ": 5653,
      "First": 5654,
      "D.": 5655,
      "2018,": 5656,
      "Kingdom": 5657,
      "Mus": 5658,
      "Sco": 5659,
      "kofin": 5660,
      "mó": 5661,
      "መም": 5662,
      "መና": 5663,
      "ውቅ": 5664,
      "man,": 5665,
      "ማጣቀ": 5666,
      "Ur": 5667,
      "base": 5668,
      "Cana": 5669,
      "Fab": 5670,
      "Kò": 5671,
      "ረግ": 5672,
      "ኑስ": 5673,
      "ars": 5674,
      "Hotuna": 5675,
      "Tech": 5676,
      "300": 5677,
      "kimi": 5678,
      "sty": 5679,
      "pindi": 5680,
      "U.": 5681,
      "sẹ́": 5682,
      "ኒው": 5683,
      "ciyar": 5684,
      "autre": 5685,
      "dangan": 5686,
      "ከተለው": 5687,
      "effe": 5688,
      "ንዳር": 5689,
      "55": 5690,
      "late": 5691,
      "Mkuu": 5692,
      "ìl": 5693,
      "ɗu": 5694,
      "ከታ": 5695,
      "issance": 5696,
      "ort": 5697,
      "sal": 5698,
      "logi": 5699,
      "ilé-iṣẹ́": 5700,
      "ƙidayar": 5701,
      "Dé": 5702,
      "God": 5703,
      "zuri": 5704,
      "anal": 5705,
      "toa": 5706,
      "meji": 5707,
      "Pope": 5708,
      "Visiwa": 5709,
      "ሚስት": 5710,
      "ኃይለ": 5711,
      "ዕብራ": 5712,
      "የሞ": 5713,
      "wili": 5714,
      "በአሁኑ": 5715,
      "indust": 5716,
      "Has": 5717,
      "elé": 5718,
      "kan,": 5719,
      "Mary": 5720,
      "(«": 5721,
      "Ká": 5722,
      "ሥቱ": 5723,
      "ግድ": 5724,
      "land,": 5725,
      "Nígbà": 5726,
      "ጥንት": 5727,
      "NA": 5728,
      "oju": 5729,
      "w,": 5730,
      "በኛ": 5731,
      "ገዥ": 5732,
      "ፊል": 5733,
      "alipo": 5734,
      "play": 5735,
      "---": 5736,
      "አፍሪካ": 5737,
      "ẹ̀ẹ́sì": 5738,
      "Cali": 5739,
      "Grand": 5740,
      "mini": 5741,
      "ennes": 5742,
      "dua": 5743,
      "vait": 5744,
      "Duk": 5745,
      "High": 5746,
      "Cong": 5747,
      "úúsù": 5748,
      "ውጭ": 5749,
      "ያደር": 5750,
      "kupi": 5751,
      "sakand": 5752,
      "haifiyar": 5753,
      "Ibile": 5754,
      "shirye-": 5755,
      "(O": 5756,
      "Egy": 5757,
      "Hel": 5758,
      "Tsar": 5759,
      "phe": 5760,
      "Republic": 5761,
      "Brazil": 5762,
      "éle": 5763,
      "ƙara": 5764,
      "ማል": 5765,
      "ሪት": 5766,
      "በሙሉ": 5767,
      "አሉ": 5768,
      "ክን": 5769,
      "see": 5770,
      "ye,": 5771,
      "cons": 5772,
      "1995": 5773,
      "hannu": 5774,
      "ambako": 5775,
      "née": 5776,
      "trodu": 5777,
      "mnamo": 5778,
      "እምነት": 5779,
      "R.": 5780,
      "wit": 5781,
      "mall": 5782,
      "Olympi": 5783,
      "Dau": 5784,
      "ሕይወት": 5785,
      "ይፋ": 5786,
      "ገጽ": 5787,
      "temps": 5788,
      "akoko": 5789,
      "pendant": 5790,
      "rana": 5791,
      "tage": 5792,
      "based": 5793,
      "cir": 5794,
      "1996": 5795,
      "voi": 5796,
      "und)": 5797,
      "Association": 5798,
      "Guinea": 5799,
      "(a": 5800,
      "Sir": 5801,
      "ቡድን": 5802,
      "ብል": 5803,
      "ቱርክ": 5804,
      "አህ": 5805,
      "ካታ": 5806,
      "enye": 5807,
      "bangar": 5808,
      "mpya": 5809,
      "gboyè": 5810,
      "ስተኛ": 5811,
      "Yoruba": 5812,
      "anzisha": 5813,
      "ወታደ": 5814,
      "caract": 5815,
      "Yohane": 5816,
      "K.": 5817,
      "titi": 5818,
      "Latin": 5819,
      "establi": 5820,
      "Ze": 5821,
      "ndi": 5822,
      "py": 5823,
      "ring": 5824,
      "ሕንድ": 5825,
      "ሳሰ": 5826,
      "ኝነት": 5827,
      "አና": 5828,
      "የዓለም": 5829,
      "maisha": 5830,
      "order": 5831,
      "bikin": 5832,
      "títí": 5833,
      "lábẹ́": 5834,
      "ስራቅ": 5835,
      "vina": 5836,
      "back": 5837,
      "ci.": 5838,
      "Kun": 5839,
      "fus": 5840,
      "nú": 5841,
      "ን፣": 5842,
      "ዝማች": 5843,
      "ብሔራዊ": 5844,
      "hesabiwa": 5845,
      "Arabi": 5846,
      "uishe": 5847,
      "Mpaka": 5848,
      "bis": 5849,
      "ሙት": 5850,
      "ውሃ": 5851,
      "ዘዴ": 5852,
      "ጥበብ": 5853,
      "ፍቅር": 5854,
      "huadhim": 5855,
      "come": 5856,
      "gargaji": 5857,
      "wengi,": 5858,
      "የውጭ": 5859,
      "ፍልስ": 5860,
      "masana'an": 5861,
      "our": 5862,
      "von": 5863,
      "tu.": 5864,
      "réali": 5865,
      "ative": 5866,
      "(,": 5867,
      "Mur": 5868,
      "Ìgbé": 5869,
      "ማት": 5870,
      "pewa": 5871,
      "፲፱፻፶": 5872,
      "continu": 5873,
      ");": 5874,
      "ei": 5875,
      "pose": 5876,
      "prote": 5877,
      "cording": 5878,
      "tura": 5879,
      "ስቶ": 5880,
      "ያሳ": 5881,
      "ይዞ": 5882,
      "Ọmọ": 5883,
      "kadhaa": 5884,
      "haɗin": 5885,
      "did": 5886,
      "ket": 5887,
      "177": 5888,
      "lọ.": 5889,
      "kálẹ̀": 5890,
      "Borno": 5891,
      "àkọ́lé": 5892,
      "Nuwamba": 5893,
      "ካሌንዳር": 5894,
      "ጎርጎርያን": 5895,
      "dina": 5896,
      "prom": 5897,
      "semble": 5898,
      "ሥልጣን": 5899,
      "ራኤል": 5900,
      "ስል": 5901,
      "በኦ": 5902,
      "ọ̀lù": 5903,
      "zarin": 5904,
      "ọjọ́aláìsí": 5905,
      "dàgbà": 5906,
      "bility": 5907,
      "ሁለተኛ": 5908,
      "fásítì": 5909,
      "ድርጅት": 5910,
      "ወልደ": 5911,
      "ሳይንሳዊ": 5912,
      "%)": 5913,
      "hwa": 5914,
      "rama": 5915,
      "thor": 5916,
      "actu": 5917,
      "Second": 5918,
      "cord": 5919,
      "fas": 5920,
      "hé": 5921,
      "imani": 5922,
      "lun": 5923,
      "ችሁ": 5924,
      "ከላ": 5925,
      "የቆ": 5926,
      "የቀን": 5927,
      "masha": 5928,
      "ment,": 5929,
      "ዳንት": 5930,
      "Tsa": 5931,
      "to.": 5932,
      "ducation": 5933,
      "ouest": 5934,
      "oyè": 5935,
      "òkè": 5936,
      "መሬት": 5937,
      "ስድ": 5938,
      "በኢ": 5939,
      "kadi": 5940,
      "sever": 5941,
      "ቸው።": 5942,
      "wáyé": 5943,
      "bou": 5944,
      "cat": 5945,
      "could": 5946,
      "nde": 5947,
      "tè": 5948,
      "ሥጋ": 5949,
      "anen": 5950,
      "ke,": 5951,
      "conne": 5952,
      "Pakistan": 5953,
      "Ilimi": 5954,
      "avant": 5955,
      "mwezi": 5956,
      "tsu": 5957,
      "shari": 5958,
      "2015.": 5959,
      "Henry": 5960,
      "gè": 5961,
      "h.": 5962,
      "ìròyìn": 5963,
      "ረጋ": 5964,
      "ርቶ": 5965,
      "ጊዮር": 5966,
      "esse": 5967,
      "due": 5968,
      "atre": 5969,
      "asali": 5970,
      "groupe": 5971,
      "ከዚያም": 5972,
      "ከነዓ": 5973,
      "importan": 5974,
      "ጊዮርጊ": 5975,
      "-O": 5976,
      "56": 5977,
      "1975": 5978,
      "pany": 5979,
      "አቅ": 5980,
      "ዴት": 5981,
      "kawo": 5982,
      "lafa": 5983,
      "nam": 5984,
      "dola": 5985,
      "አገራት": 5986,
      "Poli": 5987,
      "የማይ": 5988,
      "sára": 5989,
      "jamii": 5990,
      "ቀጥሎ": 5991,
      "(1": 5992,
      "rich": 5993,
      "souvent": 5994,
      "spa": 5995,
      "ƙir": 5996,
      "ለሁ": 5997,
      "ሰጥ": 5998,
      "ስቃ": 5999,
      "ቦት": 6000,
      "ያያ": 6001,
      "ጽሕ": 6002,
      "kalẹ̀": 6003,
      "Phi": 6004,
      "Pal": 6005,
      "Sil": 6006,
      "rai": 6007,
      "shar": 6008,
      "1989": 6009,
      "derni": 6010,
      "Argent": 6011,
      "Adam": 6012,
      "ተቃ": 6013,
      "ጠብ": 6014,
      "sayen": 6015,
      "2091": 6016,
      "Life": 6017,
      "ibile": 6018,
      "taimaka": 6019,
      "jusqu'": 6020,
      "Vir": 6021,
      "rian": 6022,
      "mir": 6023,
      "Church": 6024,
      "hìn": 6025,
      "ipo": 6026,
      "yẹ̀": 6027,
      "ኪያ": 6028,
      "ካን": 6029,
      "ዛዝ": 6030,
      "ደጃ": 6031,
      "safa": 6032,
      "addinin": 6033,
      "ምንት": 6034,
      "፲፱፻፷": 6035,
      "ሥራቅ": 6036,
      "ri.": 6037,
      "ngu": 6038,
      "ል፡፡": 6039,
      "በጎርጎርያን": 6040,
      "ዝርያ": 6041,
      "የለ": 6042,
      "የኮ": 6043,
      "de-": 6044,
      "simp": 6045,
      "thro": 6046,
      "chungu": 6047,
      "fafa": 6048,
      "Kijerumani": 6049,
      "Albert": 6050,
      "ጊዜም": 6051,
      "ስለሚ": 6052,
      "mbre": 6053,
      "ደረሰ": 6054,
      "ደራሲ": 6055,
      "Philip": 6056,
      "fron": 6057,
      "father": 6058,
      "érica": 6059,
      "lara": 6060,
      "pam": 6061,
      "ሏል።": 6062,
      "የሆነው": 6063,
      "ድሮ": 6064,
      "ጠላ": 6065,
      "‎‎": 6066,
      "ancin": 6067,
      "202": 6068,
      "ትርጉም": 6069,
      "large": 6070,
      "kẹ́kọ̀ọ́": 6071,
      "communi": 6072,
      "hing": 6073,
      "oma": 6074,
      "former": 6075,
      "partir": 6076,
      "Act": 6077,
      "tọ": 6078,
      "የለው": 6079,
      "yota": 6080,
      "Soko": 6081,
      "ድረስ)": 6082,
      "የሚያስ": 6083,
      "production": 6084,
      "ተከታ": 6085,
      "Birnin": 6086,
      "ማስታወሻዎች": 6087,
      "ገንዘብ": 6088,
      "Gam": 6089,
      "aure": 6090,
      "dge": 6091,
      "rar": 6092,
      "haya": 6093,
      "langues": 6094,
      "mus": 6095,
      "osu": 6096,
      "በራ": 6097,
      "ጋሪ": 6098,
      "2014.": 6099,
      "bunge": 6100,
      "Ibn": 6101,
      "tiki": 6102,
      "lian": 6103,
      "rawar": 6104,
      "1982": 6105,
      "cheo": 6106,
      "America": 6107,
      "46": 6108,
      "Bá": 6109,
      "CM": 6110,
      "eto": 6111,
      "ነቱን": 6112,
      "ገሩ": 6113,
      "until": 6114,
      "kimataifa": 6115,
      "Francis": 6116,
      "kẹta": 6117,
      "watakatifu": 6118,
      "Orílẹ̀-èdè": 6119,
      "መጻሕ": 6120,
      "ያንዳንዱ": 6121,
      "49": 6122,
      "fre": 6123,
      "ná": 6124,
      "rangi": 6125,
      "compu": 6126,
      "1950": 6127,
      "ሙን": 6128,
      "ሱን": 6129,
      "ቤቱ": 6130,
      "ዋጋ": 6131,
      "ገት": 6132,
      "ጥቅ": 6133,
      "kaya": 6134,
      "huu": 6135,
      "llar": 6136,
      "Afrika.": 6137,
      "Kur": 6138,
      "kuru": 6139,
      "fira": 6140,
      "présen": 6141,
      "familia": 6142,
      "Cy": 6143,
      "mmoja": 6144,
      "ለ።": 6145,
      "ስ፣": 6146,
      "ጠሩ": 6147,
      "nasar": 6148,
      "tege": 6149,
      "OL": 6150,
      "élé": 6151,
      "ared": 6152,
      "isation": 6153,
      "Nollywood": 6154,
      "ƙun": 6155,
      "ናይት": 6156,
      "ክሲ": 6157,
      "dec": 6158,
      "area": 6159,
      "conna": 6160,
      "2010,": 6161,
      "síwájú": 6162,
      "commer": 6163,
      "òṣèlú": 6164,
      "Kamusi": 6165,
      "labarai": 6166,
      "kashi": 6167,
      "shi.": 6168,
      "57": 6169,
      "A)": 6170,
      "Mc": 6171,
      "rer": 6172,
      "les.": 6173,
      "ed.": 6174,
      "olowo": 6175,
      "Day": 6176,
      "gwamnan": 6177,
      "Saint-": 6178,
      "lafiya": 6179,
      "Bara": 6180,
      "Spe": 6181,
      "albu": 6182,
      "Johan": 6183,
      "taniya": 6184,
      "AR": 6185,
      "ውል": 6186,
      "ዲዮ": 6187,
      "arri": 6188,
      "irun": 6189,
      "2013,": 6190,
      "India": 6191,
      "1976": 6192,
      "1966": 6193,
      "kọkàn": 6194,
      "present": 6195,
      "አውሮፓ": 6196,
      "system": 6197,
      "Salaam": 6198,
      "bwe": 6199,
      "tru": 6200,
      "fix": 6201,
      "ings": 6202,
      "mary": 6203,
      "Kimi": 6204,
      "multi": 6205,
      "Publi": 6206,
      "ace": 6207,
      "c'est": 6208,
      "ksi": 6209,
      "uchumi": 6210,
      "ለጠ": 6211,
      "ነፍ": 6212,
      "Lega": 6213,
      "Kaisari": 6214,
      "tàgé": 6215,
      "Yes": 6216,
      "États": 6217,
      "Lea": 6218,
      "Frank": 6219,
      "Land": 6220,
      "ቀይ": 6221,
      "ẹrẹ": 6222,
      "taji": 6223,
      "የሚታወ": 6224,
      "um,": 6225,
      "1992": 6226,
      "ወይንም": 6227,
      "ayẹyẹ": 6228,
      "duniya.": 6229,
      "ulio": 6230,
      "Gaba": 6231,
      "ዕለተ": 6232,
      "(ከ1892": 6233,
      "grande": 6234,
      "sto": 6235,
      "near": 6236,
      "nouvel": 6237,
      "Mexi": 6238,
      "hand": 6239,
      "ip": 6240,
      "àá": 6241,
      "ዘው": 6242,
      "sakama": 6243,
      "tu,": 6244,
      "ambapo": 6245,
      "ማጣቀሻ": 6246,
      "Mos": 6247,
      "quent": 6248,
      "soit": 6249,
      "family": 6250,
      "Pra": 6251,
      "kes": 6252,
      "àgbáyé": 6253,
      "ልጁ": 6254,
      "ማሽ": 6255,
      "፡በ": 6256,
      "hak": 6257,
      "kowa": 6258,
      "ellement": 6259,
      "gia": 6260,
      "lọ́gbọ̀n": 6261,
      "Farkon": 6262,
      "ሌክትሪክ": 6263,
      "67": 6264,
      "bs": 6265,
      "associ": 6266,
      "resul": 6267,
      "::": 6268,
      "Eneo": 6269,
      "ሜዳ": 6270,
      "አሉ።": 6271,
      "daida": 6272,
      "rage": 6273,
      "የአፍ": 6274,
      "Kale": 6275,
      "ography": 6276,
      "ፈርዖን": 6277,
      "rikisho": 6278,
      "</": 6279,
      "Gab": 6280,
      "Ol": 6281,
      "mambo": 6282,
      "simi": 6283,
      "Leo": 6284,
      "Er": 6285,
      "og": 6286,
      "ሊን": 6287,
      "ሥፍራ": 6288,
      "በስተ": 6289,
      "ቴሌ": 6290,
      "1920": 6291,
      "1918": 6292,
      "dida": 6293,
      "karin": 6294,
      "የተፈ": 6295,
      "በማለት": 6296,
      "Sudan": 6297,
      "Biranen": 6298,
      "yaliyo": 6299,
      "ራሱን": 6300,
      "développe": 6301,
      "Bus": 6302,
      "One": 6303,
      "siri": 6304,
      "1988": 6305,
      "ological": 6306,
      "(tí": 6307,
      "Ham": 6308,
      "kwu": 6309,
      "መላ": 6310,
      "waye": 6311,
      "kabisa": 6312,
      "samo": 6313,
      "hiyar": 6314,
      "pop": 6315,
      "jẹsára": 6316,
      "différent": 6317,
      "cam": 6318,
      "mate": 6319,
      "pay": 6320,
      "program": 6321,
      "sions": 6322,
      "politique": 6323,
      "Christian": 6324,
      "98": 6325,
      "fari": 6326,
      "mẹ": 6327,
      "ውሀ": 6328,
      "askofu": 6329,
      "መሰረት": 6330,
      "kyautar": 6331,
      "yammacin": 6332,
      "Ath": 6333,
      "jwa": 6334,
      "rist": 6335,
      "waju": 6336,
      "hakan": 6337,
      "died": 6338,
      "ghu": 6339,
      "mwenye": 6340,
      "ሆይ": 6341,
      "ድና": 6342,
      "koyar": 6343,
      "ctur": 6344,
      "አገሮች": 6345,
      "Jami’ar": 6346,
      "Arewacin": 6347,
      "Disamba": 6348,
      "(ya": 6349,
      "(18": 6350,
      "Tal": 6351,
      "ra.": 6352,
      "After": 6353,
      "Tanzania.": 6354,
      "kka": 6355,
      "mfano": 6356,
      "ሜት": 6357,
      "ከም": 6358,
      "kashe": 6359,
      "ma'a": 6360,
      "labar": 6361,
      "ison": 6362,
      "them": 6363,
      "kowan": 6364,
      "l'a": 6365,
      "cover": 6366,
      "ክፍሎች": 6367,
      "በርካታ": 6368,
      "Alimfuata": 6369,
      "bọ́ọ̀lù": 6370,
      "ht": 6371,
      "l.": 6372,
      "shi,": 6373,
      "Alha": 6374,
      "Akwai": 6375,
      "Oṣu": 6376,
      "ዶሮ": 6377,
      "ፈራ": 6378,
      "ziwa": 6379,
      "ትንሽ": 6380,
      "wakifuata": 6381,
      "RD2-": 6382,
      "Abdulla": 6383,
      "መልክዓ": 6384,
      "àìsàn": 6385,
      "kabla": 6386,
      "bani": 6387,
      "eth": 6388,
      "1984": 6389,
      "1967": 6390,
      "colle": 6391,
      "Asa": 6392,
      "gare": 6393,
      "ቴክ": 6394,
      "ጸሐ": 6395,
      "arziki": 6396,
      "Ang": 6397,
      "donc": 6398,
      "yanayin": 6399,
      "duniani": 6400,
      "ma'aika": 6401,
      "huadhimisha": 6402,
      "ney": 6403,
      "exist": 6404,
      "Washing": 6405,
      "(The": 6406,
      "Eu": 6407,
      "clai": 6408,
      "kisi": 6409,
      "ለቀ": 6410,
      "አራት": 6411,
      "ጉል": 6412,
      "makuu": 6413,
      "hamia": 6414,
      "olf": 6415,
      "though": 6416,
      "1979": 6417,
      "babisha": 6418,
      "Edward": 6419,
      "mirefu).": 6420,
      "Hasa": 6421,
      "Swe": 6422,
      "hus": 6423,
      "head": 6424,
      "cei": 6425,
      "gua": 6426,
      "government": 6427,
      "cole": 6428,
      "1945": 6429,
      "Ale": 6430,
      "àjọ": 6431,
      "ቡር": 6432,
      "ካባቢ": 6433,
      "ኮት": 6434,
      "ወራ": 6435,
      "wala": 6436,
      "cewar": 6437,
      "administ": 6438,
      "ghts": 6439,
      "1986": 6440,
      "1974": 6441,
      "1977": 6442,
      "zinabaki": 6443,
      "ografia": 6444,
      "ደረገው": 6445,
      "tabba": 6446,
      "million": 6447,
      "Fabra": 6448,
      "Wat": 6449,
      "ît": 6450,
      "américa": 6451,
      "mean": 6452,
      "1983": 6453,
      "syn": 6454,
      "96": 6455,
      "Fun": 6456,
      "Sol": 6457,
      "ndogo": 6458,
      "ጥብ": 6459,
      "ision": 6460,
      "ባቢሎን": 6461,
      "Usman": 6462,
      "ጉዳይ": 6463,
      "modern": 6464,
      "Bauchi": 6465,
      "sayensi": 6466,
      "neno": 6467,
      "demo": 6468,
      "poin": 6469,
      "té,": 6470,
      "Music": 6471,
      "around": 6472,
      "ለሚ": 6473,
      "ታችን": 6474,
      "አጋ": 6475,
      "ክብር": 6476,
      "simu": 6477,
      "dia.": 6478,
      "wanao": 6479,
      "1=": 6480,
      "cteur": 6481,
      "anin": 6482,
      "mach": 6483,
      "often": 6484,
      "connu": 6485,
      "2011.": 6486,
      "ctori": 6487,
      "menta": 6488,
      "Oyo": 6489,
      "jọ̀": 6490,
      "àṣà": 6491,
      "ƙo": 6492,
      "ሞን": 6493,
      "ዕድ": 6494,
      "ፍን": 6495,
      "takwa": 6496,
      "memba": 6497,
      "ston": 6498,
      "ግንኙ": 6499,
      "Nàìjíríà,": 6500,
      "jumla": 6501,
      "Ani": 6502,
      "Dani": 6503,
      "zara": 6504,
      "ço": 6505,
      "oper": 6506,
      "nées": 6507,
      "CN": 6508,
      "E.": 6509,
      "mpaka": 6510,
      "nent": 6511,
      "x,": 6512,
      "ቅርስ": 6513,
      "ት።": 6514,
      "jinsi": 6515,
      "wòrán": 6516,
      "ሁለቱ": 6517,
      "ትምህር": 6518,
      "ተራራ": 6519,
      "አቀፍ": 6520,
      "principa": 6521,
      "Democratic": 6522,
      "aba": 6523,
      "blo": 6524,
      "geni": 6525,
      "mito": 6526,
      "ck,": 6527,
      "(193": 6528,
      "Une": 6529,
      "መደ": 6530,
      "ቁጥ": 6531,
      "ተት": 6532,
      "or,": 6533,
      "cian": 6534,
      "ríwá": 6535,
      "ውንት": 6536,
      "ሳይንስ": 6537,
      "kúrò": 6538,
      "dúró": 6539,
      "talabijin": 6540,
      "ምልክት": 6541,
      "Ire": 6542,
      "ungan": 6543,
      "futa": 6544,
      "AL": 6545,
      "Gasar": 6546,
      "Ira": 6547,
      "small": 6548,
      "ኑን": 6549,
      "የሌ": 6550,
      "ግባር": 6551,
      "lika": 6552,
      "haka,": 6553,
      "ri,": 6554,
      "ẹ̀rọ": 6555,
      "karshe": 6556,
      "yanki": 6557,
      "Waislamu": 6558,
      "child": 6559,
      "haifar": 6560,
      "ports": 6561,
      "yake.": 6562,
      "word": 6563,
      "bàbá": 6564,
      "Hanyoyin": 6565,
      "fuatwa": 6566,
      "each": 6567,
      "nye": 6568,
      "solu": 6569,
      "cia": 6570,
      "filin": 6571,
      "el,": 6572,
      "Hon": 6573,
      "kìí": 6574,
      "èrè": 6575,
      "ɗi": 6576,
      "ለተ": 6577,
      "introdu": 6578,
      "dam": 6579,
      "tuttu": 6580,
      "iran": 6581,
      "makabila": 6582,
      "ṣíṣe": 6583,
      "C'est": 6584,
      "zao": 6585,
      "org/": 6586,
      "Sel": 6587,
      "acikin": 6588,
      "g.": 6589,
      "ɗari": 6590,
      "ሚሊዮን": 6591,
      "ሲቲ": 6592,
      "ወጡ": 6593,
      "tuntun": 6594,
      "160": 6595,
      "cally": 6596,
      "pindu": 6597,
      "km2": 6598,
      "Oli": 6599,
      "rict": 6600,
      "koki": 6601,
      "because": 6602,
      "action": 6603,
      "Faran": 6604,
      "several": 6605,
      "ìbá": 6606,
      "በዚሁ": 6607,
      "matu": 6608,
      "kur": 6609,
      "langa": 6610,
      "1971": 6611,
      "Movie": 6612,
      "ናት።": 6613,
      "እንስሳ": 6614,
      "2=": 6615,
      "44": 6616,
      "Sana": 6617,
      "edi": 6618,
      "cap": 6619,
      "1978": 6620,
      "Maris": 6621,
      "otball": 6622,
      "Califor": 6623,
      "95": 6624,
      "OR": 6625,
      "ቃላት": 6626,
      "አቡ": 6627,
      "ché": 6628,
      "go.": 6629,
      "1973": 6630,
      "Wasan": 6631,
      "ibn": 6632,
      "science": 6633,
      "Sarkin": 6634,
      "akọrin": 6635,
      "ṣirí": 6636,
      "Aka": 6637,
      "Bon": 6638,
      "Red": 6639,
      "gini": 6640,
      "mà": 6641,
      "mah": 6642,
      "laka": 6643,
      "capita": 6644,
      "adhi": 6645,
      "vation": 6646,
      "C)": 6647,
      "Ile-": 6648,
      "muni": 6649,
      "own": 6650,
      "ቂት": 6651,
      "ኘት": 6652,
      "ጥና": 6653,
      "ጨዋ": 6654,
      "na,": 6655,
      "hama": 6656,
      "wiwa": 6657,
      "የተባለ": 6658,
      "ድንጋይ": 6659,
      "considé": 6660,
      "Abdul": 6661,
      "ከነዓን": 6662,
      "lafazi": 6663,
      "-i": 6664,
      "Dou": 6665,
      "Men": 6666,
      "dani": 6667,
      "fonction": 6668,
      "emplo": 6669,
      "utilisé": 6670,
      "Abe": 6671,
      "dẹ́": 6672,
      "ሎጂ": 6673,
      "መጫ": 6674,
      "ርን": 6675,
      "ቀስ": 6676,
      "ክሮ": 6677,
      "ኮኖ": 6678,
      "ይላል።": 6679,
      "የሚገኙ": 6680,
      "ominira": 6681,
      "ulu": 6682,
      "wing": 6683,
      "se.": 6684,
      "astron": 6685,
      "Chin": 6686,
      "Jos": 6687,
      "bọ": 6688,
      "pó": 6689,
      "ራም": 6690,
      "ሺህ": 6691,
      "ዩናይት": 6692,
      "ጸባይ": 6693,
      "ṣá": 6694,
      "allo": 6695,
      "2007.": 6696,
      "Law": 6697,
      "ọ̀nù": 6698,
      "Chuo": 6699,
      "Sho": 6700,
      "Wam": 6701,
      "history": 6702,
      "quali": 6703,
      "2006.": 6704,
      "Bay": 6705,
      "lée": 6706,
      "speci": 6707,
      "Èyí": 6708,
      "አሰ": 6709,
      "ዩስ": 6710,
      "kaka": 6711,
      "makubwa": 6712,
      "lime": 6713,
      "gaz": 6714,
      "ንግድ": 6715,
      "mẹ́ta": 6716,
      "olùdarí": 6717,
      "Austria": 6718,
      "trouve": 6719,
      "Institute": 6720,
      "ጊዮርጊስ": 6721,
      "av": 6722,
      "bì": 6723,
      "koko": 6724,
      "illa": 6725,
      "Ango": 6726,
      "Niger": 6727,
      "(in": 6728,
      "Mili": 6729,
      "Umar": 6730,
      "yọ́": 6731,
      "ምኒ": 6732,
      "ጭር": 6733,
      "anna": 6734,
      "parí": 6735,
      "shekarun": 6736,
      "wasannin": 6737,
      "wàá": 6738,
      "mshairi": 6739,
      "olórí": 6740,
      "Good": 6741,
      "ብርሃን": 6742,
      "abubuwan": 6743,
      "ose": 6744,
      "mu,": 6745,
      "pole": 6746,
      "selon": 6747,
      "Festival": 6748,
      "ልን": 6749,
      "በሬ": 6750,
      "ession": 6751,
      "oruko": 6752,
      "rike": 6753,
      "astern": 6754,
      "pakana": 6755,
      "ye.": 6756,
      "be,": 6757,
      "jenga": 6758,
      "gwamnati": 6759,
      "Port": 6760,
      "የቀድሞ": 6761,
      "Tarihin": 6762,
      "period": 6763,
      "ዩናይትድ": 6764,
      "encore": 6765,
      "tous": 6766,
      "oft": 6767,
      "aient": 6768,
      "code": 6769,
      "1985": 6770,
      "Apol": 6771,
      "fra": 6772,
      "ሊቃ": 6773,
      "ሲቀ": 6774,
      "ቤቶች": 6775,
      "ታሪ": 6776,
      "አዋ": 6777,
      "ዘፋ": 6778,
      "የለም": 6779,
      "ገረ": 6780,
      "ọjọ": 6781,
      "dic": 6782,
      "chara": 6783,
      "sojo": 6784,
      "የአየር": 6785,
      "በመጨረሻ": 6786,
      "ገብረ": 6787,
      "tsohuwar": 6788,
      "mataima": 6789,
      "halafu": 6790,
      "europé": 6791,
      "Iya": 6792,
      "ira": 6793,
      "enda": 6794,
      "al,": 6795,
      "mi.": 6796,
      "dera": 6797,
      "series": 6798,
      "Prof": 6799,
      "Trans": 6800,
      "mvu": 6801,
      "pya": 6802,
      "ሲሆኑ": 6803,
      "ሳተ": 6804,
      "ኞቹ": 6805,
      "የኖ": 6806,
      "ጅም": 6807,
      "ፊዎች": 6808,
      "wame": 6809,
      "watsa": 6810,
      "hizo": 6811,
      "te-": 6812,
      "1914": 6813,
      "fitar": 6814,
      "dant": 6815,
      "taron": 6816,
      "Kifaransa": 6817,
      "Marekani.": 6818,
      "(2005)": 6819,
      "ጠቅላይ": 6820,
      "Premi": 6821,
      "chukua": 6822,
      "Ash": 6823,
      "Tar": 6824,
      "dered": 6825,
      "ambo": 6826,
      "finan": 6827,
      "since": 6828,
      "view": 6829,
      "Fasa": 6830,
      "መታ": 6831,
      "ሰነ": 6832,
      "ባታ": 6833,
      "ከስ": 6834,
      "ወድ": 6835,
      "dab": 6836,
      "ordina": 6837,
      "particuli": 6838,
      "መሆኑን": 6839,
      "ክርስትና": 6840,
      "፲፰፻": 6841,
      "sakandare": 6842,
      "Ida": 6843,
      "Para": 6844,
      "ditional": 6845,
      "bit": 6846,
      "key": 6847,
      "1969": 6848,
      "Sahara": 6849,
      "However,": 6850,
      "fed": 6851,
      "ብሔር": 6852,
      "ከረም": 6853,
      "ዕው": 6854,
      "ጻፈ": 6855,
      "ọpọ": 6856,
      "side": 6857,
      "ni:": 6858,
      "alpha": 6859,
      "dik": 6860,
      "celui": 6861,
      "exten": 6862,
      "ነበረው": 6863,
      "House": 6864,
      "non-": 6865,
      "hydro": 6866,
      "ብሪታ": 6867,
      "Star": 6868,
      "nar": 6869,
      "data": 6870,
      "law": 6871,
      "vide": 6872,
      "histoire": 6873,
      "Patri": 6874,
      "(G": 6875,
      "(16": 6876,
      "Bin": 6877,
      "Dut": 6878,
      "Yu": 6879,
      "ስሞች": 6880,
      "ኢየሱስ": 6881,
      "ግም": 6882,
      "kacin": 6883,
      "Mali": 6884,
      "ja,": 6885,
      "yi.": 6886,
      "jua": 6887,
      "influence": 6888,
      "(He": 6889,
      "ga.": 6890,
      "Moham": 6891,
      "Colum": 6892,
      "occu": 6893,
      "Apple": 6894,
      "85": 6895,
      "Bene": 6896,
      "F.": 6897,
      "ìyá": 6898,
      "ሎቹ": 6899,
      "፪፻": 6900,
      "alum": 6901,
      "rasu": 6902,
      "elu": 6903,
      "shiry": 6904,
      "2006,": 6905,
      "lub": 6906,
      "origine": 6907,
      "hannun": 6908,
      "Anamb": 6909,
      "ታላቁ": 6910,
      "European": 6911,
      "Aw": 6912,
      "Sur": 6913,
      "dence": 6914,
      "eux": 6915,
      "élect": 6916,
      "artic": 6917,
      "inten": 6918,
      "aire": 6919,
      "Kil": 6920,
      "mta": 6921,
      "ሊቀ": 6922,
      "ነግ": 6923,
      "ከና": 6924,
      "ጋን": 6925,
      "wai": 6926,
      "kutumia": 6927,
      "super": 6928,
      "fada": 6929,
      "irú": 6930,
      "2017.": 6931,
      "tengene": 6932,
      "ጊዜው": 6933,
      "ambazo": 6934,
      "Tovuti": 6935,
      "Isla": 6936,
      "ያለውን": 6937,
      "cô": 6938,
      "zani": 6939,
      "hivi": 6940,
      "yed": 6941,
      "1981": 6942,
      "1965": 6943,
      "Cour": 6944,
      "There": 6945,
      "heshi": 6946,
      "መጡ": 6947,
      "ery": 6948,
      "espa": 6949,
      "using": 6950,
      "harkokin": 6951,
      "uniyar": 6952,
      "mbabwe": 6953,
      "tambu": 6954,
      "pataki": 6955,
      "utamaduni": 6956,
      "kuliko": 6957,
      "Australia": 6958,
      "ስቃሴ": 6959,
      "dor": 6960,
      "épo": 6961,
      "isme": 6962,
      "ty,": 6963,
      "1972": 6964,
      "1930": 6965,
      "htm": 6966,
      "(U": 6967,
      "-ẹ̀kọ́": 6968,
      "Gẹ̀ẹ́sì": 6969,
      "I,": 6970,
      "Kwan": 6971,
      "Nu": 6972,
      "ipinle": 6973,
      "ሪስ": 6974,
      "በሳ": 6975,
      "በኮ": 6976,
      "አሉት": 6977,
      "ይቆ": 6978,
      "ፋርስ": 6979,
      "wasi": 6980,
      "date": 6981,
      "saman": 6982,
      "miwa": 6983,
      "fihàn": 6984,
      "loma": 6985,
      "Hivyo": 6986,
      "Shehu": 6987,
      "tumiwa": 6988,
      "tumika": 6989,
      "Central": 6990,
      "ቢሆንም": 6991,
      "U.S.": 6992,
      "Fá": 6993,
      "zz": 6994,
      "bado": 6995,
      "jade": 6996,
      "référen": 6997,
      "mark": 6998,
      "10,": 6999,
      "2018.": 7000,
      "important": 7001,
      "Dara": 7002,
      "twa": 7003,
      "ማግ": 7004,
      "ከረ": 7005,
      "ዓላማ": 7006,
      "kudancin": 7007,
      "hayo": 7008,
      "faire": 7009,
      "Wakazi": 7010,
      "trava": 7011,
      "nufin": 7012,
      "Common": 7013,
      "አምባ": 7014,
      "Amẹ́ríkà.": 7015,
      "Zimbabwe": 7016,
      "ይሆናል።": 7017,
      "Delta": 7018,
      "(15": 7019,
      "pona": 7020,
      "éra": 7021,
      "ando": 7022,
      "change": 7023,
      "66": 7024,
      "Din": 7025,
      "መጋ": 7026,
      "anisha": 7027,
      "tobi": 7028,
      "mu.": 7029,
      "power": 7030,
      "kanda": 7031,
      "doma": 7032,
      "10.": 7033,
      "following": 7034,
      "ዩኒቨር": 7035,
      "field": 7036,
      "እንቅስቃሴ": 7037,
      "42": 7038,
      "Had": 7039,
      "named": 7040,
      "region": 7041,
      "dit": 7042,
      "mit": 7043,
      "seed": 7044,
      "atur": 7045,
      "1952": 7046,
      "international": 7047,
      "Pierre": 7048,
      "Jean-": 7049,
      "Poland": 7050,
      "aci": 7051,
      "eff": 7052,
      "ምፒ": 7053,
      "ቅን": 7054,
      "ተጽ": 7055,
      "ታም": 7056,
      "ጀት": 7057,
      "hazi": 7058,
      "usha": 7059,
      "keje": 7060,
      "እንዴት": 7061,
      "l'É": 7062,
      "mengi": 7063,
      "Pia": 7064,
      "ባህል": 7065,
      "court": 7066,
      "ክለብ": 7067,
      "ይቀራሉ።": 7068,
      "holanzi": 7069,
      "አገልግሎት": 7070,
      "gouver": 7071,
      "ikan": 7072,
      "ête": 7073,
      "tuo": 7074,
      "(17": 7075,
      "Res": 7076,
      "Tom": 7077,
      "dwa": 7078,
      "በኤ": 7079,
      "ፉት": 7080,
      "nahiyar": 7081,
      "fikia": 7082,
      "commen": 7083,
      "በአን": 7084,
      "languages": 7085,
      "ምርጫ": 7086,
      "arufu": 7087,
      "arabci": 7088,
      "ይመስላል።": 7089,
      "ዕብራይስጥ": 7090,
      "(),": 7091,
      "bat": 7092,
      "ter.": 7093,
      "désig": 7094,
      "lieu": 7095,
      "Ox": 7096,
      "oli": 7097,
      "spé": 7098,
      "yì": 7099,
      "ሠራዊት": 7100,
      "ሪፐ": 7101,
      "ሰባ": 7102,
      "አክ": 7103,
      "ከሆነ": 7104,
      "ጥም": 7105,
      "organi": 7106,
      "leyin": 7107,
      "sabon": 7108,
      "ghan": 7109,
      "téra": 7110,
      "1962": 7111,
      "News": 7112,
      "ከነዚህ": 7113,
      "cès": 7114,
      "système": 7115,
      "\"The": 7116,
      "(An": 7117,
      "Year": 7118,
      "mika": 7119,
      "2020,": 7120,
      "Congress": 7121,
      "(L": 7122,
      "Pó": 7123,
      "sla": 7124,
      "school": 7125,
      "àjẹsára": 7126,
      "ቅል": 7127,
      "በብዙ": 7128,
      "ወገ": 7129,
      "ጋት": 7130,
      "ọlọ́": 7131,
      "cibiyar": 7132,
      "jejeni": 7133,
      "descri": 7134,
      "iyaka": 7135,
      "ológun": 7136,
      "አለው።": 7137,
      "AT": 7138,
      "88": 7139,
      "Iran": 7140,
      "cli": 7141,
      "የኡ": 7142,
      "matan": 7143,
      "maarufu": 7144,
      "reg": 7145,
      "bantu": 7146,
      "Alg": 7147,
      "ቤተክርስቲያን": 7148,
      "Ziwa": 7149,
      "littafin": 7150,
      "መጻሕፍት": 7151,
      "kaa": 7152,
      "kusu": 7153,
      "1929": 7154,
      "ina,": 7155,
      "terme": 7156,
      "ating": 7157,
      "provin": 7158,
      "Group": 7159,
      "different": 7160,
      "(13": 7161,
      "tory": 7162,
      "walla": 7163,
      "tume": 7164,
      "kansa": 7165,
      "cate": 7166,
      "የተባ": 7167,
      "Kejì": 7168,
      "abinci": 7169,
      "እውነት": 7170,
      "púpọ̀": 7171,
      "Alhaji": 7172,
      "tabbatar": 7173,
      "(m": 7174,
      "concer": 7175,
      "publique": 7176,
      "event": 7177,
      "sch": 7178,
      "ማኅ": 7179,
      "ቀሳ": 7180,
      "1917": 7181,
      "በመሆን": 7182,
      "gundu": 7183,
      "ምንጊዜም": 7184,
      "መልኩ": 7185,
      "taient": 7186,
      "Ọ̀yọ́": 7187,
      "ተመሳ": 7188,
      "sakamakon": 7189,
      "shiryen": 7190,
      "CE": 7191,
      "eko": 7192,
      "ming": 7193,
      "engine": 7194,
      "biti": 7195,
      "alis": 7196,
      "Mw": 7197,
      "n'est": 7198,
      "will": 7199,
      "ሙያ": 7200,
      "በሱ": 7201,
      "ተክል": 7202,
      "ጣን": 7203,
      "bio": 7204,
      "ashin": 7205,
      "guerre": 7206,
      "1964": 7207,
      "shafi": 7208,
      "Williams": 7209,
      "possible": 7210,
      "Sene": 7211,
      "halin": 7212,
      "tumba": 7213,
      "2009,": 7214,
      "Jour": 7215,
      "Government": 7216,
      "(B": 7217,
      "(K": 7218,
      "IN": 7219,
      "Mé": 7220,
      "Western": 7221,
      "ama": 7222,
      "tz": 7223,
      "Ìgbà": 7224,
      "Ìdí": 7225,
      "ńlá": 7226,
      "ፍር": 7227,
      "isan": 7228,
      "zaune": 7229,
      "bíbí": 7230,
      "መንግሥታት": 7231,
      "ዘመኑ": 7232,
      "Hadi": 7233,
      "2019.": 7234,
      "Kamfanin": 7235,
      "andika": 7236,
      "Federal": 7237,
      "gargajiya": 7238,
      "gré": 7239,
      "rong": 7240,
      "began": 7241,
      "we,": 7242,
      "déc": 7243,
      "VID": 7244,
      "Domini": 7245,
      "tten": 7246,
      "ሞክራ": 7247,
      "ቂያ": 7248,
      "ታር": 7249,
      "ዝን": 7250,
      "ድንግ": 7251,
      "ግሪ": 7252,
      "ፎር": 7253,
      "fadin": 7254,
      "የአር": 7255,
      "joto": 7256,
      "joko": 7257,
      "díẹ̀": 7258,
      "makao": 7259,
      "kawai": 7260,
      "formation": 7261,
      "onyesha": 7262,
      "ልማት": 7263,
      "ተመሳሳይ": 7264,
      "77": 7265,
      "Aja": 7266,
      "ait": 7267,
      "œu": 7268,
      "tifi": 7269,
      "tas": 7270,
      "kui": 7271,
      "d'autres": 7272,
      "voire": 7273,
      "'ya": 7274,
      "PP": 7275,
      "Tele": 7276,
      "sus": 7277,
      "ìṣẹ̀lẹ̀": 7278,
      "ሩም": 7279,
      "የራ": 7280,
      "ይሁን": 7281,
      "1925": 7282,
      "ets": 7283,
      "dest": 7284,
      "expres": 7285,
      "kóso": 7286,
      "ኛውም": 7287,
      "1959": 7288,
      "II,": 7289,
      "yawancin": 7290,
      "ìdíje": 7291,
      "በተለይም": 7292,
      "tẹli": 7293,
      "latini": 7294,
      "ይቻላል።": 7295,
      "pí": 7296,
      "test": 7297,
      "seu": 7298,
      "They": 7299,
      "tradition": 7300,
      "Armen": 7301,
      "afrika": 7302,
      "ficial": 7303,
      "direct": 7304,
      "Hindi": 7305,
      "Poly": 7306,
      "Zari": 7307,
      "ctu": 7308,
      "ሀብ": 7309,
      "ሉን": 7310,
      "ሰም": 7311,
      "ሳር": 7312,
      "ተካ": 7313,
      "የጀርመን": 7314,
      "ዳም": 7315,
      "yakin": 7316,
      "hewa": 7317,
      "kura": 7318,
      "msingi": 7319,
      "oluilu": 7320,
      "አመታት": 7321,
      "ጥቅምት": 7322,
      "Yunifásítì": 7323,
      "ographie": 7324,
      "wùjọ": 7325,
      "yahudi": 7326,
      "Tro": 7327,
      "ni.": 7328,
      "Johnson": 7329,
      "iness": 7330,
      "Jack": 7331,
      "control": 7332,
      "avoir": 7333,
      "poly": 7334,
      "Ìbẹ̀rẹ̀": 7335,
      "በካ": 7336,
      "ተጫ": 7337,
      "ከባ": 7338,
      "የዚህ": 7339,
      "ፖርት": 7340,
      "sala": 7341,
      "nipas": 7342,
      "jiho": 7343,
      "biyu,": 7344,
      "Dunia": 7345,
      "wadannan": 7346,
      "ìdílé": 7347,
      "Bou": 7348,
      "Dist": 7349,
      "cing": 7350,
      "maye": 7351,
      "concep": 7352,
      "formed": 7353,
      "Viet": 7354,
      "center": 7355,
      "Great": 7356,
      "Fred": 7357,
      "lom": 7358,
      "àdúgbò": 7359,
      "ሶስት": 7360,
      "ደገ": 7361,
      "ፊያ": 7362,
      "mayar": 7363,
      "kufuatana": 7364,
      "sayari": 7365,
      "kiasi": 7366,
      "tanni": 7367,
      "የአውሮፓ": 7368,
      "harar": 7369,
      "chache": 7370,
      "Nairo": 7371,
      "ሕዝቡ": 7372,
      "Cup": 7373,
      "Turan": 7374,
      "coup": 7375,
      "Ife": 7376,
      "Kẹ́": 7377,
      "gara": 7378,
      "መሣ": 7379,
      "ሪቃ": 7380,
      "ቆይ": 7381,
      "ቸዋል።": 7382,
      "አጠ": 7383,
      "እኩል": 7384,
      "mad": 7385,
      "peup": 7386,
      "wọ̀nyí": 7387,
      "Urusi": 7388,
      "fina-finai": 7389,
      "siyasan": 7390,
      "ሚካኤል": 7391,
      "(F": 7392,
      "Jari": 7393,
      "cipa": 7394,
      "open": 7395,
      "land.": 7396,
      "gener": 7397,
      "----": 7398,
      "comple": 7399,
      "School,": 7400,
      "Mohammed": 7401,
      "T.": 7402,
      "blia": 7403,
      "cum": 7404,
      "gì": 7405,
      "òbí": 7406,
      "በሩ": 7407,
      "ቦር": 7408,
      "ẹran": 7409,
      "kuzaliwa": 7410,
      "ha,": 7411,
      "fiimu": 7412,
      "japona": 7413,
      "እስካ": 7414,
      "kàwé": 7415,
      "እንግዲህ": 7416,
      "mìni": 7417,
      "linguis": 7418,
      "jul": 7419,
      "Indon": 7420,
      "COVID": 7421,
      "Imo": 7422,
      "List": 7423,
      "Sen": 7424,
      "W.": 7425,
      "mpa": 7426,
      "rum": 7427,
      "xy": 7428,
      "ájú": 7429,
      "በደ": 7430,
      "ቷን": 7431,
      "ቸዉ": 7432,
      "ነፃ": 7433,
      "ኤን": 7434,
      "የል": 7435,
      "ዳሪ": 7436,
      "thè": 7437,
      "wancin": 7438,
      "ደርግ": 7439,
      "የሚገኝበት": 7440,
      "lililo": 7441,
      "ዩኒቨርሲቲ": 7442,
      "54": 7443,
      "Olo": 7444,
      "Otto": 7445,
      "karu": 7446,
      "agri": 7447,
      "Aikin": 7448,
      "dare": 7449,
      "ህግ": 7450,
      "ርሱ": 7451,
      "ሸን": 7452,
      "ነሣ": 7453,
      "ወስ": 7454,
      "read": 7455,
      "des,": 7456,
      "forces": 7457,
      "ched": 7458,
      "jami'ar": 7459,
      "include": 7460,
      "Cer": 7461,
      "Ty": 7462,
      "sif": 7463,
      "ana,": 7464,
      "correspon": 7465,
      "color": 7466,
      "Ces": 7467,
      "Gau": 7468,
      "Gida": 7469,
      "Kore": 7470,
      "fú": 7471,
      "ዓፄ": 7472,
      "ዞች": 7473,
      "conf": 7474,
      "Watakatifu": 7475,
      "1961": 7476,
      "ነገሥት": 7477,
      "አለ።": 7478,
      "Pour": 7479,
      "société": 7480,
      "ዘንድ፣": 7481,
      "ፈላጊ": 7482,
      "ዓይነት": 7483,
      "ፍልስፍና": 7484,
      "ጽሕፈት": 7485,
      "tegemea": 7486,
      "59": 7487,
      "gis": 7488,
      "rele": 7489,
      "1963": 7490,
      "lands": 7491,
      "complex": 7492,
      "Wanda": 7493,
      "Mwan": 7494,
      "Mlima": 7495,
      "በዛ": 7496,
      "የፈ": 7497,
      "ያስተ": 7498,
      "wase": 7499,
      "kakar": 7500,
      "relati": 7501,
      "yant": 7502,
      "yanke": 7503,
      "tsara": 7504,
      "Kilatini": 7505,
      "Art": 7506,
      "Duba": 7507,
      "Internet": 7508,
      "akiwa": 7509,
      "líà": 7510,
      "scientifi": 7511,
      "Wanasayansi": 7512,
      "bangaren": 7513,
      "ግንኙነት": 7514,
      "o-": 7515,
      "zza": 7516,
      "du,": 7517,
      "gions": 7518,
      "pher": 7519,
      "nombreux": 7520,
      "Tí": 7521,
      "ረቱ": 7522,
      "ተመል": 7523,
      "ኗሪ": 7524,
      "አዘ": 7525,
      "ṣo": 7526,
      "ensemble": 7527,
      "ombo": 7528,
      "thur": 7529,
      "thod": 7530,
      "Mafi": 7531,
      "sanar": 7532,
      "በመባል": 7533,
      "tes.": 7534,
      "1940": 7535,
      "መለስ": 7536,
      "ተከታይ": 7537,
      "ስብስብ": 7538,
      "nasarar": 7539,
      "Fu": 7540,
      "Hal": 7541,
      "gó": 7542,
      "yaki": 7543,
      "lizi": 7544,
      "1900": 7545,
      "biri": 7546,
      "GB": 7547,
      "Kungiyar": 7548,
      "Oko": 7549,
      "Ìtu": 7550,
      "Ìjọba": 7551,
      "ሚና": 7552,
      "ምነት": 7553,
      "ሳል።": 7554,
      "ስትር": 7555,
      "ኪሎ": 7556,
      "የዓመቱ": 7557,
      "ደሴት": 7558,
      "ọlá": 7559,
      "192": 7560,
      "sement": 7561,
      "mot": 7562,
      "የሚሰራ": 7563,
      "170": 7564,
      "monde": 7565,
      "velo": 7566,
      "(2004)": 7567,
      "Wasu": 7568,
      "Yankin": 7569,
      "KK": 7570,
      "mban": 7571,
      "pari": 7572,
      "lier": 7573,
      "ellow": 7574,
      "2007,": 7575,
      "proper": 7576,
      "General": 7577,
      "86": 7578,
      "Oni": 7579,
      "nkan": 7580,
      "Ìtàn": 7581,
      "ለዚህ": 7582,
      "በሻ": 7583,
      "kua": 7584,
      "siè": 7585,
      "birin": 7586,
      "inganta": 7587,
      "እንደተ": 7588,
      "Afrilu": 7589,
      "shinda": 7590,
      "Development": 7591,
      "médi": 7592,
      "daukar": 7593,
      "ጎንደር": 7594,
      "ክፍላገር": 7595,
      "የነበሩት": 7596,
      "album": 7597,
      "pinduzi": 7598,
      "H.": 7599,
      "2008,": 7600,
      "archite": 7601,
      "Bisa": 7602,
      "àbá": 7603,
      "መጀመሪያ": 7604,
      "ቢይ": 7605,
      "እያንዳንዱ": 7606,
      "ያላቸው": 7607,
      "ግኝ": 7608,
      "kasi": 7609,
      "ishin": 7610,
      "leta": 7611,
      "kiongozi": 7612,
      "1919": 7613,
      "lélógún": 7614,
      "appar": 7615,
      "ንጉሡ": 7616,
      "turu": 7617,
      "falsafa": 7618,
      "dukkan": 7619,
      "mò:": 7620,
      "ስያሜ": 7621,
      "chunguza": 7622,
      "nipasẹ": 7623,
      "(10": 7624,
      "erial": 7625,
      "1948": 7626,
      "mée": 7627,
      "Paulo": 7628,
      "I.": 7629,
      "ater": 7630,
      "fle": 7631,
      "ለስ": 7632,
      "ሸዋ": 7633,
      "የፊ": 7634,
      "የሙዚቃ": 7635,
      "ያዝ": 7636,
      "ጫወ": 7637,
      "matic": 7638,
      "mizi": 7639,
      "kananan": 7640,
      "tsakiyar": 7641,
      "አንደ": 7642,
      "íríkà": 7643,
      "wòsàn": 7644,
      "አውራ": 7645,
      "Aga": 7646,
      "Cul": 7647,
      "Ilu": 7648,
      "mel": 7649,
      "incre": 7650,
      "sex": 7651,
      "bed": 7652,
      "tée": 7653,
      "nant": 7654,
      "Paris,": 7655,
      "Bil": 7656,
      "Janar": 7657,
      "èrò": 7658,
      "መኖ": 7659,
      "ር፣": 7660,
      "ወዘ": 7661,
      "ጨምሮ": 7662,
      "enga": 7663,
      "mahaifiyar": 7664,
      "ẹ̀ka": 7665,
      "th.": 7666,
      "Alf": 7667,
      "1958": 7668,
      "ለማስ": 7669,
      "አስተዳደግ": 7670,
      "cikak": 7671,
      "-a": 7672,
      "iri": 7673,
      "fiye": 7674,
      "décou": 7675,
      "Apollo": 7676,
      "Aiki": 7677,
      "Py": 7678,
      "Tor": 7679,
      "iti": 7680,
      "jal": 7681,
      "sán": 7682,
      "Ìjọ": 7683,
      "ተደር": 7684,
      "ትራ": 7685,
      "የህዝብ": 7686,
      "ዳል": 7687,
      "ጠት": 7688,
      "devient": 7689,
      "pada": 7690,
      "lum": 7691,
      "fupi": 7692,
      "Waingereza": 7693,
      "ruwan": 7694,
      "ulin": 7695,
      "Archi": 7696,
      "Radio": 7697,
      "afri": 7698,
      "alamu": 7699,
      "Langu": 7700,
      "standard": 7701,
      "jam'iyyar": 7702,
      "Bunge": 7703,
      "wel": 7704,
      "eren": 7705,
      "celle": 7706,
      "lob": 7707,
      "html": 7708,
      "(2": 7709,
      "Blo": 7710,
      "Jẹ́": 7711,
      "ƙwarar": 7712,
      "ኪንግ": 7713,
      "diri": 7714,
      "ribu": 7715,
      "uso": 7716,
      "sele": 7717,
      "ነው፤": 7718,
      "በአዲስ": 7719,
      "1968": 7720,
      "ግንቦት": 7721,
      "ulikuwa": 7722,
      "መስከረም": 7723,
      "Tour": 7724,
      "ቅርብ": 7725,
      "current": 7726,
      "President": 7727,
      "adarí": 7728,
      "ṣiríṣi": 7729,
      "ladi": 7730,
      "buka": 7731,
      "mental": 7732,
      "Miche": 7733,
      "vely": 7734,
      "Counci": 7735,
      "sources": 7736,
      "Battle": 7737,
      "Akwa": 7738,
      "Win": 7739,
      "ice": 7740,
      "ሀይ": 7741,
      "ሚን": 7742,
      "mathe": 7743,
      "retur": 7744,
      "1928": 7745,
      "respe": 7746,
      "ኢትዮጵያን": 7747,
      "Biblia": 7748,
      "certains": 7749,
      "yọkà": 7750,
      "Ayyuka": 7751,
      "ሚኒስትር": 7752,
      "masarautar": 7753,
      "Senegal": 7754,
      "(3": 7755,
      "ason": 7756,
      "début": 7757,
      "dyna": 7758,
      "a)": 7759,
      "eye": 7760,
      "ላላ": 7761,
      "ልፍ": 7762,
      "መብ": 7763,
      "በ16": 7764,
      "ኪዳን": 7765,
      "ጊያ": 7766,
      "last": 7767,
      "duwa": 7768,
      "gizo": 7769,
      "እንድ": 7770,
      "hukun": 7771,
      "within": 7772,
      "Portugal": 7773,
      "Yesu": 7774,
      "(D": 7775,
      "43": 7776,
      "hou": 7777,
      "nology": 7778,
      "lay": 7779,
      "hab": 7780,
      "ni,": 7781,
      "bii": 7782,
      "2010.": 7783,
      "proces": 7784,
      "Cape": 7785,
      "Society": 7786,
      "Bul": 7787,
      "Cre": 7788,
      "Let": 7789,
      "ሆድ": 7790,
      "ቤን": 7791,
      "ዙፋ": 7792,
      "miti": 7793,
      "biran": 7794,
      "post": 7795,
      "universi": 7796,
      "Kikatoliki": 7797,
      "jumo": 7798,
      "shawara": 7799,
      "ስተር": 7800,
      "Arts": 7801,
      "አባላት": 7802,
      "ወንጌ": 7803,
      "zungum": 7804,
      "official": 7805,
      "Yammacin": 7806,
      "ìgbìmọ̀": 7807,
      "Kátó": 7808,
      "ምኒልክ": 7809,
      "87": 7810,
      "Ari": 7811,
      "FC": 7812,
      "Iko": 7813,
      "home": 7814,
      "ry,": 7815,
      "human": 7816,
      "initi": 7817,
      "12,": 7818,
      "Ethiopi": 7819,
      "dependent": 7820,
      "Nje": 7821,
      "OS": 7822,
      "Ògùn": 7823,
      "በታል።": 7824,
      "ነኛ": 7825,
      "ኔት": 7826,
      "ካሬ": 7827,
      "ጳጳ": 7828,
      "qu’": 7829,
      "sema": 7830,
      "gudu": 7831,
      "Pasifi": 7832,
      "ዘመቻ": 7833,
      "Lokacin": 7834,
      "Kasu": 7835,
      "great": 7836,
      "Gbo": 7837,
      "Shari": 7838,
      "auri": 7839,
      "itan": 7840,
      "six": 7841,
      "kele": 7842,
      "1957": 7843,
      "general": 7844,
      "Popu": 7845,
      "11,": 7846,
      "ǹkan": 7847,
      "ማራ": 7848,
      "ረጃ": 7849,
      "ርዕ": 7850,
      "የወ": 7851,
      "ይሁ": 7852,
      "ይፈ": 7853,
      "tocin": 7854,
      "rée": 7855,
      "አንቀ": 7856,
      "elekea": 7857,
      "watumwa": 7858,
      "arewacin": 7859,
      "takwas": 7860,
      "Azer": 7861,
      "Osun": 7862,
      "odo": 7863,
      "d's": 7864,
      "Founda": 7865,
      "territoire": 7866,
      "Eré": 7867,
      "Hol": 7868,
      "pl": 7869,
      "ôle": 7870,
      "ሎስ": 7871,
      "ከፈ": 7872,
      "ጥቁር": 7873,
      "lem": 7874,
      "kufanya": 7875,
      "hapo": 7876,
      "nie": 7877,
      "karshen": 7878,
      "yanar": 7879,
      "Waarabu": 7880,
      "እናት": 7881,
      "lines": 7882,
      "llaye": 7883,
      "yìí.": 7884,
      "òṣèrébìnrin": 7885,
      "ንዳንድ": 7886,
      "Italia.": 7887,
      "chake.": 7888,
      "mfumo": 7889,
      "what": 7890,
      "zing": 7891,
      "ald": 7892,
      "ushi": 7893,
      "ness": 7894,
      "Queen": 7895,
      "-A": 7896,
      "]]": 7897,
      "ሰቡ": 7898,
      "ቋቋ": 7899,
      "የዘ": 7900,
      "ጋዜ": 7901,
      "tient": 7902,
      "anima": 7903,
      "moyen": 7904,
      "condu": 7905,
      "adun": 7906,
      "Kibantu": 7907,
      "የመጣ": 7908,
      "ዳግማዊ": 7909,
      "hed": 7910,
      "rema": 7911,
      "ditions": 7912,
      "omba": 7913,
      "-Un": 7914,
      "-century": 7915,
      "3=": 7916,
      "Bun": 7917,
      "Mfalme": 7918,
      "Sing": 7919,
      "clima": 7920,
      "jana": 7921,
      "ሰሜን": 7922,
      "ቁት": 7923,
      "wahi": 7924,
      "me.": 7925,
      "sheria": 7926,
      "sanan": 7927,
      "በአሜሪካ": 7928,
      "undun": 7929,
      "University,": 7930,
      "አድርጎ": 7931,
      "chaguliwa": 7932,
      "Rayuwa": 7933,
      "lìkì": 7934,
      "exemple": 7935,
      "jimillar": 7936,
      "Scot": 7937,
      "ውቅያ": 7938,
      "Pópù": 7939,
      "wasemaji": 7940,
      "ET": 7941,
      "Eos": 7942,
      "Tex": 7943,
      "rani": 7944,
      "right": 7945,
      "suf": 7946,
      "kanna": 7947,
      "wide": 7948,
      "chie": 7949,
      "1955": 7950,
      "charac": 7951,
      "Bill": 7952,
      "Gomina": 7953,
      "Ohun": 7954,
      "Sab": 7955,
      "père": 7956,
      "Ìwé": 7957,
      "ሊያን": 7958,
      "ሐሴ": 7959,
      "ትክ": 7960,
      "ነፈ": 7961,
      "ያዙ": 7962,
      "ፕላ": 7963,
      "issu": 7964,
      "deven": 7965,
      "among": 7966,
      "jagun": 7967,
      "rise": 7968,
      "16,": 7969,
      "Catho": 7970,
      "Indiya": 7971,
      "አማካ": 7972,
      "explo": 7973,
      "Science": 7974,
      "Dire": 7975,
      "Est": 7976,
      "wal": 7977,
      "cité": 7978,
      "Mag": 7979,
      "Waziri": 7980,
      "15,": 7981,
      "kirki": 7982,
      "65": 7983,
      "ukoloni": 7984,
      "Ìjẹ̀": 7985,
      "éli": 7986,
      "ደርስ": 7987,
      "nature": 7988,
      "sage": 7989,
      "riga": 7990,
      "cigaba": 7991,
      "manu": 7992,
      "reno": 7993,
      "1947": 7994,
      "olóò": 7995,
      "fíl": 7996,
      "ሥርዓት": 7997,
      "période": 7998,
      "እንኳን": 7999,
      "country": 8000,
      "ሪፐብሊክ": 8001,
      "Gé": 8002,
      "Ten": 8003,
      "économi": 8004,
      "ths": 8005,
      "wealth": 8006,
      "Arthur": 8007,
      "tique,": 8008,
      "française": 8009,
      "considered": 8010,
      "63": 8011,
      "Tha": 8012,
      "ƴar": 8013,
      "ሊሆን": 8014,
      "ሰቦች": 8015,
      "በዓለም": 8016,
      "ክምና": 8017,
      "ጽዋት": 8018,
      "ẹbí": 8019,
      "arzi": 8020,
      "titre": 8021,
      "dashi": 8022,
      "tac": 8023,
      "hapa": 8024,
      "recei": 8025,
      "amini": 8026,
      "media": 8027,
      "pokea": 8028,
      "beau": 8029,
      "lenye": 8030,
      "Gidan": 8031,
      "tẹ́nì": 8032,
      "Hausawa": 8033,
      "አስተዳደር": 8034,
      "Gwamnatin": 8035,
      "ድንግል": 8036,
      "fílmù": 8037,
      "Pan": 8038,
      "iro": 8039,
      "1922": 8040,
      "2021": 8041,
      "Afghan": 8042,
      "1946": 8043,
      ":-": 8044,
      "pp": 8045,
      "ywa": 8046,
      "ለየ": 8047,
      "ቆየ": 8048,
      "ተል": 8049,
      "እሱ": 8050,
      "የባ": 8051,
      "ገራ": 8052,
      "dawa": 8053,
      "along": 8054,
      "roma": 8055,
      "desig": 8056,
      "Satumba": 8057,
      "በተለያዩ": 8058,
      "አምስት": 8059,
      "በዚህም": 8060,
      "lenda": 8061,
      "dauke": 8062,
      "États-Un": 8063,
      "demokra": 8064,
      "Kátólìkì": 8065,
      "Gol": 8066,
      "Puli": 8067,
      "yya.": 8068,
      "dad": 8069,
      "unded": 8070,
      "jiki": 8071,
      "irs": 8072,
      "jours": 8073,
      "1956": 8074,
      "(2006)": 8075,
      "those": 8076,
      "Stra": 8077,
      "bere": 8078,
      "tán": 8079,
      "ማው": 8080,
      "ምሥራቅ": 8081,
      "ሥልጣ": 8082,
      "ቅና": 8083,
      "ቅኝ": 8084,
      "maya": 8085,
      "firi": 8086,
      "Mataima": 8087,
      "est,": 8088,
      "2013.": 8089,
      "ànà": 8090,
      "ግንባታ": 8091,
      "asilimia": 8092,
      "Jamhuriyar": 8093,
      "sókè": 8094,
      "ቅድመ": 8095,
      "shirye-shiryen": 8096,
      "ኮኖሚ": 8097,
      "Azerbai": 8098,
      "600": 8099,
      "Fina": 8100,
      "Some": 8101,
      "UK": 8102,
      "fri": 8103,
      "flu": 8104,
      "ers,": 8105,
      "gau": 8106,
      "mode": 8107,
      "Buhari": 8108,
      "(H": 8109,
      "Id": 8110,
      "Olù": 8111,
      "imo": 8112,
      "ሬን": 8113,
      "ቤል": 8114,
      "ቹን": 8115,
      "ኑሮ": 8116,
      "ከፋ": 8117,
      "ọgọ́": 8118,
      "1923": 8119,
      "shirika": 8120,
      "range": 8121,
      "መንገ": 8122,
      "179": 8123,
      "matakin": 8124,
      "mbunge": 8125,
      "Kuu": 8126,
      "gabashin": 8127,
      "አልፋ": 8128,
      "ananan": 8129,
      "kamfan": 8130,
      "toute": 8131,
      "ክፍላገ": 8132,
      "League": 8133,
      "développement": 8134,
      "mìnira": 8135,
      "vor": 8136,
      "you": 8137,
      "sanda": 8138,
      "vidu": 8139,
      "2012.": 8140,
      "Hata": 8141,
      "Argentina": 8142,
      "Tre": 8143,
      "ረስ": 8144,
      "ራውያን": 8145,
      "ቡድ": 8146,
      "ዛፍ": 8147,
      "ያት": 8148,
      "ድሀ": 8149,
      "ጥቂት": 8150,
      "sea": 8151,
      "shugabar": 8152,
      "አባቱ": 8153,
      "rìṣà": 8154,
      "Elezo": 8155,
      "takarar": 8156,
      "tangaza": 8157,
      "ደጃዝማች": 8158,
      "deri": 8159,
      "ination": 8160,
      "examp": 8161,
      "Van": 8162,
      "gwar": 8163,
      "ህዝ": 8164,
      "ሕገ": 8165,
      "ሶርያ": 8166,
      "የእንግሊዝ": 8167,
      "ጻፍ": 8168,
      "ጽሁ": 8169,
      "ፊደ": 8170,
      "kuwe": 8171,
      "d'I": 8172,
      "እስራኤል": 8173,
      "jàkálẹ̀": 8174,
      "structure": 8175,
      "láàrin": 8176,
      "ጥያቄ": 8177,
      "ans,": 8178,
      "hea": 8179,
      "kika": 8180,
      "droit": 8181,
      "pouvoir": 8182,
      "cast": 8183,
      "káà": 8184,
      "uwe": 8185,
      "አላቸው": 8186,
      "ዲሱ": 8187,
      "ጥል": 8188,
      "dat": 8189,
      "liter": 8190,
      "dela": 8191,
      "al.": 8192,
      "ciya": 8193,
      "viet": 8194,
      "የሚኖር": 8195,
      "capa": 8196,
      "1949": 8197,
      "ንግሥት": 8198,
      "military": 8199,
      "Super": 8200,
      "bincike": 8201,
      "Eosentomon": 8202,
      "gs": 8203,
      "mche": 8204,
      "thy": 8205,
      "kodi": 8206,
      "Matan": 8207,
      "zi,": 8208,
      "short": 8209,
      "183": 8210,
      "phon": 8211,
      "Town": 8212,
      "succes": 8213,
      "cru": 8214,
      "Ìbí": 8215,
      "ሳለ": 8216,
      "ቡና": 8217,
      "ተማሪ": 8218,
      "ከው": 8219,
      "የሙ": 8220,
      "የፈረንሳይ": 8221,
      "ይኖ": 8222,
      "ẹgbẹ": 8223,
      "‹‹": 8224,
      "es)": 8225,
      "lisha": 8226,
      "ungano": 8227,
      "habari": 8228,
      "sadar": 8229,
      "sashen": 8230,
      "kipindi": 8231,
      "and,": 8232,
      "bujoko": 8233,
      "የሚባል": 8234,
      "d'é": 8235,
      "akafuatwa": 8236,
      "እንዲያ": 8237,
      "ቤተሰብ": 8238,
      "obser": 8239,
      "With": 8240,
      "Shugaba": 8241,
      "dauki": 8242,
      "Filin": 8243,
      "littéra": 8244,
      "Sup": 8245,
      "gest": 8246,
      "top": 8247,
      "kill": 8248,
      "Coun": 8249,
      "Press,": 8250,
      ")።": 8251,
      "Gombe": 8252,
      "Nín": 8253,
      "disha": 8254,
      "photo": 8255,
      "ረፈ": 8256,
      "ሰት": 8257,
      "ታማ": 8258,
      "የሐ": 8259,
      "ጣሪ": 8260,
      "ጻፈው": 8261,
      "››": 8262,
      "ency": 8263,
      "kau": 8264,
      "tude": 8265,
      "yankunan": 8266,
      "2009.": 8267,
      "የተቀ": 8268,
      "ንድስና": 8269,
      "identi": 8270,
      "nouveau": 8271,
      "ሚኒስቴ": 8272,
      "bandari": 8273,
      "ሊቃውንት": 8274,
      "tẹlifí": 8275,
      "):": 8276,
      "Fal": 8277,
      "Mes": 8278,
      "Sas": 8279,
      "n;": 8280,
      "étant": 8281,
      "propo": 8282,
      "Wiki": 8283,
      "'o": 8284,
      "Bru": 8285,
      "wì": 8286,
      "yọ̀": 8287,
      "èè": 8288,
      "መብት": 8289,
      "ሞተ": 8290,
      "ስቲ": 8291,
      "ስሜን": 8292,
      "ቲት": 8293,
      "ነጭ": 8294,
      "ያል።": 8295,
      "ọkọ": 8296,
      "instru": 8297,
      "isé": 8298,
      "oman": 8299,
      "20,": 8300,
      "gbọn": 8301,
      "row": 8302,
      "padri": 8303,
      "fawa": 8304,
      "addini": 8305,
      "ነበር፡፡": 8306,
      "ìjà": 8307,
      "1951": 8308,
      "Christ": 8309,
      "Bibli": 8310,
      "nguvu": 8311,
      "kowane": 8312,
      "Fasaha": 8313,
      "julọ": 8314,
      "ወዘተ": 8315,
      "Cap": 8316,
      "Gal": 8317,
      "Stan": 8318,
      "Top": 8319,
      "awa": 8320,
      "cles": 8321,
      "hr": 8322,
      "እሳት": 8323,
      "ense": 8324,
      "maz": 8325,
      "kuto": 8326,
      "meta": 8327,
      "défini": 8328,
      "Champi": 8329,
      "established": 8330,
      "Edo": 8331,
      "Upande": 8332,
      "Uchaguzi": 8333,
      "Èdè": 8334,
      "ògùn": 8335,
      "ማክ": 8336,
      "ምሌ": 8337,
      "ሮን": 8338,
      "ሰላ": 8339,
      "ካራ": 8340,
      "የፖለቲካ": 8341,
      "riel": 8342,
      "ẹ̀sìn": 8343,
      "yarjejeni": 8344,
      "unao": 8345,
      "Kikuu": 8346,
      "ስተኛው": 8347,
      "kéde": 8348,
      "Afirka.": 8349,
      "dínlọ́gbọ̀n": 8350,
      "quelques": 8351,
      "Abdullahi": 8352,
      "tẹ́nìs": 8353,
      "(14": 8354,
      "yet": 8355,
      "ofar": 8356,
      "chen": 8357,
      "soke": 8358,
      "cogni": 8359,
      "Notes": 8360,
      "Tangan": 8361,
      "Victori": 8362,
      "ctif": 8363,
      "(ወይም": 8364,
      "(lafazi": 8365,
      "Kari": 8366,
      "Los": 8367,
      "[[": 8368,
      "care": 8369,
      "dìí": 8370,
      "òkú": 8371,
      "ɗe": 8372,
      "ምልክ": 8373,
      "ካከለ": 8374,
      "ዋርያ": 8375,
      "ዝያ": 8376,
      "ጃፓን": 8377,
      "ጉር": 8378,
      "ጉን": 8379,
      "ጎች": 8380,
      "makon": 8381,
      "ambi": 8382,
      "የአንድ": 8383,
      "በመስ": 8384,
      "000.": 8385,
      "shule": 8386,
      "published": 8387,
      "ground": 8388,
      "ዋንጫ": 8389,
      "ገበያ": 8390,
      "mamaye": 8391,
      "Prince": 8392,
      "cription": 8393,
      "bisho": 8394,
      "ikon": 8395,
      "eror": 8396,
      "moto": 8397,
      "strong": 8398,
      "sarra": 8399,
      "thodo": 8400,
      "wikipe": 8401,
      "Cross": 8402,
      "bora": 8403,
      "dùn": 8404,
      "mlima": 8405,
      "près": 8406,
      "sẹ": 8407,
      "ሄደ": 8408,
      "መዘ": 8409,
      "በታሪክ": 8410,
      "በጥንታዊ": 8411,
      "ወላ": 8412,
      "ዚያን": 8413,
      "ፋል": 8414,
      "lais": 8415,
      "namba": 8416,
      "develo": 8417,
      "sit": 8418,
      "jiha": 8419,
      "sud": 8420,
      "zir": 8421,
      "mann": 8422,
      "hard": 8423,
      "የተወሰ": 8424,
      "tarwa": 8425,
      "Amani": 8426,
      "Alli": 8427,
      "kòrò": 8428,
      "Libr": 8429,
      "ስታን": 8430,
      "በሰሜን": 8431,
      "jamhuri": 8432,
      "fasaha": 8433,
      "ፖርቱ": 8434,
      "CB": 8435,
      "Osu": 8436,
      "When": 8437,
      "ek": 8438,
      "goro": 8439,
      "pare": 8440,
      "uk": 8441,
      "île": 8442,
      "ories": 8443,
      "Nations": 8444,
      "co.": 8445,
      "ardhi": 8446,
      "Bern": 8447,
      "Igbo": 8448,
      "Tou": 8449,
      "tù": 8450,
      "étaient": 8451,
      "መምህ": 8452,
      "ሞላ": 8453,
      "ሣይ": 8454,
      "ቀለ": 8455,
      "በሉ": 8456,
      "ቶን": 8457,
      "ዝግ": 8458,
      "የ«": 8459,
      "ጨት": 8460,
      "anchi": 8461,
      "kalenda": 8462,
      "given": 8463,
      "soja": 8464,
      "የሚጠ": 8465,
      "ነበር፤": 8466,
      "Mito": 8467,
      "duniya,": 8468,
      "biyu.": 8469,
      "ilé-ìwé": 8470,
      "watoto": 8471,
      "Ahmed": 8472,
      "A,": 8473,
      "Eri": 8474,
      "Jan": 8475,
      "bi.": 8476,
      "much": 8477,
      "author": 8478,
      "conser": 8479,
      "marqu": 8480,
      "llen": 8481,
      "Alexand": 8482,
      "nationale": 8483,
      "original": 8484,
      "président": 8485,
      "Dra": 8486,
      "Jona": 8487,
      "Ram": 8488,
      "sọ̀rọ̀": 8489,
      "ìyàn": 8490,
      "የቻይና": 8491,
      "ያላ": 8492,
      "kubali": 8493,
      "kida": 8494,
      "2002,": 8495,
      "oni.": 8496,
      "Sehemu": 8497,
      "tàrí": 8498,
      "አልፎ": 8499,
      "information": 8500,
      "መቀመጫ": 8501,
      "ọpọlọ": 8502,
      "Alfred": 8503,
      "69": 8504,
      "’s": 8505,
      "level": 8506,
      "local": 8507,
      "board": 8508,
      "lled": 8509,
      "classi": 8510,
      "Hungari": 8511,
      "1–": 8512,
      "pungu": 8513,
      "rol": 8514,
      "wis": 8515,
      "ለዋል።": 8516,
      "ሊት": 8517,
      "ምድ": 8518,
      "በክ": 8519,
      "በፍ": 8520,
      "ተወለደ": 8521,
      "ንተ": 8522,
      "የእግዚአብሔር": 8523,
      "የግብጽ": 8524,
      "ዶን": 8525,
      "madara": 8526,
      "essor": 8527,
      "liste": 8528,
      "undi": 8529,
      "kufa": 8530,
      "ilway": 8531,
      "giga": 8532,
      "pokuwa": 8533,
      "termin": 8534,
      "huɗu": 8535,
      "télé": 8536,
      "ኢትዮጵያዊ": 8537,
      "Refer": 8538,
      "Alitokea": 8539,
      "yìí,": 8540,
      "አስተዋ": 8541,
      "መካከለ": 8542,
      "ስርዓት": 8543,
      "kilimo": 8544,
      "support": 8545,
      "brother": 8546,
      "ON": 8547,
      "eau": 8548,
      "soft": 8549,
      "took": 8550,
      "hidi": 8551,
      "alka": 8552,
      "principal": 8553,
      "particular": 8554,
      "%),": 8555,
      "gri": 8556,
      "àkọ": 8557,
      "ተስፋ": 8558,
      "ትኩ": 8559,
      "ችሉ": 8560,
      "ኒት": 8561,
      "ፈቃ": 8562,
      "taf": 8563,
      "sawa": 8564,
      "nitori": 8565,
      "amua": 8566,
      "etc.": 8567,
      "buwar": 8568,
      "የአለም": 8569,
      "በአንዳንድ": 8570,
      "ዘመናት": 8571,
      "porte": 8572,
      "1939": 8573,
      "ስምምነት": 8574,
      "ምክር": 8575,
      "digirin": 8576,
      "Civil": 8577,
      "መነሻ": 8578,
      "jagoranci": 8579,
      "mallaka": 8580,
      "uraren": 8581,
      "Fulani": 8582,
      "\"A": 8583,
      "800": 8584,
      "Kit": 8585,
      "bè": 8586,
      "indé": 8587,
      "tibu": 8588,
      "tants": 8589,
      "do-": 8590,
      "adini": 8591,
      "co,": 8592,
      "still": 8593,
      "Official": 8594,
      "général": 8595,
      "Malawi": 8596,
      "(12": 8597,
      "Gúúsù": 8598,
      "bù": 8599,
      "gà": 8600,
      "igh": 8601,
      "pron": 8602,
      "ለአ": 8603,
      "መጽ": 8604,
      "ረር": 8605,
      "ተገ": 8606,
      "አነጋ": 8607,
      "ዞን": 8608,
      "የጎ": 8609,
      "ያተ": 8610,
      "ዮት": 8611,
      "ግና": 8612,
      "ọkàn": 8613,
      "tie": 8614,
      "lishi": 8615,
      "wọlé": 8616,
      "bul": 8617,
      "dangin": 8618,
      "atten": 8619,
      "ríà": 8620,
      "maneno": 8621,
      "force": 8622,
      "shekarar,": 8623,
      "wasanni": 8624,
      "ttle": 8625,
      "ወረራ": 8626,
      "múlẹ̀": 8627,
      "Marie": 8628,
      "prise": 8629,
      "musulunci": 8630,
      "leader": 8631,
      "During": 8632,
      "Kyautar": 8633,
      "Tsarin": 8634,
      "Ly": 8635,
      "s’": 8636,
      "zone": 8637,
      "log": 8638,
      "dée": 8639,
      "1953": 8640,
      "Angola": 8641,
      "Hor": 8642,
      "igi": 8643,
      "mke": 8644,
      "ሠብ": 8645,
      "ሳቸውን": 8646,
      "ንጥረ": 8647,
      "እጽዋት": 8648,
      "ከላይ": 8649,
      "ከአንድ": 8650,
      "tashar": 8651,
      "ra'a": 8652,
      "20.": 8653,
      "fiya": 8654,
      "fadhi": 8655,
      "mother": 8656,
      "በት።": 8657,
      "Round)": 8658,
      "Jiografia": 8659,
      "አስፈላጊ": 8660,
      "ባህላዊ": 8661,
      "Sannan": 8662,
      "Misri": 8663,
      "ገለግ": 8664,
      "various": 8665,
      "construction": 8666,
      "firamare": 8667,
      "râ": 8668,
      "vité": 8669,
      "thing": 8670,
      "dugu": 8671,
      "ment.": 8672,
      "mond": 8673,
      "France,": 8674,
      "social": 8675,
      "famille": 8676,
      "Mediter": 8677,
      "Bos": 8678,
      "Uislamu": 8679,
      "Won": 8680,
      "pet": 8681,
      "ቀደም": 8682,
      "በባ": 8683,
      "በኩ": 8684,
      "በጎ": 8685,
      "ተኞች": 8686,
      "እኛ": 8687,
      "ከን": 8688,
      "የሥ": 8689,
      "ur,": 8690,
      "karun": 8691,
      "የተነሳ": 8692,
      "yanayi": 8693,
      "በርግ": 8694,
      "mbobin": 8695,
      "sauransu.": 8696,
      "ነጻነት": 8697,
      "ቀዳማዊ": 8698,
      "መዋዕል": 8699,
      "yẹ̀wò": 8700,
      "Washington": 8701,
      "AP": 8702,
      "Dr.": 8703,
      "sens": 8704,
      "ofi": 8705,
      "(2003)": 8706,
      "These": 8707,
      "written": 8708,
      "Dam": 8709,
      "F)": 8710,
      "Lọ́": 8711,
      "cry": 8712,
      "even": 8713,
      "nyota": 8714,
      "ìṣe": 8715,
      "ሞቱ": 8716,
      "ስታት": 8717,
      "በድ": 8718,
      "እራ": 8719,
      "እዚህ": 8720,
      "ways": 8721,
      "kidogo": 8722,
      "micro": 8723,
      "secon": 8724,
      "Max": 8725,
      "1954": 8726,
      "ambalo": 8727,
      "ambaye": 8728,
      "Islam": 8729,
      "Ghana.": 8730,
      "https": 8731,
      "láàrín": 8732,
      "አሜሪካዊ": 8733,
      "success": 8734,
      "source": 8735,
      "tẹ́lẹ̀.": 8736,
      "kalmar": 8737,
      "Net": 8738,
      "ering": 8739,
      "tail": 8740,
      "computer": 8741,
      "Fre": 8742,
      "If": 8743,
      "Igb": 8744,
      "Yuli": 8745,
      "kwana": 8746,
      "ud": 8747,
      "Àyọkà": 8748,
      "ìlà": 8749,
      "ልጋ": 8750,
      "ተሸ": 8751,
      "ናይ": 8752,
      "ና።": 8753,
      "ẹkọ": 8754,
      "kuja": 8755,
      "as,": 8756,
      "karùn": 8757,
      "kwallaye": 8758,
      "shiriki": 8759,
      "rés": 8760,
      "verse": 8761,
      "እንደነበር": 8762,
      "Kula": 8763,
      "yake,": 8764,
      "alama": 8765,
      "ታወቀ": 8766,
      "ጣልያ": 8767,
      "peuvent": 8768,
      "መሣሪያ": 8769,
      "Jonathan": 8770,
      "(4": 8771,
      "53": 8772,
      "Ojo": 8773,
      "Ula": 8774,
      "glo": 8775,
      "ental": 8776,
      "masi": 8777,
      "unis": 8778,
      "parfois": 8779,
      "centre": 8780,
      "halifa": 8781,
      "Fati": 8782,
      "amatsayin": 8783,
      "bran": 8784,
      "yẹ́": 8785,
      "ìwọ̀": 8786,
      "ላቅ": 8787,
      "ልጆ": 8788,
      "ልምና": 8789,
      "ስሊ": 8790,
      "ተባለ": 8791,
      "‘yan": 8792,
      "tashi": 8793,
      "ẹ̀dá": 8794,
      "conqu": 8795,
      "sínú": 8796,
      "process": 8797,
      "onia": 8798,
      "vention": 8799,
      "አስቀድሞ": 8800,
      "kẹfà": 8801,
      "ይገመ": 8802,
      "Harsunan": 8803,
      "individu": 8804,
      "ግራም": 8805,
      "Gregori": 8806,
      "Belgi": 8807,
      "Servi": 8808,
      "52": 8809,
      "Other": 8810,
      "Rome": 8811,
      "ix": 8812,
      "aran": 8813,
      "taur": 8814,
      "hiki": 8815,
      "ria,": 8816,
      "rapi": 8817,
      "cip": 8818,
      "tua": 8819,
      "ID": 8820,
      "Jus": 8821,
      "Vin": 8822,
      "ለምን": 8823,
      "ተገኝ": 8824,
      "ọkọ̀": 8825,
      "mijin": 8826,
      "jijini": 8827,
      "Mapapa": 8828,
      "ity,": 8829,
      "gues": 8830,
      "huitwa": 8831,
      "17,": 8832,
      "tenis": 8833,
      "Mutanen": 8834,
      "oluko": 8835,
      "ተቀም": 8836,
      "zamantake": 8837,
      "Orile-ede": 8838,
      "ndege": 8839,
      "daidai": 8840,
      "IM": 8841,
      "Sto": 8842,
      "mch": 8843,
      "water": 8844,
      "le)": 8845,
      "représent": 8846,
      "ased": 8847,
      "fusion": 8848,
      "house": 8849,
      "13,": 8850,
      "Keb": 8851,
      "zane": 8852,
      "conomic": 8853,
      "Az": 8854,
      "Akan": 8855,
      "adi": 8856,
      "agbara": 8857,
      "ido": 8858,
      "ov": 8859,
      "s'a": 8860,
      "ìwá": 8861,
      "ለህ": 8862,
      "መተ": 8863,
      "መኮ": 8864,
      "ሰኔ": 8865,
      "ሰፊ": 8866,
      "ስነ": 8867,
      "ና፡": 8868,
      "እያለ": 8869,
      "ፉ።": 8870,
      "ፍላ": 8871,
      "tovu": 8872,
      "sitì": 8873,
      "tea": 8874,
      "Mataifa": 8875,
      "kwatar": 8876,
      "በመቀ": 8877,
      "በመጽሐ": 8878,
      "Katoliki": 8879,
      "ጀመር": 8880,
      "Soviet": 8881,
      "Ibom": 8882,
      "መሠረተ": 8883,
      "ይሆናል": 8884,
      "Daniel": 8885,
      "Anambra": 8886,
      "አልፋቤት": 8887,
      "1/": 8888,
      "IC": 8889,
      "Jon": 8890,
      "b.": 8891,
      "koro": 8892,
      "kemia": 8893,
      "down": 8894,
      "co-": 8895,
      "developed": 8896,
      "-አ": 8897,
      "Gold": 8898,
      "ርሱም": 8899,
      "ቆብ": 8900,
      "ናገር": 8901,
      "የጥን": 8902,
      "ጨለማ": 8903,
      "ነው፣": 8904,
      "kansu": 8905,
      "kundu": 8906,
      "sés": 8907,
      "አብዛኛው": 8908,
      "Masara": 8909,
      "kẹtà": 8910,
      "wake.": 8911,
      "ድምጽ": 8912,
      "rálíà": 8913,
      "Austrálíà": 8914,
      "ውድድር": 8915,
      "Áfíríkà": 8916,
      "ስለሆነም": 8917,
      "image": 8918,
      "ይርላንድ": 8919,
      "adop": 8920,
      "présente": 8921,
      "(en": 8922,
      "Ron": 8923,
      "e)": 8924,
      "hira": 8925,
      "ilè": 8926,
      "ence,": 8927,
      "ques.": 8928,
      "Virgini": 8929,
      "COVID-19": 8930,
      "-ኢ": 8931,
      "-ede": 8932,
      "11.": 8933,
      "Tas": 8934,
      "awo": 8935,
      "igb": 8936,
      "iwo": 8937,
      "nusu": 8938,
      "oòrùn": 8939,
      "ሃም": 8940,
      "ምሩ": 8941,
      "ትስ": 8942,
      "ትዕ": 8943,
      "ነሐሴ": 8944,
      "ዩት": 8945,
      "Ọlá": 8946,
      "wapo": 8947,
      "daular": 8948,
      "kurú": 8949,
      "thus": 8950,
      "muhimman": 8951,
      "align": 8952,
      "bude": 8953,
      "shiyar": 8954,
      "ere,": 8955,
      "ለውጥ": 8956,
      "kunrin": 8957,
      "undwa": 8958,
      "Hakan": 8959,
      "Jamus": 8960,
      "kúkurú": 8961,
      "onímọ̀": 8962,
      "wiki/": 8963,
      "ፕሬዚዳንት": 8964,
      "ትውልድ": 8965,
      "Daular": 8966,
      "Ami": 8967,
      "IA": 8968,
      "Mbe": 8969,
      "avait": 8970,
      "ic": 8971,
      "lace": 8972,
      "native": 8973,
      "hao": 8974,
      "uren": 8975,
      "difi": 8976,
      "duction": 8977,
      "kundin": 8978,
      "panish": 8979,
      "Kemi": 8980,
      "objet": 8981,
      "Chica": 8982,
      "craft": 8983,
      "sensa": 8984,
      "(7": 8985,
      "-ሲን": 8986,
      "Sani": 8987,
      "b,": 8988,
      "furu": 8989,
      "uliwa": 8990,
      "ሆኗ": 8991,
      "ላህ": 8992,
      "መሃ": 8993,
      "መሆን": 8994,
      "ምግብ": 8995,
      "ቀም": 8996,
      "ብሄ": 8997,
      "ብረተ": 8998,
      "ችሎ": 8999,
      "አጼ": 9000,
      "የጦር": 9001,
      "ዳይ": 9002,
      "def": 9003,
      "kikubwa": 9004,
      "roi": 9005,
      "mole": 9006,
      "opera": 9007,
      "በአማርኛ": 9008,
      "Sauran": 9009,
      "kòó": 9010,
      "ከተማዋ": 9011,
      "nìkan": 9012,
      "nomba": 9013,
      "ርትራ": 9014,
      "እንዳይ": 9015,
      "premiers": 9016,
      "ይታመ": 9017,
      "FM,": 9018,
      "dia.org/": 9019,
      "mvua": 9020,
      "ተጫዋ": 9021,
      "IT": 9022,
      "development": 9023,
      "recher": 9024,
      "ve,": 9025,
      "14,": 9026,
      "2020.": 9027,
      "Elizabe": 9028,
      "-E": 9029,
      "Gran": 9030,
      "Ou": 9031,
      "n'a": 9032,
      "ster": 9033,
      "vée": 9034,
      "xes": 9035,
      "ሃያ": 9036,
      "ልዑ": 9037,
      "ሣሥ": 9038,
      "ስጋ": 9039,
      "አጠቃላይ": 9040,
      "ዳኛ": 9041,
      "፳፻": 9042,
      "kulob": 9043,
      "sir": 9044,
      "alichunguza": 9045,
      "ouv": 9046,
      "pe,": 9047,
      "የሚባለው": 9048,
      "ghter": 9049,
      "1943": 9050,
      "Limi": 9051,
      "asilia": 9052,
      "Histoire": 9053,
      "ISO": 9054,
      "ፕሬዚደን": 9055,
      "Kanada": 9056,
      "Sokoto": 9057,
      "Council": 9058,
      "\").": 9059,
      "Saka": 9060,
      "Thi": 9061,
      "jara": 9062,
      "adam": 9063,
      "See": 9064,
      "profession": 9065,
      "Andrew": 9066,
      "',": 9067,
      "(R": 9068,
      "Manu": 9069,
      "Ojú": 9070,
      "Olus": 9071,
      "uzi": 9072,
      "ሆናቸው": 9073,
      "ረጅም": 9074,
      "ችኹ": 9075,
      "ዲት": 9076,
      "ọkan": 9077,
      "defe": 9078,
      "yarda": 9079,
      "2008.": 9080,
      "የሚሰ": 9081,
      "abba": 9082,
      "shaharar": 9083,
      "በኋላም": 9084,
      "Afirka,": 9085,
      "ሌላው": 9086,
      "ancient": 9087,
      "Gabas": 9088,
      "Petro": 9089,
      "distin": 9090,
      "mwanzo": 9091,
      "caracté": 9092,
      "Ìgbésí": 9093,
      "Ìtumò:": 9094,
      "https://": 9095,
      "Kor": 9096,
      "left": 9097,
      "atar": 9098,
      "hos": 9099,
      "nombreuses": 9100,
      "41": 9101,
      "Ast": 9102,
      "IX": 9103,
      "Igba": 9104,
      "dol": 9105,
      "ipin": 9106,
      "ndio": 9107,
      "é,": 9108,
      "òní": 9109,
      "ሄዱ": 9110,
      "መግ": 9111,
      "ርዝ": 9112,
      "በህ": 9113,
      "በለ": 9114,
      "ተም": 9115,
      "ተባ": 9116,
      "ውና": 9117,
      "ዥን": 9118,
      "ያዕ": 9119,
      "ደቅ": 9120,
      "ingawa": 9121,
      "tit": 9122,
      "የአሦር": 9123,
      "linalo": 9124,
      "wenyeji": 9125,
      "inste": 9126,
      "ድረስ፣": 9127,
      "mẹ́rin": 9128,
      "ƙasashen": 9129,
      "vitabu": 9130,
      "ለን።": 9131,
      "ተራሮች": 9132,
      "àmì-ẹ̀yẹ": 9133,
      "የኤሌክትሪክ": 9134,
      "ርቶዶ": 9135,
      "Nínú": 9136,
      "ይገመታል።": 9137,
      "(au": 9138,
      "Aṣ": 9139,
      "Iwo": 9140,
      "L.": 9141,
      "lazi": 9142,
      "remp": 9143,
      "19,": 9144,
      "duka": 9145,
      "yau,": 9146,
      "Jacques": 9147,
      "(pia": 9148,
      "àsìkò": 9149,
      "Ƙasa": 9150,
      "መቃ": 9151,
      "ቡን": 9152,
      "ተዛ": 9153,
      "ቱት": 9154,
      "አደ": 9155,
      "አማርኛ": 9156,
      "olori": 9157,
      "karɓ": 9158,
      "so,": 9159,
      "የሚፈ": 9160,
      "Nazarin": 9161,
      "yanayo": 9162,
      "duniani.": 9163,
      "yaume": 9164,
      "Commun": 9165,
      "ግብፅ": 9166,
      "ሰማይ": 9167,
      "ይገኛሉ።": 9168,
      "fulani": 9169,
      "láàá": 9170,
      "ፕሬዝ": 9171,
      "elimu": 9172,
      "እንስሳት": 9173,
      "Janairu": 9174,
      "ብሪታንያ": 9175,
      "Indonesi": 9176,
      "አንቀጽ": 9177,
      "demokrasia": 9178,
      "Apa": 9179,
      "iba": 9180,
      "oba": 9181,
      "pper": 9182,
      "ku,": 9183,
      "Franço": 9184,
      "cific": 9185,
      "Em": 9186,
      "FR": 9187,
      "Idi": 9188,
      "Mont": 9189,
      "mrefu": 9190,
      "ሰዓት": 9191,
      "ሻሻ": 9192,
      "እርስ": 9193,
      "የደ": 9194,
      "ይመ": 9195,
      "ጤና": 9196,
      "another": 9197,
      "wadi": 9198,
      "sababisha": 9199,
      "forman": 9200,
      "body": 9201,
      "ador": 9202,
      "noun": 9203,
      "odò": 9204,
      "Kafin": 9205,
      "ongoza": 9206,
      "political": 9207,
      "Chief": 9208,
      "2019)": 9209,
      "እንግሊዝኛ:": 9210,
      "Berlin": 9211,
      "ፈረንሣይ": 9212,
      "የግሪክ": 9213,
      "RD1-score": 9214,
      "978-": 9215,
      "masana'antar": 9216,
      "jusqu'à": 9217,
      "ውቅያኖስ": 9218,
      "Cho": 9219,
      "west": 9220,
      "dal": 9221,
      "fig": 9222,
      "Leon": 9223,
      "Nigeria,": 9224,
      "District": 9225,
      "nù": 9226,
      "vas": 9227,
      "yò": 9228,
      "zy": 9229,
      "àṣẹ": 9230,
      "ምስራቅ": 9231,
      "ራው": 9232,
      "ኅሣሥ": 9233,
      "የሁ": 9234,
      "ዳት": 9235,
      "yada": 9236,
      "maanisha": 9237,
      "oru": 9238,
      "vided": 9239,
      "yii": 9240,
      "የአገ": 9241,
      "ces,": 9242,
      "Gudanar": 9243,
      "ማለትም": 9244,
      "yàtọ̀": 9245,
      "ሚያዝያ": 9246,
      "experi": 9247,
      "ፍጥነት": 9248,
      "Ahmadu": 9249,
      "binadamu": 9250,
      "jiragen": 9251,
      "ESCO": 9252,
      "Premier": 9253,
      "እስካሁን": 9254,
      "Mataimakin": 9255,
      "Wani": 9256,
      "get": 9257,
      "enfan": 9258,
      "lac": 9259,
      "oris": 9260,
      "alter": 9261,
      "sey": 9262,
      "tenant": 9263,
      "largest": 9264,
      "établi": 9265,
      "disting": 9266,
      "prend": 9267,
      "(mshindi": 9268,
      "Chu": 9269,
      "From": 9270,
      "odi": 9271,
      "ìyàwó": 9272,
      "ብረ": 9273,
      "አለመ": 9274,
      "ክፉ": 9275,
      "የእግር": 9276,
      "የጣልያን": 9277,
      "ፌዴ": 9278,
      "wale": 9279,
      "wafu": 9280,
      "tag": 9281,
      "kijeshi": 9282,
      "nibi": 9283,
      "quatre": 9284,
      "alist": 9285,
      "karar": 9286,
      "shwa": 9287,
      "hui": 9288,
      "gbajumo": 9289,
      "sarkin": 9290,
      "shawarar": 9291,
      "ይህንን": 9292,
      "የመሬት": 9293,
      "ለመጀመሪያ": 9294,
      "Kano,": 9295,
      "በሚል": 9296,
      "mwingine": 9297,
      "barabara": 9298,
      "font": 9299,
      "fonda": 9300,
      "mwamba": 9301,
      "Uingereza.": 9302,
      "ትልቁ": 9303,
      "ዛሬው": 9304,
      "àkókò": 9305,
      "Mutuwan": 9306,
      "Arabic": 9307,
      "Bákan": 9308,
      "Kasuwanci": 9309,
      "arzikin": 9310,
      "Lau": 9311,
      "ae": 9312,
      "fla": 9313,
      "ants": 9314,
      "ethi": 9315,
      "Kili": 9316,
      "Karl": 9317,
      "obje": 9318,
      "Beau": 9319,
      "Après": 9320,
      "Agusta": 9321,
      "Cambri": 9322,
      "Frán": 9323,
      "Ibujoko": 9324,
      "Pap": 9325,
      "Tatta": 9326,
      "Yusu": 9327,
      "aya": 9328,
      "loni": 9329,
      "pil": 9330,
      "vard": 9331,
      "Àgbà": 9332,
      "ìpín": 9333,
      "ƙashin": 9334,
      "لَ": 9335,
      "ሞስ": 9336,
      "ርቀት": 9337,
      "ስፒ": 9338,
      "ተጨማሪ": 9339,
      "ካለ": 9340,
      "ድቅ": 9341,
      "ጉዞ": 9342,
      "ፍተ": 9343,
      "matar": 9344,
      "rier": 9345,
      "radio": 9346,
      "fiadini": 9347,
      "sum": 9348,
      "በአፍ": 9349,
      "matasa": 9350,
      "pẹẹrẹ": 9351,
      "clear": 9352,
      "tattauna": 9353,
      "RD1-score0": 9354,
      "የካቲት": 9355,
      "የእስፓንያ": 9356,
      "Samuel": 9357,
      "website": 9358,
      "ውጤት": 9359,
      "unganisha": 9360,
      "አሉት።": 9361,
      "dia.org/wiki/": 9362,
      "Plan": 9363,
      "mise": 9364,
      "lato": 9365,
      "quo": 9366,
      "separa": 9367,
      "1944": 9368,
      "College,": 9369,
      "Avi": 9370,
      "awali": 9371,
      "agbe": 9372,
      "ìtàgé": 9373,
      "ሕን": 9374,
      "ስፍራ": 9375,
      "በ15": 9376,
      "ቢያን": 9377,
      "ክላ": 9378,
      "title": 9379,
      "unit": 9380,
      "use,": 9381,
      "los": 9382,
      "sound": 9383,
      "urefu": 9384,
      "dásílẹ̀": 9385,
      "ድርጊ": 9386,
      "ደረግ": 9387,
      "institu": 9388,
      "kìtì": 9389,
      "Burtaniya": 9390,
      "Amurka,": 9391,
      "sous-": 9392,
      "ተወላ": 9393,
      "aṣojú": 9394,
      "Atlantiki": 9395,
      "binciken": 9396,
      "ology,": 9397,
      "wakiltar": 9398,
      "ṣòwò": 9399,
      "mukamin": 9400,
      "dabbo": 9401,
      "Limited": 9402,
      "76": 9403,
      "Rwanda": 9404,
      "espè": 9405,
      "nah": 9406,
      "kudi": 9407,
      "mum": 9408,
      "12.": 9409,
      "1937": 9410,
      "mself": 9411,
      "politi": 9412,
      "England": 9413,
      "Fí": 9414,
      "Hara": 9415,
      "Kí": 9416,
      "Sum": 9417,
      "fìdí": 9418,
      "uchaguzi": 9419,
      "ሕል": 9420,
      "ቃት": 9421,
      "ተለ": 9422,
      "ጃም": 9423,
      "ግዳ": 9424,
      "ley,": 9425,
      "kute": 9426,
      "al'a": 9427,
      "page": 9428,
      "tance": 9429,
      "ly.": 9430,
      "l'ex": 9431,
      "የተገኘ": 9432,
      "noma": 9433,
      "accep": 9434,
      "hispania": 9435,
      "márùn": 9436,
      "Nijeriya,": 9437,
      "jengwa": 9438,
      "አስተሳ": 9439,
      "girman": 9440,
      "ይልቅ": 9441,
      "Ministan": 9442,
      "tumizi": 9443,
      "ብሔረ": 9444,
      "ፍጥረት": 9445,
      "ፓርቲዎች": 9446,
      "ጀመረ።": 9447,
      "wikipedia.org/wiki/": 9448,
      "gol": 9449,
      "jani": 9450,
      "x.": 9451,
      "tice": 9452,
      "gation": 9453,
      "soma": 9454,
      "2005,": 9455,
      "quement": 9456,
      "reste": 9457,
      "protes": 9458,
      "1942": 9459,
      "ère,": 9460,
      "Carol": 9461,
      "ddle": 9462,
      "campa": 9463,
      "G.": 9464,
      "aa": 9465,
      "afi": 9466,
      "rê": 9467,
      "Àṣà": 9468,
      "ƙe": 9469,
      "ሮሜ": 9470,
      "በእስ": 9471,
      "ነሽ": 9472,
      "የፀ": 9473,
      "ይነገ": 9474,
      "ዱን": 9475,
      "ṣọ̀": 9476,
      "miran": 9477,
      "round": 9478,
      "kwamitin": 9479,
      "sanjo": 9480,
      "2005.": 9481,
      "ሳሌም": 9482,
      "company": 9483,
      "Artic": 9484,
      "አንዳን": 9485,
      "ishaji": 9486,
      "የሚገኘው": 9487,
      "፲፱፻፵": 9488,
      "òṣèrékùnrin": 9489,
      "Amurka.": 9490,
      "According": 9491,
      "-oòrùn": 9492,
      "service": 9493,
      "ያያዣ": 9494,
      "ክፍላገራት": 9495,
      "Kwara": 9496,
      "Nan": 9497,
      "vres": 9498,
      "zur": 9499,
      "make": 9500,
      "gidi": 9501,
      "pedia": 9502,
      "Enter": 9503,
      "èrement": 9504,
      "useum": 9505,
      "Green": 9506,
      "throp": 9507,
      "Fri": 9508,
      "Kofin": 9509,
      "L’": 9510,
      "Mel": 9511,
      "kisha": 9512,
      "ìṣè": 9513,
      "ሁንም": 9514,
      "ሮሞ": 9515,
      "ተመለ": 9516,
      "ዜማ": 9517,
      "የቅ": 9518,
      "ṣọ́": 9519,
      "ma’": 9520,
      "mako": 9521,
      "relation": 9522,
      "fizikia": 9523,
      "thes": 9524,
      "Ma'": 9525,
      "faa": 9526,
      "gudun": 9527,
      "design": 9528,
      "pimo": 9529,
      "fort": 9530,
      "kunin": 9531,
      "cant": 9532,
      "yanai": 9533,
      "ስተዳ": 9534,
      "lórílẹ̀": 9535,
      "changan": 9536,
      "kasuwa": 9537,
      "hukumomi": 9538,
      "Fami": 9539,
      "distribu": 9540,
      "ገኙት": 9541,
      "ሮማይስጥ": 9542,
      "gurbin": 9543,
      "በተጨማሪም": 9544,
      "ቴክኖ": 9545,
      "ሲቀሩ": 9546,
      "Commonwealth": 9547,
      "Turanci": 9548,
      "መኮንን": 9549,
      "Fránsì": 9550,
      "92": 9551,
      "blan": 9552,
      "flo": 9553,
      "ns": 9554,
      "”.": 9555,
      "arifa": 9556,
      "gic": 9557,
      "viol": 9558,
      "attribu": 9559,
      "cale": 9560,
      "Alber": 9561,
      "cords": 9562,
      "2018)": 9563,
      "Brown": 9564,
      "administra": 9565,
      "Cô": 9566,
      "Gor": 9567,
      "Lé": 9568,
      "Ukristo": 9569,
      "jur": 9570,
      "mè": 9571,
      "mtun": 9572,
      "ìs": 9573,
      "ìwà": 9574,
      "úlé": 9575,
      "ሉ፣": 9576,
      "ሰላም": 9577,
      "ሴማዊ": 9578,
      "ቅረብ": 9579,
      "በጠ": 9580,
      "ነስ": 9581,
      "የሶ": 9582,
      "inde": 9583,
      "li.": 9584,
      "zauna": 9585,
      "china": 9586,
      "become": 9587,
      "የአን": 9588,
      "idara": 9589,
      "tòjọ": 9590,
      "majimbo": 9591,
      "bonde": 9592,
      "Northern": 9593,
      "Obasanjo": 9594,
      "ምዕራፍ": 9595,
      "መሳሪያ": 9596,
      "mwendo": 9597,
      "ጨዋታ": 9598,
      "gree": 9599,
      "mes,": 9600,
      "minis": 9601,
      "Gram": 9602,
      "Chadi": 9603,
      "Emp": 9604,
      "bres": 9605,
      "f-": 9606,
      "spi": 9607,
      "ሎችን": 9608,
      "ሠሩ": 9609,
      "ሩስ": 9610,
      "በዋና": 9611,
      "ፊው": 9612,
      "kasan": 9613,
      "gbí": 9614,
      "illes": 9615,
      "giji": 9616,
      "zime": 9617,
      "ought": 9618,
      "soli": 9619,
      "látàrí": 9620,
      "tseren": 9621,
      "we.": 9622,
      "umbo": 9623,
      "Angli": 9624,
      "ነገሥቱ": 9625,
      "shahara": 9626,
      "Jim": 9627,
      "(2007)": 9628,
      "mẹ́rìn": 9629,
      "case": 9630,
      "ምህንድስና": 9631,
      "agbábọ́ọ̀lù": 9632,
      "ng'": 9633,
      "husiano": 9634,
      "%).": 9635,
      "78": 9636,
      "Cu": 9637,
      "hra": 9638,
      "ight": 9639,
      "lif": 9640,
      "is)": 9641,
      "1910": 9642,
      "dium": 9643,
      "ana.": 9644,
      "seur": 9645,
      "kono": 9646,
      "Congo": 9647,
      "Primary": 9648,
      "People's": 9649,
      "building": 9650,
      "râce": 9651,
      "(6": 9652,
      "Haka": 9653,
      "Vene": 9654,
      "ela": 9655,
      "fesa": 9656,
      "nus": 9657,
      "ufu": 9658,
      "ufalme": 9659,
      "wuri": 9660,
      "àwùjọ": 9661,
      "ሆና": 9662,
      "ማል።": 9663,
      "ያሉት": 9664,
      "ọna": 9665,
      "masanin": 9666,
      "haɓ": 9667,
      "quare": 9668,
      "je,": 9669,
      "የሚታ": 9670,
      "compa": 9671,
      "mpuni": 9672,
      "በአብ": 9673,
      "መንግሥ": 9674,
      "II.": 9675,
      "rẹ,": 9676,
      "እርግጥ": 9677,
      "bilité": 9678,
      "ancien": 9679,
      "ወለድ": 9680,
      "ikiwa": 9681,
      "ደረገ።": 9682,
      "Lára": 9683,
      "Èkó.": 9684,
      "ግድም)": 9685,
      "Sarki": 9686,
      "kando": 9687,
      "akọkọ": 9688,
      "በታች": 9689,
      "ዕድሜ": 9690,
      "Dinkin": 9691,
      "ሚኒስቴር": 9692,
      "ፕሬዚደንት": 9693,
      "Hus": 9694,
      "ST": 9695,
      "guri": 9696,
      "ij": 9697,
      "ciden": 9698,
      "centra": 9699,
      "lower": 9700,
      "London,": 9701,
      "(8": 9702,
      "IP": 9703,
      "Ilẹ̀": 9704,
      "Shan": 9705,
      "bb": 9706,
      "nǹkan": 9707,
      "sise": 9708,
      "ufi": 9709,
      "ለሰው": 9710,
      "ረድ": 9711,
      "በቆ": 9712,
      "ኅዳር": 9713,
      "አግኝ": 9714,
      "የታሪክ": 9715,
      "bakin": 9716,
      "niveau": 9717,
      "kewa": 9718,
      "umbe": 9719,
      "Nation": 9720,
      "Kitabu": 9721,
      "che,": 9722,
      "Micro": 9723,
      "matsayinta": 9724,
      "ux,": 9725,
      "ingira": 9726,
      "አብር": 9727,
      "farko,": 9728,
      "Abra": 9729,
      "zamanin": 9730,
      "ጠቃሚ": 9731,
      "በግሪክ": 9732,
      "መጀመርያው": 9733,
      "ongeze": 9734,
      "hakkin": 9735,
      "langage": 9736,
      "Catholic": 9737,
      "ርቶዶክስ": 9738,
      "Aber": 9739,
      "ER": 9740,
      "MA": 9741,
      "yya,": 9742,
      "hia": 9743,
      "Alfon": 9744,
      "accu": 9745,
      "without": 9746,
      "Masu": 9747,
      "coloni": 9748,
      "AF": 9749,
      "Bet": 9750,
      "Clas": 9751,
      "mwe": 9752,
      "shai": 9753,
      "ual": 9754,
      "ńì": 9755,
      "ሩክ": 9756,
      "ቁም": 9757,
      "ነዉ": 9758,
      "ኛ፣": 9759,
      "un.": 9760,
      "laarin": 9761,
      "held": 9762,
      "devi": 9763,
      "sian": 9764,
      "kitabu": 9765,
      "kituo": 9766,
      "zafi": 9767,
      "ini.": 9768,
      "yo,": 9769,
      "ነበር፣": 9770,
      "Baadaye": 9771,
      "cyclo": 9772,
      "Orúkọ": 9773,
      "ተመራ": 9774,
      "መሰረ": 9775,
      "time,": 9776,
      "Láti": 9777,
      "commune": 9778,
      "UNESCO": 9779,
      "en.wikipedia.org/wiki/": 9780,
      "Ahmad": 9781,
      "meaning": 9782,
      "Oxford": 9783,
      "93": 9784,
      "Sc": 9785,
      "Tr": 9786,
      "endo": 9787,
      "names": 9788,
      "to-": 9789,
      "ent,": 9790,
      "sons": 9791,
      "ty.": 9792,
      "Kama": 9793,
      "1936": 9794,
      "année": 9795,
      "EC": 9796,
      "Spanish": 9797,
      "uwar": 9798,
      "àpapọ̀": 9799,
      "ራይ": 9800,
      "ቋሚ": 9801,
      "በዘ": 9802,
      "በሩት": 9803,
      "ዛም": 9804,
      "የጠ": 9805,
      "ፐር": 9806,
      "yawa,": 9807,
      "tasi": 9808,
      "majina": 9809,
      "ga-": 9810,
      "seau": 9811,
      "seul": 9812,
      "zi.": 9813,
      "karo": 9814,
      "Wakatoliki": 9815,
      "ዘመድ": 9816,
      "ታወቅ": 9817,
      "works": 9818,
      "፲፱፻፳": 9819,
      "olùgbé": 9820,
      "ƙarƙashin": 9821,
      "andikwa": 9822,
      "Serikali": 9823,
      "travail": 9824,
      "káàkiri": 9825,
      "D'": 9826,
      "Fla": 9827,
      "emb": 9828,
      "teri": 9829,
      "lim": 9830,
      "latin": 9831,
      "bamba": 9832,
      "salla": 9833,
      "it,": 9834,
      "ulus": 9835,
      "Afro": 9836,
      "Section": 9837,
      "Army": 9838,
      "Ray": 9839,
      "1903": 9840,
      "Atlantic": 9841,
      "Sweden": 9842,
      "Frederi": 9843,
      "(W": 9844,
      "-án": 9845,
      "Cala": 9846,
      "Kab": 9847,
      "ade": 9848,
      "mdogo": 9849,
      "t)": 9850,
      "ƙananan": 9851,
      "ለቅ": 9852,
      "ለቆ": 9853,
      "ሚስ": 9854,
      "ሶስ": 9855,
      "ተክለ": 9856,
      "ችግር": 9857,
      "የዋ": 9858,
      "ይዛ": 9859,
      "ጎል": 9860,
      "ጣጣ": 9861,
      "arter": 9862,
      "erra": 9863,
      "ener": 9864,
      "haja": 9865,
      "rawa": 9866,
      "wananchi": 9867,
      "yanda": 9868,
      "Kiislamu": 9869,
      "function": 9870,
      "kasashe": 9871,
      "angani": 9872,
      "ṣẹlẹ̀": 9873,
      "Project": 9874,
      "rubutu": 9875,
      "ሥነ-": 9876,
      "suppor": 9877,
      "ብሔሮች": 9878,
      "milki": 9879,
      "(እንግሊዝኛ)": 9880,
      "ስድስት": 9881,
      "ይታመናል።": 9882,
      "Gas": 9883,
      "Slo": 9884,
      "every": 9885,
      "éro": 9886,
      "lala": 9887,
      "gber": 9888,
      "mos": 9889,
      "be.": 9890,
      "Antoni": 9891,
      "dès": 9892,
      "ire,": 9893,
      "television": 9894,
      "Johannes": 9895,
      "nouvelle": 9896,
      "covered": 9897,
      "schol": 9898,
      "Ren": 9899,
      "fò": 9900,
      "gory": 9901,
      "ndiyo": 9902,
      "oye": 9903,
      "ôt": 9904,
      "ሕይወ": 9905,
      "ሠረተ": 9906,
      "በራዊ": 9907,
      "ተከተ": 9908,
      "ኃይ": 9909,
      "ና፣": 9910,
      "አዊ": 9911,
      "ወዲ": 9912,
      "mapinduzi": 9913,
      "labor": 9914,
      "za,": 9915,
      "sud-": 9916,
      "haihuwar": 9917,
      "እስኪ": 9918,
      "ologun": 9919,
      "oríṣiríṣi": 9920,
      "sha'a": 9921,
      "fungu": 9922,
      "ስትሆን": 9923,
      "ders": 9924,
      "Coast": 9925,
      "shughu": 9926,
      "Guusu": 9927,
      "በማስ": 9928,
      "፲፱፻፸": 9929,
      "፲፱፻፺": 9930,
      "mpira": 9931,
      "ception": 9932,
      "መሪዎች": 9933,
      "ሮማውያን": 9934,
      "mamlaka": 9935,
      "Rasha": 9936,
      "spishi": 9937,
      "ajemi": 9938,
      "Olympics": 9939,
      "sojojin": 9940,
      "ቴክኖሎጂ": 9941,
      "700": 9942,
      "Mit": 9943,
      "ian": 9944,
      "mato": 9945,
      "himself": 9946,
      "conse": 9947,
      "ctures": 9948,
      "oni,": 9949,
      "candida": 9950,
      "tainment": 9951,
      "sometimes": 9952,
      "writing": 9953,
      "style": 9954,
      "Algeria": 9955,
      "Azerbaijan": 9956,
      "References": 9957,
      "%,": 9958,
      "Kon": 9959,
      "Nord": 9960,
      "mka": 9961,
      "yín": 9962,
      "ሌት": 9963,
      "ሜክሲ": 9964,
      "ምባ": 9965,
      "ሰል": 9966,
      "በሙ": 9967,
      "ተገኘ": 9968,
      "አደጋ": 9969,
      "ጅብ": 9970,
      "ጣጫ": 9971,
      "baka": 9972,
      "kitovu": 9973,
      "19.": 9974,
      "1913": 9975,
      "diction": 9976,
      "aries": 9977,
      "wanyama": 9978,
      "hanyoyin": 9979,
      "ayọ": 9980,
      "ታወቀው": 9981,
      "Die": 9982,
      "kẹrìn": 9983,
      "Progres": 9984,
      "Asili": 9985,
      "speak": 9986,
      "endeleo": 9987,
      "kilicho": 9988,
      "Web": 9989,
      "généralement": 9990,
      "œuvre": 9991,
      "አውራጃ": 9992,
      "ያዕቆብ": 9993,
      "(da": 9994,
      "Hab": 9995,
      "Kom": 9996,
      "dana": 9997,
      "ifi": 9998,
      "çon": 9999
    },
    "merges": [
      [
        "a",
        "n"
      ],
      [
        "a",
        "r"
      ],
      [
        "i",
        "n"
      ],
      [
        "w",
        "a"
      ],
      [
        "o",
        "n"
      ],
      [
        "e",
        "r"
      ],
      [
        "e",
        "n"
      ],
      [
        "k",
        "a"
      ],
      [
        "t",
        "i"
      ],
      [
        "y",
        "a"
      ],
      [
        "d",
        "a"
      ],
      [
        "t",
        "a"
      ],
      [
        "m",
        "a"
      ],
      [
        "e",
        "s"
      ],
      [
        "l",
        "i"
      ],
      [
        "u",
        "n"
      ],
      [
        "l",
        "a"
      ],
      [
        "i",
        "s"
      ],
      [
        "h",
        "e"
      ],
      [
        "o",
        "r"
      ],
      [
        "l",
        "e"
      ],
      [
        "b",
        "a"
      ],
      [
        "n",
        "a"
      ],
      [
        "k",
        "u"
      ],
      [
        "h",
        "a"
      ],
      [
        "d",
        "e"
      ],
      [
        "s",
        "a"
      ],
      [
        "u",
        "r"
      ],
      [
        "t",
        "o"
      ],
      [
        "h",
        "i"
      ],
      [
        "s",
        "i"
      ],
      [
        "r",
        "e"
      ],
      [
        "k",
        "i"
      ],
      [
        "t",
        "e"
      ],
      [
        "n",
        "i"
      ],
      [
        "a",
        "l"
      ],
      [
        "1",
        "9"
      ],
      [
        "d",
        "i"
      ],
      [
        "r",
        "i"
      ],
      [
        "g",
        "a"
      ],
      [
        "r",
        "a"
      ],
      [
        "t",
        "he"
      ],
      [
        "m",
        "i"
      ],
      [
        "o",
        "f"
      ],
      [
        "u",
        "s"
      ],
      [
        "ẹ",
        "̀"
      ],
      [
        "c",
        "i"
      ],
      [
        "b",
        "i"
      ],
      [
        "c",
        "e"
      ],
      [
        "ar",
        "a"
      ],
      [
        "o",
        "m"
      ],
      [
        "z",
        "a"
      ],
      [
        "w",
        "ọ"
      ],
      [
        "2",
        "0"
      ],
      [
        "ẹ",
        "́"
      ],
      [
        "an",
        "a"
      ],
      [
        "g",
        "b"
      ],
      [
        "a",
        "s"
      ],
      [
        "an",
        "d"
      ],
      [
        "en",
        "t"
      ],
      [
        "f",
[...]
