{
  "version": "1.0",
  "truncation": null,
  "padding": null,
  "added_tokens": [
    {
      "id": 0,
      "content": "[UNK]",
      "single_word": false,
      "lstrip": false,
      "rstrip": false,
      "normalized": false,
      "special": true
    }
  ],
  "normalizer": {
    "type": "NFC"
  },
  "pre_tokenizer": {
    "type": "Whitespace"
  },
  "post_processor": null,
  "decoder": null,
  "model": {
    "type": "BPE",
    "dropout": null,
    "unk_token": "[UNK]",
    "continuing_subword_prefix": null,
    "end_of_word_suffix": null,
    "fuse_unk": false,
    "byte_fallback": false,
    "ignore_merges": false,
    "vocab": {
      "[UNK]": 0,
      "!": 1,
      "\"": 2,
      "#": 3,
      "$": 4,
      "%": 5,
      "&": 6,
      "'": 7,
      "(": 8,
      ")": 9,
      "*": 10,
      "+": 11,
      ",": 12,
      "-": 13,
      ".": 14,
      "/": 15,
      "0": 16,
      "1": 17,
      "2": 18,
      "3": 19,
      "4": 20,
      "5": 21,
      "6": 22,
      "7": 23,
      "8": 24,
      "9": 25,
      ":": 26,
      ";": 27,
      "<": 28,
      "=": 29,
      ">": 30,
      "?": 31,
      "@": 32,
      "A": 33,
      "B": 34,
      "C": 35,
      "D": 36,
      "E": 37,
      "F": 38,
      "G": 39,
      "H": 40,
      "I": 41,
      "J": 42,
      "K": 43,
      "L": 44,
      "M": 45,
      "N": 46,
      "O": 47,
      "P": 48,
      "Q": 49,
      "R": 50,
      "S": 51,
      "T": 52,
      "U": 53,
      "V": 54,
      "W": 55,
      "X": 56,
      "Y": 57,
      "Z": 58,
      "[": 59,
      "\\": 60,
      "]": 61,
      "^": 62,
      "_": 63,
      "`": 64,
      "a": 65,
      "b": 66,
      "c": 67,
      "d": 68,
      "e": 69,
      "f": 70,
      "g": 71,
      "h": 72,
      "i": 73,
      "j": 74,
      "k": 75,
      "l": 76,
      "m": 77,
      "n": 78,
      "o": 79,
      "p": 80,
      "q": 81,
      "r": 82,
      "s": 83,
      "t": 84,
      "u": 85,
      "v": 86,
      "w": 87,
      "x": 88,
      "y": 89,
      "z": 90,
      "{": 91,
      "|": 92,
      "}": 93,
      "~": 94,
      "¡": 95,
      "¢": 96,
      "£": 97,
      "¥": 98,
      "¦": 99,
      "§": 100,
      "©": 101,
      "ª": 102,
      "«": 103,
      "¬": 104,
      "­": 105,
      "®": 106,
      "¯": 107,
      "°": 108,
      "±": 109,
      "²": 110,
      "³": 111,
      "´": 112,
      "µ": 113,
      "·": 114,
      "¹": 115,
      "º": 116,
      "»": 117,
      "¼": 118,
      "½": 119,
      "¾": 120,
      "¿": 121,
      "À": 122,
      "Á": 123,
      "Â": 124,
      "Ä": 125,
      "Å": 126,
      "Æ": 127,
      "Ç": 128,
      "È": 129,
      "É": 130,
      "Ê": 131,
      "Ì": 132,
      "Í": 133,
      "Î": 134,
      "Ï": 135,
      "Ð": 136,
      "Ñ": 137,
      "Ò": 138,
      "Ó": 139,
      "Ô": 140,
      "Õ": 141,
      "Ö": 142,
      "×": 143,
      "Ø": 144,
      "Ù": 145,
      "Ú": 146,
      "Ü": 147,
      "Ý": 148,
      "Þ": 149,
      "ß": 150,
      "à": 151,
      "á": 152,
      "â": 153,
      "ã": 154,
      "ä": 155,
      "å": 156,
      "æ": 157,
      "ç": 158,
      "è": 159,
      "é": 160,
      "ê": 161,
      "ë": 162,
      "ì": 163,
      "í": 164,
      "î": 165,
      "ï": 166,
      "ð": 167,
      "ñ": 168,
      "ò": 169,
      "ó": 170,
      "ô": 171,
      "õ": 172,
      "ö": 173,
      "÷": 174,
      "ø": 175,
      "ù": 176,
      "ú": 177,
      "û": 178,
      "ü": 179,
      "ý": 180,
      "þ": 181,
      "ÿ": 182,
      "Ā": 183,
      "ā": 184,
      "Ă": 185,
      "ă": 186,
      "ą": 187,
      "ć": 188,
      "Ĉ": 189,
      "ĉ": 190,
      "Ċ": 191,
      "ċ": 192,
      "Č": 193,
      "č": 194,
      "ď": 195,
      "Đ": 196,
      "đ": 197,
      "Ē": 198,
      "ē": 199,
      "Ĕ": 200,
      "ĕ": 201,
      "ė": 202,
      "Ę": 203,
      "ę": 204,
      "ě": 205,
      "Ĝ": 206,
      "ĝ": 207,
      "ğ": 208,
      "Ġ": 209,
      "ġ": 210,
      "Ĥ": 211,
      "ĥ": 212,
      "Ħ": 213,
      "ħ": 214,
      "ĩ": 215,
      "Ī": 216,
      "ī": 217,
      "ĭ": 218,
      "į": 219,
      "İ": 220,
      "ı": 221,
      "Ĵ": 222,
      "ĵ": 223,
      "ĺ": 224,
      "Ļ": 225,
      "ļ": 226,
      "Ľ": 227,
      "ľ": 228,
      "Ł": 229,
      "ł": 230,
      "Ń": 231,
      "ń": 232,
      "Ņ": 233,
      "ņ": 234,
      "ň": 235,
      "Ŋ": 236,
      "ŋ": 237,
      "Ō": 238,
      "ō": 239,
      "ŏ": 240,
      "Ő": 241,
      "ő": 242,
      "Œ": 243,
      "œ": 244,
      "ŕ": 245,
      "Ŗ": 246,
      "ŗ": 247,
      "ř": 248,
      "Ś": 249,
      "ś": 250,
      "Ŝ": 251,
      "ŝ": 252,
      "Ş": 253,
      "ş": 254,
      "Š": 255,
      "š": 256,
      "ţ": 257,
      "ũ": 258,
      "Ū": 259,
      "ū": 260,
      "Ŭ": 261,
      "ŭ": 262,
      "ů": 263,
      "Ű": 264,
      "ű": 265,
      "ų": 266,
      "ŵ": 267,
      "ź": 268,
      "Ż": 269,
      "ż": 270,
      "Ž": 271,
      "ž": 272,
      "ſ": 273,
      "Ɓ": 274,
      "Ɔ": 275,
      "Ɗ": 276,
      "Ɛ": 277,
      "ƒ": 278,
      "Ƙ": 279,
      "ƙ": 280,
      "ơ": 281,
      "ƣ": 282,
      "ư": 283,
      "Ƴ": 284,
      "ƴ": 285,
      "ƿ": 286,
      "ǀ": 287,
      "ǎ": 288,
      "ǐ": 289,
      "ǒ": 290,
      "ǔ": 291,
      "ǝ": 292,
      "Ǟ": 293,
      "ǟ": 294,
      "ǣ": 295,
      "ǧ": 296,
      "ǫ": 297,
      "Ǵ": 298,
      "ǵ": 299,
      "Ƿ": 300,
      "Ǹ": 301,
      "ǹ": 302,
      "ș": 303,
      "Ț": 304,
      "ț": 305,
      "ȝ": 306,
      "Ȣ": 307,
      "Ȭ": 308,
      "ȭ": 309,
      "Ȯ": 310,
      "ȯ": 311,
      "Ȱ": 312,
      "ȱ": 313,
      "ɐ": 314,
      "ɑ": 315,
      "ɒ": 316,
      "ɓ": 317,
      "ɔ": 318,
      "ɕ": 319,
      "ɖ": 320,
      "ɗ": 321,
      "ə": 322,
      "ɚ": 323,
      "ɛ": 324,
      "ɜ": 325,
      "ɟ": 326,
      "ɡ": 327,
      "ɣ": 328,
      "ɤ": 329,
      "ɥ": 330,
      "ɦ": 331,
      "ɧ": 332,
      "ɨ": 333,
      "ɪ": 334,
      "ɫ": 335,
      "ɯ": 336,
      "ɰ": 337,
      "ɲ": 338,
      "ɳ": 339,
      "ɴ": 340,
      "ɵ": 341,
      "ɹ": 342,
      "ɻ": 343,
      "ɽ": 344,
      "ɾ": 345,
      "ʀ": 346,
      "ʁ": 347,
      "ʂ": 348,
      "ʃ": 349,
      "ʈ": 350,
      "ʉ": 351,
      "ʊ": 352,
      "ʋ": 353,
      "ʌ": 354,
      "ʎ": 355,
      "ʏ": 356,
      "ʑ": 357,
      "ʒ": 358,
      "ʔ": 359,
      "ʕ": 360,
      "ʰ": 361,
      "ʱ": 362,
      "ʲ": 363,
      "ʵ": 364,
      "ʷ": 365,
      "ʹ": 366,
      "ʻ": 367,
      "ʼ": 368,
      "ʽ": 369,
      "ʾ": 370,
      "ʿ": 371,
      "ˀ": 372,
      "ˁ": 373,
      "ˈ": 374,
      "ˌ": 375,
      "ː": 376,
      "ˑ": 377,
      "˘": 378,
      "˜": 379,
      "˝": 380,
      "˞": 381,
      "ˠ": 382,
      "ˤ": 383,
      "̀": 384,
      "́": 385,
      "̃": 386,
      "̄": 387,
      "̅": 388,
      "̇": 389,
      "̋": 390,
      "̌": 391,
      "̍": 392,
      "̕": 393,
      "̝": 394,
      "̠": 395,
      "̡": 396,
      "̣": 397,
      "̥": 398,
      "̩": 399,
      "̯": 400,
      "̱": 401,
      "̺": 402,
      "ͅ": 403,
      "͘": 404,
      "͟": 405,
      "͡": 406,
      "ͳ": 407,
      "͵": 408,
      "Ά": 409,
      "Έ": 410,
      "Ή": 411,
      "Ό": 412,
      "ΐ": 413,
      "Α": 414,
      "Β": 415,
      "Γ": 416,
      "Δ": 417,
      "Ε": 418,
      "Ζ": 419,
      "Η": 420,
      "Θ": 421,
      "Ι": 422,
      "Κ": 423,
      "Λ": 424,
      "Μ": 425,
      "Ν": 426,
      "Ξ": 427,
      "Ο": 428,
      "Π": 429,
      "Ρ": 430,
      "Σ": 431,
      "Τ": 432,
      "Υ": 433,
      "Φ": 434,
      "Χ": 435,
      "Ω": 436,
      "ά": 437,
      "έ": 438,
      "ή": 439,
      "ί": 440,
      "α": 441,
      "β": 442,
      "γ": 443,
      "δ": 444,
      "ε": 445,
      "ζ": 446,
      "η": 447,
      "θ": 448,
      "ι": 449,
      "κ": 450,
      "λ": 451,
      "μ": 452,
      "ν": 453,
      "ξ": 454,
      "ο": 455,
      "π": 456,
      "ρ": 457,
      "ς": 458,
      "σ": 459,
      "τ": 460,
      "υ": 461,
      "φ": 462,
      "χ": 463,
      "ψ": 464,
      "ω": 465,
      "ϊ": 466,
      "ό": 467,
      "ύ": 468,
      "ώ": 469,
      "ϐ": 470,
      "Ϙ": 471,
      "ϙ": 472,
      "ϛ": 473,
      "Ϝ": 474,
      "ϝ": 475,
      "Ϟ": 476,
      "ϟ": 477,
      "ϡ": 478,
      "ϵ": 479,
      "Ϻ": 480,
      "Ё": 481,
      "Ђ": 482,
      "Ј": 483,
      "Ў": 484,
      "А": 485,
      "Б": 486,
      "В": 487,
      "Г": 488,
      "Д": 489,
      "Е": 490,
      "Ж": 491,
      "З": 492,
      "И": 493,
      "Й": 494,
      "К": 495,
      "Л": 496,
      "М": 497,
      "Н": 498,
      "О": 499,
      "П": 500,
      "Р": 501,
      "С": 502,
      "Т": 503,
      "У": 504,
      "Ф": 505,
      "Х": 506,
      "Ц": 507,
      "Ч": 508,
      "Ш": 509,
      "Щ": 510,
      "Ъ": 511,
      "Ы": 512,
      "Э": 513,
      "Ю": 514,
      "Я": 515,
      "а": 516,
      "б": 517,
      "в": 518,
      "г": 519,
      "д": 520,
      "е": 521,
      "ж": 522,
      "з": 523,
      "и": 524,
      "й": 525,
      "к": 526,
      "л": 527,
      "м": 528,
      "н": 529,
      "о": 530,
      "п": 531,
      "р": 532,
      "с": 533,
      "т": 534,
      "у": 535,
      "ф": 536,
      "х": 537,
      "ц": 538,
      "ч": 539,
      "ш": 540,
      "щ": 541,
      "ъ": 542,
      "ы": 543,
      "ь": 544,
      "э": 545,
      "ю": 546,
      "я": 547,
      "ё": 548,
      "ђ": 549,
      "і": 550,
      "ї": 551,
      "ј": 552,
      "ћ": 553,
      "ќ": 554,
      "ў": 555,
      "џ": 556,
      "ғ": 557,
      "Қ": 558,
      "қ": 559,
      "ң": 560,
      "ҧ": 561,
      "ү": 562,
      "ұ": 563,
      "ҷ": 564,
      "Һ": 565,
      "һ": 566,
      "ӕ": 567,
      "ә": 568,
      "ӣ": 569,
      "Ө": 570,
      "ө": 571,
      "Գ": 572,
      "Դ": 573,
      "Ե": 574,
      "Հ": 575,
      "Մ": 576,
      "Ս": 577,
      "Ր": 578,
      "ա": 579,
      "բ": 580,
      "ե": 581,
      "է": 582,
      "թ": 583,
      "ի": 584,
      "լ": 585,
      "կ": 586,
      "մ": 587,
      "յ": 588,
      "ն": 589,
      "ո": 590,
      "պ": 591,
      "ս": 592,
      "վ": 593,
      "տ": 594,
      "ր": 595,
      "ց": 596,
      "ւ": 597,
      "ք": 598,
      "ֆ": 599,
      "և": 600,
      "֑": 601,
      "֛": 602,
      "֫": 603,
      "ְ": 604,
      "ֲ": 605,
      "ִ": 606,
      "ֵ": 607,
      "ֶ": 608,
      "ַ": 609,
      "ָ": 610,
      "ֹ": 611,
      "ּ": 612,
      "ׁ": 613,
      "ׂ": 614,
      "א": 615,
      "ב": 616,
      "ג": 617,
      "ד": 618,
      "ה": 619,
      "ו": 620,
      "ז": 621,
      "ח": 622,
      "ט": 623,
      "י": 624,
      "ך": 625,
      "כ": 626,
      "ל": 627,
      "ם": 628,
      "מ": 629,
      "ן": 630,
      "נ": 631,
      "ס": 632,
      "ע": 633,
      "ף": 634,
      "פ": 635,
      "ץ": 636,
      "צ": 637,
      "ק": 638,
      "ר": 639,
      "ש": 640,
      "ת": 641,
      "״": 642,
      "،": 643,
      "ء": 644,
      "آ": 645,
      "أ": 646,
      "ؤ": 647,
      "إ": 648,
      "ئ": 649,
      "ا": 650,
      "ب": 651,
      "ة": 652,
      "ت": 653,
      "ث": 654,
      "ج": 655,
      "ح": 656,
      "خ": 657,
      "د": 658,
      "ذ": 659,
      "ر": 660,
      "ز": 661,
      "س": 662,
      "ش": 663,
      "ص": 664,
      "ض": 665,
      "ط": 666,
      "ظ": 667,
      "ع": 668,
      "غ": 669,
      "ـ": 670,
      "ف": 671,
      "ق": 672,
      "ك": 673,
      "ل": 674,
      "م": 675,
      "ن": 676,
      "ه": 677,
      "و": 678,
      "ى": 679,
      "ي": 680,
      "ً": 681,
      "ٌ": 682,
      "ٍ": 683,
      "َ": 684,
      "ُ": 685,
      "ِ": 686,
      "ّ": 687,
      "ْ": 688,
      "ٓ": 689,
      "ٔ": 690,
      "٠": 691,
      "١": 692,
      "٢": 693,
      "٣": 694,
      "٤": 695,
      "٥": 696,
      "٦": 697,
      "٧": 698,
      "٨": 699,
      "٩": 700,
      "ٰ": 701,
      "ٱ": 702,
      "ٹ": 703,
      "پ": 704,
      "ځ": 705,
      "چ": 706,
      "ڈ": 707,
      "ڌ": 708,
      "ڑ": 709,
      "ړ": 710,
      "ښ": 711,
      "ک": 712,
      "ڪ": 713,
      "ڬ": 714,
      "گ": 715,
      "ں": 716,
      "ھ": 717,
      "ہ": 718,
      "ۆ": 719,
      "ۇ": 720,
      "ۋ": 721,
      "ی": 722,
      "ې": 723,
      "ە": 724,
      "ۖ": 725,
      "ۗ": 726,
      "ۘ": 727,
      "ۚ": 728,
      "۝": 729,
      "۞": 730,
      "۟": 731,
      "ۡ": 732,
      "ۢ": 733,
      "ۤ": 734,
      "ۥ": 735,
      "ۦ": 736,
      "ۧ": 737,
      "۬": 738,
      "ۭ": 739,
      "ܐ": 740,
      "ܒ": 741,
      "ܓ": 742,
      "ܕ": 743,
      "ܗ": 744,
      "ܘ": 745,
      "ܛ": 746,
      "ܝ": 747,
      "ܠ": 748,
      "ܡ": 749,
      "ܢ": 750,
      "ܣ": 751,
      "ܩ": 752,
      "ܪ": 753,
      "ܲ": 754,
      "ܵ": 755,
      "ނ": 756,
      "ބ": 757,
      "އ": 758,
      "މ": 759,
      "ދ": 760,
      "ލ": 761,
      "ގ": 762,
      "ޔ": 763,
      "ަ": 764,
      "ާ": 765,
      "ީ": 766,
      "ު": 767,
      "ޫ": 768,
      "ެ": 769,
      "ް": 770,
      "ँ": 771,
      "ं": 772,
      "ः": 773,
      "अ": 774,
      "आ": 775,
      "इ": 776,
      "ई": 777,
      "उ": 778,
      "ऊ": 779,
      "ए": 780,
      "क": 781,
      "ख": 782,
      "ग": 783,
      "घ": 784,
      "च": 785,
      "छ": 786,
      "ज": 787,
      "ट": 788,
      "ड": 789,
      "ढ": 790,
      "ण": 791,
      "त": 792,
      "थ": 793,
      "द": 794,
      "ध": 795,
      "न": 796,
      "प": 797,
      "फ": 798,
      "ब": 799,
      "भ": 800,
      "म": 801,
      "य": 802,
      "र": 803,
      "ल": 804,
      "व": 805,
      "श": 806,
      "ष": 807,
      "स": 808,
      "ह": 809,
      "़": 810,
      "ा": 811,
      "ि": 812,
      "ी": 813,
      "ु": 814,
      "ू": 815,
      "े": 816,
      "ो": 817,
      "ौ": 818,
      "्": 819,
      "।": 820,
      "ং": 821,
      "আ": 822,
      "ই": 823,
      "উ": 824,
      "ও": 825,
      "ক": 826,
      "গ": 827,
      "চ": 828,
      "জ": 829,
      "ট": 830,
      "ণ": 831,
      "ত": 832,
      "দ": 833,
      "ধ": 834,
      "ন": 835,
      "প": 836,
      "ব": 837,
      "ভ": 838,
      "ম": 839,
      "য": 840,
      "র": 841,
      "ল": 842,
      "শ": 843,
      "ষ": 844,
      "স": 845,
      "হ": 846,
      "া": 847,
      "ি": 848,
      "ী": 849,
      "ু": 850,
      "ূ": 851,
      "ে": 852,
      "ো": 853,
      "ৌ": 854,
      "্": 855,
      "ৎ": 856,
      "৬": 857,
      "৭": 858,
      "৮": 859,
      "ਘ": 860,
      "ਜ": 861,
      "ਨ": 862,
      "ਪ": 863,
      "ਬ": 864,
      "ਮ": 865,
      "ਸ": 866,
      "ਹ": 867,
      "ਾ": 868,
      "ਿ": 869,
      "ੀ": 870,
      "ੋ": 871,
      "ੰ": 872,
      "ં": 873,
      "આ": 874,
      "ઇ": 875,
      "ઈ": 876,
      "ઉ": 877,
      "ઊ": 878,
      "ઓ": 879,
      "ક": 880,
      "ખ": 881,
      "ગ": 882,
      "છ": 883,
      "જ": 884,
      "ત": 885,
      "ન": 886,
      "ફ": 887,
      "બ": 888,
      "ભ": 889,
      "મ": 890,
      "ર": 891,
      "લ": 892,
      "વ": 893,
      "શ": 894,
      "સ": 895,
      "હ": 896,
      "ા": 897,
      "ી": 898,
      "ુ": 899,
      "ે": 900,
      "ો": 901,
      "્": 902,
      "அ": 903,
      "உ": 904,
      "ஓ": 905,
      "க": 906,
      "ங": 907,
      "ச": 908,
      "ஜ": 909,
      "ட": 910,
      "ண": 911,
      "த": 912,
      "ந": 913,
      "ன": 914,
      "ப": 915,
      "ம": 916,
      "ய": 917,
      "ர": 918,
      "ற": 919,
      "ல": 920,
      "ள": 921,
      "ழ": 922,
      "வ": 923,
      "ஸ": 924,
      "ா": 925,
      "ி": 926,
      "ீ": 927,
      "ு": 928,
      "ூ": 929,
      "ே": 930,
      "ை": 931,
      "ொ": 932,
      "ோ": 933,
      "்": 934,
      "ం": 935,
      "క": 936,
      "గ": 937,
      "చ": 938,
      "జ": 939,
      "డ": 940,
      "త": 941,
      "ద": 942,
      "న": 943,
      "ప": 944,
      "బ": 945,
      "భ": 946,
      "మ": 947,
      "ర": 948,
      "ల": 949,
      "శ": 950,
      "స": 951,
      "హ": 952,
      "ా": 953,
      "ి": 954,
      "ీ": 955,
      "ు": 956,
      "ె": 957,
      "ే": 958,
      "ై": 959,
      "ొ": 960,
      "ో": 961,
      "్": 962,
      "ം": 963,
      "അ": 964,
      "ഉ": 965,
      "ഐ": 966,
      "ക": 967,
      "ട": 968,
      "ഡ": 969,
      "ണ": 970,
      "ന": 971,
      "പ": 972,
      "ബ": 973,
      "മ": 974,
      "യ": 975,
      "ര": 976,
      "റ": 977,
      "ല": 978,
      "ള": 979,
      "വ": 980,
      "സ": 981,
      "ാ": 982,
      "ി": 983,
      "ു": 984,
      "െ": 985,
      "േ": 986,
      "ൈ": 987,
      "ൊ": 988,
      "്": 989,
      "ൻ": 990,
      "ൽ": 991,
      "ං": 992,
      "ක": 993,
      "ග": 994,
      "ච": 995,
      "ජ": 996,
      "ට": 997,
      "ඩ": 998,
      "ණ": 999,
      "ත": 1000,
      "ද": 1001,
      "ධ": 1002,
      "න": 1003,
      "ප": 1004,
      "බ": 1005,
      "ම": 1006,
      "ය": 1007,
      "ර": 1008,
      "ල": 1009,
      "ව": 1010,
      "ශ": 1011,
      "ස": 1012,
      "හ": 1013,
      "්": 1014,
      "ා": 1015,
      "ි": 1016,
      "ී": 1017,
      "ු": 1018,
      "ේ": 1019,
      "ෝ": 1020,
      "ก": 1021,
      "ข": 1022,
      "ค": 1023,
      "ง": 1024,
      "จ": 1025,
      "ช": 1026,
      "ณ": 1027,
      "ด": 1028,
      "ต": 1029,
      "ท": 1030,
      "น": 1031,
      "บ": 1032,
      "ป": 1033,
      "ผ": 1034,
      "พ": 1035,
      "ภ": 1036,
      "ม": 1037,
      "ย": 1038,
      "ร": 1039,
      "ว": 1040,
      "ศ": 1041,
      "ษ": 1042,
      "ส": 1043,
      "ห": 1044,
      "อ": 1045,
      "ฯ": 1046,
      "ะ": 1047,
      "ั": 1048,
      "า": 1049,
      "ิ": 1050,
      "ี": 1051,
      "ื": 1052,
      "ุ": 1053,
      "฿": 1054,
      "เ": 1055,
      "แ": 1056,
      "ใ": 1057,
      "ไ": 1058,
      "็": 1059,
      "่": 1060,
      "้": 1061,
      "์": 1062,
      "་": 1063,
      "ཐ": 1064,
      "པ": 1065,
      "ཕ": 1066,
      "བ": 1067,
      "མ": 1068,
      "ལ": 1069,
      "ི": 1070,
      "ུ": 1071,
      "ླ": 1072,
      "ည": 1073,
      "တ": 1074,
      "ဓ": 1075,
      "န": 1076,
      "ယ": 1077,
      "ဝ": 1078,
      "ီ": 1079,
      "ု": 1080,
      "်": 1081,
      "ა": 1082,
      "ბ": 1083,
      "გ": 1084,
      "დ": 1085,
      "ე": 1086,
      "ვ": 1087,
      "ზ": 1088,
      "თ": 1089,
      "ი": 1090,
      "კ": 1091,
      "ლ": 1092,
      "მ": 1093,
      "ნ": 1094,
      "ო": 1095,
      "პ": 1096,
      "რ": 1097,
      "ს": 1098,
      "ტ": 1099,
      "უ": 1100,
      "ფ": 1101,
      "ქ": 1102,
      "ყ": 1103,
      "შ": 1104,
      "ჩ": 1105,
      "ც": 1106,
      "ძ": 1107,
      "ჭ": 1108,
      "ხ": 1109,
      "ჰ": 1110,
      "ᇁ": 1111,
      "ሀ": 1112,
      "ሁ": 1113,
      "ሂ": 1114,
      "ሃ": 1115,
      "ሄ": 1116,
      "ህ": 1117,
      "ሆ": 1118,
      "ሇ": 1119,
      "ለ": 1120,
      "ሉ": 1121,
      "ሊ": 1122,
      "ላ": 1123,
      "ሌ": 1124,
      "ል": 1125,
      "ሎ": 1126,
      "ሏ": 1127,
      "ሐ": 1128,
      "ሑ": 1129,
      "ሒ": 1130,
      "ሓ": 1131,
      "ሔ": 1132,
      "ሕ": 1133,
      "ሖ": 1134,
      "ሗ": 1135,
      "መ": 1136,
      "ሙ": 1137,
      "ሚ": 1138,
      "ማ": 1139,
      "ሜ": 1140,
      "ም": 1141,
      "ሞ": 1142,
      "ሟ": 1143,
      "ሠ": 1144,
      "ሡ": 1145,
      "ሢ": 1146,
      "ሣ": 1147,
      "ሤ": 1148,
      "ሥ": 1149,
      "ሦ": 1150,
      "ሧ": 1151,
      "ረ": 1152,
      "ሩ": 1153,
      "ሪ": 1154,
      "ራ": 1155,
      "ሬ": 1156,
      "ር": 1157,
      "ሮ": 1158,
      "ሯ": 1159,
      "ሰ": 1160,
      "ሱ": 1161,
      "ሲ": 1162,
      "ሳ": 1163,
      "ሴ": 1164,
      "ስ": 1165,
      "ሶ": 1166,
      "ሷ": 1167,
      "ሸ": 1168,
      "ሹ": 1169,
      "ሺ": 1170,
      "ሻ": 1171,
      "ሼ": 1172,
      "ሽ": 1173,
      "ሾ": 1174,
      "ሿ": 1175,
      "ቀ": 1176,
      "ቁ": 1177,
      "ቂ": 1178,
      "ቃ": 1179,
      "ቄ": 1180,
      "ቅ": 1181,
      "ቆ": 1182,
      "ቇ": 1183,
      "ቈ": 1184,
      "ቊ": 1185,
      "ቋ": 1186,
      "ቌ": 1187,
      "ቍ": 1188,
      "ቐ": 1189,
      "ቓ": 1190,
      "ቕ": 1191,
      "ቖ": 1192,
      "ቛ": 1193,
      "በ": 1194,
      "ቡ": 1195,
      "ቢ": 1196,
      "ባ": 1197,
      "ቤ": 1198,
      "ብ": 1199,
      "ቦ": 1200,
      "ቧ": 1201,
      "ቨ": 1202,
      "ቩ": 1203,
      "ቪ": 1204,
      "ቫ": 1205,
      "ቬ": 1206,
      "ቭ": 1207,
      "ቮ": 1208,
      "ቯ": 1209,
      "ተ": 1210,
      "ቱ": 1211,
      "ቲ": 1212,
      "ታ": 1213,
      "ቴ": 1214,
      "ት": 1215,
      "ቶ": 1216,
      "ቷ": 1217,
      "ቸ": 1218,
      "ቹ": 1219,
      "ቺ": 1220,
      "ቻ": 1221,
      "ቼ": 1222,
      "ች": 1223,
      "ቾ": 1224,
      "ቿ": 1225,
      "ኀ": 1226,
      "ኁ": 1227,
      "ኂ": 1228,
      "ኃ": 1229,
      "ኄ": 1230,
      "ኅ": 1231,
      "ኆ": 1232,
      "ኇ": 1233,
      "ኈ": 1234,
      "ኊ": 1235,
      "ኋ": 1236,
      "ኌ": 1237,
      "ኍ": 1238,
      "ነ": 1239,
      "ኑ": 1240,
      "ኒ": 1241,
      "ና": 1242,
      "ኔ": 1243,
      "ን": 1244,
      "ኖ": 1245,
      "ኗ": 1246,
      "ኘ": 1247,
      "ኙ": 1248,
      "ኚ": 1249,
      "ኛ": 1250,
      "ኜ": 1251,
      "ኝ": 1252,
      "ኞ": 1253,
      "ኟ": 1254,
      "አ": 1255,
      "ኡ": 1256,
      "ኢ": 1257,
      "ኣ": 1258,
      "ኤ": 1259,
      "እ": 1260,
      "ኦ": 1261,
      "ኧ": 1262,
      "ከ": 1263,
      "ኩ": 1264,
      "ኪ": 1265,
      "ካ": 1266,
      "ኬ": 1267,
      "ክ": 1268,
      "ኮ": 1269,
      "ኰ": 1270,
      "ኲ": 1271,
      "ኳ": 1272,
      "ኴ": 1273,
      "ኵ": 1274,
      "ኸ": 1275,
      "ኹ": 1276,
      "ኺ": 1277,
      "ኻ": 1278,
      "ኼ": 1279,
      "ኽ": 1280,
      "ኾ": 1281,
      "ዂ": 1282,
      "ዃ": 1283,
      "ዅ": 1284,
      "ወ": 1285,
      "ዉ": 1286,
      "ዊ": 1287,
      "ዋ": 1288,
      "ዌ": 1289,
      "ው": 1290,
      "ዎ": 1291,
      "ዐ": 1292,
      "ዑ": 1293,
      "ዒ": 1294,
      "ዓ": 1295,
      "ዔ": 1296,
      "ዕ": 1297,
      "ዖ": 1298,
      "ዘ": 1299,
      "ዙ": 1300,
      "ዚ": 1301,
      "ዛ": 1302,
      "ዜ": 1303,
      "ዝ": 1304,
      "ዞ": 1305,
      "ዟ": 1306,
      "ዠ": 1307,
      "ዡ": 1308,
      "ዢ": 1309,
      "ዣ": 1310,
      "ዤ": 1311,
      "ዥ": 1312,
      "ዦ": 1313,
      "ዧ": 1314,
      "የ": 1315,
      "ዩ": 1316,
      "ዪ": 1317,
      "ያ": 1318,
      "ዬ": 1319,
      "ይ": 1320,
      "ዮ": 1321,
      "ደ": 1322,
      "ዱ": 1323,
      "ዲ": 1324,
      "ዳ": 1325,
      "ዴ": 1326,
      "ድ": 1327,
      "ዶ": 1328,
      "ዷ": 1329,
      "ዸ": 1330,
      "ዺ": 1331,
      "ዻ": 1332,
      "ዼ": 1333,
      "ዽ": 1334,
      "ዾ": 1335,
      "ዿ": 1336,
      "ጀ": 1337,
      "ጁ": 1338,
      "ጂ": 1339,
      "ጃ": 1340,
      "ጄ": 1341,
      "ጅ": 1342,
      "ጆ": 1343,
      "ጇ": 1344,
      "ገ": 1345,
      "ጉ": 1346,
      "ጊ": 1347,
      "ጋ": 1348,
      "ጌ": 1349,
      "ግ": 1350,
      "ጎ": 1351,
      "ጏ": 1352,
      "ጐ": 1353,
      "ጒ": 1354,
      "ጓ": 1355,
      "ጔ": 1356,
      "ጕ": 1357,
      "ጘ": 1358,
      "ጙ": 1359,
      "ጚ": 1360,
      "ጛ": 1361,
      "ጜ": 1362,
      "ጝ": 1363,
      "ጞ": 1364,
      "ጠ": 1365,
      "ጡ": 1366,
      "ጢ": 1367,
      "ጣ": 1368,
      "ጤ": 1369,
      "ጥ": 1370,
      "ጦ": 1371,
      "ጧ": 1372,
      "ጨ": 1373,
      "ጩ": 1374,
      "ጪ": 1375,
      "ጫ": 1376,
      "ጬ": 1377,
      "ጭ": 1378,
      "ጮ": 1379,
      "ጯ": 1380,
      "ጰ": 1381,
      "ጱ": 1382,
      "ጲ": 1383,
      "ጳ": 1384,
      "ጴ": 1385,
      "ጵ": 1386,
      "ጶ": 1387,
      "ጸ": 1388,
      "ጹ": 1389,
      "ጺ": 1390,
      "ጻ": 1391,
      "ጼ": 1392,
      "ጽ": 1393,
      "ጾ": 1394,
      "ጿ": 1395,
      "ፀ": 1396,
      "ፁ": 1397,
      "ፂ": 1398,
      "ፃ": 1399,
      "ፄ": 1400,
      "ፅ": 1401,
      "ፆ": 1402,
      "ፈ": 1403,
      "ፉ": 1404,
      "ፊ": 1405,
      "ፋ": 1406,
      "ፌ": 1407,
      "ፍ": 1408,
      "ፎ": 1409,
      "ፏ": 1410,
      "ፐ": 1411,
      "ፑ": 1412,
      "ፒ": 1413,
      "ፓ": 1414,
      "ፔ": 1415,
      "ፕ": 1416,
      "ፖ": 1417,
      "ፗ": 1418,
      "ፘ": 1419,
      "፟": 1420,
      "፡": 1421,
      "።": 1422,
      "፣": 1423,
      "፤": 1424,
      "፥": 1425,
      "፦": 1426,
      "፧": 1427,
      "፨": 1428,
      "፩": 1429,
      "፪": 1430,
      "፫": 1431,
      "፬": 1432,
      "፭": 1433,
      "፮": 1434,
      "፯": 1435,
      "፰": 1436,
      "፱": 1437,
      "፲": 1438,
      "፳": 1439,
      "፴": 1440,
      "፵": 1441,
      "፶": 1442,
      "፷": 1443,
      "፸": 1444,
      "፹": 1445,
      "፺": 1446,
      "፻": 1447,
      "፼": 1448,
      "ᎆ": 1449,
      "᎗": 1450,
      "Ꭰ": 1451,
      "Ꭶ": 1452,
      "Ꭷ": 1453,
      "Ꭹ": 1454,
      "Ꭿ": 1455,
      "Ꮃ": 1456,
      "Ꮉ": 1457,
      "Ꮒ": 1458,
      "Ꮝ": 1459,
      "Ꮧ": 1460,
      "Ꮳ": 1461,
      "Ꮻ": 1462,
      "Ꮼ": 1463,
      "Ꮿ": 1464,
      "Ᏼ": 1465,
      "ᑕ": 1466,
      "ᑖ": 1467,
      "ᑭ": 1468,
      "ᓕ": 1469,
      "ᕋ": 1470,
      "ᕐ": 1471,
      "ᖅ": 1472,
      "᛫": 1473,
      "ᠠ": 1474,
      "ᠤ": 1475,
      "ᠨ": 1476,
      "ᠪ": 1477,
      "ᠭ": 1478,
      "ᠯ": 1479,
      "ᠲ": 1480,
      "ᠷ": 1481,
      "ᴀ": 1482,
      "ᴋ": 1483,
      "ᴍ": 1484,
      "ᴛ": 1485,
      "ḅ": 1486,
      "ḇ": 1487,
      "ḋ": 1488,
      "Ḍ": 1489,
      "ḍ": 1490,
      "ḏ": 1491,
      "Ḑ": 1492,
      "ḑ": 1493,
      "ḕ": 1494,
      "ḗ": 1495,
      "ḡ": 1496,
      "Ḥ": 1497,
      "ḥ": 1498,
      "Ḫ": 1499,
      "ḫ": 1500,
      "Ḱ": 1501,
      "ḱ": 1502,
      "ḳ": 1503,
      "ḵ": 1504,
      "ḷ": 1505,
      "Ḿ": 1506,
      "ḿ": 1507,
      "ṁ": 1508,
      "Ṃ": 1509,
      "ṃ": 1510,
      "Ṅ": 1511,
      "ṅ": 1512,
      "ṇ": 1513,
      "ṉ": 1514,
      "ṍ": 1515,
      "ṕ": 1516,
      "ṙ": 1517,
      "ṛ": 1518,
      "ṟ": 1519,
      "ṡ": 1520,
      "Ṣ": 1521,
      "ṣ": 1522,
      "ṫ": 1523,
      "Ṭ": 1524,
      "ṭ": 1525,
      "Ṯ": 1526,
      "ṯ": 1527,
      "ṷ": 1528,
      "ẁ": 1529,
      "ẃ": 1530,
      "ẉ": 1531,
      "Ẓ": 1532,
      "ẓ": 1533,
      "Ạ": 1534,
      "ạ": 1535,
      "ả": 1536,
      "ấ": 1537,
      "ầ": 1538,
      "ẵ": 1539,
      "Ẹ": 1540,
      "ẹ": 1541,
      "ẽ": 1542,
      "ế": 1543,
      "ề": 1544,
      "ể": 1545,
      "ễ": 1546,
      "ệ": 1547,
      "ỉ": 1548,
      "Ị": 1549,
      "ị": 1550,
      "Ọ": 1551,
      "ọ": 1552,
      "ố": 1553,
      "ồ": 1554,
      "ộ": 1555,
      "ớ": 1556,
      "ờ": 1557,
      "ở": 1558,
      "Ợ": 1559,
      "ợ": 1560,
      "Ụ": 1561,
      "ụ": 1562,
      "ủ": 1563,
      "ữ": 1564,
      "ỳ": 1565,
      "ỵ": 1566,
      "ỷ": 1567,
      "ἀ": 1568,
      "ἁ": 1569,
      "ἄ": 1570,
      "ἅ": 1571,
      "Ἀ": 1572,
      "Ἁ": 1573,
      "Ἄ": 1574,
      "Ἅ": 1575,
      "ἐ": 1576,
      "ἑ": 1577,
      "ἒ": 1578,
      "ἔ": 1579,
      "ἕ": 1580,
      "Ἐ": 1581,
      "Ἔ": 1582,
      "ἠ": 1583,
      "ἡ": 1584,
      "ἤ": 1585,
      "ἥ": 1586,
      "Ἡ": 1587,
      "ἰ": 1588,
      "ἱ": 1589,
      "ἴ": 1590,
      "Ἰ": 1591,
      "Ἱ": 1592,
      "Ἴ": 1593,
      "Ἵ": 1594,
      "ὀ": 1595,
      "ὁ": 1596,
      "ὄ": 1597,
      "Ὀ": 1598,
      "ὐ": 1599,
      "ὑ": 1600,
      "Ὑ": 1601,
      "ὥ": 1602,
      "ὰ": 1603,
      "ὴ": 1604,
      "ὶ": 1605,
      "ὸ": 1606,
      "ᾱ": 1607,
      "ᾶ": 1608,
      "᾽": 1609,
      "ῃ": 1610,
      "ῆ": 1611,
      "ῖ": 1612,
      "ῦ": 1613,
      "Ῥ": 1614,
      "ῶ": 1615,
      "​": 1616,
      "‌": 1617,
      "‍": 1618,
      "‎": 1619,
      "‏": 1620,
      "‐": 1621,
      "‑": 1622,
      "–": 1623,
      "—": 1624,
      "―": 1625,
      "‘": 1626,
      "’": 1627,
      "‛": 1628,
      "“": 1629,
      "”": 1630,
      "„": 1631,
      "‟": 1632,
      "†": 1633,
      "•": 1634,
      "…": 1635,
      "‧": 1636,
      "‬": 1637,
      "′": 1638,
      "″": 1639,
      "‹": 1640,
      "›": 1641,
      "‿": 1642,
      "⁂": 1643,
      "⁄": 1644,
      "⁠": 1645,
      "⁣": 1646,
      "ⁿ": 1647,
      "₂": 1648,
      "₦": 1649,
      "₨": 1650,
      "₫": 1651,
      "€": 1652,
      "₮": 1653,
      "₿": 1654,
      "⃣": 1655,
      "℅": 1656,
      "ℑ": 1657,
      "ℓ": 1658,
      "ℕ": 1659,
      "ℜ": 1660,
      "ℝ": 1661,
      "™": 1662,
      "ℤ": 1663,
      "⅓": 1664,
      "⅔": 1665,
      "←": 1666,
      "↑": 1667,
      "→": 1668,
      "↔": 1669,
      "↵": 1670,
      "⇒": 1671,
      "⇔": 1672,
      "∀": 1673,
      "∅": 1674,
      "∆": 1675,
      "∈": 1676,
      "∉": 1677,
      "∑": 1678,
      "−": 1679,
      "∗": 1680,
      "√": 1681,
      "∝": 1682,
      "∞": 1683,
      "∧": 1684,
      "∨": 1685,
      "∪": 1686,
      "∴": 1687,
      "∷": 1688,
      "≈": 1689,
      "≠": 1690,
      "≡": 1691,
      "≤": 1692,
      "≥": 1693,
      "⊂": 1694,
      "⊆": 1695,
      "⊇": 1696,
      "⊊": 1697,
      "⊕": 1698,
      "⋅": 1699,
      "⋔": 1700,
      "⋯": 1701,
      "▀": 1702,
      "▂": 1703,
      "▄": 1704,
      "█": 1705,
      "░": 1706,
      "▶": 1707,
      "◌": 1708,
      "●": 1709,
      "★": 1710,
      "☆": 1711,
      "☔": 1712,
      "☜": 1713,
      "☞": 1714,
      "☪": 1715,
      "♒": 1716,
      "♥": 1717,
      "♦": 1718,
      "✅": 1719,
      "✈": 1720,
      "✍": 1721,
      "✓": 1722,
      "✞": 1723,
      "✳": 1724,
      "❀": 1725,
      "❌": 1726,
      "❖": 1727,
      "➞": 1728,
      "⟨": 1729,
      "⟩": 1730,
      "⢁": 1731,
      "⣴": 1732,
      "⣿": 1733,
      "ⲇ": 1734,
      "ⲓ": 1735,
      "ⲡ": 1736,
      "ⴰ": 1737,
      "ⴱ": 1738,
      "ⴳ": 1739,
      "ⴷ": 1740,
      "ⴻ": 1741,
      "ⴼ": 1742,
      "ⵉ": 1743,
      "ⵍ": 1744,
      "ⵎ": 1745,
      "ⵏ": 1746,
      "ⵓ": 1747,
      "ⵔ": 1748,
      "ⵖ": 1749,
      "ⵙ": 1750,
      "ⵜ": 1751,
      "ⵢ": 1752,
      "ⵣ": 1753,
      "、": 1754,
      "。": 1755,
      "「": 1756,
      "」": 1757,
      "【": 1758,
      "】": 1759,
      "あ": 1760,
      "い": 1761,
      "う": 1762,
      "え": 1763,
      "お": 1764,
      "か": 1765,
      "が": 1766,
      "き": 1767,
      "く": 1768,
      "け": 1769,
      "こ": 1770,
      "ご": 1771,
      "さ": 1772,
      "し": 1773,
      "じ": 1774,
      "す": 1775,
      "せ": 1776,
      "そ": 1777,
      "た": 1778,
      "だ": 1779,
      "ち": 1780,
      "つ": 1781,
      "で": 1782,
      "と": 1783,
      "な": 1784,
      "に": 1785,
      "の": 1786,
      "は": 1787,
      "ひ": 1788,
      "び": 1789,
      "ふ": 1790,
      "ぷ": 1791,
      "べ": 1792,
      "ほ": 1793,
      "ま": 1794,
      "み": 1795,
      "も": 1796,
      "ょ": 1797,
      "よ": 1798,
      "ら": 1799,
      "り": 1800,
      "る": 1801,
      "れ": 1802,
      "わ": 1803,
      "を": 1804,
      "ん": 1805,
      "ア": 1806,
      "ィ": 1807,
      "イ": 1808,
      "ゥ": 1809,
      "ウ": 1810,
      "エ": 1811,
      "オ": 1812,
      "カ": 1813,
      "ガ": 1814,
      "キ": 1815,
      "ギ": 1816,
      "ク": 1817,
      "グ": 1818,
      "ケ": 1819,
      "コ": 1820,
      "ゴ": 1821,
      "サ": 1822,
      "ザ": 1823,
      "シ": 1824,
      "ジ": 1825,
      "ス": 1826,
      "ズ": 1827,
      "セ": 1828,
      "ゼ": 1829,
      "ソ": 1830,
      "タ": 1831,
      "ダ": 1832,
      "チ": 1833,
      "ッ": 1834,
      "ツ": 1835,
      "テ": 1836,
      "ト": 1837,
      "ド": 1838,
      "ナ": 1839,
      "ニ": 1840,
      "ネ": 1841,
      "ハ": 1842,
      "バ": 1843,
      "パ": 1844,
      "ヒ": 1845,
      "ビ": 1846,
      "ピ": 1847,
      "フ": 1848,
      "ブ": 1849,
      "プ": 1850,
      "ベ": 1851,
      "ボ": 1852,
      "ポ": 1853,
      "マ": 1854,
      "ム": 1855,
      "メ": 1856,
      "モ": 1857,
      "ヤ": 1858,
      "ョ": 1859,
      "ヨ": 1860,
      "ラ": 1861,
      "リ": 1862,
      "ル": 1863,
      "レ": 1864,
      "ロ": 1865,
      "ワ": 1866,
      "ン": 1867,
      "・": 1868,
      "ー": 1869,
      "ㄱ": 1870,
      "ㄷ": 1871,
      "ㄹ": 1872,
      "ㅂ": 1873,
      "ㅇ": 1874,
      "ㅈ": 1875,
      "一": 1876,
      "丁": 1877,
      "七": 1878,
      "万": 1879,
      "三": 1880,
      "上": 1881,
      "下": 1882,
      "不": 1883,
      "与": 1884,
      "专": 1885,
      "世": 1886,
      "东": 1887,
      "两": 1888,
      "严": 1889,
      "中": 1890,
      "丰": 1891,
      "丹": 1892,
      "主": 1893,
      "义": 1894,
      "之": 1895,
      "乌": 1896,
      "九": 1897,
      "书": 1898,
      "争": 1899,
      "事": 1900,
      "二": 1901,
      "云": 1902,
      "五": 1903,
      "亚": 1904,
      "亜": 1905,
      "京": 1906,
      "人": 1907,
      "仁": 1908,
      "今": 1909,
      "仏": 1910,
      "仙": 1911,
      "代": 1912,
      "令": 1913,
      "仲": 1914,
      "任": 1915,
      "伊": 1916,
      "伍": 1917,
      "伏": 1918,
      "会": 1919,
      "伝": 1920,
      "伟": 1921,
      "伦": 1922,
      "伯": 1923,
      "体": 1924,
      "何": 1925,
      "作": 1926,
      "佺": 1927,
      "例": 1928,
      "供": 1929,
      "侠": 1930,
      "俊": 1931,
      "信": 1932,
      "們": 1933,
      "倫": 1934,
      "健": 1935,
      "偶": 1936,
      "偿": 1937,
      "傳": 1938,
      "儒": 1939,
      "儿": 1940,
      "兄": 1941,
      "兆": 1942,
      "光": 1943,
      "兎": 1944,
      "兒": 1945,
      "兖": 1946,
      "全": 1947,
      "八": 1948,
      "公": 1949,
      "六": 1950,
      "兰": 1951,
      "共": 1952,
      "内": 1953,
      "円": 1954,
      "写": 1955,
      "农": 1956,
      "分": 1957,
      "刑": 1958,
      "列": 1959,
      "刘": 1960,
      "判": 1961,
      "利": 1962,
      "剌": 1963,
      "剑": 1964,
      "剛": 1965,
      "剣": 1966,
      "劉": 1967,
      "办": 1968,
      "加": 1969,
      "务": 1970,
      "労": 1971,
      "勉": 1972,
      "勤": 1973,
      "包": 1974,
      "化": 1975,
      "北": 1976,
      "匠": 1977,
      "匡": 1978,
      "十": 1979,
      "华": 1980,
      "南": 1981,
      "博": 1982,
      "印": 1983,
      "原": 1984,
      "厦": 1985,
      "参": 1986,
      "友": 1987,
      "双": 1988,
      "发": 1989,
      "取": 1990,
      "口": 1991,
      "古": 1992,
      "只": 1993,
      "可": 1994,
      "台": 1995,
      "史": 1996,
      "叶": 1997,
      "司": 1998,
      "各": 1999,
      "合": 2000,
      "吉": 2001,
      "同": 2002,
      "名": 2003,
      "向": 2004,
      "君": 2005,
      "吠": 2006,
      "启": 2007,
      "吳": 2008,
      "吴": 2009,
      "员": 2010,
      "周": 2011,
      "和": 2012,
      "品": 2013,
      "哈": 2014,
      "哥": 2015,
      "哲": 2016,
      "商": 2017,
      "善": 2018,
      "喋": 2019,
      "喾": 2020,
      "嚴": 2021,
      "四": 2022,
      "団": 2023,
      "国": 2024,
      "國": 2025,
      "園": 2026,
      "土": 2027,
      "在": 2028,
      "地": 2029,
      "坊": 2030,
      "坎": 2031,
      "垒": 2032,
      "城": 2033,
      "執": 2034,
      "基": 2035,
      "堂": 2036,
      "堅": 2037,
      "塔": 2038,
      "塞": 2039,
      "墨": 2040,
      "壁": 2041,
      "士": 2042,
      "壬": 2043,
      "处": 2044,
      "复": 2045,
      "外": 2046,
      "夜": 2047,
      "夢": 2048,
      "大": 2049,
      "天": 2050,
      "太": 2051,
      "夫": 2052,
      "头": 2053,
      "奈": 2054,
      "女": 2055,
      "好": 2056,
      "如": 2057,
      "妹": 2058,
      "始": 2059,
      "姜": 2060,
      "威": 2061,
      "娃": 2062,
      "婉": 2063,
      "婷": 2064,
      "嫩": 2065,
      "嬴": 2066,
      "子": 2067,
      "孔": 2068,
      "字": 2069,
      "孙": 2070,
      "季": 2071,
      "学": 2072,
      "孫": 2073,
      "宁": 2074,
      "宇": 2075,
      "安": 2076,
      "宋": 2077,
      "宗": 2078,
      "官": 2079,
      "宜": 2080,
      "宝": 2081,
      "客": 2082,
      "宣": 2083,
      "宮": 2084,
      "家": 2085,
      "密": 2086,
      "富": 2087,
      "寒": 2088,
      "寧": 2089,
      "射": 2090,
      "尊": 2091,
      "小": 2092,
      "少": 2093,
      "尔": 2094,
      "尧": 2095,
      "尹": 2096,
      "尼": 2097,
      "居": 2098,
      "屋": 2099,
      "屬": 2100,
      "山": 2101,
      "岛": 2102,
      "岢": 2103,
      "峯": 2104,
      "峰": 2105,
      "島": 2106,
      "崎": 2107,
      "川": 2108,
      "州": 2109,
      "己": 2110,
      "巴": 2111,
      "市": 2112,
      "布": 2113,
      "师": 2114,
      "希": 2115,
      "帝": 2116,
      "帶": 2117,
      "常": 2118,
      "幌": 2119,
      "平": 2120,
      "年": 2121,
      "广": 2122,
      "庄": 2123,
      "庆": 2124,
      "庖": 2125,
      "庚": 2126,
      "庠": 2127,
      "度": 2128,
      "庭": 2129,
      "康": 2130,
      "廑": 2131,
      "延": 2132,
      "建": 2133,
      "弗": 2134,
      "张": 2135,
      "張": 2136,
      "強": 2137,
      "弾": 2138,
      "归": 2139,
      "彩": 2140,
      "彼": 2141,
      "徐": 2142,
      "得": 2143,
      "御": 2144,
      "復": 2145,
      "徳": 2146,
      "德": 2147,
      "徽": 2148,
      "心": 2149,
      "志": 2150,
      "念": 2151,
      "性": 2152,
      "怪": 2153,
      "总": 2154,
      "恆": 2155,
      "恨": 2156,
      "恩": 2157,
      "您": 2158,
      "情": 2159,
      "想": 2160,
      "愈": 2161,
      "意": 2162,
      "愛": 2163,
      "感": 2164,
      "憲": 2165,
      "成": 2166,
      "我": 2167,
      "戦": 2168,
      "所": 2169,
      "扃": 2170,
      "手": 2171,
      "才": 2172,
      "托": 2173,
      "批": 2174,
      "承": 2175,
      "拓": 2176,
      "拳": 2177,
      "拾": 2178,
      "指": 2179,
      "挺": 2180,
      "据": 2181,
      "探": 2182,
      "摩": 2183,
      "操": 2184,
      "改": 2185,
      "政": 2186,
      "敏": 2187,
      "教": 2188,
      "敬": 2189,
      "數": 2190,
      "文": 2191,
      "斎": 2192,
      "斬": 2193,
      "斯": 2194,
      "新": 2195,
      "方": 2196,
      "旅": 2197,
      "旗": 2198,
      "无": 2199,
      "日": 2200,
      "旧": 2201,
      "早": 2202,
      "时": 2203,
      "昆": 2204,
      "昊": 2205,
      "昌": 2206,
      "明": 2207,
      "星": 2208,
      "映": 2209,
      "春": 2210,
      "昭": 2211,
      "時": 2212,
      "晏": 2213,
      "晓": 2214,
      "景": 2215,
      "暂": 2216,
      "曜": 2217,
      "書": 2218,
      "曹": 2219,
      "替": 2220,
      "月": 2221,
      "望": 2222,
      "朝": 2223,
      "期": 2224,
      "木": 2225,
      "未": 2226,
      "本": 2227,
      "札": 2228,
      "朱": 2229,
      "朴": 2230,
      "李": 2231,
      "杜": 2232,
      "条": 2233,
      "杭": 2234,
      "東": 2235,
      "杵": 2236,
      "林": 2237,
      "柏": 2238,
      "柔": 2239,
      "查": 2240,
      "柳": 2241,
      "树": 2242,
      "校": 2243,
      "格": 2244,
      "桀": 2245,
      "桂": 2246,
      "梅": 2247,
      "检": 2248,
      "棚": 2249,
      "棠": 2250,
      "森": 2251,
      "植": 2252,
      "楊": 2253,
      "楚": 2254,
      "楠": 2255,
      "極": 2256,
      "構": 2257,
      "槐": 2258,
      "樂": 2259,
      "樊": 2260,
      "横": 2261,
      "樹": 2262,
      "橋": 2263,
      "橙": 2264,
      "機": 2265,
      "欧": 2266,
      "欽": 2267,
      "歌": 2268,
      "正": 2269,
      "武": 2270,
      "歴": 2271,
      "死": 2272,
      "殖": 2273,
      "段": 2274,
      "殺": 2275,
      "母": 2276,
      "毛": 2277,
      "民": 2278,
      "気": 2279,
      "水": 2280,
      "永": 2281,
      "汉": 2282,
      "汕": 2283,
      "江": 2284,
      "池": 2285,
      "沃": 2286,
      "沈": 2287,
      "沙": 2288,
      "沟": 2289,
      "沪": 2290,
      "河": 2291,
      "泄": 2292,
      "泉": 2293,
      "法": 2294,
      "波": 2295,
      "泥": 2296,
      "泪": 2297,
      "泰": 2298,
      "泽": 2299,
      "洋": 2300,
      "津": 2301,
      "洲": 2302,
      "流": 2303,
      "济": 2304,
      "浙": 2305,
      "浦": 2306,
      "浩": 2307,
      "海": 2308,
      "涿": 2309,
      "淄": 2310,
      "深": 2311,
      "添": 2312,
      "渡": 2313,
      "渤": 2314,
      "温": 2315,
      "港": 2316,
      "湖": 2317,
      "湘": 2318,
      "湛": 2319,
      "湯": 2320,
      "湾": 2321,
      "滑": 2322,
      "滨": 2323,
      "漢": 2324,
      "漪": 2325,
      "漳": 2326,
      "潮": 2327,
      "潽": 2328,
      "澎": 2329,
      "澤": 2330,
      "澳": 2331,
      "濠": 2332,
      "火": 2333,
      "灵": 2334,
      "炎": 2335,
      "為": 2336,
      "烟": 2337,
      "無": 2338,
      "焦": 2339,
      "然": 2340,
      "煐": 2341,
      "煞": 2342,
      "照": 2343,
      "熊": 2344,
      "熱": 2345,
      "燕": 2346,
      "爱": 2347,
      "父": 2348,
      "爾": 2349,
      "牛": 2350,
      "牟": 2351,
      "物": 2352,
      "牺": 2353,
      "犀": 2354,
      "犬": 2355,
      "独": 2356,
      "猪": 2357,
      "猫": 2358,
      "猿": 2359,
      "玉": 2360,
      "王": 2361,
      "现": 2362,
      "玲": 2363,
      "珊": 2364,
      "珍": 2365,
      "現": 2366,
      "球": 2367,
      "理": 2368,
      "琪": 2369,
      "瑟": 2370,
      "璠": 2371,
      "璧": 2372,
      "環": 2373,
      "瓔": 2374,
      "瓦": 2375,
      "甘": 2376,
      "生": 2377,
      "産": 2378,
      "用": 2379,
      "甫": 2380,
      "甬": 2381,
      "田": 2382,
      "甲": 2383,
      "男": 2384,
      "画": 2385,
      "略": 2386,
      "當": 2387,
      "疆": 2388,
      "疏": 2389,
      "登": 2390,
      "白": 2391,
      "的": 2392,
      "皇": 2393,
      "皋": 2394,
      "皖": 2395,
      "盆": 2396,
      "盛": 2397,
      "盧": 2398,
      "目": 2399,
      "直": 2400,
      "相": 2401,
      "真": 2402,
      "石": 2403,
      "磁": 2404,
      "礼": 2405,
      "祖": 2406,
      "神": 2407,
      "祥": 2408,
      "票": 2409,
      "福": 2410,
      "禦": 2411,
      "禮": 2412,
      "秀": 2413,
      "私": 2414,
      "秋": 2415,
      "科": 2416,
      "秘": 2417,
      "秦": 2418,
      "稽": 2419,
      "空": 2420,
      "立": 2421,
      "章": 2422,
      "竹": 2423,
      "笑": 2424,
      "第": 2425,
      "筆": 2426,
      "策": 2427,
      "節": 2428,
      "篇": 2429,
      "米": 2430,
      "粤": 2431,
      "粵": 2432,
      "精": 2433,
      "約": 2434,
      "素": 2435,
      "細": 2436,
      "統": 2437,
      "經": 2438,
      "綺": 2439,
      "綽": 2440,
      "総": 2441,
      "緑": 2442,
      "縞": 2443,
      "约": 2444,
      "纪": 2445,
      "纵": 2446,
      "线": 2447,
      "统": 2448,
      "罗": 2449,
      "罚": 2450,
      "罪": 2451,
      "羅": 2452,
      "羊": 2453,
      "美": 2454,
      "群": 2455,
      "義": 2456,
      "羲": 2457,
      "羽": 2458,
      "翊": 2459,
      "耀": 2460,
      "老": 2461,
      "考": 2462,
      "耆": 2463,
      "耳": 2464,
      "聿": 2465,
      "肃": 2466,
      "肉": 2467,
      "肖": 2468,
      "肥": 2469,
      "育": 2470,
      "胆": 2471,
      "胶": 2472,
      "臘": 2473,
      "自": 2474,
      "舒": 2475,
      "舜": 2476,
      "船": 2477,
      "色": 2478,
      "艸": 2479,
      "节": 2480,
      "芜": 2481,
      "芬": 2482,
      "花": 2483,
      "芳": 2484,
      "苏": 2485,
      "苓": 2486,
      "英": 2487,
      "茂": 2488,
      "茶": 2489,
      "草": 2490,
      "荣": 2491,
      "莆": 2492,
      "莱": 2493,
      "華": 2494,
      "菲": 2495,
      "营": 2496,
      "萧": 2497,
      "葛": 2498,
      "蒲": 2499,
      "蓝": 2500,
      "蓟": 2501,
      "蓮": 2502,
      "蔡": 2503,
      "蕭": 2504,
      "薇": 2505,
      "藏": 2506,
      "蘭": 2507,
      "虎": 2508,
      "虫": 2509,
      "蛇": 2510,
      "蝴": 2511,
      "蝶": 2512,
      "蠻": 2513,
      "血": 2514,
      "衆": 2515,
      "行": 2516,
      "術": 2517,
      "街": 2518,
      "表": 2519,
      "裁": 2520,
      "西": 2521,
      "覧": 2522,
      "親": 2523,
      "觀": 2524,
      "記": 2525,
      "許": 2526,
      "詩": 2527,
      "話": 2528,
      "誕": 2529,
      "語": 2530,
      "説": 2531,
      "論": 2532,
      "謎": 2533,
      "謝": 2534,
      "謹": 2535,
      "譚": 2536,
      "让": 2537,
      "议": 2538,
      "话": 2539,
      "语": 2540,
      "诸": 2541,
      "谭": 2542,
      "豚": 2543,
      "象": 2544,
      "豢": 2545,
      "豪": 2546,
      "貝": 2547,
      "貫": 2548,
      "買": 2549,
      "賈": 2550,
      "贵": 2551,
      "贾": 2552,
      "赔": 2553,
      "赣": 2554,
      "赤": 2555,
      "趙": 2556,
      "跆": 2557,
      "跡": 2558,
      "路": 2559,
      "身": 2560,
      "軍": 2561,
      "轮": 2562,
      "轼": 2563,
      "辛": 2564,
      "辣": 2565,
      "農": 2566,
      "辽": 2567,
      "达": 2568,
      "运": 2569,
      "远": 2570,
      "迦": 2571,
      "迪": 2572,
      "通": 2573,
      "連": 2574,
      "逸": 2575,
      "道": 2576,
      "達": 2577,
      "遷": 2578,
      "邦": 2579,
      "邯": 2580,
      "郎": 2581,
      "郑": 2582,
      "部": 2583,
      "郭": 2584,
      "郷": 2585,
      "都": 2586,
      "酒": 2587,
      "重": 2588,
      "野": 2589,
      "金": 2590,
      "鉉": 2591,
      "銀": 2592,
      "銘": 2593,
      "錯": 2594,
      "鏡": 2595,
      "鐵": 2596,
      "钱": 2597,
      "铁": 2598,
      "铜": 2599,
      "锦": 2600,
      "镜": 2601,
      "長": 2602,
      "长": 2603,
      "門": 2604,
      "閔": 2605,
      "门": 2606,
      "间": 2607,
      "阪": 2608,
      "阳": 2609,
      "阵": 2610,
      "阿": 2611,
      "陀": 2612,
      "陇": 2613,
      "陈": 2614,
      "降": 2615,
      "陕": 2616,
      "陛": 2617,
      "陰": 2618,
      "陸": 2619,
      "陽": 2620,
      "隆": 2621,
      "際": 2622,
      "雄": 2623,
      "雅": 2624,
      "集": 2625,
      "雍": 2626,
      "雙": 2627,
      "雨": 2628,
      "雪": 2629,
      "雯": 2630,
      "雲": 2631,
      "雷": 2632,
      "霑": 2633,
      "露": 2634,
      "青": 2635,
      "非": 2636,
      "面": 2637,
      "韓": 2638,
      "韜": 2639,
      "韦": 2640,
      "韩": 2641,
      "韶": 2642,
      "順": 2643,
      "頊": 2644,
      "領": 2645,
      "顓": 2646,
      "顺": 2647,
      "顿": 2648,
      "風": 2649,
      "食": 2650,
      "飲": 2651,
      "飾": 2652,
      "首": 2653,
      "香": 2654,
      "馬": 2655,
      "騎": 2656,
      "騏": 2657,
      "马": 2658,
      "高": 2659,
      "魂": 2660,
      "魏": 2661,
      "魚": 2662,
      "鮮": 2663,
      "鰐": 2664,
      "鱷": 2665,
      "鳥": 2666,
      "鶏": 2667,
      "鷗": 2668,
      "鹰": 2669,
      "鹿": 2670,
      "麒": 2671,
      "麟": 2672,
      "麻": 2673,
      "黃": 2674,
      "黄": 2675,
      "黎": 2676,
      "黑": 2677,
      "黒": 2678,
      "黔": 2679,
      "黙": 2680,
      "鼠": 2681,
      "齊": 2682,
      "齐": 2683,
      "龍": 2684,
      "龙": 2685,
      "龜": 2686,
      "ꜜ": 2687,
      "ꜣ": 2688,
      "Ꜹ": 2689,
      "가": 2690,
      "감": 2691,
      "강": 2692,
      "갱": 2693,
      "건": 2694,
      "게": 2695,
      "견": 2696,
      "경": 2697,
      "계": 2698,
      "고": 2699,
      "곱": 2700,
      "공": 2701,
      "과": 2702,
      "교": 2703,
      "구": 2704,
      "국": 2705,
      "군": 2706,
      "그": 2707,
      "글": 2708,
      "금": 2709,
      "기": 2710,
      "까": 2711,
      "깨": 2712,
      "꽃": 2713,
      "끼": 2714,
      "나": 2715,
      "남": 2716,
      "내": 2717,
      "너": 2718,
      "네": 2719,
      "넷": 2720,
      "녁": 2721,
      "년": 2722,
      "념": 2723,
      "녕": 2724,
      "노": 2725,
      "누": 2726,
      "눈": 2727,
      "뉴": 2728,
      "느": 2729,
      "는": 2730,
      "니": 2731,
      "님": 2732,
      "다": 2733,
      "닦": 2734,
      "달": 2735,
      "당": 2736,
      "대": 2737,
      "덟": 2738,
      "도": 2739,
      "독": 2740,
      "동": 2741,
      "되": 2742,
      "둘": 2743,
      "드": 2744,
      "든": 2745,
      "들": 2746,
      "디": 2747,
      "라": 2748,
      "람": 2749,
      "랑": 2750,
      "래": 2751,
      "러": 2752,
      "레": 2753,
      "로": 2754,
      "록": 2755,
      "룡": 2756,
      "루": 2757,
      "르": 2758,
      "륵": 2759,
      "른": 2760,
      "를": 2761,
      "리": 2762,
      "립": 2763,
      "마": 2764,
      "만": 2765,
      "말": 2766,
      "맙": 2767,
      "망": 2768,
      "매": 2769,
      "메": 2770,
      "면": 2771,
      "명": 2772,
      "모": 2773,
      "목": 2774,
      "무": 2775,
      "문": 2776,
      "물": 2777,
      "미": 2778,
      "민": 2779,
      "바": 2780,
      "박": 2781,
      "반": 2782,
      "발": 2783,
      "방": 2784,
      "백": 2785,
      "베": 2786,
      "별": 2787,
      "보": 2788,
      "본": 2789,
      "부": 2790,
      "북": 2791,
      "불": 2792,
      "비": 2793,
      "빨": 2794,
      "사": 2795,
      "삭": 2796,
      "산": 2797,
      "삼": 2798,
      "상": 2799,
      "생": 2800,
      "서": 2801,
      "석": 2802,
      "선": 2803,
      "설": 2804,
      "섯": 2805,
      "성": 2806,
      "세": 2807,
      "셋": 2808,
      "셰": 2809,
      "소": 2810,
      "송": 2811,
      "수": 2812,
      "순": 2813,
      "쉰": 2814,
      "스": 2815,
      "습": 2816,
      "시": 2817,
      "식": 2818,
      "신": 2819,
      "십": 2820,
      "쌀": 2821,
      "아": 2822,
      "안": 2823,
      "애": 2824,
      "야": 2825,
      "양": 2826,
      "어": 2827,
      "에": 2828,
      "여": 2829,
      "연": 2830,
      "열": 2831,
      "영": 2832,
      "예": 2833,
      "오": 2834,
      "온": 2835,
      "요": 2836,
      "우": 2837,
      "운": 2838,
      "울": 2839,
      "월": 2840,
      "위": 2841,
      "유": 2842,
      "육": 2843,
      "윤": 2844,
      "율": 2845,
      "은": 2846,
      "을": 2847,
      "음": 2848,
      "의": 2849,
      "이": 2850,
      "인": 2851,
      "일": 2852,
      "잉": 2853,
      "자": 2854,
      "작": 2855,
      "장": 2856,
      "재": 2857,
      "저": 2858,
      "적": 2859,
      "전": 2860,
      "점": 2861,
      "제": 2862,
      "조": 2863,
      "존": 2864,
      "죄": 2865,
      "죠": 2866,
      "주": 2867,
      "죽": 2868,
      "중": 2869,
      "즈": 2870,
      "즘": 2871,
      "지": 2872,
      "직": 2873,
      "징": 2874,
      "차": 2875,
      "참": 2876,
      "천": 2877,
      "철": 2878,
      "청": 2879,
      "체": 2880,
      "총": 2881,
      "축": 2882,
      "치": 2883,
      "친": 2884,
      "칠": 2885,
      "카": 2886,
      "칸": 2887,
      "커": 2888,
      "코": 2889,
      "쿄": 2890,
      "크": 2891,
      "키": 2892,
      "탄": 2893,
      "탕": 2894,
      "터": 2895,
      "토": 2896,
      "투": 2897,
      "트": 2898,
      "특": 2899,
      "티": 2900,
      "파": 2901,
      "팔": 2902,
      "페": 2903,
      "평": 2904,
      "폐": 2905,
      "포": 2906,
      "프": 2907,
      "피": 2908,
      "하": 2909,
      "한": 2910,
      "할": 2911,
      "합": 2912,
      "해": 2913,
      "향": 2914,
      "헌": 2915,
      "현": 2916,
      "형": 2917,
      "호": 2918,
      "혼": 2919,
      "홉": 2920,
      "화": 2921,
      "활": 2922,
      "흔": 2923,
      "희": 2924,
      "히": 2925,
      "": 2926,
      "": 2927,
      "": 2928,
      "": 2929,
      "ﷲ": 2930,
      "ﷺ": 2931,
      "︎": 2932,
      "️": 2933,
      "ﺀ": 2934,
      "ﺍ": 2935,
      "ﺎ": 2936,
      "ﺏ": 2937,
      "ﺐ": 2938,
      "ﺑ": 2939,
      "ﺞ": 2940,
      "ﺡ": 2941,
      "ﺩ": 2942,
      "ﺮ": 2943,
      "ﺯ": 2944,
      "ﺷ": 2945,
      "ﺼ": 2946,
      "ﺽ": 2947,
      "ﻄ": 2948,
      "ﻋ": 2949,
      "ﻓ": 2950,
      "ﻗ": 2951,
      "ﻟ": 2952,
      "ﻠ": 2953,
      "ﻤ": 2954,
      "ﻥ": 2955,
      "ﻧ": 2956,
      "ﻬ": 2957,
      "ﻲ": 2958,
      "ﻳ": 2959,
      "ﻴ": 2960,
      "﻿": 2961,
      "（": 2962,
      "）": 2963,
      "，": 2964,
      "／": 2965,
      "：": 2966,
      "；": 2967,
      "？": 2968,
      "Ｚ": 2969,
      "～": 2970,
      "￼": 2971,
      "�": 2972,
      "𐌌": 2973,
      "𐌐": 2974,
      "𐌑": 2975,
      "𐌚": 2976,
      "𐌠": 2977,
      "𐌡": 2978,
      "𐌢": 2979,
      "𐎢": 2980,
      "𐎤": 2981,
      "𐎽": 2982,
      "𐏁": 2983,
      "𐤀": 2984,
      "𐤁": 2985,
      "𐤃": 2986,
      "𐤊": 2987,
      "𐤋": 2988,
      "𐤌": 2989,
      "𐤍": 2990,
      "𐤏": 2991,
      "𐤔": 2992,
      "𐦡": 2993,
      "𐦲": 2994,
      "𐦴": 2995,
      "𐦷": 2996,
      "𒄀": 2997,
      "𒅗": 2998,
      "𒈾": 2999,
      "𒌷": 3000,
      "𓅓": 3001,
      "𓅖": 3002,
      "𓆎": 3003,
      "𓇌": 3004,
      "𓊖": 3005,
      "𓎡": 3006,
      "𓏏": 3007,
      "𓏛": 3008,
      "𝘢": 3009,
      "𝘦": 3010,
      "𝘪": 3011,
      "𝘭": 3012,
      "𝘰": 3013,
      "𝘱": 3014,
      "𞤢": 3015,
      "𞤣": 3016,
      "𞤤": 3017,
      "𞤦": 3018,
      "𞤪": 3019,
      "𞤫": 3020,
      "𞤭": 3021,
      "𞤳": 3022,
      "𞤴": 3023,
      "𞤵": 3024,
      "𞤷": 3025,
      "𞤼": 3026,
      "𞥅": 3027,
      "𞥆": 3028,
      "🌼": 3029,
      "🌿": 3030,
      "🍁": 3031,
      "🍃": 3032,
      "🏿": 3033,
      "💐": 3034,
      "💟": 3035,
      "💥": 3036,
      "💫": 3037,
      "📌": 3038,
      "📚": 3039,
      "📝": 3040,
      "🔸": 3041,
      "🔹": 3042,
      "😨": 3043,
      "🙏": 3044,
      "an": 3045,
      "in": 3046,
      "ar": 3047,
      "on": 3048,
      "es": 3049,
      "en": 3050,
      "er": 3051,
      "wa": 3052,
      "ti": 3053,
      "al": 3054,
      "is": 3055,
      "th": 3056,
      "ya": 3057,
      "ta": 3058,
      "da": 3059,
      "ma": 3060,
      "or": 3061,
      "ka": 3062,
      "un": 3063,
      "le": 3064,
      "de": 3065,
      "la": 3066,
      "re": 3067,
      "ur": 3068,
      "li": 3069,
      "as": 3070,
      "to": 3071,
      "the": 3072,
      "te": 3073,
      "na": 3074,
      "ch": 3075,
      "us": 3076,
      "ba": 3077,
      "ku": 3078,
      "of": 3079,
      "am": 3080,
      "ri": 3081,
      "om": 3082,
      "ent": 3083,
      "di": 3084,
      "si": 3085,
      "19": 3086,
      "hi": 3087,
      "ce": 3088,
      "and": 3089,
      "ni": 3090,
      "qu": 3091,
      "ra": 3092,
      "tion": 3093,
      "ki": 3094,
      "ci": 3095,
      "ha": 3096,
      "he": 3097,
      "et": 3098,
      "ro": 3099,
      "sa": 3100,
      "ing": 3101,
      "il": 3102,
      "el": 3103,
      "ol": 3104,
      "bi": 3105,
      "ga": 3106,
      "ẹ̀": 3107,
      "ali": 3108,
      "20": 3109,
      "fi": 3110,
      "ara": 3111,
      "wọ": 3112,
      "ne": 3113,
      "it": 3114,
      "du": 3115,
      "at": 3116,
      "se": 3117,
      "ẹ́": 3118,
      "me": 3119,
      "gb": 3120,
      "mi": 3121,
      "po": 3122,
      "ke": 3123,
      "ana": 3124,
      "au": 3125,
      "ou": 3126,
      "ani": 3127,
      "su": 3128,
      "za": 3129,
      "tu": 3130,
      "ní": 3131,
      "les": 3132,
      "ari": 3133,
      "ter": 3134,
      "ko": 3135,
      "ji": 3136,
      "gi": 3137,
      "lo": 3138,
      "des": 3139,
      "ọ́": 3140,
      "wọn": 3141,
      "ve": 3142,
      "con": 3143,
      "ment": 3144,
      "pa": 3145,
      "ge": 3146,
      "par": 3147,
      "pe": 3148,
      "est": 3149,
      "bu": 3150,
      "st": 3151,
      "kin": 3152,
      "ir": 3153,
      "mo": 3154,
      "que": 3155,
      "ant": 3156,
      "fa": 3157,
      "eri": 3158,
      "so": 3159,
      "for": 3160,
      "ré": 3161,
      "ed": 3162,
      "gu": 3163,
      "እን": 3164,
      "are": 3165,
      "mu": 3166,
      "ina": 3167,
      "tí": 3168,
      "Ma": 3169,
      "ọ̀": 3170,
      "vi": 3171,
      "ነው": 3172,
      "be": 3173,
      "ver": 3174,
      "com": 3175,
      "wan": 3176,
      "kar": 3177,
      "dan": 3178,
      "zi": 3179,
      "kan": 3180,
      "hu": 3181,
      "ún": 3182,
      "ye": 3183,
      "kwa": 3184,
      "ran": 3185,
      "res": 3186,
      "dé": 3187,
      "ca": 3188,
      "ly": 3189,
      "mb": 3190,
      "18": 3191,
      "je": 3192,
      "ini": 3193,
      "go": 3194,
      "yan": 3195,
      "ine": 3196,
      "ts": 3197,
      "The": 3198,
      "she": 3199,
      "yar": 3200,
      "pi": 3201,
      "co": 3202,
      "wi": 3203,
      "do": 3204,
      "lu": 3205,
      "pro": 3206,
      "ab": 3207,
      "tan": 3208,
      "was": 3209,
      "son": 3210,
      "shi": 3211,
      "kuma": 3212,
      "yo": 3213,
      "200": 3214,
      "ul": 3215,
      "In": 3216,
      "man": 3217,
      "ja": 3218,
      "ori": 3219,
      "sh": 3220,
      "),": 3221,
      "ad": 3222,
      "kati": 3223,
      "ted": 3224,
      "ai": 3225,
      "yi": 3226,
      ").": 3227,
      "une": 3228,
      "201": 3229,
      "no": 3230,
      "ere": 3231,
      "té": 3232,
      "rí": 3233,
      "የሚ": 3234,
      "ቸው": 3235,
      "An": 3236,
      "ist": 3237,
      "ct": 3238,
      "የአ": 3239,
      "ex": 3240,
      "we": 3241,
      "ap": 3242,
      "ru": 3243,
      "sí": 3244,
      "har": 3245,
      "00": 3246,
      "lá": 3247,
      "op": 3248,
      "ሳሌ": 3249,
      "uni": 3250,
      "gh": 3251,
      "mp": 3252,
      "ale": 3253,
      "ምሳሌ": 3254,
      "war": 3255,
      "መን": 3256,
      "fu": 3257,
      "lẹ̀": 3258,
      "toka": 3259,
      "um": 3260,
      "bo": 3261,
      "bí": 3262,
      "ban": 3263,
      "ነበ": 3264,
      "ces": 3265,
      "àwọn": 3266,
      "san": 3267,
      "Al": 3268,
      "waka": 3269,
      "mar": 3270,
      "àn": 3271,
      "ty": 3272,
      "pu": 3273,
      "chi": 3274,
      "ho": 3275,
      "rin": 3276,
      "ati": 3277,
      "ala": 3278,
      "fe": 3279,
      "kuwa": 3280,
      "lé": 3281,
      "የተ": 3282,
      "Na": 3283,
      "by": 3284,
      "yin": 3285,
      "ንድ": 3286,
      "cha": 3287,
      "ili": 3288,
      "Le": 3289,
      "cin": 3290,
      "Am": 3291,
      "una": 3292,
      "ac": 3293,
      "ዎች": 3294,
      "cikin": 3295,
      "Àwọn": 3296,
      "qui": 3297,
      "tions": 3298,
      "እና": 3299,
      "ob": 3300,
      "199": 3301,
      "ers": 3302,
      "don": 3303,
      "ris": 3304,
      "Ni": 3305,
      "ላይ": 3306,
      "wo": 3307,
      "his": 3308,
      "tic": 3309,
      "Ba": 3310,
      "Ki": 3311,
      "rom": 3312,
      "oni": 3313,
      "pl": 3314,
      "aka": 3315,
      "zo": 3316,
      "ነት": 3317,
      "kara": 3318,
      "jẹ́": 3319,
      "La": 3320,
      "ut": 3321,
      "daga": 3322,
      "dans": 3323,
      "with": 3324,
      "jo": 3325,
      "fin": 3326,
      "per": 3327,
      "ire": 3328,
      "እንደ": 3329,
      "àti": 3330,
      "Wa": 3331,
      "won": 3332,
      "ph": 3333,
      "Af": 3334,
      "der": 3335,
      "isi": 3336,
      "ማር": 3337,
      "katika": 3338,
      "olo": 3339,
      "rẹ̀": 3340,
      "ten": 3341,
      "ther": 3342,
      "ée": 3343,
      "gba": 3344,
      "lan": 3345,
      "ọd": 3346,
      "can": 3347,
      "jeri": 3348,
      "ju": 3349,
      "198": 3350,
      "jeriya": 3351,
      "sur": 3352,
      "asa": 3353,
      "urs": 3354,
      "cal": 3355,
      "mwaka": 3356,
      "tsa": 3357,
      "wọ́": 3358,
      "ለው": 3359,
      "od": 3360,
      "yu": 3361,
      "lis": 3362,
      "ìn": 3363,
      "ren": 3364,
      "that": 3365,
      "mon": 3366,
      "shekar": 3367,
      "lú": 3368,
      "ùn": 3369,
      "pour": 3370,
      "mai": 3371,
      "ከተ": 3372,
      "ami": 3373,
      "En": 3374,
      "dè": 3375,
      "197": 3376,
      "gan": 3377,
      "tre": 3378,
      "os": 3379,
      "tes": 3380,
      "ck": 3381,
      "che": 3382,
      "tra": 3383,
      "ux": 3384,
      "pé": 3385,
      "wen": 3386,
      "196": 3387,
      "ins": 3388,
      "17": 3389,
      "from": 3390,
      "zu": 3391,
      "ያን": 3392,
      "ṣe": 3393,
      "ሆን": 3394,
      "gbà": 3395,
      "tar": 3396,
      "far": 3397,
      "ction": 3398,
      "Ar": 3399,
      "hai": 3400,
      "Ch": 3401,
      "ann": 3402,
      "ques": 3403,
      "asi": 3404,
      "kun": 3405,
      "up": 3406,
      "በአ": 3407,
      "fo": 3408,
      "ọdún": 3409,
      "Wali": 3410,
      "እስ": 3411,
      "por": 3412,
      "kọ́": 3413,
      "ada": 3414,
      "mba": 3415,
      "ation": 3416,
      "16": 3417,
      "usi": 3418,
      "cor": 3419,
      "Afri": 3420,
      "ence": 3421,
      "15": 3422,
      "ll": 3423,
      "Se": 3424,
      "tun": 3425,
      "ዚህ": 3426,
      "shekara": 3427,
      "ትዮ": 3428,
      "ማርኛ": 3429,
      "በመ": 3430,
      "vo": 3431,
      "ወደ": 3432,
      "ረት": 3433,
      "ኢትዮ": 3434,
      "ለት": 3435,
      "በት": 3436,
      "ነበር": 3437,
      "indi": 3438,
      "min": 3439,
      "ነገ": 3440,
      "ère": 3441,
      "dis": 3442,
      "ay": 3443,
      "ኢትዮጵ": 3444,
      "ture": 3445,
      "mọ": 3446,
      "ló": 3447,
      "shekarar": 3448,
      "tr": 3449,
      "one": 3450,
      "sion": 3451,
      "wọ́n": 3452,
      "oh": 3453,
      "ín": 3454,
      "tokasi": 3455,
      "tro": 3456,
      "tó": 3457,
      "uri": 3458,
      "Mar": 3459,
      "ds": 3460,
      "ውስ": 3461,
      "sì": 3462,
      "ff": 3463,
      "orí": 3464,
      "ene": 3465,
      "Najeriya": 3466,
      "Itokasi": 3467,
      "ትር": 3468,
      "ኢትዮጵያ": 3469,
      "የአማርኛ": 3470,
      "elle": 3471,
      "fir": 3472,
      "ìj": 3473,
      "gun": 3474,
      "asar": 3475,
      "Ta": 3476,
      "gar": 3477,
      "mé": 3478,
      "all": 3479,
      "De": 3480,
      "èdè": 3481,
      "nan": 3482,
      "ble": 3483,
      "wanda": 3484,
      "10": 3485,
      "pre": 3486,
      "ash": 3487,
      "gra": 3488,
      "ser": 3489,
      "ys": 3490,
      "Sa": 3491,
      "nin": 3492,
      "ong": 3493,
      "kutoka": 3494,
      "ld": 3495,
      "plus": 3496,
      "sam": 3497,
      "kọ": 3498,
      "mes": 3499,
      "men": 3500,
      "Uni": 3501,
      "áà": 3502,
      "ber": 3503,
      "né": 3504,
      "va": 3505,
      "whi": 3506,
      "bá": 3507,
      "pen": 3508,
      "Re": 3509,
      "አይ": 3510,
      "195": 3511,
      "pré": 3512,
      "cu": 3513,
      "cent": 3514,
      "II": 3515,
      "sun": 3516,
      "ስት": 3517,
      "ans": 3518,
      "use": 3519,
      "fun": 3520,
      "ise": 3521,
      "14": 3522,
      "fún": 3523,
      "tin": 3524,
      "ven": 3525,
      "kó": 3526,
      "yana": 3527,
      "Ne": 3528,
      "ms": 3529,
      "ኛው": 3530,
      "በተ": 3531,
      "din": 3532,
      "nom": 3533,
      "ita": 3534,
      "vel": 3535,
      "wali": 3536,
      "kama": 3537,
      "aux": 3538,
      "gen": 3539,
      "ors": 3540,
      "bar": 3541,
      "ግን": 3542,
      "ቶች": 3543,
      "nín": 3544,
      "ውስጥ": 3545,
      "ሪያ": 3546,
      "tional": 3547,
      "gbo": 3548,
      "lọ": 3549,
      "12": 3550,
      "ስተ": 3551,
      "af": 3552,
      "pas": 3553,
      "ave": 3554,
      "Ro": 3555,
      "und": 3556,
      "ወይ": 3557,
      "Mi": 3558,
      "ish": 3559,
      "usu": 3560,
      "ges": 3561,
      "jọ́": 3562,
      "ès": 3563,
      "194": 3564,
      "tri": 3565,
      "ጊዜ": 3566,
      "land": 3567,
      "cri": 3568,
      "pri": 3569,
      "pla": 3570,
      "jú": 3571,
      "ariki": 3572,
      "አን": 3573,
      "Pa": 3574,
      "ይህ": 3575,
      "፡፡": 3576,
      "ary": 3577,
      "avec": 3578,
      "bli": 3579,
      "gn": 3580,
      "ons": 3581,
      "ry": 3582,
      "Li": 3583,
      "እንዲ": 3584,
      "náà": 3585,
      "wor": 3586,
      "mata": 3587,
      "የመ": 3588,
      "ውን": 3589,
      "ania": 3590,
      "aliwa": 3591,
      "ክል": 3592,
      "13": 3593,
      "wn": 3594,
      "ምን": 3595,
      "sar": 3596,
      "ille": 3597,
      "sont": 3598,
      "Vi": 3599,
      "gé": 3600,
      "ንጉ": 3601,
      "fan": 3602,
      "sta": 3603,
      "zar": 3604,
      "ርስ": 3605,
      "ላል": 3606,
      "ens": 3607,
      "Ra": 3608,
      "which": 3609,
      "ṣẹ́": 3610,
      "tare": 3611,
      "gr": 3612,
      "matsa": 3613,
      "Par": 3614,
      "atu": 3615,
      "zuwa": 3616,
      "ስለ": 3617,
      "its": 3618,
      "bas": 3619,
      "tique": 3620,
      "cho": 3621,
      "nu": 3622,
      "im": 3623,
      "sha": 3624,
      "ọmọ": 3625,
      "id": 3626,
      "alis": 3627,
      "ትርጉ": 3628,
      "He": 3629,
      "ቀን": 3630,
      "ore": 3631,
      "ses": 3632,
      "nínú": 3633,
      "kuu": 3634,
      "Il": 3635,
      "ሆነ": 3636,
      "መንግ": 3637,
      "Nob": 3638,
      "Mo": 3639,
      "Da": 3640,
      "Mu": 3641,
      "Fran": 3642,
      "eré": 3643,
      "Nobel": 3644,
      "ዘመ": 3645,
      "comm": 3646,
      "írí": 3647,
      "uli": 3648,
      "amba": 3649,
      "yí": 3650,
      "dá": 3651,
      "ang": 3652,
      "ele": 3653,
      "mber": 3654,
      "ame": 3655,
      "ome": 3656,
      "ሪክ": 3657,
      "lar": 3658,
      "és": 3659,
      "Ha": 3660,
      "kò": 3661,
      "አገ": 3662,
      "Ameri": 3663,
      "tive": 3664,
      "Les": 3665,
      "zaliwa": 3666,
      "tur": 3667,
      "sy": 3668,
      "sance": 3669,
      "tà": 3670,
      "láti": 3671,
      "gin": 3672,
      "It": 3673,
      "matsayin": 3674,
      "mas": 3675,
      "isha": 3676,
      "Tan": 3677,
      "ለም": 3678,
      "ton": 3679,
      "inter": 3680,
      "gbe": 3681,
      "pọ̀": 3682,
      "Tu": 3683,
      "phi": 3684,
      "wani": 3685,
      "ድር": 3686,
      "ese": 3687,
      "ሲሆን": 3688,
      "olu": 3689,
      "wana": 3690,
      "wenye": 3691,
      "193": 3692,
      "ght": 3693,
      "pia": 3694,
      "han": 3695,
      "ሰው": 3696,
      "ወይም": 3697,
      "sti": 3698,
      "risto": 3699,
      "wà": 3700,
      "Ku": 3701,
      "jọ": 3702,
      "ትርጉሙ": 3703,
      "watan": 3704,
      "car": 3705,
      "ded": 3706,
      "bir": 3707,
      "kà": 3708,
      "bre": 3709,
      "ኋላ": 3710,
      "ṣù": 3711,
      "ding": 3712,
      "ory": 3713,
      "gy": 3714,
      "mọ̀": 3715,
      "ìí": 3716,
      "Me": 3717,
      "Nà": 3718,
      "ሳይ": 3719,
      "yake": 3720,
      "nchi": 3721,
      "ከተማ": 3722,
      "ድረ": 3723,
      "ለመ": 3724,
      "Co": 3725,
      "col": 3726,
      "..": 3727,
      "No": 3728,
      "cul": 3729,
      "gbé": 3730,
      "íríà": 3731,
      "gne": 3732,
      "tt": 3733,
      "cer": 3734,
      "wasan": 3735,
      "Nàìj": 3736,
      "ያል": 3737,
      "nì": 3738,
      "amma": 3739,
      "comp": 3740,
      "enti": 3741,
      "ደረ": 3742,
      "were": 3743,
      "ments": 3744,
      "Nàìjíríà": 3745,
      "gẹ́": 3746,
      "kani": 3747,
      "wá": 3748,
      "Mare": 3749,
      "ibi": 3750,
      "suka": 3751,
      "ታት": 3752,
      "በኋላ": 3753,
      "yàn": 3754,
      "Bo": 3755,
      "pres": 3756,
      "ves": 3757,
      "Si": 3758,
      "tant": 3759,
      "isa": 3760,
      "ord": 3761,
      "kana": 3762,
      "ron": 3763,
      "led": 3764,
      "Ka": 3765,
      "Au": 3766,
      "duni": 3767,
      "Com": 3768,
      "parti": 3769,
      "ano": 3770,
      "ጀመ": 3771,
      "ዓመ": 3772,
      "int": 3773,
      "usa": 3774,
      "ሪካ": 3775,
      "out": 3776,
      "kub": 3777,
      "ilé": 3778,
      "Gu": 3779,
      "langu": 3780,
      "ard": 3781,
      "ous": 3782,
      "mili": 3783,
      "000": 3784,
      "geri": 3785,
      "እስከ": 3786,
      "low": 3787,
      "ées": 3788,
      "má": 3789,
      "ዘመን": 3790,
      "zama": 3791,
      "pín": 3792,
      "but": 3793,
      "ọjọ́": 3794,
      "ረትና": 3795,
      "ደግ": 3796,
      "ally": 3797,
      "ṣè": 3798,
      "ishi": 3799,
      "ger": 3800,
      "awon": 3801,
      "lè": 3802,
      "lati": 3803,
      "ura": 3804,
      "ትን": 3805,
      "dia": 3806,
      "Di": 3807,
      "bin": 3808,
      "orílẹ̀": 3809,
      "pos": 3810,
      "Mana": 3811,
      "ast": 3812,
      "ok": 3813,
      "vent": 3814,
      "Walio": 3815,
      "soci": 3816,
      "As": 3817,
      "ìlú": 3818,
      "ለማ": 3819,
      "ተረትና": 3820,
      "Ji": 3821,
      "ክፍ": 3822,
      "ity": 3823,
      "ƙasar": 3824,
      "ሮች": 3825,
      "lọ́": 3826,
      "Waliozaliwa": 3827,
      "las": 3828,
      "mer": 3829,
      "ree": 3830,
      "Kar": 3831,
      "jin": 3832,
      "inc": 3833,
      "comme": 3834,
      "Con": 3835,
      "had": 3836,
      "ile": 3837,
      "ሥት": 3838,
      "Ya": 3839,
      "ze": 3840,
      "vya": 3841,
      "ዋል": 3842,
      "nes": 3843,
      "gro": 3844,
      "oc": 3845,
      "met": 3846,
      "huga": 3847,
      "አንድ": 3848,
      "versi": 3849,
      "eni": 3850,
      "gha": 3851,
      "ida": 3852,
      "Ju": 3853,
      "pin": 3854,
      "yen": 3855,
      "ofariki": 3856,
      "publi": 3857,
      "also": 3858,
      "Waliofariki": 3859,
      "192": 3860,
      "ንግ": 3861,
      "vu": 3862,
      "cou": 3863,
      "ell": 3864,
      "Tuzo": 3865,
      "éri": 3866,
      "not": 3867,
      "kasance": 3868,
      "bab": 3869,
      "11": 3870,
      "ባል": 3871,
      "Ri": 3872,
      "rẹ": 3873,
      "ደር": 3874,
      "uru": 3875,
      "jẹ": 3876,
      "him": 3877,
      "zarta": 3878,
      "Afrika": 3879,
      "ologi": 3880,
      "So": 3881,
      "lin": 3882,
      "jihar": 3883,
      "jì": 3884,
      "Ab": 3885,
      "ussi": 3886,
      "loka": 3887,
      "ia": 3888,
      "anci": 3889,
      "በር": 3890,
      "án": 3891,
      "Manazarta": 3892,
      "Marekani": 3893,
      "val": 3894,
      "été": 3895,
      "New": 3896,
      "Po": 3897,
      "ede": 3898,
      "sou": 3899,
      "መስ": 3900,
      "ont": 3901,
      "istori": 3902,
      "Is": 3903,
      "pr": 3904,
      "Su": 3905,
      "kon": 3906,
      "kí": 3907,
      "fer": 3908,
      "amo": 3909,
      "mis": 3910,
      "ነበረ": 3911,
      "hii": 3912,
      "app": 3913,
      "አል": 3914,
      "wh": 3915,
      "Nigeri": 3916,
      "መል": 3917,
      "ሆኑ": 3918,
      "Bi": 3919,
      "ved": 3920,
      "አብ": 3921,
      "já": 3922,
      "gwa": 3923,
      "\".": 3924,
      "tì": 3925,
      "omi": 3926,
      "awọn": 3927,
      "ጋር": 3928,
      "kubwa": 3929,
      "Yor": 3930,
      "wé": 3931,
      "illi": 3932,
      "dí": 3933,
      "teur": 3934,
      "ọ́n": 3935,
      "first": 3936,
      "tana": 3937,
      "Joh": 3938,
      "jer": 3939,
      "husu": 3940,
      "imp": 3941,
      "tran": 3942,
      "Th": 3943,
      "red": 3944,
      "pínlẹ̀": 3945,
      "ናት": 3946,
      "Baada": 3947,
      "ará": 3948,
      "Ali": 3949,
      "ag": 3950,
      "ልጅ": 3951,
      "dom": 3952,
      "iṣẹ́": 3953,
      "my": 3954,
      "ችን": 3955,
      "cation": 3956,
      "ታወ": 3957,
      "lex": 3958,
      "premi": 3959,
      "age": 3960,
      "ናቸው": 3961,
      "እንግ": 3962,
      "lation": 3963,
      "éta": 3964,
      "ill": 3965,
      "ደግሞ": 3966,
      "cy": 3967,
      "has": 3968,
      "Ní": 3969,
      "emp": 3970,
      "msh": 3971,
      "በማ": 3972,
      "ስም": 3973,
      "ደብ": 3974,
      "ona": 3975,
      "farko": 3976,
      "mal": 3977,
      "ziki": 3978,
      "ires": 3979,
      "thi": 3980,
      "tain": 3981,
      "hadi": 3982,
      "Papa": 3983,
      "entre": 3984,
      "med": 3985,
      "ተረ": 3986,
      "ብዙ": 3987,
      "mia": 3988,
      "21": 3989,
      "Sta": 3990,
      "lẹ́": 3991,
      "mshindi": 3992,
      "ilẹ̀": 3993,
      "anti": 3994,
      "kum": 3995,
      "የኢትዮጵያ": 3996,
      "vers": 3997,
      "Lu": 3998,
      "produ": 3999,
      "ታሪክ": 4000,
      "Har": 4001,
      "To": 4002,
      "fara": 4003,
      "stru": 4004,
      "ክልበ": 4005,
      "mais": 4006,
      "fil": 4007,
      "uro": 4008,
      "ድረስ": 4009,
      "suna": 4010,
      "wò": 4011,
      "temp": 4012,
      "inda": 4013,
      "ዓክልበ": 4014,
      "Lo": 4015,
      "fon": 4016,
      "anu": 4017,
      "have": 4018,
      "ting": 4019,
      "አስ": 4020,
      "kio": 4021,
      "rùn": 4022,
      "190": 4023,
      "alement": 4024,
      "መንግሥት": 4025,
      "30": 4026,
      "mbo": 4027,
      "ance": 4028,
      "llon": 4029,
      "alia": 4030,
      "hari": 4031,
      "gbá": 4032,
      "gaba": 4033,
      "gine": 4034,
      "cre": 4035,
      "ranar": 4036,
      "25": 4037,
      "yya": 4038,
      "189": 4039,
      "Ho": 4040,
      "rò": 4041,
      "ingi": 4042,
      "eb": 4043,
      "bayan": 4044,
      "omo": 4045,
      "ité": 4046,
      "Mak": 4047,
      "ny": 4048,
      "visi": 4049,
      "zania": 4050,
      "haife": 4051,
      "yìn": 4052,
      "kus": 4053,
      "oro": 4054,
      "national": 4055,
      "ብር": 4056,
      "የሚገ": 4057,
      "sai": 4058,
      "oló": 4059,
      "poli": 4060,
      "ራት": 4061,
      "ars": 4062,
      "iya": 4063,
      "tawa": 4064,
      "gbè": 4065,
      "yìí": 4066,
      "Ad": 4067,
      "Jam": 4068,
      "masu": 4069,
      "giyar": 4070,
      "mul": 4071,
      "tún": 4072,
      "lle": 4073,
      "tal": 4074,
      "puis": 4075,
      "fran": 4076,
      "uti": 4077,
      "Ge": 4078,
      "ak": 4079,
      "ሎች": 4080,
      "ቤት": 4081,
      "ተኛ": 4082,
      "ባለ": 4083,
      "fici": 4084,
      "enne": 4085,
      "ርት": 4086,
      "ቋን": 4087,
      "lokacin": 4088,
      "kasar": 4089,
      "dent": 4090,
      "hin": 4091,
      "pan": 4092,
      "ras": 4093,
      "this": 4094,
      "biyu": 4095,
      "Ti": 4096,
      "alikuwa": 4097,
      "era": 4098,
      "እግ": 4099,
      "ƙa": 4100,
      "መር": 4101,
      "ነገር": 4102,
      "kwai": 4103,
      "chini": 4104,
      "tọ́": 4105,
      "who": 4106,
      "main": 4107,
      "Tanzania": 4108,
      "ንጉሥ": 4109,
      "tane": 4110,
      "Be": 4111,
      "አለ": 4112,
      "ungu": 4113,
      "Matu": 4114,
      "dar": 4115,
      "kẹ": 4116,
      "ትም": 4117,
      "ef": 4118,
      "amu": 4119,
      "wó": 4120,
      "ዋና": 4121,
      "John": 4122,
      "Pro": 4123,
      "ima": 4124,
      "ple": 4125,
      "ane": 4126,
      "versity": 4127,
      "deux": 4128,
      "hugaban": 4129,
      "gion": 4130,
      "eneo": 4131,
      "aut": 4132,
      "mbali": 4133,
      "Bri": 4134,
      "tte": 4135,
      "Col": 4136,
      "Aus": 4137,
      "ርያ": 4138,
      "ቤተ": 4139,
      "used": 4140,
      "ቋንቋ": 4141,
      "bor": 4142,
      "At": 4143,
      "Je": 4144,
      "Kwa": 4145,
      "Matukio": 4146,
      "22": 4147,
      "av": 4148,
      "ይገ": 4149,
      "kam": 4150,
      "bẹ̀": 4151,
      "ants": 4152,
      "phy": 4153,
      "ያልተ": 4154,
      "ዚያ": 4155,
      "ንም": 4156,
      "hal": 4157,
      "part": 4158,
      "ue": 4159,
      "their": 4160,
      "ራዊ": 4161,
      "yawan": 4162,
      "ury": 4163,
      "bili": 4164,
      "end": 4165,
      "rou": 4166,
      "kini": 4167,
      "ማለት": 4168,
      "tis": 4169,
      "fal": 4170,
      "tho": 4171,
      "birnin": 4172,
      "ust": 4173,
      "mji": 4174,
      "rè": 4175,
      "orin": 4176,
      "እንግሊ": 4177,
      "On": 4178,
      "23": 4179,
      "nìyàn": 4180,
      "kasa": 4181,
      "ear": 4182,
      "kọ̀": 4183,
      "oṣù": 4184,
      "yau": 4185,
      "ላት": 4186,
      "chan": 4187,
      "fam": 4188,
      "ure": 4189,
      "ongo": 4190,
      "tement": 4191,
      "posi": 4192,
      "ተረጎ": 4193,
      "dur": 4194,
      "anan": 4195,
      "tern": 4196,
      "yè": 4197,
      "ሁሉ": 4198,
      "University": 4199,
      "spe": 4200,
      "Go": 4201,
      "mna": 4202,
      "Ke": 4203,
      "ken": 4204,
      "አባ": 4205,
      "ẹ̀kọ́": 4206,
      "ጥር": 4207,
      "kai": 4208,
      "diff": 4209,
      "ዳን": 4210,
      "gue": 4211,
      "ɗa": 4212,
      "kú": 4213,
      "tation": 4214,
      "ansa": 4215,
      "laya": 4216,
      "mpi": 4217,
      "አካ": 4218,
      "ክርስ": 4219,
      "antar": 4220,
      "king": 4221,
      "sé": 4222,
      "ታል": 4223,
      "ዘመነ": 4224,
      "Du": 4225,
      "ባቢ": 4226,
      "ça": 4227,
      "alo": 4228,
      "rent": 4229,
      "ƙwa": 4230,
      "zai": 4231,
      "uku": 4232,
      "pẹ̀": 4233,
      "bia": 4234,
      "cro": 4235,
      "vie": 4236,
      "dì": 4237,
      "፲፱": 4238,
      "lugha": 4239,
      "velop": 4240,
      "War": 4241,
      "ereza": 4242,
      "other": 4243,
      "orile": 4244,
      "ግብ": 4245,
      "ጥን": 4246,
      "ናል": 4247,
      "የማ": 4248,
      "moja": 4249,
      "--": 4250,
      "ingereza": 4251,
      "trans": 4252,
      "ɗan": 4253,
      "የም": 4254,
      "ach": 4255,
      "pte": 4256,
      "ድን": 4257,
      "ria": 4258,
      "kwenye": 4259,
      "ral": 4260,
      "kali": 4261,
      "ata": 4262,
      "ገር": 4263,
      "cs": 4264,
      "cas": 4265,
      "የሚያ": 4266,
      "Mas": 4267,
      "vyo": 4268,
      "ènìyàn": 4269,
      "maj": 4270,
      "cewa": 4271,
      "hali": 4272,
      "ríkà": 4273,
      "\",": 4274,
      "ቱን": 4275,
      "graphi": 4276,
      "inclu": 4277,
      "sin": 4278,
      "Nijeriya": 4279,
      "ንያ": 4280,
      "ውያን": 4281,
      "lish": 4282,
      "24": 4283,
      "yẹ": 4284,
      "ninu": 4285,
      "ort": 4286,
      "mí": 4287,
      "Do": 4288,
      "Nigeria": 4289,
      "cé": 4290,
      "ንስ": 4291,
      "Kristo": 4292,
      "ks": 4293,
      "Jo": 4294,
      "ተረጎመ": 4295,
      "cra": 4296,
      "ከል": 4297,
      "tò": 4298,
      "አም": 4299,
      "tel": 4300,
      "port": 4301,
      "prin": 4302,
      "dy": 4303,
      "Ben": 4304,
      "lui": 4305,
      "dà": 4306,
      "እንግሊዝ": 4307,
      "፲፱፻": 4308,
      "yé": 4309,
      "ሞች": 4310,
      "Far": 4311,
      "Makala": 4312,
      "watu": 4313,
      "aiki": 4314,
      "kno": 4315,
      "ያልተተረጎመ": 4316,
      "kal": 4317,
      "zam": 4318,
      "dre": 4319,
      "hili": 4320,
      "ême": 4321,
      "alá": 4322,
      "sel": 4323,
      "ìgbà": 4324,
      "50": 4325,
      "cour": 4326,
      "Fi": 4327,
      "anta": 4328,
      "BC": 4329,
      "her": 4330,
      "አመ": 4331,
      "Jihar": 4332,
      "kafa": 4333,
      "time": 4334,
      "2015": 4335,
      "inahusu": 4336,
      "Asi": 4337,
      "Mata": 4338,
      "ዛት": 4339,
      "ps": 4340,
      "yà": 4341,
      "sent": 4342,
      "Jap": 4343,
      "gas": 4344,
      "ite": 4345,
      "been": 4346,
      "tele": 4347,
      "pol": 4348,
      "some": 4349,
      "ቸውን": 4350,
      "most": 4351,
      "Man": 4352,
      "waki": 4353,
      "non": 4354,
      "pon": 4355,
      "wu": 4356,
      "lai": 4357,
      "amar": 4358,
      "utar": 4359,
      "sub": 4360,
      "firka": 4361,
      "pt": 4362,
      "bet": 4363,
      "Afirka": 4364,
      "stitu": 4365,
      "Nor": 4366,
      "wọ̀": 4367,
      "forma": 4368,
      "American": 4369,
      "jen": 4370,
      "Eng": 4371,
      "Chi": 4372,
      "dha": 4373,
      "mọ́": 4374,
      "cip": 4375,
      "toire": 4376,
      "Or": 4377,
      "አስተ": 4378,
      "hemu": 4379,
      "dio": 4380,
      "utilis": 4381,
      "ምሮ": 4382,
      "bon": 4383,
      "27": 4384,
      "ora": 4385,
      "ople": 4386,
      "wake": 4387,
      "sen": 4388,
      "wata": 4389,
      "ké": 4390,
      "mw": 4391,
      "28": 4392,
      "በሚ": 4393,
      "Un": 4394,
      "Car": 4395,
      "ቃል": 4396,
      "fé": 4397,
      "vari": 4398,
      "lla": 4399,
      "pè": 4400,
      "tta": 4401,
      "iste": 4402,
      "là": 4403,
      "dire": 4404,
      "ving": 4405,
      "òṣè": 4406,
      "ties": 4407,
      "2014": 4408,
      "gni": 4409,
      "በዚህ": 4410,
      "ፈረ": 4411,
      "2011": 4412,
      "Ko": 4413,
      "gre": 4414,
      "histori": 4415,
      "sous": 4416,
      "mus": 4417,
      "Wi": 4418,
      "ake": 4419,
      "ነበሩ": 4420,
      "Bu": 4421,
      "France": 4422,
      "bara": 4423,
      "King": 4424,
      "arin": 4425,
      "bà": 4426,
      "ures": 4427,
      "እንዳ": 4428,
      "2016": 4429,
      "ress": 4430,
      "ራል": 4431,
      "den": 4432,
      "kwan": 4433,
      "Bar": 4434,
      "Hi": 4435,
      "hy": 4436,
      "aussi": 4437,
      "ታዊ": 4438,
      "dro": 4439,
      "Ìpínlẹ̀": 4440,
      "2006": 4441,
      "እር": 4442,
      "ወረ": 4443,
      "frança": 4444,
      "cle": 4445,
      "ales": 4446,
      "ƙwallon": 4447,
      "ign": 4448,
      "insi": 4449,
      "jà": 4450,
      "ines": 4451,
      "pà": 4452,
      "als": 4453,
      "ወን": 4454,
      "ሜሪካ": 4455,
      "ṣà": 4456,
      "erre": 4457,
      "188": 4458,
      "26": 4459,
      "eu": 4460,
      "chool": 4461,
      "daya": 4462,
      "ced": 4463,
      "ጠር": 4464,
      "ጦር": 4465,
      "umani": 4466,
      "ìbí": 4467,
      "mutu": 4468,
      "cti": 4469,
      "For": 4470,
      "ème": 4471,
      "dake": 4472,
      "form": 4473,
      "Bab": 4474,
      "Kati": 4475,
      "kì": 4476,
      "ድም": 4477,
      "fait": 4478,
      "duniya": 4479,
      "amoja": 4480,
      "jerumani": 4481,
      "His": 4482,
      "cré": 4483,
      "ሰዎች": 4484,
      "istan": 4485,
      "ters": 4486,
      "Ok": 4487,
      "ሌላ": 4488,
      "2007": 4489,
      "mwan": 4490,
      "መለ": 4491,
      "than": 4492,
      "teurs": 4493,
      "ég": 4494,
      "tam": 4495,
      "lamu": 4496,
      "more": 4497,
      "katifu": 4498,
      "être": 4499,
      "Euro": 4500,
      "Pe": 4501,
      "into": 4502,
      "ቅር": 4503,
      "ṣẹ": 4504,
      "Pi": 4505,
      "Tur": 4506,
      "ዝብ": 4507,
      "29": 4508,
      "babban": 4509,
      "Sou": 4510,
      "ዲስ": 4511,
      "Nai": 4512,
      "2019": 4513,
      "wannan": 4514,
      "Alex": 4515,
      "such": 4516,
      "2010": 4517,
      "United": 4518,
      "nombre": 4519,
      "kas": 4520,
      "falme": 4521,
      "2012": 4522,
      "after": 4523,
      "Wor": 4524,
      "She": 4525,
      "hana": 4526,
      "anzi": 4527,
      "Janu": 4528,
      "Te": 4529,
      "sed": 4530,
      "ሉት": 4531,
      "ከፍ": 4532,
      "jama": 4533,
      "two": 4534,
      "cess": 4535,
      "gẹ́gẹ́": 4536,
      "BK": 4537,
      "gbẹ́": 4538,
      "fí": 4539,
      "Ọ̀": 4540,
      "kawa": 4541,
      "nor": 4542,
      "ràn": 4543,
      "mani": 4544,
      "jù": 4545,
      "yyar": 4546,
      "ሥራ": 4547,
      "ያለ": 4548,
      "lórí": 4549,
      "même": 4550,
      "tọ́ka": 4551,
      "Ca": 4552,
      "ሰብ": 4553,
      "ward": 4554,
      "Ara": 4555,
      "Mus": 4556,
      "Ja": 4557,
      "ጨረ": 4558,
      "vir": 4559,
      "Ger": 4560,
      "samu": 4561,
      "inf": 4562,
      "Ber": 4563,
      "እነ": 4564,
      "Abu": 4565,
      "ሆኖ": 4566,
      "Karne": 4567,
      "ner": 4568,
      "ctions": 4569,
      "2018": 4570,
      "gir": 4571,
      "2017": 4572,
      "Jami": 4573,
      "ches": 4574,
      "leur": 4575,
      "መደብ": 4576,
      "ilu": 4577,
      "ስራ": 4578,
      "cette": 4579,
      "bra": 4580,
      "pẹ̀lú": 4581,
      "cur": 4582,
      "dont": 4583,
      "century": 4584,
      "yankin": 4585,
      "mẹ́": 4586,
      "vis": 4587,
      "maji": 4588,
      "coun": 4589,
      "St": 4590,
      "bri": 4591,
      "ጀመሪያ": 4592,
      "sehemu": 4593,
      "géné": 4594,
      "bila": 4595,
      "ተው": 4596,
      "mil": 4597,
      "ዓመት": 4598,
      "2005": 4599,
      "kamar": 4600,
      "sọ": 4601,
      "vol": 4602,
      "tour": 4603,
      "dition": 4604,
      "Europe": 4605,
      "Hu": 4606,
      "ብሎ": 4607,
      "known": 4608,
      "person": 4609,
      "sup": 4610,
      "ፊት": 4611,
      "pamoja": 4612,
      "ረው": 4613,
      "voir": 4614,
      "gún": 4615,
      "ምክ": 4616,
      "dda": 4617,
      "fani": 4618,
      "ká": 4619,
      "éle": 4620,
      "ዓም": 4621,
      "eshi": 4622,
      "mú": 4623,
      "tari": 4624,
      "ology": 4625,
      "Ala": 4626,
      "ጠቀ": 4627,
      "ères": 4628,
      "ful": 4629,
      "mkuu": 4630,
      "ይወ": 4631,
      "els": 4632,
      "2013": 4633,
      "Per": 4634,
      "vin": 4635,
      "ማሪ": 4636,
      "semb": 4637,
      "cen": 4638,
      "nje": 4639,
      "over": 4640,
      "lakini": 4641,
      "ƙafa": 4642,
      "ቅዱ": 4643,
      "uran": 4644,
      "ham": 4645,
      "mit": 4646,
      "Amẹ́": 4647,
      "clas": 4648,
      "rọ̀": 4649,
      "Char": 4650,
      "reli": 4651,
      "alin": 4652,
      "seri": 4653,
      "miaka": 4654,
      "Amẹ́ríkà": 4655,
      "zina": 4656,
      "under": 4657,
      "sana": 4658,
      "መካ": 4659,
      "vil": 4660,
      "run": 4661,
      "Septe": 4662,
      "dist": 4663,
      "ያስ": 4664,
      "siku": 4665,
      "ላቸው": 4666,
      "gila": 4667,
      "aro": 4668,
      "40": 4669,
      "ọba": 4670,
      "pend": 4671,
      "bun": 4672,
      "ወር": 4673,
      "tle": 4674,
      "ling": 4675,
      "they": 4676,
      "kuna": 4677,
      "mwa": 4678,
      "new": 4679,
      "tout": 4680,
      "bai": 4681,
      "wasu": 4682,
      "ዝር": 4683,
      "ቦች": 4684,
      "ley": 4685,
      "core": 4686,
      "cted": 4687,
      "mutane": 4688,
      "Inter": 4689,
      "ctor": 4690,
      "shugaban": 4691,
      "ƙar": 4692,
      "hed": 4693,
      "kari": 4694,
      "sci": 4695,
      "አበ": 4696,
      "ily": 4697,
      "inst": 4698,
      "ፈር": 4699,
      "popu": 4700,
      "cts": 4701,
      "ot": 4702,
      "bur": 4703,
      "kea": 4704,
      "Ru": 4705,
      "ከዚህ": 4706,
      "lù": 4707,
      "ጣል": 4708,
      "This": 4709,
      "ende": 4710,
      "èyí": 4711,
      "òṣèré": 4712,
      "ft": 4713,
      "máa": 4714,
      "tàbí": 4715,
      "የሚገኝ": 4716,
      "consi": 4717,
      "Ana": 4718,
      "Roma": 4719,
      "ባህ": 4720,
      "Ingila": 4721,
      "autres": 4722,
      "Mwaka": 4723,
      "ምር": 4724,
      "cap": 4725,
      "suc": 4726,
      "oní": 4727,
      "186": 4728,
      "Fo": 4729,
      "tawala": 4730,
      "Ang": 4731,
      "ተቀ": 4732,
      "tab": 4733,
      "rit": 4734,
      "Amerika": 4735,
      "mì": 4736,
      "ብቻ": 4737,
      "cond": 4738,
      "bẹ̀rẹ̀": 4739,
      "ቅም": 4740,
      "187": 4741,
      "ክርስቲ": 4742,
      "ወለ": 4743,
      "tech": 4744,
      "2009": 4745,
      "ሁለ": 4746,
      "ደቡ": 4747,
      "Feb": 4748,
      "Africa": 4749,
      "Geor": 4750,
      "ologie": 4751,
      "ኤል": 4752,
      "mara": 4753,
      "ww": 4754,
      "ተር": 4755,
      "Aug": 4756,
      "any": 4757,
      "jina": 4758,
      "tara": 4759,
      "ander": 4760,
      "Ce": 4761,
      "2003": 4762,
      "ባት": 4763,
      "baada": 4764,
      "ሁም": 4765,
      "impor": 4766,
      "gos": 4767,
      "gbogbo": 4768,
      "ohun": 4769,
      "ሥር": 4770,
      "old": 4771,
      "dau": 4772,
      "fẹ́": 4773,
      "Ada": 4774,
      "ase": 4775,
      "ashin": 4776,
      "አር": 4777,
      "cher": 4778,
      "tọ́kasí": 4779,
      "kwanza": 4780,
      "chu": 4781,
      "ክት": 4782,
      "partic": 4783,
      "tiques": 4784,
      "ated": 4785,
      "Yan": 4786,
      "Gre": 4787,
      "andishi": 4788,
      "ሁን": 4789,
      "many": 4790,
      "ቢያ": 4791,
      "ዘንድ": 4792,
      "garin": 4793,
      "yste": 4794,
      "Shi": 4795,
      "ette": 4796,
      "elles": 4797,
      "pays": 4798,
      "ላንድ": 4799,
      "bẹ́": 4800,
      "mor": 4801,
      "በብ": 4802,
      "zini": 4803,
      "Mari": 4804,
      "came": 4805,
      "hasa": 4806,
      "duk": 4807,
      "lima": 4808,
      "amp": 4809,
      "péri": 4810,
      "ማን": 4811,
      "Apri": 4812,
      "day": 4813,
      "name": 4814,
      "ould": 4815,
      "2008": 4816,
      "አገር": 4817,
      "Nove": 4818,
      "በኢትዮጵያ": 4819,
      "ween": 4820,
      "Febru": 4821,
      "saba": 4822,
      "para": 4823,
      "sau": 4824,
      "zili": 4825,
      "peut": 4826,
      "grand": 4827,
      "ọ̀n": 4828,
      "ገድ": 4829,
      "ኖች": 4830,
      "contin": 4831,
      "Rom": 4832,
      "fois": 4833,
      "wakazi": 4834,
      "dépar": 4835,
      "2004": 4836,
      "ታቸው": 4837,
      "cture": 4838,
      "nou": 4839,
      "እንግሊዝኛ": 4840,
      "Min": 4841,
      "dún": 4842,
      "way": 4843,
      "Ken": 4844,
      "vre": 4845,
      "aikin": 4846,
      "Bir": 4847,
      "Duni": 4848,
      "xi": 4849,
      "thé": 4850,
      "ሁለት": 4851,
      "yawa": 4852,
      "ተመ": 4853,
      "mù": 4854,
      "ገን": 4855,
      "makar": 4856,
      "ough": 4857,
      "cus": 4858,
      "ler": 4859,
      "eral": 4860,
      "dai": 4861,
      "km": 4862,
      "ወቅ": 4863,
      "ጀምሮ": 4864,
      "ifa": 4865,
      "pes": 4866,
      "ration": 4867,
      "olù": 4868,
      "able": 4869,
      "commun": 4870,
      "gal": 4871,
      "lia": 4872,
      "kàn": 4873,
      "may": 4874,
      "tés": 4875,
      "Qu": 4876,
      "wer": 4877,
      "vid": 4878,
      "dogo": 4879,
      "ayé": 4880,
      "sor": 4881,
      "tical": 4882,
      "አው": 4883,
      "baya": 4884,
      "World": 4885,
      "ato": 4886,
      "trou": 4887,
      "100": 4888,
      "ofin": 4889,
      "Ban": 4890,
      "kazini": 4891,
      "ቆጣ": 4892,
      "የር": 4893,
      "liki": 4894,
      "exp": 4895,
      "prof": 4896,
      "Ex": 4897,
      "sá": 4898,
      "city": 4899,
      "Cor": 4900,
      "eur": 4901,
      "mafi": 4902,
      "gram": 4903,
      "dú": 4904,
      "jus": 4905,
      "wengi": 4906,
      "ቅዱስ": 4907,
      "sis": 4908,
      "ungo": 4909,
      "pò": 4910,
      "shin": 4911,
      "ath": 4912,
      "yoyin": 4913,
      "bal": 4914,
      "Ghana": 4915,
      "shine": 4916,
      "መሰ": 4917,
      "tex": 4918,
      "lea": 4919,
      "የት": 4920,
      "fuata": 4921,
      "between": 4922,
      "set": 4923,
      "ìwé": 4924,
      "ሔር": 4925,
      "2000": 4926,
      "amin": 4927,
      "faransa": 4928,
      "work": 4929,
      "huri": 4930,
      "ojo": 4931,
      "ences": 4932,
      "mawa": 4933,
      "ainsi": 4934,
      "ለች": 4935,
      "IS": 4936,
      "Kas": 4937,
      "takatifu": 4938,
      "nígbà": 4939,
      "ung": 4940,
      "ትና": 4941,
      "abo": 4942,
      "በተለ": 4943,
      "del": 4944,
      "ents": 4945,
      "School": 4946,
      "jour": 4947,
      "Austr": 4948,
      "Bur": 4949,
      "well": 4950,
      "eurs": 4951,
      "gon": 4952,
      "cep": 4953,
      "kab": 4954,
      "III": 4955,
      "zaidi": 4956,
      "volu": 4957,
      "art": 4958,
      "2020": 4959,
      "jami": 4960,
      "pris": 4961,
      "tàn": 4962,
      "RD": 4963,
      "ተከ": 4964,
      "fina": 4965,
      "ንዳ": 4966,
      "ጽሐ": 4967,
      "tics": 4968,
      "ትምህ": 4969,
      "where": 4970,
      "ib": 4971,
      "long": 4972,
      "pata": 4973,
      "በረ": 4974,
      "public": 4975,
      "Éta": 4976,
      "ያለው": 4977,
      "mala": 4978,
      "ville": 4979,
      "haka": 4980,
      "aribi": 4981,
      "hada": 4982,
      "ይል": 4983,
      "alla": 4984,
      "aga": 4985,
      "nchini": 4986,
      "ገብ": 4987,
      "pá": 4988,
      "Paris": 4989,
      "ind": 4990,
      "Muh": 4991,
      "dara": 4992,
      "English": 4993,
      "yasa": 4994,
      "zaji": 4995,
      "2002": 4996,
      "fore": 4997,
      "ቁጥር": 4998,
      "Mis": 4999,
      "tish": 5000,
      "hon": 5001,
      "ገኘ": 5002,
      "60": 5003,
      "kanin": 5004,
      "unci": 5005,
      "ሌሎች": 5006,
      "culture": 5007,
      "toba": 5008,
      "Are": 5009,
      "በላይ": 5010,
      "እንዲሁም": 5011,
      "ọdun": 5012,
      "àrùn": 5013,
      "kungiyar": 5014,
      "when": 5015,
      "ጀር": 5016,
      "asili": 5017,
      "partie": 5018,
      "jan": 5019,
      "ande": 5020,
      "koa": 5021,
      "very": 5022,
      "rough": 5023,
      "eno": 5024,
      "wí": 5025,
      "riki": 5026,
      "ስን": 5027,
      "ደቡብ": 5028,
      "alors": 5029,
      "fim": 5030,
      "//": 5031,
      "Dan": 5032,
      "musi": 5033,
      "où": 5034,
      "Wọ́n": 5035,
      "iso": 5036,
      "ony": 5037,
      "amfani": 5038,
      "position": 5039,
      "princip": 5040,
      "jet": 5041,
      "ዓለም": 5042,
      "rubu": 5043,
      "Muhamma": 5044,
      "Pau": 5045,
      "jini": 5046,
      "kil": 5047,
      "gbò": 5048,
      "également": 5049,
      "odun": 5050,
      "80": 5051,
      "Mon": 5052,
      "ንን": 5053,
      "cla": 5054,
      "pra": 5055,
      "San": 5056,
      "only": 5057,
      "istory": 5058,
      "lili": 5059,
      "pel": 5060,
      "ግራ": 5061,
      "Viungo": 5062,
      "ልጣ": 5063,
      "Willi": 5064,
      "Her": 5065,
      "ማዊ": 5066,
      "maka": 5067,
      "shiga": 5068,
      "መረ": 5069,
      "በቀ": 5070,
      "ashen": 5071,
      "ልም": 5072,
      "département": 5073,
      "Bel": 5074,
      "መጠ": 5075,
      "ባይ": 5076,
      "ከአ": 5077,
      "jiria": 5078,
      "York": 5079,
      "gasar": 5080,
      "nd": 5081,
      "tani": 5082,
      "ናዊ": 5083,
      "fic": 5084,
      "kọ́kọ́": 5085,
      "rì": 5086,
      "fol": 5087,
      "sannan": 5088,
      "William": 5089,
      "bel": 5090,
      "tou": 5091,
      "bíi": 5092,
      "1960": 5093,
      "aki": 5094,
      "ben": 5095,
      "ùbá": 5096,
      "ሜን": 5097,
      "Naijiria": 5098,
      "Lon": 5099,
      "rès": 5100,
      "የው": 5101,
      "français": 5102,
      "let": 5103,
      "ሲያ": 5104,
      "jia": 5105,
      "kasu": 5106,
      "31": 5107,
      "act": 5108,
      "bes": 5109,
      "ular": 5110,
      "ìnrin": 5111,
      "group": 5112,
      "ró": 5113,
      "uwa": 5114,
      "በሰ": 5115,
      "joba": 5116,
      "alisar": 5117,
      "ሳት": 5118,
      "ws": 5119,
      "shen": 5120,
      "1999": 5121,
      "bay": 5122,
      "écri": 5123,
      "ወጣ": 5124,
      "esa": 5125,
      "années": 5126,
      "ate": 5127,
      "ስታ": 5128,
      "ቦታ": 5129,
      "annin": 5130,
      "tarehe": 5131,
      "lori": 5132,
      "vita": 5133,
      "len": 5134,
      "uses": 5135,
      "rayu": 5136,
      "1990": 5137,
      "AS": 5138,
      "ባለው": 5139,
      "vant": 5140,
      "pati": 5141,
      "ọjọ́ìbí": 5142,
      "ገና": 5143,
      "African": 5144,
      "Sha": 5145,
      "kùn": 5146,
      "vé": 5147,
      "tokana": 5148,
      "May": 5149,
      "dín": 5150,
      "Yorùbá": 5151,
      "ፈረን": 5152,
      "Kus": 5153,
      "zer": 5154,
      "sílẹ̀": 5155,
      "Oktoba": 5156,
      "Kenya": 5157,
      "Kan": 5158,
      "hara": 5159,
      "htt": 5160,
      "urka": 5161,
      "vision": 5162,
      "kè": 5163,
      "syste": 5164,
      "région": 5165,
      "Italia": 5166,
      "wakati": 5167,
      "alle": 5168,
      "later": 5169,
      "በስ": 5170,
      "ዘር": 5171,
      "juu": 5172,
      "game": 5173,
      "wards": 5174,
      "there": 5175,
      "char": 5176,
      "nement": 5177,
      "vement": 5178,
      "hiyo": 5179,
      "National": 5180,
      "minist": 5181,
      "gina": 5182,
      "ẹ́r": 5183,
      "shir": 5184,
      "://": 5185,
      "ሚያ": 5186,
      "ከዚያ": 5187,
      "during": 5188,
      "titu": 5189,
      "bro": 5190,
      "years": 5191,
      "pinle": 5192,
      "mma": 5193,
      "Ci": 5194,
      "ungiyar": 5195,
      "መካከል": 5196,
      "hen": 5197,
      "ሥታት": 5198,
      "language": 5199,
      "ዎቹ": 5200,
      "lẹ": 5201,
      "ይታ": 5202,
      "line": 5203,
      "Saint": 5204,
      "then": 5205,
      "rika": 5206,
      "Wan": 5207,
      "ils": 5208,
      "Ujerumani": 5209,
      "vern": 5210,
      "South": 5211,
      "would": 5212,
      "gwamna": 5213,
      "Was": 5214,
      "ìmọ̀": 5215,
      "Mal": 5216,
      "wadan": 5217,
      "itwa": 5218,
      "Ap": 5219,
      "fini": 5220,
      "úkọ": 5221,
      "constitu": 5222,
      "ታላ": 5223,
      "off": 5224,
      "buga": 5225,
      "ጨረሻ": 5226,
      "Uingereza": 5227,
      "sama": 5228,
      "nípa": 5229,
      "gani": 5230,
      "kristo": 5231,
      "zwa": 5232,
      "ከመ": 5233,
      "ከነ": 5234,
      "speci": 5235,
      "take": 5236,
      "dévelop": 5237,
      "about": 5238,
      "ishwa": 5239,
      "August": 5240,
      "1980": 5241,
      "shekaru": 5242,
      "kira": 5243,
      "ked": 5244,
      "lat": 5245,
      "ship": 5246,
      "place": 5247,
      "bé": 5248,
      "ሴት": 5249,
      "በዘመነ": 5250,
      "était": 5251,
      "Kam": 5252,
      "cce": 5253,
      "ብራ": 5254,
      "esti": 5255,
      "daban": 5256,
      "clo": 5257,
      "pha": 5258,
      "sing": 5259,
      "après": 5260,
      "ሃይ": 5261,
      "iliyo": 5262,
      "jáde": 5263,
      "bert": 5264,
      "Gi": 5265,
      "offici": 5266,
      "jir": 5267,
      "forme": 5268,
      "lò": 5269,
      "van": 5270,
      "ino": 5271,
      "arch": 5272,
      "kẹ́": 5273,
      "pẹ": 5274,
      "people": 5275,
      "uis": 5276,
      "ìdì": 5277,
      "moder": 5278,
      "||": 5279,
      "70": 5280,
      "Dans": 5281,
      "ua": 5282,
      "ism": 5283,
      "organ": 5284,
      "premier": 5285,
      "film": 5286,
      "35": 5287,
      "Histori": 5288,
      "arac": 5289,
      "ged": 5290,
      "permet": 5291,
      "ሥነ": 5292,
      "sho": 5293,
      "mpire": 5294,
      "Gree": 5295,
      "maso": 5296,
      "lie": 5297,
      "ኖር": 5298,
      "yanzu": 5299,
      "kejì": 5300,
      "የቀ": 5301,
      "ẹgbẹ́": 5302,
      "karatun": 5303,
      "domin": 5304,
      "hanyar": 5305,
      "lí": 5306,
      "Amurka": 5307,
      "pọ": 5308,
      "gida": 5309,
      "très": 5310,
      "taka": 5311,
      "El": 5312,
      "Bra": 5313,
      "akan": 5314,
      "dou": 5315,
      "kia": 5316,
      "alif": 5317,
      "Indi": 5318,
      "usieurs": 5319,
      "Hai": 5320,
      "ètò": 5321,
      "ሰማ": 5322,
      "ilikuwa": 5323,
      "viron": 5324,
      "teri": 5325,
      "dini": 5326,
      "taire": 5327,
      "peu": 5328,
      "International": 5329,
      "ሰራ": 5330,
      "origin": 5331,
      "upande": 5332,
      "Kusini": 5333,
      "90": 5334,
      "ning": 5335,
      "እግዚ": 5336,
      "Hausa": 5337,
      "stu": 5338,
      "Lagos": 5339,
      "vit": 5340,
      "»,": 5341,
      "Katika": 5342,
      "Lat": 5343,
      "dhi": 5344,
      "kol": 5345,
      "situ": 5346,
      "ats": 5347,
      "cause": 5348,
      "upe": 5349,
      "yer": 5350,
      "loso": 5351,
      "Gr": 5352,
      "ክፍለ": 5353,
      "fà": 5354,
      "archi": 5355,
      "tif": 5356,
      "conomi": 5357,
      "wood": 5358,
      "Oc": 5359,
      "ìdí": 5360,
      "ትል": 5361,
      "alth": 5362,
      "Bayan": 5363,
      "AN": 5364,
      "Oro": 5365,
      "risti": 5366,
      "ìjọba": 5367,
      "ምክንያ": 5368,
      "Pet": 5369,
      "ደን": 5370,
      "gbọ́n": 5371,
      "ቆጣጠር": 5372,
      "opé": 5373,
      "air": 5374,
      "ste": 5375,
      "called": 5376,
      "ግዛት": 5377,
      "wato": 5378,
      "Ac": 5379,
      "ስብ": 5380,
      "ታይ": 5381,
      "ያው": 5382,
      "quel": 5383,
      "habi": 5384,
      "pendant": 5385,
      "abin": 5386,
      "Por": 5387,
      "nas": 5388,
      "yon": 5389,
      "ስና": 5390,
      "die": 5391,
      "185": 5392,
      "nyingi": 5393,
      "zed": 5394,
      "ይና": 5395,
      "became": 5396,
      "karne": 5397,
      "London": 5398,
      "jam": 5399,
      "ምዕ": 5400,
      "ison": 5401,
      "States": 5402,
      "Sh": 5403,
      "hat": 5404,
      "እግዚአብ": 5405,
      "huru": 5406,
      "ogra": 5407,
      "isiwa": 5408,
      "annan": 5409,
      "ምድር": 5410,
      "anza": 5411,
      "dun": 5412,
      "2001": 5413,
      "ሆነው": 5414,
      "ራሱ": 5415,
      "omin": 5416,
      "1998": 5417,
      "Kis": 5418,
      "Sun": 5419,
      "በል": 5420,
      "አት": 5421,
      "እጅ": 5422,
      "ደት": 5423,
      "mita": 5424,
      "lege": 5425,
      "ወሰ": 5426,
      "ይባ": 5427,
      "ፍራ": 5428,
      "አካባቢ": 5429,
      "ጆች": 5430,
      "nation": 5431,
      "45": 5432,
      "Ade": 5433,
      "wacce": 5434,
      "baki": 5435,
      "constru": 5436,
      "tsakanin": 5437,
      "ሽን": 5438,
      "ኞች": 5439,
      "kafin": 5440,
      "ከፍተኛ": 5441,
      "ስር": 5442,
      "kata": 5443,
      "walio": 5444,
      "British": 5445,
      "yal": 5446,
      "lah": 5447,
      "second": 5448,
      "Ah": 5449,
      "sàn": 5450,
      "milli": 5451,
      "rest": 5452,
      "yali": 5453,
      "ሊያ": 5454,
      "ጎር": 5455,
      "tains": 5456,
      "ety": 5457,
      "mission": 5458,
      "Bro": 5459,
      "Pol": 5460,
      "መሠ": 5461,
      "ገደ": 5462,
      "ṣẹ̀": 5463,
      "population": 5464,
      "gharibi": 5465,
      "fanin": 5466,
      "mic": 5467,
      "ግር": 5468,
      "lack": 5469,
      "sour": 5470,
      "ገለ": 5471,
      "kópa": 5472,
      "follow": 5473,
      "Pri": 5474,
      "ime": 5475,
      "isho": 5476,
      "kula": 5477,
      "wri": 5478,
      "sans": 5479,
      "Hen": 5480,
      "sabo": 5481,
      "gbó": 5482,
      "respon": 5483,
      "ክር": 5484,
      "til": 5485,
      "high": 5486,
      "ክርስቲያን": 5487,
      "cade": 5488,
      "ይገኛ": 5489,
      "tẹ́": 5490,
      "».": 5491,
      "Arewa": 5492,
      "Des": 5493,
      "through": 5494,
      "Jean": 5495,
      "graphie": 5496,
      "ojú": 5497,
      "ዶች": 5498,
      "1970": 5499,
      "diffé": 5500,
      "እግዚአብሔር": 5501,
      "ወንድ": 5502,
      "sud": 5503,
      "1991": 5504,
      "አንዱ": 5505,
      "sami": 5506,
      "ማስ": 5507,
      "leo": 5508,
      "Ele": 5509,
      "lors": 5510,
      "mto": 5511,
      "state": 5512,
      "Ag": 5513,
      "girma": 5514,
      "Cha": 5515,
      "36": 5516,
      "37": 5517,
      "Sy": 5518,
      "nord": 5519,
      "ss": 5520,
      "yá": 5521,
      "tamment": 5522,
      "CO": 5523,
      "Ste": 5524,
      "bles": 5525,
      "ይስ": 5526,
      "ጠቅ": 5527,
      "rela": 5528,
      "ጦርነት": 5529,
      "Rob": 5530,
      "ሩት": 5531,
      "ẹlẹ́": 5532,
      "urin": 5533,
      "ped": 5534,
      "danar": 5535,
      "ክፍል": 5536,
      "yọ": 5537,
      "1997": 5538,
      "mwandishi": 5539,
      "cl": 5540,
      "cis": 5541,
      "mwana": 5542,
      "pat": 5543,
      "ule": 5544,
      "ɗin": 5545,
      "ምና": 5546,
      "nature": 5547,
      "sauran": 5548,
      "biyar": 5549,
      "notamment": 5550,
      "እግር": 5551,
      "cours": 5552,
      "ባር": 5553,
      "...": 5554,
      "zikia": 5555,
      "ient": 5556,
      "ṣi": 5557,
      "sign": 5558,
      "እንደሚ": 5559,
      "gor": 5560,
      "hun": 5561,
      "ìpínlẹ̀": 5562,
      "appel": 5563,
      "mbalimbali": 5564,
      "ትምህርት": 5565,
      "የነበረ": 5566,
      "jùlọ": 5567,
      "sp": 5568,
      "ያዩ": 5569,
      "ግል": 5570,
      "dama": 5571,
      "urch": 5572,
      "lán": 5573,
      "formation": 5574,
      "ይች": 5575,
      "temps": 5576,
      "kék": 5577,
      "ሞት": 5578,
      "Lou": 5579,
      "guda": 5580,
      "wever": 5581,
      "kékeré": 5582,
      "Kano": 5583,
      "face": 5584,
      "Duniya": 5585,
      "épo": 5586,
      "ኒያ": 5587,
      "ካል": 5588,
      "Ser": 5589,
      "tso": 5590,
      "uta": 5591,
      "ላሉ": 5592,
      "veau": 5593,
      "plusieurs": 5594,
      "saboda": 5595,
      "መድ": 5596,
      "kiya": 5597,
      "ደም": 5598,
      "ingine": 5599,
      "huku": 5600,
      "techni": 5601,
      "kili": 5602,
      "gbègbè": 5603,
      "environ": 5604,
      "የስ": 5605,
      "exemp": 5606,
      "présent": 5607,
      ".,": 5608,
      "àà": 5609,
      "sui": 5610,
      "Maj": 5611,
      "première": 5612,
      "cations": 5613,
      "ደረገ": 5614,
      "dra": 5615,
      "suite": 5616,
      "irin": 5617,
      "gbegbe": 5618,
      "ይለ": 5619,
      "wasa": 5620,
      "ቀር": 5621,
      "ፍት": 5622,
      "table": 5623,
      "1993": 5624,
      "samar": 5625,
      "State": 5626,
      "Babban": 5627,
      "Ib": 5628,
      "point": 5629,
      "ọ̀rọ̀": 5630,
      "lára": 5631,
      "elect": 5632,
      "if": 5633,
      "ልክ": 5634,
      "arti": 5635,
      "Bor": 5636,
      "gidan": 5637,
      "moins": 5638,
      "http": 5639,
      "Of": 5640,
      "rap": 5641,
      "fiya": 5642,
      "langue": 5643,
      "influ": 5644,
      "Tara": 5645,
      "ቱም": 5646,
      "hom": 5647,
      "iki": 5648,
      "መጽሐ": 5649,
      "site": 5650,
      "memb": 5651,
      "try": 5652,
      "Ed": 5653,
      "Ilé": 5654,
      "dari": 5655,
      "አረ": 5656,
      "ጠራ": 5657,
      "anz": 5658,
      "lit": 5659,
      "sunan": 5660,
      "ẹni": 5661,
      "made": 5662,
      "kumbu": 5663,
      "አዲስ": 5664,
      "eli": 5665,
      "tabi": 5666,
      "kwamba": 5667,
      "thern": 5668,
      "ቀት": 5669,
      "ተራ": 5670,
      "ዕለ": 5671,
      "mand": 5672,
      "Ẹ̀": 5673,
      "Orodha": 5674,
      "ass": 5675,
      "digi": 5676,
      "Charles": 5677,
      "Es": 5678,
      "gari": 5679,
      "nuna": 5680,
      "ዮን": 5681,
      "የመጀመሪያ": 5682,
      "Ga": 5683,
      "አቆጣጠር": 5684,
      "being": 5685,
      "በተለይ": 5686,
      "ital": 5687,
      "gie": 5688,
      "Pre": 5689,
      "gent": 5690,
      "ring": 5691,
      "ƙasa": 5692,
      "ዋን": 5693,
      "three": 5694,
      "አፍ": 5695,
      "huo": 5696,
      "Gab": 5697,
      "Sar": 5698,
      "nà": 5699,
      "መጣ": 5700,
      "mwi": 5701,
      "láà": 5702,
      "ከተሞች": 5703,
      "Mat": 5704,
      "fau": 5705,
      "stand": 5706,
      "rench": 5707,
      "four": 5708,
      "óò": 5709,
      "ገባ": 5710,
      "aly": 5711,
      "ild": 5712,
      "Atlan": 5713,
      "Ur": 5714,
      "aji": 5715,
      "ipa": 5716,
      "ክስ": 5717,
      "China": 5718,
      "US": 5719,
      "abu": 5720,
      "gran": 5721,
      "ky": 5722,
      "yao": 5723,
      "ned": 5724,
      "vice": 5725,
      "Ulaya": 5726,
      "ጥንታዊ": 5727,
      "sababu": 5728,
      "Air": 5729,
      "lead": 5730,
      "ode": 5731,
      "ለን": 5732,
      "ሕዝብ": 5733,
      "life": 5734,
      "ግብጽ": 5735,
      "Alexander": 5736,
      "ጠቃ": 5737,
      "vient": 5738,
      "volution": 5739,
      "koloni": 5740,
      "1995": 5741,
      "kusini": 5742,
      "tor": 5743,
      "በጣ": 5744,
      "fito": 5745,
      "kokin": 5746,
      "City": 5747,
      "tangu": 5748,
      "gano": 5749,
      "haifi": 5750,
      "fanya": 5751,
      "Asia": 5752,
      "Fil": 5753,
      "Ré": 5754,
      "yun": 5755,
      "ድሞ": 5756,
      "ert": 5757,
      "And": 5758,
      "Ori": 5759,
      "fur": 5760,
      "hol": 5761,
      "year": 5762,
      "180": 5763,
      "Daga": 5764,
      "including": 5765,
      "()": 5766,
      "pti": 5767,
      "ላም": 5768,
      "1996": 5769,
      "large": 5770,
      "mulkin": 5771,
      "ምዕራ": 5772,
      "esi": 5773,
      "West": 5774,
      "ቀው": 5775,
      "ዳር": 5776,
      "physi": 5777,
      "via": 5778,
      "tanen": 5779,
      "Musul": 5780,
      "French": 5781,
      "lon": 5782,
      "ራስ": 5783,
      "ክለ": 5784,
      "possi": 5785,
      "étu": 5786,
      "በው": 5787,
      "sol": 5788,
      "ást": 5789,
      "ọ́ìdì": 5790,
      "ẹ́rọ́ìdì": 5791,
      "depuis": 5792,
      "late": 5793,
      "kee": 5794,
      "early": 5795,
      "አበባ": 5796,
      "bus": 5797,
      "ኩል": 5798,
      "ጥቅም": 5799,
      "184": 5800,
      "lands": 5801,
      "ástẹ́rọ́ìdì": 5802,
      "gí": 5803,
      "ማኖ": 5804,
      "term": 5805,
      "College": 5806,
      "important": 5807,
      "Roman": 5808,
      "FA": 5809,
      "ልዩ": 5810,
      "የሱ": 5811,
      "isation": 5812,
      "lic": 5813,
      "makarantar": 5814,
      "kh": 5815,
      "ker": 5816,
      "tribu": 5817,
      "philoso": 5818,
      "Us": 5819,
      "bùn": 5820,
      "jar": 5821,
      "በፊት": 5822,
      "ከሚ": 5823,
      "yenye": 5824,
      "Empire": 5825,
      "Lá": 5826,
      "sìn": 5827,
      "appe": 5828,
      "1994": 5829,
      "près": 5830,
      "these": 5831,
      "number": 5832,
      "Dis": 5833,
      "pou": 5834,
      "arabu": 5835,
      "anzia": 5836,
      "vernment": 5837,
      "play": 5838,
      "world": 5839,
      "January": 5840,
      "Ago": 5841,
      "samun": 5842,
      "syst": 5843,
      "ls": 5844,
      "ታው": 5845,
      "lam": 5846,
      "rọ": 5847,
      "hivyo": 5848,
      "vile": 5849,
      "Jamhuri": 5850,
      "Yo": 5851,
      "Èkó": 5852,
      "lake": 5853,
      "light": 5854,
      "thio": 5855,
      "ako": 5856,
      "ware": 5857,
      "filamu": 5858,
      "pace": 5859,
      "lished": 5860,
      "fen": 5861,
      "times": 5862,
      "toliki": 5863,
      "zon": 5864,
      "inu": 5865,
      "yayin": 5866,
      "James": 5867,
      "AD": 5868,
      "eld": 5869,
      "sions": 5870,
      "እነዚህ": 5871,
      "mbar": 5872,
      "ዓመታት": 5873,
      "roni": 5874,
      "ሱም": 5875,
      "ọ̀kan": 5876,
      "base": 5877,
      "differ": 5878,
      "bien": 5879,
      "የሰ": 5880,
      "Japan": 5881,
      "gùn": 5882,
      "ተኛው": 5883,
      "andi": 5884,
      "ወቅት": 5885,
      "test": 5886,
      "win": 5887,
      "ፈል": 5888,
      "sul": 5889,
      "paka": 5890,
      "mou": 5891,
      "ess": 5892,
      "cel": 5893,
      "1992": 5894,
      "found": 5895,
      "ric": 5896,
      "Allah": 5897,
      "ነገሥታት": 5898,
      "Jose": 5899,
      "Elle": 5900,
      "መጥ": 5901,
      "ቀጥ": 5902,
      "unda": 5903,
      "mocra": 5904,
      "warar": 5905,
      "méjì": 5906,
      "féren": 5907,
      "jusqu": 5908,
      "Ili": 5909,
      "በላ": 5910,
      "wajen": 5911,
      "associ": 5912,
      "iru": 5913,
      "ɗaya": 5914,
      "Tari": 5915,
      "sini": 5916,
      "rán": 5917,
      "ሳል": 5918,
      "ዮሐ": 5919,
      "manyan": 5920,
      "zaman": 5921,
      "91": 5922,
      "Ipinle": 5923,
      "ወል": 5924,
      "signi": 5925,
      "hel": 5926,
      "ganda": 5927,
      "Christi": 5928,
      "September": 5929,
      "34": 5930,
      "Pu": 5931,
      "ሮፓ": 5932,
      "ennes": 5933,
      "ellement": 5934,
      "Ufaransa": 5935,
      "rus": 5936,
      "rìn": 5937,
      "mash": 5938,
      "semble": 5939,
      "jou": 5940,
      "uba": 5941,
      "ገኝ": 5942,
      "auto": 5943,
      "ref": 5944,
      "ይህም": 5945,
      "Zi": 5946,
      "atta": 5947,
      "rà": 5948,
      "cons": 5949,
      "ሪካዊ": 5950,
      "leurs": 5951,
      "cember": 5952,
      "contre": 5953,
      "George": 5954,
      "tẹ": 5955,
      "laire": 5956,
      "them": 5957,
      "በግ": 5958,
      "ውል": 5959,
      "níbi": 5960,
      "አይነት": 5961,
      "Lit": 5962,
      "kya": 5963,
      "Oṣù": 5964,
      "mbe": 5965,
      "ረተ": 5966,
      "mag": 5967,
      "trois": 5968,
      "Gwa": 5969,
      "ቷል": 5970,
      "ojoibi": 5971,
      "lau": 5972,
      "weza": 5973,
      "Muhammad": 5974,
      "ctive": 5975,
      "tent": 5976,
      "koma": 5977,
      "hukum": 5978,
      "type": 5979,
      "Greek": 5980,
      "peti": 5981,
      "ህል": 5982,
      "ባቸው": 5983,
      "inayo": 5984,
      "lánẹ́": 5985,
      "ei": 5986,
      "ንና": 5987,
      "ያም": 5988,
      "ouver": 5989,
      "ጀርመን": 5990,
      "Cette": 5991,
      "ሬት": 5992,
      "alité": 5993,
      "Shugaban": 5994,
      "ማዕ": 5995,
      "ኳስ": 5996,
      "December": 5997,
      "bayyana": 5998,
      "mati": 5999,
      "common": 6000,
      "Cam": 6001,
      "inté": 6002,
      "cial": 6003,
      "Party": 6004,
      "Dur": 6005,
      "Lan": 6006,
      "mie": 6007,
      "ford": 6008,
      "1989": 6009,
      "ዮሐንስ": 6010,
      "Awọn": 6011,
      "Bas": 6012,
      "Han": 6013,
      "wed": 6014,
      "refu": 6015,
      "ambayo": 6016,
      "ananan": 6017,
      "lánẹ́tì": 6018,
      "Dar": 6019,
      "Mor": 6020,
      "Mash": 6021,
      "ስፋ": 6022,
      "ዕለት": 6023,
      "ìgbàjá": 6024,
      "Yar": 6025,
      "ከለ": 6026,
      "ጠረ": 6027,
      "tak": 6028,
      "naa": 6029,
      "ẹ̀yẹ": 6030,
      "yukan": 6031,
      "rend": 6032,
      "appli": 6033,
      "endelea": 6034,
      "ila": 6035,
      "ero": 6036,
      "omen": 6037,
      "Nigerian": 6038,
      "nis": 6039,
      "pose": 6040,
      "mark": 6041,
      "prési": 6042,
      "Kad": 6043,
      "TV": 6044,
      "fá": 6045,
      "የግ": 6046,
      "crip": 6047,
      "Januari": 6048,
      "Agosti": 6049,
      "39": 6050,
      "yadda": 6051,
      "sive": 6052,
      "wadanda": 6053,
      "wara": 6054,
      "ጀመርያ": 6055,
      "Cent": 6056,
      "plánẹ́tì": 6057,
      "አድር": 6058,
      "ያዘ": 6059,
      "wahili": 6060,
      "refer": 6061,
      "kudu": 6062,
      "fut": 6063,
      "ashara": 6064,
      "ይባላል": 6065,
      "see": 6066,
      "Historia": 6067,
      "tẹ̀": 6068,
      "jari": 6069,
      "sù": 6070,
      "ሙሉ": 6071,
      "aliye": 6072,
      "Paul": 6073,
      "ግድም": 6074,
      "appro": 6075,
      "kaskazini": 6076,
      "ተን": 6077,
      "ፕሬ": 6078,
      "bẹ́ẹ̀": 6079,
      "ely": 6080,
      "less": 6081,
      "Anti": 6082,
      "1987": 6083,
      "while": 6084,
      "Mei": 6085,
      "tary": 6086,
      "langues": 6087,
      "classi": 6088,
      "Ver": 6089,
      "aṣ": 6090,
      "orúkọ": 6091,
      "kuta": 6092,
      "ject": 6093,
      "North": 6094,
      "ብት": 6095,
      "ይን": 6096,
      "chagu": 6097,
      "serikali": 6098,
      "By": 6099,
      "Yuni": 6100,
      "cat": 6101,
      "ogun": 6102,
      "ውድ": 6103,
      "Jac": 6104,
      "pal": 6105,
      "ሪዎች": 6106,
      "program": 6107,
      "የተለ": 6108,
      "Ay": 6109,
      "lor": 6110,
      "tus": 6111,
      "ገበ": 6112,
      "islamu": 6113,
      "death": 6114,
      "Lugha": 6115,
      "kilom": 6116,
      "akwai": 6117,
      "sẹ̀": 6118,
      "tokea": 6119,
      "certain": 6120,
      "major": 6121,
      "አስተዳ": 6122,
      "ዓት": 6123,
      "የሆነ": 6124,
      "Anna": 6125,
      "àmì": 6126,
      "both": 6127,
      "Mai": 6128,
      "acti": 6129,
      "kand": 6130,
      "ብሔ": 6131,
      "ቴዎ": 6132,
      "amman": 6133,
      "Julai": 6134,
      "ሠራ": 6135,
      "እም": 6136,
      "ፈው": 6137,
      "maeneo": 6138,
      "ፈረንሳይ": 6139,
      "AM": 6140,
      "Cro": 6141,
      "rá": 6142,
      "ሰን": 6143,
      "mat": 6144,
      "ምንም": 6145,
      "Ogun": 6146,
      "ደው": 6147,
      "siyasa": 6148,
      "logi": 6149,
      "fai": 6150,
      "exemple": 6151,
      "Prin": 6152,
      "rie": 6153,
      "same": 6154,
      "97": 6155,
      "Nchi": 6156,
      "akọ": 6157,
      "aika": 6158,
      "Val": 6159,
      "ላክ": 6160,
      "autre": 6161,
      "gudanar": 6162,
      "monde": 6163,
      "Gen": 6164,
      "Juni": 6165,
      "PC": 6166,
      "iko": 6167,
      "እው": 6168,
      "AC": 6169,
      "bò": 6170,
      "fasi": 6171,
      "jeshi": 6172,
      "ህዝብ": 6173,
      "መት": 6174,
      "ታሪካዊ": 6175,
      "ጨማሪ": 6176,
      "ings": 6177,
      "suke": 6178,
      "1976": 6179,
      "lógún": 6180,
      "ቲካ": 6181,
      "zation": 6182,
      "rín": 6183,
      "1985": 6184,
      "vait": 6185,
      "አቀ": 6186,
      "kir": 6187,
      "bio": 6188,
      "gaji": 6189,
      "ገኙ": 6190,
      "elf": 6191,
      "fication": 6192,
      "Machi": 6193,
      "1975": 6194,
      "dies": 6195,
      "gbajú": 6196,
      "Mtakatifu": 6197,
      "Sch": 6198,
      "dic": 6199,
      "32": 6200,
      "dó": 6201,
      "anada": 6202,
      "1988": 6203,
      "Abdu": 6204,
      "Mer": 6205,
      "peri": 6206,
      "pania": 6207,
      "tto": 6208,
      "ጋል": 6209,
      "eria": 6210,
      "Union": 6211,
      "kazi": 6212,
      "before": 6213,
      "Aare": 6214,
      "Ile": 6215,
      "zil": 6216,
      "ርክ": 6217,
      "nées": 6218,
      "Mashariki": 6219,
      "ኢን": 6220,
      "ጥናት": 6221,
      "sanya": 6222,
      "1986": 6223,
      "1966": 6224,
      "ìtọ́kasí": 6225,
      "ላዊ": 6226,
      "ይታወ": 6227,
      "manu": 6228,
      "Fizikia": 6229,
      "አሜሪካ": 6230,
      "stra": 6231,
      "በጣም": 6232,
      "BN": 6233,
      "ውም": 6234,
      "plan": 6235,
      "1982": 6236,
      "born": 6237,
      "Ear": 6238,
      "fuat": 6239,
      "1967": 6240,
      "ምክንያት": 6241,
      "ît": 6242,
      "አማ": 6243,
      "gizaji": 6244,
      "buil": 6245,
      "ራቸው": 6246,
      "ይት": 6247,
      "book": 6248,
      "Fin": 6249,
      "VI": 6250,
      "dri": 6251,
      "ène": 6252,
      "élé": 6253,
      "ofu": 6254,
      "November": 6255,
      "wípé": 6256,
      "Kaduna": 6257,
      "ደል": 6258,
      "yayi": 6259,
      "Wakristo": 6260,
      "cally": 6261,
      "effe": 6262,
      "avant": 6263,
      "''": 6264,
      "FI": 6265,
      "rú": 6266,
      "score": 6267,
      "ህን": 6268,
      "issance": 6269,
      "dered": 6270,
      "1979": 6271,
      "March": 6272,
      "Awards": 6273,
      "Tra": 6274,
      "ሰር": 6275,
      "star": 6276,
      "Awon": 6277,
      "Bal": 6278,
      "Orí": 6279,
      "ባሕ": 6280,
      "aire": 6281,
      "ዎችን": 6282,
      "ደረጃ": 6283,
      "tuna": 6284,
      "ልማ": 6285,
      "lais": 6286,
      "1983": 6287,
      "75": 6288,
      "mur": 6289,
      "ሳብ": 6290,
      "ena": 6291,
      "liwa": 6292,
      "ouest": 6293,
      "gabatar": 6294,
      "February": 6295,
      "Octo": 6296,
      "(\"": 6297,
      "igne": 6298,
      "mfalme": 6299,
      "መነ": 6300,
      "ried": 6301,
      "umba": 6302,
      "Tazama": 6303,
      "indus": 6304,
      "gg": 6305,
      "የኤ": 6306,
      "38": 6307,
      "ምህ": 6308,
      "hoto": 6309,
      "ዓመቱ": 6310,
      "Tiba": 6311,
      "RD1": 6312,
      "shu": 6313,
      "like": 6314,
      "ets": 6315,
      "መንገድ": 6316,
      "Vo": 6317,
      "ሮማ": 6318,
      "ድል": 6319,
      "tumia": 6320,
      "yote": 6321,
      "historia": 6322,
      "system": 6323,
      "Ibi": 6324,
      "ie": 6325,
      "ዮች": 6326,
      "biashara": 6327,
      "against": 6328,
      "\")": 6329,
      "groupe": 6330,
      "family": 6331,
      "karibu": 6332,
      "Zam": 6333,
      "bú": 6334,
      "àkọ́kọ́": 6335,
      "anar": 6336,
      "pele": 6337,
      "wanci": 6338,
      "derni": 6339,
      "1984": 6340,
      "dára": 6341,
      "souvent": 6342,
      "64": 6343,
      "mò": 6344,
      "ልጆች": 6345,
      "isme": 6346,
      "ative": 6347,
      "actu": 6348,
      "tena": 6349,
      "ወንዝ": 6350,
      "omini": 6351,
      "kina": 6352,
      "October": 6353,
      "tọ̀": 6354,
      "አሉ": 6355,
      "ዛሬ": 6356,
      "waje": 6357,
      "maza": 6358,
      "sever": 6359,
      "burg": 6360,
      "www": 6361,
      "conne": 6362,
      "ይገኛል": 6363,
      "Sal": 6364,
      "የካ": 6365,
      "Dese": 6366,
      "inde": 6367,
      "yamma": 6368,
      "ይወት": 6369,
      "ነጻ": 6370,
      "partir": 6371,
      "sm": 6372,
      "zungu": 6373,
      "ምስ": 6374,
      "area": 6375,
      "huko": 6376,
      "July": 6377,
      "Den": 6378,
      "jé": 6379,
      "የበ": 6380,
      "baba": 6381,
      "ages": 6382,
      "ide": 6383,
      "rer": 6384,
      "àgbà": 6385,
      "ሙዚ": 6386,
      "arewa": 6387,
      "Rais": 6388,
      "based": 6389,
      "lọ́wọ́": 6390,
      "Fa": 6391,
      "Hol": 6392,
      "Ita": 6393,
      "mìn": 6394,
      "net": 6395,
      "ቶስ": 6396,
      "ከት": 6397,
      "esse": 6398,
      "érica": 6399,
      "ሃይማኖ": 6400,
      "Desemba": 6401,
      "Stu": 6402,
      "hé": 6403,
      "Lib": 6404,
      "birni": 6405,
      "kammala": 6406,
      "continu": 6407,
      "États": 6408,
      "ndani": 6409,
      "Za": 6410,
      "ሳዊ": 6411,
      "cated": 6412,
      "Aprili": 6413,
      "sake": 6414,
      "1950": 6415,
      "ይህን": 6416,
      "Son": 6417,
      "agbègbè": 6418,
      "kù": 6419,
      "kuanzia": 6420,
      "Legas": 6421,
      "እንዲህ": 6422,
      "wọ̀n": 6423,
      "German": 6424,
      "jirgin": 6425,
      "Wat": 6426,
      "agbá": 6427,
      "ṣu": 6428,
      "nia": 6429,
      "padà": 6430,
      "Rayu": 6431,
      "Oba": 6432,
      "uko": 6433,
      "ተወ": 6434,
      "orun": 6435,
      "terri": 6436,
      "présen": 6437,
      "could": 6438,
      "Joseph": 6439,
      "só": 6440,
      "sal": 6441,
      "visiwa": 6442,
      "IV": 6443,
      "Mil": 6444,
      "mama": 6445,
      "istes": 6446,
      "Septemba": 6447,
      "Gar": 6448,
      "ልብ": 6449,
      "cir": 6450,
      "conna": 6451,
      "1981": 6452,
      "bari": 6453,
      "1974": 6454,
      "ርድ": 6455,
      "velopment": 6456,
      "hàn": 6457,
      "pp": 6458,
      "ተብሎ": 6459,
      "identi": 6460,
      "hukumar": 6461,
      "Del": 6462,
      "gori": 6463,
      "ንቲ": 6464,
      "አፈ": 6465,
      "መልክ": 6466,
      "Ethio": 6467,
      "phe": 6468,
      "àgbé": 6469,
      "ጎን": 6470,
      "cording": 6471,
      "trodu": 6472,
      "Mji": 6473,
      "adu": 6474,
      "hann": 6475,
      "በቅ": 6476,
      "ብረት": 6477,
      "inte": 6478,
      "bour": 6479,
      "chake": 6480,
      "grande": 6481,
      "East": 6482,
      "ሉቃ": 6483,
      "መው": 6484,
      "የአሜሪካ": 6485,
      "David": 6486,
      "bility": 6487,
      "ume": 6488,
      "ashi": 6489,
      "atre": 6490,
      "kundi": 6491,
      "kwaikwa": 6492,
      "ቋንቋዎች": 6493,
      "Louis": 6494,
      "Bat": 6495,
      "Ak": 6496,
      "Acade": 6497,
      "Áf": 6498,
      "ራሉ": 6499,
      "ፓር": 6500,
      "due": 6501,
      "come": 6502,
      "exam": 6503,
      "appar": 6504,
      "April": 6505,
      "Mto": 6506,
      "Pla": 6507,
      "Whi": 6508,
      "agba": 6509,
      "soit": 6510,
      "33": 6511,
      "bìnrin": 6512,
      "cole": 6513,
      "Tun": 6514,
      "ination": 6515,
      "exi": 6516,
      "1969": 6517,
      "tron": 6518,
      "መንግስት": 6519,
      "production": 6520,
      "UN": 6521,
      "We": 6522,
      "iye": 6523,
      "ሚኒ": 6524,
      "እየ": 6525,
      "99": 6526,
      "awa": 6527,
      "ይቀ": 6528,
      "laka": 6529,
      "ombe": 6530,
      "simp": 6531,
      "ልጣን": 6532,
      "plu": 6533,
      "contro": 6534,
      "fano": 6535,
      "Gir": 6536,
      "Ìtọ́kasí": 6537,
      "usta": 6538,
      "kuli": 6539,
      "now": 6540,
      "ስለዚህ": 6541,
      "jọba": 6542,
      "ṣèlú": 6543,
      "développe": 6544,
      "ሊክ": 6545,
      "fix": 6546,
      "différent": 6547,
      "Dé": 6548,
      "ለምሳሌ": 6549,
      "1971": 6550,
      "court": 6551,
      "ISBN": 6552,
      "gur": 6553,
      "ሀገ": 6554,
      "prote": 6555,
      "donc": 6556,
      "politique": 6557,
      "kọ̀ọ́": 6558,
      "ወረዳ": 6559,
      "yara": 6560,
      "ìmù": 6561,
      "reas": 6562,
      "እንጂ": 6563,
      "1977": 6564,
      "commer": 6565,
      "mwigizaji": 6566,
      "uhuru": 6567,
      "àì": 6568,
      "ፖለ": 6569,
      "tofau": 6570,
      "cian": 6571,
      "father": 6572,
      "Februari": 6573,
      "Àà": 6574,
      "kutokana": 6575,
      "kila": 6576,
      "fia": 6577,
      "ọ̀pọ̀": 6578,
      "wote": 6579,
      "AT": 6580,
      "cès": 6581,
      "ልግ": 6582,
      "ረብ": 6583,
      "ጉዳ": 6584,
      "gage": 6585,
      "tural": 6586,
      "fannin": 6587,
      "gis": 6588,
      "ደጋ": 6589,
      "conf": 6590,
      "compu": 6591,
      "berg": 6592,
      "1892": 6593,
      "halar": 6594,
      "mun": 6595,
      "alli": 6596,
      "did": 6597,
      "atri": 6598,
      "ሉቃስ": 6599,
      "48": 6600,
      "June": 6601,
      "አዳ": 6602,
      "tumi": 6603,
      "mutanen": 6604,
      "communi": 6605,
      "Itali": 6606,
      "Che": 6607,
      "Fir": 6608,
      "òrùn": 6609,
      "ብለው": 6610,
      "ጽሑ": 6611,
      "maine": 6612,
      "multi": 6613,
      "Novemba": 6614,
      "badan": 6615,
      "quent": 6616,
      "maru": 6617,
      "1972": 6618,
      "Kemia": 6619,
      "ado": 6620,
      "እያ": 6621,
      "ṣí": 6622,
      "near": 6623,
      "ruwa": 6624,
      "syn": 6625,
      "Don": 6626,
      "በሽ": 6627,
      "ዋቂ": 6628,
      "américa": 6629,
      "kiyar": 6630,
      "ìtàn": 6631,
      "alu": 6632,
      "until": 6633,
      "fice": 6634,
      "change": 6635,
      "musul": 6636,
      "àwon": 6637,
      "époque": 6638,
      "tofauti": 6639,
      "ኖሩ": 6640,
      "pekee": 6641,
      "publique": 6642,
      "mutum": 6643,
      "pelu": 6644,
      "band": 6645,
      "encore": 6646,
      "asalin": 6647,
      "India": 6648,
      "juli": 6649,
      "kilomita": 6650,
      "moni": 6651,
      "ête": 6652,
      "ƙi": 6653,
      "ስሙ": 6654,
      "ተፈ": 6655,
      "ይዘ": 6656,
      "rais": 6657,
      "1978": 6658,
      "አለቃ": 6659,
      "génér": 6660,
      "diale": 6661,
      "connu": 6662,
      "wilaya": 6663,
      "ከተማው": 6664,
      "History": 6665,
      "If": 6666,
      "ኖስ": 6667,
      "ating": 6668,
      "auth": 6669,
      "aient": 6670,
      "Bahari": 6671,
      "zamani": 6672,
      "68": 6673,
      "Award": 6674,
      "Cas": 6675,
      "karamar": 6676,
      "Majalisar": 6677,
      "Pas": 6678,
      "prom": 6679,
      "yóò": 6680,
      "ón": 6681,
      "አሁን": 6682,
      "jeo": 6683,
      "Russi": 6684,
      "ረም": 6685,
      "ፈለ": 6686,
      "Kẹ": 6687,
      "mace": 6688,
      "gbon": 6689,
      "resul": 6690,
      "lée": 6691,
      "vely": 6692,
      "jí": 6693,
      "ተና": 6694,
      "ጥሩ": 6695,
      "arri": 6696,
      "pita": 6697,
      "asiasa": 6698,
      "estern": 6699,
      "tia": 6700,
      "tous": 6701,
      "huwa": 6702,
      "Institu": 6703,
      "የእስ": 6704,
      "ṣeré": 6705,
      "kashin": 6706,
      "unt": 6707,
      "rés": 6708,
      "version": 6709,
      "Agba": 6710,
      "Jina": 6711,
      "ቻይና": 6712,
      "አላ": 6713,
      "ጮች": 6714,
      "back": 6715,
      "died": 6716,
      "yika": 6717,
      "exist": 6718,
      "ነገሮች": 6719,
      "Austri": 6720,
      "Gro": 6721,
      "Tho": 6722,
      "male": 6723,
      "መዝ": 6724,
      "ኔታ": 6725,
      "tsarin": 6726,
      "Pen": 6727,
      "መጨረሻ": 6728,
      "1965": 6729,
      "1945": 6730,
      "élect": 6731,
      "Waka": 6732,
      "utawala": 6733,
      "ወች": 6734,
      "oth": 6735,
      "estab": 6736,
      "though": 6737,
      "dit": 6738,
      "mean": 6739,
      "ature": 6740,
      "famili": 6741,
      "igba": 6742,
      "tá": 6743,
      "anga": 6744,
      "nau": 6745,
      "Gra": 6746,
      "Tana": 6747,
      "dù": 6748,
      "sc": 6749,
      "àkó": 6750,
      "ረዳ": 6751,
      "ሮስ": 6752,
      "ፍል": 6753,
      "mataifa": 6754,
      "scienti": 6755,
      "Sara": 6756,
      "በም": 6757,
      "date": 6758,
      "often": 6759,
      "dif": 6760,
      "እንስ": 6761,
      "rasmi": 6762,
      "ፖለቲካ": 6763,
      "Pres": 6764,
      "ait": 6765,
      "num": 6766,
      "maa": 6767,
      "የሚለው": 6768,
      "considé": 6769,
      "My": 6770,
      "Tare": 6771,
      "œu": 6772,
      "Lin": 6773,
      "lus": 6774,
      "nal": 6775,
      "ሶች": 6776,
      "Tai": 6777,
      "diri": 6778,
      "People": 6779,
      "rayuwa": 6780,
      "Black": 6781,
      "Kats": 6782,
      "sas": 6783,
      "power": 6784,
      "goma": 6785,
      "Soci": 6786,
      "Phili": 6787,
      "cteur": 6788,
      "òun": 6789,
      "1973": 6790,
      "around": 6791,
      "ball": 6792,
      "cam": 6793,
      "ola": 6794,
      "ዋቢ": 6795,
      "because": 6796,
      "1962": 6797,
      "Arabi": 6798,
      "ዝርዝር": 6799,
      "trouve": 6800,
      "ix": 6801,
      "vation": 6802,
      "bit": 6803,
      "karni": 6804,
      "tures": 6805,
      "aláì": 6806,
      "modern": 6807,
      "Academy": 6808,
      "Katsina": 6809,
      "Une": 6810,
      "dge": 6811,
      "gene": 6812,
      "ድርጅ": 6813,
      "Kir": 6814,
      "|-": 6815,
      "መጀመርያ": 6816,
      "manin": 6817,
      "action": 6818,
      "emplo": 6819,
      "47": 6820,
      "nent": 6821,
      "sani": 6822,
      "የኢ": 6823,
      "introdu": 6824,
      "ident": 6825,
      "selon": 6826,
      "digiri": 6827,
      "Fer": 6828,
      "nel": 6829,
      "ማል": 6830,
      "ይሆ": 6831,
      "ories": 6832,
      "Robert": 6833,
      "hukumomin": 6834,
      "esha": 6835,
      "bat": 6836,
      "faff": 6837,
      "1963": 6838,
      "Bibli": 6839,
      "fonction": 6840,
      "europé": 6841,
      "bou": 6842,
      "own": 6843,
      "yay": 6844,
      "celle": 6845,
      "illes": 6846,
      "koso": 6847,
      "After": 6848,
      "nínu": 6849,
      "መጽሐፍ": 6850,
      "dd": 6851,
      "eux": 6852,
      "ሕዝ": 6853,
      "58": 6854,
      "500": 6855,
      "Mala": 6856,
      "Pr": 6857,
      "ሎት": 6858,
      "ክሉ": 6859,
      "ditions": 6860,
      "antes": 6861,
      "Christian": 6862,
      "tru": 6863,
      "former": 6864,
      "ilimi": 6865,
      "present": 6866,
      "binci": 6867,
      "particuli": 6868,
      "Portu": 6869,
      "Juli": 6870,
      "wezi": 6871,
      "hor": 6872,
      "ento": 6873,
      "lejin": 6874,
      "lashe": 6875,
      "celui": 6876,
      "ẹ̀ẹ́": 6877,
      "gions": 6878,
      "However": 6879,
      "ክርስቶስ": 6880,
      "Apple": 6881,
      "ig": 6882,
      "ባሉ": 6883,
      "mak": 6884,
      "dian": 6885,
      "pop": 6886,
      "jap": 6887,
      "All": 6888,
      "ports": 6889,
      "አንዳ": 6890,
      "Dola": 6891,
      "musamman": 6892,
      "several": 6893,
      "iwe": 6894,
      "mkubwa": 6895,
      "mach": 6896,
      "1968": 6897,
      "amuziki": 6898,
      "Faransa": 6899,
      "française": 6900,
      "Latin": 6901,
      "kur": 6902,
      "sè": 6903,
      "litta": 6904,
      "amb": 6905,
      "side": 6906,
      "fied": 6907,
      "histoire": 6908,
      "1964": 6909,
      "enda": 6910,
      "tie": 6911,
      "rage": 6912,
      "aye": 6913,
      "yn": 6914,
      "ال": 6915,
      "ተዋል": 6916,
      "ነቱ": 6917,
      "ከሰ": 6918,
      "gaban": 6919,
      "field": 6920,
      "pub": 6921,
      "Siku": 6922,
      "wón": 6923,
      "Adé": 6924,
      "Apol": 6925,
      "Ter": 6926,
      "እኔ": 6927,
      "each": 6928,
      "tafi": 6929,
      "order": 6930,
      "cei": 6931,
      "biya": 6932,
      "itu": 6933,
      "rée": 6934,
      "origine": 6935,
      "Kiingereza": 6936,
      "julo": 6937,
      "word": 6938,
      "አመት": 6939,
      "Ibadan": 6940,
      "née": 6941,
      "tú": 6942,
      "ደራ": 6943,
      "ፋት": 6944,
      "terme": 6945,
      "usion": 6946,
      "kamfanin": 6947,
      "selu": 6948,
      "ẹlẹ́bùn": 6949,
      "jum": 6950,
      "bahari": 6951,
      "administ": 6952,
      "Church": 6953,
      ")፣": 6954,
      "Ath": 6955,
      "cô": 6956,
      "ሁኔታ": 6957,
      "lier": 6958,
      "town": 6959,
      "cident": 6960,
      "posed": 6961,
      "pẹlu": 6962,
      "sinimá": 6963,
      "Sci": 6964,
      "Sco": 6965,
      "hindi": 6966,
      "great": 6967,
      "series": 6968,
      "Vol": 6969,
      "Yamma": 6970,
      "référen": 6971,
      "wiki": 6972,
      "dunia": 6973,
      "ròyìn": 6974,
      "ይችላል": 6975,
      "Cal": 6976,
      "Sin": 6977,
      "Wil": 6978,
      "gres": 6979,
      "ቢሆን": 6980,
      "thro": 6981,
      "ality": 6982,
      "1930": 6983,
      "kwaikwayo": 6984,
      "Fasi": 6985,
      "ijoba": 6986,
      "ሁኑ": 6987,
      "ካር": 6988,
      "oft": 6989,
      "fíìmù": 6990,
      "distri": 6991,
      "small": 6992,
      "Ààrẹ": 6993,
      "Kuna": 6994,
      "ço": 6995,
      "ሀገር": 6996,
      "taima": 6997,
      "magharibi": 6998,
      "bata": 6999,
      "radi": 7000,
      "say": 7001,
      "darí": 7002,
      "Olu": 7003,
      "Oló": 7004,
      "ራን": 7005,
      "ተነ": 7006,
      "ከር": 7007,
      "ፈን": 7008,
      "ṣiṣẹ́": 7009,
      "yoyi": 7010,
      "trava": 7011,
      "dhaa": 7012,
      "98": 7013,
      "ቀበ": 7014,
      "ጠው": 7015,
      "hawa": 7016,
      "ስላ": 7017,
      "ዲያ": 7018,
      "unge": 7019,
      "lement": 7020,
      "miji": 7021,
      "faire": 7022,
      "መንፈ": 7023,
      "mbili": 7024,
      "tsi": 7025,
      "inten": 7026,
      "urt": 7027,
      "arab": 7028,
      "1961": 7029,
      "Mutane": 7030,
      "colle": 7031,
      "gbajúmọ̀": 7032,
      "oko": 7033,
      "ቅድ": 7034,
      "law": 7035,
      "ciki": 7036,
      "wájú": 7037,
      "idadi": 7038,
      "système": 7039,
      "Fasihi": 7040,
      "hala": 7041,
      "idi": 7042,
      "aru": 7043,
      "nada": 7044,
      "150": 7045,
      "sus": 7046,
      "ensemble": 7047,
      "child": 7048,
      "አይደ": 7049,
      "Australia": 7050,
      "influence": 7051,
      "Jer": 7052,
      "spé": 7053,
      "ፍጥ": 7054,
      "ante": 7055,
      "gbọ̀n": 7056,
      "contra": 7057,
      "jagor": 7058,
      "pàá": 7059,
      "Mkoa": 7060,
      "zin": 7061,
      "ተሰ": 7062,
      "rik": 7063,
      "kiri": 7064,
      "ouv": 7065,
      "lywood": 7066,
      "Kanisa": 7067,
      "eff": 7068,
      "gouver": 7069,
      "mist": 7070,
      "መሆኑ": 7071,
      "Japon": 7072,
      "période": 7073,
      "État": 7074,
      "BBC": 7075,
      "God": 7076,
      "Ye": 7077,
      "አለው": 7078,
      "inú": 7079,
      "albu": 7080,
      "taires": 7081,
      "kuji": 7082,
      "keo": 7083,
      "aure": 7084,
      "karkashin": 7085,
      "haifin": 7086,
      "ayyukan": 7087,
      "duniani": 7088,
      "Kiswahili": 7089,
      "55": 7090,
      "Ama": 7091,
      "avoir": 7092,
      "cles": 7093,
      "sant": 7094,
      "አያ": 7095,
      "ints": 7096,
      "lambar": 7097,
      "jours": 7098,
      "ሙዚቃ": 7099,
      "history": 7100,
      "kyau": 7101,
      "éra": 7102,
      "ቁር": 7103,
      "ያህል": 7104,
      "ston": 7105,
      "hukuma": 7106,
      "human": 7107,
      "ማርቆ": 7108,
      "shirye": 7109,
      "(«": 7110,
      "torí": 7111,
      "ቻቸው": 7112,
      "kayan": 7113,
      "ington": 7114,
      "adar": 7115,
      "ራዊት": 7116,
      "julikana": 7117,
      "Kongo": 7118,
      "iṣẹ": 7119,
      "ista": 7120,
      "ẹ̀yà": 7121,
      "exten": 7122,
      "cord": 7123,
      "occ": 7124,
      "Kananan": 7125,
      "Lẹ́": 7126,
      "Lab": 7127,
      "Mungu": 7128,
      "sara": 7129,
      "instru": 7130,
      "cell": 7131,
      "በአንድ": 7132,
      "lẹ́yìn": 7133,
      "ይስጥ": 7134,
      "Press": 7135,
      "Watu": 7136,
      "ሳን": 7137,
      "ያሉ": 7138,
      "ined": 7139,
      "tut": 7140,
      "guerre": 7141,
      "Albert": 7142,
      "ንጉስ": 7143,
      "Marejeo": 7144,
      "lokaci": 7145,
      "patikana": 7146,
      "ቴዎስ": 7147,
      "ዘጋ": 7148,
      "ọn": 7149,
      "yabo": 7150,
      "charac": 7151,
      "gbẹ": 7152,
      "ምንጮች": 7153,
      "Kuma": 7154,
      "hydro": 7155,
      "example": 7156,
      "Ol": 7157,
      "»)": 7158,
      "ገዛ": 7159,
      "ጌታ": 7160,
      "sty": 7161,
      "initi": 7162,
      "yansi": 7163,
      "tsohon": 7164,
      "Egy": 7165,
      "ace": 7166,
      "bisa": 7167,
      "ic": 7168,
      "ታዋቂ": 7169,
      "ነጋ": 7170,
      "alter": 7171,
      "dance": 7172,
      "international": 7173,
      "million": 7174,
      "mashariki": 7175,
      "faffun": 7176,
      "Fe": 7177,
      "Isa": 7178,
      "òfin": 7179,
      "ንት": 7180,
      "yama": 7181,
      "tat": 7182,
      "tely": 7183,
      "using": 7184,
      "ghts": 7185,
      "science": 7186,
      "nationale": 7187,
      "ES": 7188,
      "Os": 7189,
      "py": 7190,
      "የላ": 7191,
      "ths": 7192,
      "bawa": 7193,
      "diyo": 7194,
      "kifo": 7195,
      "kwallon": 7196,
      "government": 7197,
      "shirin": 7198,
      "occu": 7199,
      "dec": 7200,
      "aria": 7201,
      "contr": 7202,
      "tradition": 7203,
      "River": 7204,
      "ምዕራብ": 7205,
      "Que": 7206,
      "ማረ": 7207,
      "concer": 7208,
      "Benin": 7209,
      "finai": 7210,
      "ographie": 7211,
      "ፈላ": 7212,
      "web": 7213,
      "ongozi": 7214,
      "ሥርወ": 7215,
      "lì": 7216,
      "solu": 7217,
      "ché": 7218,
      "badi": 7219,
      "sum": 7220,
      "They": 7221,
      "pili": 7222,
      "yuka": 7223,
      "lọpọ̀": 7224,
      "since": 7225,
      "Haifaffun": 7226,
      "possible": 7227,
      "67": 7228,
      "Musi": 7229,
      "hata": 7230,
      "የተሰ": 7231,
      "année": 7232,
      "Kudu": 7233,
      "Bí": 7234,
      "Pal": 7235,
      "aci": 7236,
      "መሪ": 7237,
      "ፕሮ": 7238,
      "termin": 7239,
      "zote": 7240,
      "Associ": 7241,
      "95": 7242,
      "Aba": 7243,
      "ambao": 7244,
      "Grand": 7245,
      "Open": 7246,
      "apa": 7247,
      "tres": 7248,
      "ወገን": 7249,
      "ery": 7250,
      "named": 7251,
      "2021": 7252,
      "descri": 7253,
      "hudu": 7254,
      "cover": 7255,
      "1959": 7256,
      "Miji": 7257,
      "Can": 7258,
      "hesa": 7259,
      "teau": 7260,
      "kuhusu": 7261,
      "mot": 7262,
      "Mac": 7263,
      "code": 7264,
      "expres": 7265,
      "jerin": 7266,
      "nyingine": 7267,
      "success": 7268,
      "period": 7269,
      "japona": 7270,
      "One": 7271,
      "pur": 7272,
      "ይጠ": 7273,
      "ጋራ": 7274,
      "ditional": 7275,
      "head": 7276,
      "ney": 7277,
      "tée": 7278,
      "Cham": 7279,
      "ፈርዖ": 7280,
      "ባህር": 7281,
      "Tri": 7282,
      "አሸ": 7283,
      "ይሰ": 7284,
      "ይመስ": 7285,
      "ጣት": 7286,
      "gbọ́": 7287,
      "huwar": 7288,
      "range": 7289,
      "oloselu": 7290,
      "agri": 7291,
      "ብርሃ": 7292,
      "kùnrin": 7293,
      "different": 7294,
      "Bre": 7295,
      "Uganda": 7296,
      "ng": 7297,
      "መሳ": 7298,
      "There": 7299,
      "Henry": 7300,
      ");": 7301,
      "Tran": 7302,
      "njia": 7303,
      "tori": 7304,
      "économi": 7305,
      "gawa": 7306,
      "1957": 7307,
      "eniyan": 7308,
      "oun": 7309,
      "wit": 7310,
      "ስቴ": 7311,
      "ችው": 7312,
      "sage": 7313,
      "ክፍላ": 7314,
      "chumi": 7315,
      "ctu": 7316,
      "mari": 7317,
      "ሩን": 7318,
      "ፎች": 7319,
      "ፓን": 7320,
      "mam": 7321,
      "masa": 7322,
      "ducation": 7323,
      "በተጨማሪ": 7324,
      "société": 7325,
      "correspon": 7326,
      "Thomas": 7327,
      "Phi": 7328,
      "ambi": 7329,
      "Martin": 7330,
      "አገልግ": 7331,
      "ታላቅ": 7332,
      "archite": 7333,
      "Musulunci": 7334,
      "bed": 7335,
      "oma": 7336,
      "ister": 7337,
      "kabila": 7338,
      "lieu": 7339,
      "Mary": 7340,
      "Royal": 7341,
      "Pour": 7342,
      "nombreux": 7343,
      "industri": 7344,
      "yayyun": 7345,
      "Day": 7346,
      "mée": 7347,
      "ብላ": 7348,
      "takar": 7349,
      "mad": 7350,
      "himu": 7351,
      "key": 7352,
      "peup": 7353,
      "Andre": 7354,
      "kunan": 7355,
      "Ethiopia": 7356,
      "Kai": 7357,
      "Moh": 7358,
      "በዚያ": 7359,
      "ወታ": 7360,
      "antu": 7361,
      "zake": 7362,
      "following": 7363,
      "mini": 7364,
      "ôle": 7365,
      "ዕል": 7366,
      "waɗan": 7367,
      "region": 7368,
      "process": 7369,
      "provin": 7370,
      "1958": 7371,
      "mìnà": 7372,
      "Cy": 7373,
      "Ebun": 7374,
      "Sala": 7375,
      "fre": 7376,
      "pwani": 7377,
      "ላማ": 7378,
      "ambo": 7379,
      "rich": 7380,
      "super": 7381,
      "began": 7382,
      "majalisar": 7383,
      "Peter": 7384,
      "hand": 7385,
      "kistan": 7386,
      "cept": 7387,
      "fili": 7388,
      "réalis": 7389,
      "languages": 7390,
      "ness": 7391,
      "mulki": 7392,
      "Ces": 7393,
      "Wannan": 7394,
      "bọ́": 7395,
      "mnan": 7396,
      "bakar": 7397,
      "irs": 7398,
      "fort": 7399,
      "ቶችን": 7400,
      "Micha": 7401,
      "ብሪ": 7402,
      "tage": 7403,
      "lub": 7404,
      "1952": 7405,
      "certains": 7406,
      "Love": 7407,
      "ዚሁ": 7408,
      "የታ": 7409,
      "ጋይ": 7410,
      "alpha": 7411,
      "siè": 7412,
      "Rayayyun": 7413,
      "Kingdom": 7414,
      "Mexi": 7415,
      "fron": 7416,
      "gá": 7417,
      "ሳቸው": 7418,
      "ባን": 7419,
      "ናን": 7420,
      "ገል": 7421,
      "tatt": 7422,
      "forces": 7423,
      "asaha": 7424,
      "masana": 7425,
      "Book": 7426,
      "ception": 7427,
      "eyi": 7428,
      "will": 7429,
      "እየተ": 7430,
      "ዝም": 7431,
      "ession": 7432,
      "sement": 7433,
      "début": 7434,
      "1940": 7435,
      "ዘመናዊ": 7436,
      "kawaida": 7437,
      "Kaskazini": 7438,
      "መሠረት": 7439,
      "Omo": 7440,
      "ጥሮ": 7441,
      "décou": 7442,
      "1948": 7443,
      "kusan": 7444,
      "England": 7445,
      "Musa": 7446,
      "mìí": 7447,
      "ሜትር": 7448,
      "kita": 7449,
      "zabe": 7450,
      "formed": 7451,
      "gues": 7452,
      "érie": 7453,
      "tẹ́lẹ̀": 7454,
      "BA": 7455,
      "bẹ": 7456,
      "jẹ̀": 7457,
      "ፍሬ": 7458,
      "devient": 7459,
      "astron": 7460,
      "cia": 7461,
      "karatu": 7462,
      "ጣልያን": 7463,
      "Cali": 7464,
      "DP": 7465,
      "ómìnà": 7466,
      "ሲን": 7467,
      "ከ1892": 7468,
      "team": 7469,
      "Wilaya": 7470,
      "88": 7471,
      "Iṣẹ́": 7472,
      "Ibra": 7473,
      "Jos": 7474,
      "Kin": 7475,
      "ep": 7476,
      "ika": 7477,
      "zan": 7478,
      "taken": 7479,
      "dam": 7480,
      "muhimu": 7481,
      "Makar": 7482,
      "Baba": 7483,
      "ishop": 7484,
      "complex": 7485,
      "kiti": 7486,
      "Republic": 7487,
      "Sel": 7488,
      "owo": 7489,
      "yaani": 7490,
      "Tangu": 7491,
      "wenyewe": 7492,
      "Maria": 7493,
      "waɗanda": 7494,
      "toni": 7495,
      "መራ": 7496,
      "ኮች": 7497,
      "artic": 7498,
      "hau": 7499,
      "oper": 7500,
      "ice": 7501,
      "kis": 7502,
      "sto": 7503,
      "ሎን": 7504,
      "ማቴዎስ": 7505,
      "ashe": 7506,
      "léwò": 7507,
      "ilimin": 7508,
      "Rich": 7509,
      "view": 7510,
      "ሆኖም": 7511,
      "Apollo": 7512,
      "Eli": 7513,
      "ìgb": 7514,
      "ሏል": 7515,
      "wide": 7516,
      "shar": 7517,
      "asia": 7518,
      "include": 7519,
      "Hispania": 7520,
      "Philip": 7521,
      "Mé": 7522,
      "nam": 7523,
      "1920": 7524,
      "ንጉሠ": 7525,
      "olórin": 7526,
      "ይሆናል": 7527,
      "Michael": 7528,
      "FM": 7529,
      "event": 7530,
      "gist": 7531,
      "ቀል": 7532,
      "vide": 7533,
      "Kiarabu": 7534,
      "ision": 7535,
      "gener": 7536,
      "larg": 7537,
      "coup": 7538,
      "Tech": 7539,
      "ography": 7540,
      "gíga": 7541,
      "magana": 7542,
      "46": 7543,
      "Best": 7544,
      "CC": 7545,
      "cing": 7546,
      "ላለ": 7547,
      "ማህ": 7548,
      "ፈት": 7549,
      "médi": 7550,
      "ological": 7551,
      "Fed": 7552,
      "gẹ": 7553,
      "sà": 7554,
      "velo": 7555,
      "mwanamuziki": 7556,
      "ወለደ": 7557,
      "57": 7558,
      "gali": 7559,
      "lina": 7560,
      "rubuta": 7561,
      "estival": 7562,
      "ፓርቲ": 7563,
      "/)": 7564,
      "mfu": 7565,
      "cité": 7566,
      "olú": 7567,
      "farkon": 7568,
      "Unis": 7569,
      "territoire": 7570,
      "Wo": 7571,
      "wari": 7572,
      "ዙሪያ": 7573,
      "mains": 7574,
      "signe": 7575,
      "nigba": 7576,
      "rise": 7577,
      "Isra": 7578,
      "développement": 7579,
      "mort": 7580,
      "île": 7581,
      "read": 7582,
      "vices": 7583,
      "direct": 7584,
      "kisiwa": 7585,
      "መቀ": 7586,
      "vili": 7587,
      "ነገሠ": 7588,
      "1947": 7589,
      "Ibrahim": 7590,
      "Sau": 7591,
      "mana": 7592,
      "onge": 7593,
      "tient": 7594,
      "nie": 7595,
      "harshen": 7596,
      "obìnrin": 7597,
      "America": 7598,
      "milar": 7599,
      "dàn": 7600,
      "fle": 7601,
      "our": 7602,
      "ዩኒ": 7603,
      "tas": 7604,
      "Kal": 7605,
      "rist": 7606,
      "ነሳ": 7607,
      "የነበሩ": 7608,
      "organi": 7609,
      "rele": 7610,
      "mea": 7611,
      "pedia": 7612,
      "አካል": 7613,
      "ይታወቃል": 7614,
      "àgbéléwò": 7615,
      "sch": 7616,
      "vy": 7617,
      "በእ": 7618,
      "urar": 7619,
      "Democra": 7620,
      "1956": 7621,
      "Sud": 7622,
      "famille": 7623,
      "litté": 7624,
      "በእንግሊዝኛ": 7625,
      "jimbo": 7626,
      "gia": 7627,
      "ክልል": 7628,
      "ድረግ": 7629,
      "Kwalejin": 7630,
      "ዕለታት": 7631,
      "96": 7632,
      "bina": 7633,
      "ከበ": 7634,
      "ዘን": 7635,
      "ዮር": 7636,
      "ones": 7637,
      "deven": 7638,
      "lations": 7639,
      "ilẹ": 7640,
      "force": 7641,
      "case": 7642,
      "spéci": 7643,
      "mìíràn": 7644,
      "Alá": 7645,
      "Spe": 7646,
      "avait": 7647,
      "kusa": 7648,
      "von": 7649,
      "fique": 7650,
      "proper": 7651,
      "Inde": 7652,
      "halarci": 7653,
      "አንዳንድ": 7654,
      "42": 7655,
      "Cer": 7656,
      "kale": 7657,
      "enta": 7658,
      "dat": 7659,
      "labor": 7660,
      "stant": 7661,
      "compos": 7662,
      "ctur": 7663,
      "Wakati": 7664,
      "talla": 7665,
      "First": 7666,
      "Tarehe": 7667,
      "You": 7668,
      "iyyar": 7669,
      "ባዊ": 7670,
      "ይላል": 7671,
      "allow": 7672,
      "org": 7673,
      "sia": 7674,
      "gaz": 7675,
      "taniya": 7676,
      "400": 7677,
      "Act": 7678,
      "NA": 7679,
      "Nu": 7680,
      "bó": 7681,
      "rún": 7682,
      "respe": 7683,
      "Pierre": 7684,
      "gwamnatin": 7685,
      "Abi": 7686,
      "Oly": 7687,
      "wing": 7688,
      "በየ": 7689,
      "ካም": 7690,
      "ገዳ": 7691,
      "water": 7692,
      "illa": 7693,
      "sex": 7694,
      "dée": 7695,
      "lọ́dún": 7696,
      "Abubakar": 7697,
      "Bank": 7698,
      "ገኘው": 7699,
      "Pop": 7700,
      "agbegbe": 7701,
      "muni": 7702,
      "ከብ": 7703,
      "roi": 7704,
      "local": 7705,
      "kanta": 7706,
      "inea": 7707,
      "shida": 7708,
      "Alakoso": 7709,
      "cutar": 7710,
      "kta": 7711,
      "ìdá": 7712,
      "ቀናት": 7713,
      "ግጥ": 7714,
      "wao": 7715,
      "quer": 7716,
      "neman": 7717,
      "zaben": 7718,
      "sosai": 7719,
      "comple": 7720,
      "craft": 7721,
      "tarihi": 7722,
      "capit": 7723,
      "explo": 7724,
      "toute": 7725,
      "Ful": 7726,
      "clima": 7727,
      "xy": 7728,
      "damu": 7729,
      "stan": 7730,
      "blo": 7731,
      "ƙin": 7732,
      "ሥላ": 7733,
      "አጥ": 7734,
      "astern": 7735,
      "kiran": 7736,
      "condu": 7737,
      "open": 7738,
      "itace": 7739,
      "support": 7740,
      "kún": 7741,
      "what": 7742,
      "retur": 7743,
      "olojia": 7744,
      "centre": 7745,
      "Pope": 7746,
      "considered": 7747,
      "ààyè": 7748,
      "Mara": 7749,
      "Mos": 7750,
      "ቀረ": 7751,
      "ጠና": 7752,
      "unin": 7753,
      "umma": 7754,
      "within": 7755,
      "prise": 7756,
      "ባሕር": 7757,
      "cli": 7758,
      "ipò": 7759,
      "ስያ": 7760,
      "የህ": 7761,
      "cham": 7762,
      "six": 7763,
      "160": 7764,
      "particular": 7765,
      "kasuwanci": 7766,
      "shirya": 7767,
      "sources": 7768,
      "abubu": 7769,
      "የሱስ": 7770,
      "mm": 7771,
      "sasa": 7772,
      "ọwọ́": 7773,
      "siya": 7774,
      "hairi": 7775,
      "ጽሑፍ": 7776,
      "Ai": 7777,
      "fs": 7778,
      "rẹ́": 7779,
      "zz": 7780,
      "መጻ": 7781,
      "ሦስት": 7782,
      "ቀዳ": 7783,
      "tiki": 7784,
      "ald": 7785,
      "Ze": 7786,
      "ations": 7787,
      "dọ́": 7788,
      "étant": 7789,
      "issu": 7790,
      "unga": 7791,
      "gau": 7792,
      "verse": 7793,
      "Coun": 7794,
      "pouvoir": 7795,
      "Annabi": 7796,
      "56": 7797,
      "Yana": 7798,
      "ግባ": 7799,
      "mada": 7800,
      "lafiya": 7801,
      "hui": 7802,
      "sìkò": 7803,
      "pande": 7804,
      "European": 7805,
      "album": 7806,
      "Ari": 7807,
      "Umoja": 7808,
      "bis": 7809,
      "Ọjọ́": 7810,
      "data": 7811,
      "muda": 7812,
      "dancin": 7813,
      "tance": 7814,
      "ደብረ": 7815,
      "300": 7816,
      "92": 7817,
      "eth": 7818,
      "uwan": 7819,
      "ወዳ": 7820,
      "ወጥ": 7821,
      "Ọdún": 7822,
      "dinin": 7823,
      "vuti": 7824,
      "ሁሉም": 7825,
      "Tarihi": 7826,
      "AR": 7827,
      "Mul": 7828,
      "Sul": 7829,
      "መቶ": 7830,
      "ቨር": 7831,
      "Nijar": 7832,
      "ማርያም": 7833,
      "porte": 7834,
      "1954": 7835,
      "Japani": 7836,
      "የተለያዩ": 7837,
      "ከራ": 7838,
      "territ": 7839,
      "amia": 7840,
      "Guinea": 7841,
      "Abuja": 7842,
      "ፕሬዚ": 7843,
      "(;": 7844,
      "ae": 7845,
      "rashin": 7846,
      "ምናል": 7847,
      "ሻዎች": 7848,
      "ገው": 7849,
      "ጥረ": 7850,
      "dubu": 7851,
      "ates": 7852,
      "pain": 7853,
      "current": 7854,
      "nouveau": 7855,
      "87": 7856,
      "Mc": 7857,
      "idan": 7858,
      "school": 7859,
      "éc": 7860,
      "ማች": 7861,
      "ቲን": 7862,
      "የሰው": 7863,
      "ẹyẹ": 7864,
      "right": 7865,
      "rai": 7866,
      "1951": 7867,
      "Frank": 7868,
      "zinazo": 7869,
      "Great": 7870,
      "aláìsí": 7871,
      "Association": 7872,
      "équi": 7873,
      "ማይ": 7874,
      "ማጣ": 7875,
      "አራ": 7876,
      "indé": 7877,
      "riban": 7878,
      "those": 7879,
      "ክርስቲያ": 7880,
      "Adam": 7881,
      "Gé": 7882,
      "Gau": 7883,
      "Jana": 7884,
      "Rome": 7885,
      "gs": 7886,
      "ram": 7887,
      "sens": 7888,
      "ugu": 7889,
      "éli": 7890,
      "ተዋ": 7891,
      "meji": 7892,
      "cate": 7893,
      "capa": 7894,
      "quelques": 7895,
      "Mali": 7896,
      "Ola": 7897,
      "Vir": 7898,
      "àkọ́": 7899,
      "ልደት": 7900,
      "ውሮፓ": 7901,
      "የሚል": 7902,
      "Argent": 7903,
      "House": 7904,
      "zilizo": 7905,
      "dhidi": 7906,
      "OS": 7907,
      "iṣ": 7908,
      "vale": 7909,
      "ƙungiyar": 7910,
      "የሩ": 7911,
      "among": 7912,
      "design": 7913,
      "vidu": 7914,
      "tàkì": 7915,
      "kẹta": 7916,
      "የምት": 7917,
      "ጠቀም": 7918,
      "ሃይማኖት": 7919,
      "Cong": 7920,
      "Sat": 7921,
      "opo": 7922,
      "ɗu": 7923,
      "gation": 7924,
      "Francis": 7925,
      "poly": 7926,
      "High": 7927,
      "général": 7928,
      "የነበረው": 7929,
      "ይመስላል": 7930,
      "ሥላሴ": 7931,
      "nology": 7932,
      "ancin": 7933,
      "maduni": 7934,
      "kadhaa": 7935,
      "unded": 7936,
      "biwa": 7937,
      "beau": 7938,
      "chama": 7939,
      "masara": 7940,
      "ttle": 7941,
      "tants": 7942,
      "étaient": 7943,
      "country": 7944,
      "aracté": 7945,
      "Premi": 7946,
      "Eu": 7947,
      "bs": 7948,
      "vée": 7949,
      "ሄድ": 7950,
      "saka": 7951,
      "ctures": 7952,
      "body": 7953,
      "ṣùgbọ́n": 7954,
      "Medi": 7955,
      "እርሱ": 7956,
      "(),": 7957,
      "86": 7958,
      "Olú": 7959,
      "katoliki": 7960,
      "1918": 7961,
      "bijin": 7962,
      "appear": 7963,
      "président": 7964,
      "Áfríkà": 7965,
      "Glo": 7966,
      "husi": 7967,
      "jó": 7968,
      "ላን": 7969,
      "ጠን": 7970,
      "bayar": 7971,
      "obser": 7972,
      "177": 7973,
      "center": 7974,
      "አምላክ": 7975,
      "ማስታወ": 7976,
      "Battle": 7977,
      "44": 7978,
      "Sai": 7979,
      "wù": 7980,
      "ታቸውን": 7981,
      "እድ": 7982,
      "lique": 7983,
      "ገንዘ": 7984,
      "ጠቃላይ": 7985,
      "score0": 7986,
      "Sikukuu": 7987,
      "Kara": 7988,
      "dal": 7989,
      "eau": 7990,
      "ሌክት": 7991,
      "ense": 7992,
      "matic": 7993,
      "bihi": 7994,
      "zao": 7995,
      "str": 7996,
      "obin": 7997,
      "osere": 7998,
      "yaume": 7999,
      "anzibar": 8000,
      "እጅግ": 8001,
      "anzishwa": 8002,
      "Gwamna": 8003,
      "control": 8004,
      "Cibi": 8005,
      "Ham": 8006,
      "Nas": 8007,
      "OL": 8008,
      "mjini": 8009,
      "anna": 8010,
      "engine": 8011,
      "tatu": 8012,
      "mation": 8013,
      "lewa": 8014,
      "last": 8015,
      "sile": 8016,
      "kiwa": 8017,
      "post": 8018,
      "keji": 8019,
      "zaɓ": 8020,
      "défini": 8021,
      "mbers": 8022,
      "ordina": 8023,
      "military": 8024,
      "signifi": 8025,
      "Seri": 8026,
      "Tro": 8027,
      "Zanzibar": 8028,
      "kwe": 8029,
      "llo": 8030,
      "xes": 8031,
      "ስቱ": 8032,
      "ተለ": 8033,
      "mann": 8034,
      "1939": 8035,
      "bàdàn": 8036,
      "AL": 8037,
      "Ani": 8038,
      "Est": 8039,
      "òṣeré": 8040,
      "ታን": 8041,
      "recei": 8042,
      "etc": 8043,
      "mpya": 8044,
      "érique": 8045,
      "Agbegbe": 8046,
      "Er": 8047,
      "pù": 8048,
      "ዮስ": 8049,
      "informa": 8050,
      "aso": 8051,
      "meth": 8052,
      "télé": 8053,
      "Tanbihi": 8054,
      "source": 8055,
      "Austria": 8056,
      "=\"": 8057,
      "Yoh": 8058,
      "gré": 8059,
      "owó": 8060,
      "ይቻ": 8061,
      "ደስ": 8062,
      "magne": 8063,
      "እንቅ": 8064,
      "miliyan": 8065,
      "milioni": 8066,
      "iness": 8067,
      "Moham": 8068,
      "Fu": 8069,
      "deri": 8070,
      "mfuata": 8071,
      "og": 8072,
      "atten": 8073,
      "sons": 8074,
      "service": 8075,
      "1955": 8076,
      "veloped": 8077,
      "Hau": 8078,
      "Sing": 8079,
      "jò": 8080,
      "soft": 8081,
      "wurin": 8082,
      "Òun": 8083,
      "በደቡብ": 8084,
      "አባል": 8085,
      "developed": 8086,
      "jiji": 8087,
      "short": 8088,
      "ሳይሆን": 8089,
      "mwanasiasa": 8090,
      "tarihin": 8091,
      "dúgbò": 8092,
      "Sir": 8093,
      "Vita": 8094,
      "mtu": 8095,
      "úsù": 8096,
      "ላው": 8097,
      "ዓይ": 8098,
      "ዳግ": 8099,
      "ገነ": 8100,
      "arra": 8101,
      "along": 8102,
      "tayi": 8103,
      "conser": 8104,
      "Intern": 8105,
      "ነትን": 8106,
      "pher": 8107,
      "tsawon": 8108,
      "Second": 8109,
      "1953": 8110,
      "1949": 8111,
      "pàtàkì": 8112,
      "chaguzi": 8113,
      "Richard": 8114,
      "Nuwa": 8115,
      "kwen": 8116,
      "ሴቶች": 8117,
      "ቀድሞ": 8118,
      "ብል": 8119,
      "bakwai": 8120,
      "civil": 8121,
      "giriki": 8122,
      "langage": 8123,
      "cription": 8124,
      "présente": 8125,
      "Califor": 8126,
      "Huku": 8127,
      "ìròyìn": 8128,
      "የነ": 8129,
      "chel": 8130,
      "mary": 8131,
      "babbar": 8132,
      "Island": 8133,
      "barai": 8134,
      "Institute": 8135,
      "dol": 8136,
      "em": 8137,
      "pli": 8138,
      "velle": 8139,
      "ዋት": 8140,
      "labarai": 8141,
      "haki": 8142,
      "round": 8143,
      "parfois": 8144,
      "Yoruba": 8145,
      "ìbílẹ̀": 8146,
      "ክርስት": 8147,
      "tattalin": 8148,
      "Sur": 8149,
      "cara": 8150,
      "dọ̀": 8151,
      "kare": 8152,
      "zari": 8153,
      "ባብ": 8154,
      "አሳ": 8155,
      "mathe": 8156,
      "maana": 8157,
      "seule": 8158,
      "nítorí": 8159,
      "menti": 8160,
      "peuvent": 8161,
      "Bau": 8162,
      "Hon": 8163,
      "Sol": 8164,
      "oli": 8165,
      "plo": 8166,
      "የሕ": 8167,
      "alààyè": 8168,
      "cks": 8169,
      "premiers": 8170,
      "gbáyé": 8171,
      "ወርቅ": 8172,
      "Rayuwar": 8173,
      "marubu": 8174,
      "Cap": 8175,
      "Wash": 8176,
      "kere": 8177,
      "ፖሊ": 8178,
      "Ọba": 8179,
      "taba": 8180,
      "kill": 8181,
      "ingia": 8182,
      "Life": 8183,
      "yàwó": 8184,
      "linguis": 8185,
      "kabisa": 8186,
      "FIFA": 8187,
      "aina": 8188,
      "ፍና": 8189,
      "papa": 8190,
      "much": 8191,
      "mbre": 8192,
      "Notes": 8193,
      "Karamar": 8194,
      "ሁለተኛው": 8195,
      "85": 8196,
      "Women": 8197,
      "fus": 8198,
      "ፋል": 8199,
      "représent": 8200,
      "omb": 8201,
      "kimanin": 8202,
      "Armen": 8203,
      "still": 8204,
      "kasashen": 8205,
      "93": 8206,
      "Dou": 8207,
      "Py": 8208,
      "ተቋ": 8209,
      "ክብ": 8210,
      "indo": 8211,
      "eror": 8212,
      "damar": 8213,
      "rier": 8214,
      "1914": 8215,
      "pagne": 8216,
      "gua": 8217,
      "déc": 8218,
      "ghan": 8219,
      "የተባለው": 8220,
      "individu": 8221,
      "works": 8222,
      "Mutu": 8223,
      "company": 8224,
      "Angel": 8225,
      "መረጃ": 8226,
      "መጠን": 8227,
      "CE": 8228,
      "gọ́": 8229,
      "ìl": 8230,
      "አቶ": 8231,
      "ṣì": 8232,
      "information": 8233,
      "given": 8234,
      "asion": 8235,
      "general": 8236,
      "ጀመረ": 8237,
      "ወለዱ": 8238,
      "የመጀመሪያው": 8239,
      "Some": 8240,
      "kw": 8241,
      "photo": 8242,
      "በኩል": 8243,
      "አድ": 8244,
      "media": 8245,
      "hankali": 8246,
      "milima": 8247,
      "These": 8248,
      "Orílẹ̀": 8249,
      "Hukumar": 8250,
      "Ijoba": 8251,
      "tè": 8252,
      "èmes": 8253,
      "ቢት": 8254,
      "ኮን": 8255,
      "ዕዝ": 8256,
      "የኦ": 8257,
      "Niger": 8258,
      "Maris": 8259,
      "1946": 8260,
      "lines": 8261,
      "Film": 8262,
      "Trans": 8263,
      "Olympi": 8264,
      "Nord": 8265,
      "fẹ": 8266,
      "ሞክ": 8267,
      "ያዊ": 8268,
      "ዳል": 8269,
      "jira": 8270,
      "iran": 8271,
      "Mayu": 8272,
      "objet": 8273,
      "vention": 8274,
      "Turai": 8275,
      "nombreuses": 8276,
      "jamii": 8277,
      "original": 8278,
      "Land": 8279,
      "tala": 8280,
      "መዋ": 8281,
      "የን": 8282,
      "ይሄ": 8283,
      "ግሪክ": 8284,
      "ondo": 8285,
      "ering": 8286,
      "rapi": 8287,
      "cesse": 8288,
      "የተክሉ": 8289,
      "በትን": 8290,
      "takriban": 8291,
      "established": 8292,
      "Gómìnà": 8293,
      "ksi": 8294,
      "ሪቱ": 8295,
      "tives": 8296,
      "isari": 8297,
      "dawo": 8298,
      "lated": 8299,
      "took": 8300,
      "kewa": 8301,
      "በመሆኑ": 8302,
      "olóṣèlú": 8303,
      "gwamnati": 8304,
      "ọ̀pọ̀lọpọ̀": 8305,
      "dò": 8306,
      "ሚካ": 8307,
      "ቲክ": 8308,
      "ቶቹ": 8309,
      "ጥያ": 8310,
      "ways": 8311,
      "gbẹ̀": 8312,
      "Lakini": 8313,
      "ስለሆነ": 8314,
      "mwisho": 8315,
      "nasara": 8316,
      "even": 8317,
      "ሦር": 8318,
      "በሌላ": 8319,
      "አየር": 8320,
      "ገኛ": 8321,
      "fika": 8322,
      "ités": 8323,
      "gbara": 8324,
      "papọ̀": 8325,
      "gege": 8326,
      "ziri": 8327,
      "ayant": 8328,
      "ologique": 8329,
      "wakil": 8330,
      "):": 8331,
      "Pra": 8332,
      "rù": 8333,
      "rand": 8334,
      "bac": 8335,
      "rian": 8336,
      "miyya": 8337,
      "እንኳ": 8338,
      "apá": 8339,
      "onimo": 8340,
      "ምንጭ": 8341,
      "versité": 8342,
      "adop": 8343,
      "CN": 8344,
      "Fab": 8345,
      "Shuga": 8346,
      "caracté": 8347,
      "ming": 8348,
      "vor": 8349,
      "zane": 8350,
      "ማት": 8351,
      "ካሌ": 8352,
      "ግለ": 8353,
      "ጠል": 8354,
      "ጡት": 8355,
      "mir": 8356,
      "Lea": 8357,
      "pendent": 8358,
      "1944": 8359,
      "himman": 8360,
      "ritten": 8361,
      "ትልቅ": 8362,
      "66": 8363,
      "Has": 8364,
      "mkoa": 8365,
      "pẹ́": 8366,
      "በታ": 8367,
      "ዲህ": 8368,
      "ፊደል": 8369,
      "wadda": 8370,
      "thus": 8371,
      "mapo": 8372,
      "remp": 8373,
      "recher": 8374,
      "alipo": 8375,
      "neo": 8376,
      "mental": 8377,
      "ያንዳን": 8378,
      "continent": 8379,
      "dínlógún": 8380,
      "Kasa": 8381,
      "Western": 8382,
      "dus": 8383,
      "kom": 8384,
      "vité": 8385,
      "ፖር": 8386,
      "chuku": 8387,
      "conde": 8388,
      "Magharibi": 8389,
      "Alf": 8390,
      "Arts": 8391,
      "Brazil": 8392,
      "Kale": 8393,
      "egbe": 8394,
      "rale": 8395,
      "ኃይል": 8396,
      "ኘው": 8397,
      "taine": 8398,
      "chen": 8399,
      "micro": 8400,
      "adhim": 8401,
      "cords": 8402,
      "አባት": 8403,
      "Marie": 8404,
      "Indiya": 8405,
      "ምናልባት": 8406,
      "Thi": 8407,
      "የሆኑ": 8408,
      "ይዩ": 8409,
      "yahu": 8410,
      "tations": 8411,
      "kaya": 8412,
      "pole": 8413,
      "tanni": 8414,
      "sanin": 8415,
      "kungi": 8416,
      "structure": 8417,
      "During": 8418,
      "computer": 8419,
      "አይደለም": 8420,
      "effet": 8421,
      "sune": 8422,
      "ƙas": 8423,
      "ዜና": 8424,
      "ግዛ": 8425,
      "quatre": 8426,
      "cika": 8427,
      "bul": 8428,
      "moyen": 8429,
      "tano": 8430,
      "እንደሆነ": 8431,
      "ganin": 8432,
      "èrement": 8433,
      "published": 8434,
      "Cibiyar": 8435,
      "(,": 8436,
      "fra": 8437,
      "iti": 8438,
      "oòrùn": 8439,
      "ስል": 8440,
      "ቸዋል": 8441,
      "ዝና": 8442,
      "tasi": 8443,
      "remain": 8444,
      "Pakistan": 8445,
      "anglais": 8446,
      "droit": 8447,
      "entomon": 8448,
      "mapokeo": 8449,
      "Ina": 8450,
      "Sil": 8451,
      "ikan": 8452,
      "père": 8453,
      "Ƴan": 8454,
      "ሐይ": 8455,
      "ብሊክ": 8456,
      "ይር": 8457,
      "titi": 8458,
      "ghter": 8459,
      "kumbukumbu": 8460,
      "43": 8461,
      "TA": 8462,
      "bishop": 8463,
      "home": 8464,
      "pron": 8465,
      "written": 8466,
      "ብን": 8467,
      "ፓንያ": 8468,
      "asali": 8469,
      "nafasi": 8470,
      "huu": 8471,
      "wili": 8472,
      "hard": 8473,
      "....": 8474,
      "fonda": 8475,
      "various": 8476,
      "music": 8477,
      "ajili": 8478,
      "Lẹ́yìn": 8479,
      "Bus": 8480,
      "Hali": 8481,
      "Ty": 8482,
      "hùn": 8483,
      "ual": 8484,
      "መም": 8485,
      "ሲል": 8486,
      "የእ": 8487,
      "matu": 8488,
      "aster": 8489,
      "bada": 8490,
      "hakan": 8491,
      "dest": 8492,
      "lilikuwa": 8493,
      "Tarayyar": 8494,
      "fuatana": 8495,
      "Delta": 8496,
      "Society": 8497,
      "Washington": 8498,
      "41": 8499,
      "Red": 8500,
      "በዓ": 8501,
      "አለም": 8502,
      "anal": 8503,
      "esu": 8504,
      "haɗa": 8505,
      "onekana": 8506,
      "kẹrin": 8507,
      "musique": 8508,
      "Internet": 8509,
      "49": 8510,
      "Dau": 8511,
      "Dut": 8512,
      "Tou": 8513,
      "ሰል": 8514,
      "ይጠቀ": 8515,
      "ገቡ": 8516,
      "mahaifin": 8517,
      "hizi": 8518,
      "mirefu": 8519,
      "compo": 8520,
      "mbra": 8521,
      "Art": 8522,
      "mengine": 8523,
      "1937": 8524,
      "Histoire": 8525,
      "Après": 8526,
      "Ìbàdàn": 8527,
      "ƙida": 8528,
      "ሊዮን": 8529,
      "ምል": 8530,
      "ፊል": 8531,
      "hilo": 8532,
      "እንደገና": 8533,
      "1942": 8534,
      "gnes": 8535,
      "míràn": 8536,
      "Muhammadu": 8537,
      "akoko": 8538,
      "author": 8539,
      "Arabic": 8540,
      "gouvernement": 8541,
      "ማርቆስ": 8542,
      "kwenda": 8543,
      "Ras": 8544,
      "fed": 8545,
      "anda": 8546,
      "titre": 8547,
      "unds": 8548,
      "mother": 8549,
      "Bay": 8550,
      "wengine": 8551,
      "baadaye": 8552,
      "text": 8553,
      "rayuwar": 8554,
      "League": 8555,
      "%)": 8556,
      "Akin": 8557,
      "Hel": 8558,
      "Som": 8559,
      "When": 8560,
      "mise": 8561,
      "ውጤ": 8562,
      "ዛኛው": 8563,
      "ዳዊ": 8564,
      "tha": 8565,
      "omina": 8566,
      "cogni": 8567,
      "170": 8568,
      "walikuwa": 8569,
      "gramma": 8570,
      "vue": 8571,
      "Sovi": 8572,
      "bilité": 8573,
      "jourd": 8574,
      "construction": 8575,
      "Ilimi": 8576,
      "Tar": 8577,
      "kofu": 8578,
      "ose": 8579,
      "wú": 8580,
      "zone": 8581,
      "ɗau": 8582,
      "ነቶች": 8583,
      "espè": 8584,
      "mahali": 8585,
      "ollywood": 8586,
      "yota": 8587,
      "ctori": 8588,
      "Law": 8589,
      "Enugu": 8590,
      "tard": 8591,
      "ደረጉ": 8592,
      "News": 8593,
      "ọ̀nà": 8594,
      "Bello": 8595,
      "ጎርጎር": 8596,
      "ṣẹ̀lẹ̀": 8597,
      "homme": 8598,
      "Makarantar": 8599,
      "Dra": 8600,
      "Em": 8601,
      "Ou": 8602,
      "dali": 8603,
      "glo": 8604,
      "éro": 8605,
      "ôt": 8606,
      "በነ": 8607,
      "thir": 8608,
      "mique": 8609,
      "lum": 8610,
      "tanga": 8611,
      "Urusi": 8612,
      "imu": 8613,
      "pindi": 8614,
      "ከታ": 8615,
      "marqu": 8616,
      "ancient": 8617,
      "disting": 8618,
      "Azer": 8619,
      "cée": 8620,
      "gam": 8621,
      "ስማ": 8622,
      "development": 8623,
      "lim": 8624,
      "babu": 8625,
      "1900": 8626,
      "dola": 8627,
      "sítì": 8628,
      "1936": 8629,
      "otball": 8630,
      "በብዛት": 8631,
      "gajiya": 8632,
      "በሽታ": 8633,
      "77": 8634,
      "Bou": 8635,
      "Tsar": 8636,
      "ek": 8637,
      "gna": 8638,
      "wun": 8639,
      "ṣò": 8640,
      "fiki": 8641,
      "reste": 8642,
      "1929": 8643,
      "nouvelle": 8644,
      "style": 8645,
      "Patri": 8646,
      "bọ̀": 8647,
      "cry": 8648,
      "ian": 8649,
      "jeni": 8650,
      "uka": 8651,
      "west": 8652,
      "zing": 8653,
      "âce": 8654,
      "መቅ": 8655,
      "በቃ": 8656,
      "በጥ": 8657,
      "ጠሩ": 8658,
      "፲፰": 8659,
      "ṣir": 8660,
      "haji": 8661,
      "ilo": 8662,
      "gement": 8663,
      "jeu": 8664,
      "obje": 8665,
      "ሳይን": 8666,
      "social": 8667,
      "Catho": 8668,
      "Bern": 8669,
      "መንፈስ": 8670,
      "littéra": 8671,
      "Ale": 8672,
      "Cre": 8673,
      "aje": 8674,
      "ira": 8675,
      "pú": 8676,
      "Ìlú": 8677,
      "ብዛት": 8678,
      "nipa": 8679,
      "suf": 8680,
      "Chin": 8681,
      "እስያ": 8682,
      "Yohane": 8683,
      "ይቻላል": 8684,
      "kofin": 8685,
      "ɗi": 8686,
      "መና": 8687,
      "ረግ": 8688,
      "wal": 8689,
      "left": 8690,
      "ishin": 8691,
      "ማጣቀ": 8692,
      "Dani": 8693,
      "Kò": 8694,
      "shuga": 8695,
      "vres": 8696,
      "zen": 8697,
      "ሪት": 8698,
      "ኑስ": 8699,
      "ards": 8700,
      "toa": 8701,
      "elé": 8702,
      "Hotuna": 8703,
      "Kya": 8704,
      "Kun": 8705,
      "Otto": 8706,
      "sẹ́": 8707,
      "zuri": 8708,
      "ኒው": 8709,
      "ciyar": 8710,
      "member": 8711,
      "dangan": 8712,
      "ከተለው": 8713,
      "texte": 8714,
      "ንዳር": 8715,
      "Canada": 8716,
      "Mkuu": 8717,
      "Star": 8718,
      "Visiwa": 8719,
      "dor": 8720,
      "hus": 8721,
      "mfano": 8722,
      "ìtà": 8723,
      "ìgbé": 8724,
      "የሞ": 8725,
      "ግድ": 8726,
      "tatta": 8727,
      "lika": 8728,
      "liter": 8729,
      "téri": 8730,
      "another": 8731,
      "jumla": 8732,
      "ƙidayar": 8733,
      "Ká": 8734,
      "Port": 8735,
      "kes": 8736,
      "ket": 8737,
      "ሚስት": 8738,
      "ኃይለ": 8739,
      "ዕብራ": 8740,
      "ጠፋ": 8741,
      "taux": 8742,
      "native": 8743,
      "haya": 8744,
      "sea": 8745,
      "how": 8746,
      "በአሁኑ": 8747,
      "illeurs": 8748,
      "experi": 8749,
      "According": 8750,
      "Res": 8751,
      "care": 8752,
      "ሥቱ": 8753,
      "ከማ": 8754,
      "kua": 8755,
      "attribu": 8756,
      "muka": 8757,
      "1943": 8758,
      "Nígbà": 8759,
      "Johnson": 8760,
      "ጥንት": 8761,
      "profession": 8762,
      "organis": 8763,
      "Ibn": 8764,
      "rê": 8765,
      "uchumi": 8766,
      "ሙት": 8767,
      "በኛ": 8768,
      "ገዥ": 8769,
      "isse": 8770,
      "thes": 8771,
      "niveau": 8772,
      "utes": 8773,
      "Johann": 8774,
      "---": 8775,
      "አፍሪካ": 8776,
      "ድርጅት": 8777,
      "ẹ̀ẹ́sì": 8778,
      "strong": 8779,
      "kuru": 8780,
      "vance": 8781,
      "úúsù": 8782,
      "በሙሉ": 8783,
      "ክን": 8784,
      "ውጭ": 8785,
      "ያደር": 8786,
      "once": 8787,
      "tice": 8788,
      "sakand": 8789,
      "ilar": 8790,
      "mbol": 8791,
      "ambako": 8792,
      "clear": 8793,
      "mẹ́ta": 8794,
      "haifiyar": 8795,
      "ወልደ": 8796,
      "Ibile": 8797,
      "Congress": 8798,
      "Iran": 8799,
      "Kol": 8800,
      "rant": 8801,
      "ውቅ": 8802,
      "defe": 8803,
      "mnamo": 8804,
      "ዳንት": 8805,
      "telli": 8806,
      "እምነት": 8807,
      "meaning": 8808,
      "ama": 8809,
      "ip": 8810,
      "mó": 8811,
      "çon": 8812,
      "ገጽ": 8813,
      "lay": 8814,
      "dite": 8815,
      "role": 8816,
      "terre": 8817,
      "house": 8818,
      "1941": 8819,
      "With": 8820,
      "Germany": 8821,
      "km2": 8822,
      "Scot": 8823,
      "distribu": 8824,
      "Music": 8825,
      "kr": 8826,
      "ቡድን": 8827,
      "ቱርክ": 8828,
      "አህ": 8829,
      "ካታ": 8830,
      "የዓለም": 8831,
      "ገሩ": 8832,
      "dae": 8833,
      "kupi": 8834,
      "seul": 8835,
      "mited": 8836,
      "bangar": 8837,
      "ስተኛ": 8838,
      "anzisha": 8839,
      "leader": 8840,
      "ወታደ": 8841,
      "Lam": 8842,
      "ah": 8843,
      "eto": 8844,
      "በኦ": 8845,
      "ኝነት": 8846,
      "አና": 8847,
      "thing": 8848,
      "maisha": 8849,
      "bikin": 8850,
      "eds": 8851,
      "títí": 8852,
      "pion": 8853,
      "lábẹ́": 8854,
      "gboyè": 8855,
      "1922": 8856,
      "ስራቅ": 8857,
      "Central": 8858,
      "Nuwamba": 8859,
      "OR": 8860,
      "በታል": 8861,
      "ዝማች": 8862,
      "pewa": 8863,
      "forms": 8864,
      "mself": 8865,
      "Duk": 8866,
      "standard": 8867,
      "ብሔራዊ": 8868,
      "hannu": 8869,
      "Azerbai": 8870,
      "Mpaka": 8871,
      "som": 8872,
      "ሕግ": 8873,
      "ውሃ": 8874,
      "ዘዴ": 8875,
      "ይፋ": 8876,
      "ጥበብ": 8877,
      "ፍቅር": 8878,
      "ency": 8879,
      "deen": 8880,
      "1919": 8881,
      "radio": 8882,
      "sele": 8883,
      "separa": 8884,
      "huadhim": 8885,
      "dès": 8886,
      "Micro": 8887,
      "zarin": 8888,
      "Poli": 8889,
      "utilisé": 8890,
      "communes": 8891,
      "የውጭ": 8892,
      "abinci": 8893,
      "General": 8894,
      "ፍልስ": 8895,
      "AF": 8896,
      "AP": 8897,
      "Bru": 8898,
      "Mont": 8899,
      "Ox": 8900,
      "hwa": 8901,
      "nú": 8902,
      "limit": 8903,
      "kup": 8904,
      "1917": 8905,
      "dum": 8906,
      "Afghan": 8907,
      "commune": 8908,
      "Common": 8909,
      "image": 8910,
      "፲፱፻፶": 8911,
      "bunge": 8912,
      "habitants": 8913,
      "Edward": 8914,
      "oyè": 8915,
      "wel": 8916,
      "ስቶ": 8917,
      "የቆ": 8918,
      "ያሳ": 8919,
      "ይዞ": 8920,
      "Ọmọ": 8921,
      "asu": 8922,
      "haɗin": 8923,
      "koto": 8924,
      "provi": 8925,
      "tries": 8926,
      "Borno": 8927,
      "àkọ́lé": 8928,
      "ካሌንዳር": 8929,
      "ጎርጎርያን": 8930,
      "65": 8931,
      "iri": 8932,
      "oju": 8933,
      "prend": 8934,
      "ሥልጣን": 8935,
      "ራኤል": 8936,
      "በኢ": 8937,
      "ከላ": 8938,
      "elu": 8939,
      "ọ̀lù": 8940,
      "unique": 8941,
      "institu": 8942,
      "imani": 8943,
      "ọjọ́aláìsí": 8944,
      "dàgbà": 8945,
      "kálẹ̀": 8946,
      "ሁለተኛ": 8947,
      "Dunia": 8948,
      "ከዚያም": 8949,
      "species": 8950,
      "fásítì": 8951,
      "généralement": 8952,
      "Prof": 8953,
      "ሳይንሳዊ": 8954,
      "gol": 8955,
      "pya": 8956,
      "hak": 8957,
      "pay": 8958,
      "Alexand": 8959,
      "President": 8960,
      "Ash": 8961,
      "Ira": 8962,
      "cum": 8963,
      "nde": 8964,
      "rd": 8965,
      "ître": 8966,
      "òkè": 8967,
      "መሬት": 8968,
      "ስድ": 8969,
      "የቀን": 8970,
      "wasi": 8971,
      "thur": 8972,
      "diyya": 8973,
      "Leo": 8974,
      "ትርጉም": 8975,
      "wáyé": 8976,
      "ibile": 8977,
      "grec": 8978,
      "sára": 8979,
      "ቢሆንም": 8980,
      "Alfred": 8981,
      "94": 8982,
      "Tsa": 8983,
      "mwen": 8984,
      "mwezi": 8985,
      "ሥጋ": 8986,
      "ሱን": 8987,
      "ቦት": 8988,
      "taur": 8989,
      "names": 8990,
      "sie": 8991,
      "similar": 8992,
      "conse": 8993,
      "kọ̀wé": 8994,
      "mitin": 8995,
      "systems": 8996,
      "essenti": 8997,
      "Ire": 8998,
      "dina": 8999,
      "gini": 9000,
      "ርቶ": 9001,
      "ጊዮር": 9002,
      "unar": 9003,
      "sts": 9004,
      "down": 9005,
      "opera": 9006,
      "voire": 9007,
      "states": 9008,
      "binrin": 9009,
      "1925": 9010,
      "ancien": 9011,
      "ከነዓ": 9012,
      "œuvre": 9013,
      "ጊዮርጊ": 9014,
      "Spain": 9015,
      "ht": 9016,
      "écu": 9017,
      "ሉም": 9018,
      "ትራ": 9019,
      "ችሁ": 9020,
      "ካን": 9021,
      "የለ": 9022,
      "ዴት": 9023,
      "ገት": 9024,
      "kawo": 9025,
      "ligne": 9026,
      "quo": 9027,
      "addinin": 9028,
      "Nations": 9029,
      "አገራት": 9030,
      "ordre": 9031,
      "Isla": 9032,
      "political": 9033,
      "kalẹ̀": 9034,
      "ቀጥሎ": 9035,
      "Jacques": 9036,
      "hesabiwa": 9037,
      "fri": 9038,
      "vina": 9039,
      "zani": 9040,
      "ሙን": 9041,
      "ሰጥ": 9042,
      "ስቃ": 9043,
      "የኮ": 9044,
      "የሆነው": 9045,
      "ጽሕ": 9046,
      "koki": 9047,
      "gola": 9048,
      "données": 9049,
      "ምንት": 9050,
      "color": 9051,
      "jinsi": 9052,
      "የማይ": 9053,
      "graphique": 9054,
      "sometimes": 9055,
      "lórílẹ̀": 9056,
      "Williams": 9057,
      "techniques": 9058,
      "built": 9059,
      "covered": 9060,
      "Soviet": 9061,
      "ipo": 9062,
      "አቅ": 9063,
      "ጠብ": 9064,
      "sayen": 9065,
      "2091": 9066,
      "ziwa": 9067,
      "kansa": 9068,
      "cheo": 9069,
      "ጊዜም": 9070,
      "1933": 9071,
      "Dr": 9072,
      "Fal": 9073,
      "Yu": 9074,
      "flo": 9075,
      "gare": 9076,
      "hìn": 9077,
      "yẹ̀": 9078,
      "èse": 9079,
      "ረጋ": 9080,
      "ተቃ": 9081,
      "ዛዝ": 9082,
      "ደጃ": 9083,
      "kowa": 9084,
      "modi": 9085,
      "muziki": 9086,
      "mande": 9087,
      "፲፱፻፷": 9088,
      "ሥራቅ": 9089,
      "toutes": 9090,
      "charge": 9091,
      "building": 9092,
      "province": 9093,
      "caractéris": 9094,
      "Ph": 9095,
      "jwa": 9096,
      "ngu": 9097,
      "ለሁ": 9098,
      "በጎርጎርያን": 9099,
      "ኪያ": 9100,
      "ዝርያ": 9101,
      "ጠላ": 9102,
      "ente": 9103,
      "chungu": 9104,
      "sil": 9105,
      "himself": 9106,
      "fafa": 9107,
      "become": 9108,
      "Kijerumani": 9109,
      "rence": 9110,
      "useum": 9111,
      "ስለሚ": 9112,
      "Franço": 9113,
      "kubali": 9114,
      "imakin": 9115,
      "ደራሲ": 9116,
      "largest": 9117,
      "Other": 9118,
      "gers": 9119,
      "pren": 9120,
      "የለው": 9121,
      "ድሮ": 9122,
      "‎‎": 9123,
      "anen": 9124,
      "level": 9125,
      "2022": 9126,
      "ought": 9127,
      "suff": 9128,
      "chie": 9129,
      "ደረሰ": 9130,
      "kẹ́kọ̀ọ́": 9131,
      "japonais": 9132,
      "54": 9133,
      "Bá": 9134,
      "Nollywood": 9135,
      "Wal": 9136,
      "bran": 9137,
      "bres": 9138,
      "gbi": 9139,
      "uwar": 9140,
      "vity": 9141,
      "safi": 9142,
      "dos": 9143,
      "candi": 9144,
      "liste": 9145,
      "የሚያስ": 9146,
      "istance": 9147,
      "Birnin": 9148,
      "ተከታ": 9149,
      "ማስታወሻዎች": 9150,
      "ገንዘብ": 9151,
      "ጋሪ": 9152,
      "mah": 9153,
      "relation": 9154,
      "enter": 9155,
      "soli": 9156,
      "without": 9157,
      "Viet": 9158,
      "ground": 9159,
      "official": 9160,
      "Bon": 9161,
      "Domini": 9162,
      "IC": 9163,
      "Sam": 9164,
      "bwe": 9165,
      "tọ": 9166,
      "èrent": 9167,
      "ነቱን": 9168,
      "ከም": 9169,
      "rawar": 9170,
      "kimataifa": 9171,
      "ites": 9172,
      "sure": 9173,
      "pation": 9174,
      "coloni": 9175,
      "south": 9176,
      "watakatifu": 9177,
      "kawai": 9178,
      "ografia": 9179,
      "መጻሕ": 9180,
      "ያንዳንዱ": 9181,
      "Festival": 9182,
      "emb": 9183,
      "gence": 9184,
      "ná": 9185,
      "osu": 9186,
      "you": 9187,
      "àá": 9188,
      "በራ": 9189,
      "ቤቱ": 9190,
      "ችል": 9191,
      "taji": 9192,
      "ched": 9193,
      "oman": 9194,
      "safa": 9195,
      "yanki": 9196,
      "existe": 9197,
      "Alfon": 9198,
      "every": 9199,
      "get": 9200,
      "mmoja": 9201,
      "allo": 9202,
      "parts": 9203,
      "however": 9204,
      "chaque": 9205,
      "usually": 9206,
      "elements": 9207,
      "Sudan": 9208,
      "tels": 9209,
      "écrit": 9210,
      "although": 9211,
      "Prince": 9212,
      "Group": 9213,
      "Democratic": 9214,
      "nasar": 9215,
      "ƙir": 9216,
      "ሊን": 9217,
      "ናይት": 9218,
      "ክሲ": 9219,
      "ዋጋ": 9220,
      "ያያ": 9221,
      "ድና": 9222,
      "make": 9223,
      "cipe": 9224,
      "aujourd": 9225,
      "kwas": 9226,
      "síwájú": 9227,
      "jua": 9228,
      "chez": 9229,
      "cue": 9230,
      "symbol": 9231,
      "produced": 9232,
      "òṣèlú": 9233,
      "Kamusi": 9234,
      "single": 9235,
      "ራሱን": 9236,
      "KK": 9237,
      "fr": 9238,
      "nelle": 9239,
      "éten": 9240,
      "kashi": 9241,
      "asse": 9242,
      "tein": 9243,
      "mode": 9244,
      "viol": 9245,
      "rangi": 9246,
      "futa": 9247,
      "roman": 9248,
      "olowo": 9249,
      "Archi": 9250,
      "ported": 9251,
      "gargajiya": 9252,
      "compte": 9253,
      "increas": 9254,
      "gwamnan": 9255,
      "Australi": 9256,
      "allemand": 9257,
      "</": 9258,
      "Bara": 9259,
      "Fun": 9260,
      "Span": 9261,
      "UK": 9262,
      "ndi": 9263,
      "sence": 9264,
      "space": 9265,
      "ዲዮ": 9266,
      "sif": 9267,
      "held": 9268,
      "irun": 9269,
      "shari": 9270,
      "kọkàn": 9271,
      "አውሮፓ": 9272,
      "Jack": 9273,
      "travail": 9274,
      "Aga": 9275,
      "ET": 9276,
      "Hor": 9277,
      "Mili": 9278,
      "Tor": 9279,
      "cteurs": 9280,
      "nant": 9281,
      "rana": 9282,
      "ƙun": 9283,
      "ẹrẹ": 9284,
      "ists": 9285,
      "ando": 9286,
      "quar": 9287,
      "contribu": 9288,
      "wiwa": 9289,
      "projet": 9290,
      "types": 9291,
      "samo": 9292,
      "central": 9293,
      "1928": 9294,
      "Jour": 9295,
      "ominira": 9296,
      "popular": 9297,
      "Salaam": 9298,
      "Aber": 9299,
      "Cul": 9300,
      "IN": 9301,
      "nus": 9302,
      "ète": 9303,
      "ቀይ": 9304,
      "ነፍ": 9305,
      "ጥቅ": 9306,
      "wala": 9307,
      "tude": 9308,
      "የሚታወ": 9309,
      "ayẹyẹ": 9310,
      "ወይንም": 9311,
      "numbers": 9312,
      "Kaisari": 9313,
      "RD2": 9314,
      "ዕለተ": 9315,
      "undation": 9316,
      "Mit": 9317,
      "Oṣu": 9318,
      "Tex": 9319,
      "font": 9320,
      "àgbáyé": 9321,
      "esia": 9322,
      "vier": 9323,
      "istri": 9324,
      "aliste": 9325,
      "ambapo": 9326,
      "ibn": 9327,
      "ddle": 9328,
      "Portugal": 9329,
      "ፈርዖን": 9330,
      "ማጣቀሻ": 9331,
      "51": 9332,
      "::": 9333,
      "Gam": 9334,
      "Kore": 9335,
      "Sc": 9336,
      "ghu": 9337,
      "ight": 9338,
      "ልጁ": 9339,
      "ማሽ": 9340,
      "ዘው": 9341,
      "sakama": 9342,
      "ellow": 9343,
      "yancin": 9344,
      "surface": 9345,
      "178": 9346,
      "1932": 9347,
      "lọ́gbọ̀n": 9348,
      "jẹsára": 9349,
      "Farkon": 9350,
      "writing": 9351,
      "members": 9352,
      "éléments": 9353,
      "particulier": 9354,
      "tuttu": 9355,
      "ሌክትሪክ": 9356,
      "Oxford": 9357,
      "Emp": 9358,
      "Eneo": 9359,
      "Fred": 9360,
      "Pan": 9361,
      "Tele": 9362,
      "cast": 9363,
      "yed": 9364,
      "égy": 9365,
      "በስተ": 9366,
      "demo": 9367,
      "askofu": 9368,
      "theory": 9369,
      "raison": 9370,
      "mito": 9371,
      "modè": 9372,
      "commen": 9373,
      "orie": 9374,
      "የአፍ": 9375,
      "mond": 9376,
      "Arthur": 9377,
      "1931": 9378,
      "lower": 9379,
      "pindu": 9380,
      "ficial": 9381,
      "Poly": 9382,
      "rikisho": 9383,
      "character": 9384,
      "sayensi": 9385,
      "Bene": 9386,
      "ሥፍራ": 9387,
      "ቴሌ": 9388,
      "ጉል": 9389,
      "inv": 9390,
      "wat": 9391,
      "daida": 9392,
      "tege": 9393,
      "dieu": 9394,
      "Angola": 9395,
      "የተፈ": 9396,
      "dera": 9397,
      "Chan": 9398,
      "See": 9399,
      "Refer": 9400,
      "1938": 9401,
      "በማለት": 9402,
      "création": 9403,
      "Biranen": 9404,
      "familia": 9405,
      "Alfonso": 9406,
      "Spanish": 9407,
      "Had": 9408,
      "Men": 9409,
      "መላ": 9410,
      "ሜት": 9411,
      "ቡር": 9412,
      "ኮት": 9413,
      "invol": 9414,
      "hiyar": 9415,
      "quelle": 9416,
      "karin": 9417,
      "adap": 9418,
      "grâce": 9419,
      "usage": 9420,
      "Good": 9421,
      "north": 9422,
      "Jama": 9423,
      "ficant": 9424,
      "administra": 9425,
      "Catholic": 9426,
      "ìtàgé": 9427,
      "Blo": 9428,
      "Let": 9429,
      "bil": 9430,
      "clé": 9431,
      "ido": 9432,
      "mẹ": 9433,
      "ለጠ": 9434,
      "ውሀ": 9435,
      "ener": 9436,
      "alum": 9437,
      "lafa": 9438,
      "rac": 9439,
      "koko": 9440,
      "put": 9441,
      "Army": 9442,
      "afrika": 9443,
      "Counci": 9444,
      "ctif": 9445,
      "መሰረት": 9446,
      "Arewacin": 9447,
      "kyautar": 9448,
      "Langu": 9449,
      "yammacin": 9450,
      "différentes": 9451,
      "caract": 9452,
      "Bul": 9453,
      "SI": 9454,
      "mwenye": 9455,
      "ole": 9456,
      "pers": 9457,
      "ሆይ": 9458,
      "ሞን": 9459,
      "ኑን": 9460,
      "repres": 9461,
      "koyar": 9462,
      "page": 9463,
      "mole": 9464,
      "model": 9465,
      "formes": 9466,
      "አገሮች": 9467,
      "films": 9468,
      "villa": 9469,
      "yaliyo": 9470,
      "Disamba": 9471,
      "Abdulla": 9472,
      "yahudi": 9473,
      "Akwai": 9474,
      "neno": 9475,
      "Ìgbé": 9476,
      "ሪስ": 9477,
      "kashe": 9478,
      "nex": 9479,
      "kowan": 9480,
      "doit": 9481,
      "noun": 9482,
      "mondiale": 9483,
      "ክፍሎች": 9484,
      "በርካታ": 9485,
      "Alimfuata": 9486,
      "speak": 9487,
      "capital": 9488,
      "longue": 9489,
      "arabci": 9490,
      "Egypt": 9491,
      "bọ́ọ̀lù": 9492,
      "PP": 9493,
      "Ros": 9494,
      "aura": 9495,
      "ዶሮ": 9496,
      "waju": 9497,
      "undi": 9498,
      "regist": 9499,
      "total": 9500,
      "mid": 9501,
      "aries": 9502,
      "comes": 9503,
      "jade": 9504,
      "ትንሽ": 9505,
      "wakifuata": 9506,
      "kabla": 9507,
      "philosophi": 9508,
      "መልክዓ": 9509,
      "àìsàn": 9510,
      "article": 9511,
      "List": 9512,
      "Liste": 9513,
      "Sen": 9514,
      "Swed": 9515,
      "awar": 9516,
      "ተት": 9517,
      "ቴክ": 9518,
      "ጸሐ": 9519,
      "arziki": 9520,
      "lemagne": 9521,
      "top": 9522,
      "faci": 9523,
      "yanayin": 9524,
      "Ils": 9525,
      "1923": 9526,
      "1926": 9527,
      "uishe": 9528,
      "schol": 9529,
      "huadhimisha": 9530,
      "52": 9531,
      "éma": 9532,
      "ሜዳ": 9533,
      "አራት": 9534,
      "ፈራ": 9535,
      "onne": 9536,
      "makuu": 9537,
      "ased": 9538,
      "kansu": 9539,
      "crit": 9540,
      "ውንት": 9541,
      "babisha": 9542,
      "63": 9543,
      "Kur": 9544,
      "Oyo": 9545,
      "àjọ": 9546,
      "ካባቢ": 9547,
      "inci": 9548,
      "espa": 9549,
      "thy": 9550,
      "rike": 9551,
      "dium": 9552,
      "belie": 9553,
      "ops": 9554,
      "ባቢሎን": 9555,
      "zinabaki": 9556,
      "news": 9557,
      "ደረገው": 9558,
      "others": 9559,
      "Fabra": 9560,
      "Kon": 9561,
      "ns": 9562,
      "ndogo": 9563,
      "ወራ": 9564,
      "ግም": 9565,
      "ጥብ": 9566,
      "enf": 9567,
      "raba": 9568,
      "sey": 9569,
      "Mada": 9570,
      "compar": 9571,
      "univers": 9572,
      "taron": 9573,
      "agit": 9574,
      "ጉዳይ": 9575,
      "California": 9576,
      "Bauchi": 9577,
      "François": 9578,
      "Los": 9579,
      "Tom": 9580,
      "afin": 9581,
      "uk": 9582,
      "ለሚ": 9583,
      "ታችን": 9584,
      "ክብር": 9585,
      "batar": 9586,
      "hama": 9587,
      "duction": 9588,
      "wealth": 9589,
      "Christ": 9590,
      "Poland": 9591,
      "sauransu": 9592,
      "américain": 9593,
      "59": 9594,
      "Oli": 9595,
      "jọ̀": 9596,
      "mpaka": 9597,
      "àṣà": 9598,
      "ƙo": 9599,
      "በሩ": 9600,
      "lac": 9601,
      "olf": 9602,
      "attemp": 9603,
      "memba": 9604,
      "loi": 9605,
      "modu": 9606,
      "fada": 9607,
      "actions": 9608,
      "Sahara": 9609,
      "ግንኙ": 9610,
      "angwa": 9611,
      "occur": 9612,
      "vidence": 9613,
      "logici": 9614,
      "machine": 9615,
      "Council": 9616,
      "Aka": 9617,
      "Avi": 9618,
      "fari": 9619,
      "ìbá": 9620,
      "ቅርስ": 9621,
      "አጋ": 9622,
      "ዕድ": 9623,
      "ይመ": 9624,
      "ented": 9625,
      "labar": 9626,
      "five": 9627,
      "points": 9628,
      "aniya": 9629,
      "sole": 9630,
      "proto": 9631,
      "few": 9632,
      "mont": 9633,
      "wòrán": 9634,
      "ሁለቱ": 9635,
      "ትምህር": 9636,
      "inois": 9637,
      "ተራራ": 9638,
      "አቀፍ": 9639,
      "capitale": 9640,
      "Amb": 9641,
      "From": 9642,
      "Pia": 9643,
      "Ten": 9644,
      "mol": 9645,
      "spi": 9646,
      "ቁጥ": 9647,
      "ኘት": 9648,
      "የሌ": 9649,
      "anthro": 9650,
      "isant": 9651,
      "mate": 9652,
      "masi": 9653,
      "cewar": 9654,
      "bile": 9655,
      "sein": 9656,
      "moved": 9657,
      "ríwá": 9658,
      "Artic": 9659,
      "Movie": 9660,
      "ሳይንስ": 9661,
      "kúrò": 9662,
      "included": 9663,
      "dúró": 9664,
      "fuatwa": 9665,
      "ብርሃን": 9666,
      "talabijin": 9667,
      "ምልክት": 9668,
      "Aw": 9669,
      "Gasar": 9670,
      "Hasa": 9671,
      "flu": 9672,
      "mali": 9673,
      "nye": 9674,
      "îles": 9675,
      "ርን": 9676,
      "ቀስ": 9677,
      "ዩስ": 9678,
      "ግባር": 9679,
      "enga": 9680,
      "ensuite": 9681,
      "takwas": 9682,
      "kaka": 9683,
      "ẹ̀rọ": 9684,
      "seau": 9685,
      "mos": 9686,
      "karshe": 9687,
      "Indon": 9688,
      "finan": 9689,
      "Waislamu": 9690,
      "haifar": 9691,
      "function": 9692,
      "ulio": 9693,
      "geria": 9694,
      "tained": 9695,
      "filin": 9696,
      "Belgi": 9697,
      "either": 9698,
      "Hanyoyin": 9699,
      "Aristo": 9700,
      "Mur": 9701,
      "gri": 9702,
      "ii": 9703,
      "kìí": 9704,
      "èrè": 9705,
      "ፍን": 9706,
      "having": 9707,
      "docu": 9708,
      "Sea": 9709,
      "Radio": 9710,
      "1901": 9711,
      "bàbá": 9712,
      "makabila": 9713,
      "brother": 9714,
      "Sarkin": 9715,
      "ṣíṣe": 9716,
      "Federal": 9717,
      "ከነዓን": 9718,
      "Abe": 9719,
      "acikin": 9720,
      "clai": 9721,
      "ow": 9722,
      "ɗari": 9723,
      "ሚሊዮን": 9724,
      "ሲቲ": 9725,
      "ወጡ": 9726,
      "regar": 9727,
      "cide": 9728,
      "alama": 9729,
      "tuntun": 9730,
      "Early": 9731,
      "Hun": 9732,
      "IB": 9733,
      "Mes": 9734,
      "pto": 9735,
      "zara": 9736,
      "በዚሁ": 9737,
      "materi": 9738,
      "jiki": 9739,
      "mots": 9740,
      "fem": 9741,
      "grands": 9742,
      "እንስሳ": 9743,
      "Fre": 9744,
      "Tre": 9745,
      "ging": 9746,
      "mà": 9747,
      "ቂት": 9748,
      "ቃላት": 9749,
      "ፉት": 9750,
      "anin": 9751,
      "lik": 9752,
      "quali": 9753,
      "mical": 9754,
      "does": 9755,
      "propri": 9756,
      "néces": 9757,
      "1934": 9758,
      "ድንጋይ": 9759,
      "mouvement": 9760,
      "significant": 9761,
      "akọrin": 9762,
      "ṣirí": 9763,
      "Chuo": 9764,
      "Ida": 9765,
      "pó": 9766,
      "ለዋል": 9767,
      "አቡ": 9768,
      "ጥና": 9769,
      "ጨዋ": 9770,
      "essor": 9771,
      "least": 9772,
      "compa": 9773,
      "tym": 9774,
      "የተባለ": 9775,
      "active": 9776,
      "Afrique": 9777,
      "ባህል": 9778,
      "children": 9779,
      "generally": 9780,
      "ጊዮርጊስ": 9781,
      "lafazi": 9782,
      "',": 9783,
      "EC": 9784,
      "Sab": 9785,
      "cun": 9786,
      "dẹ́": 9787,
      "ues": 9788,
      "vas": 9789,
      "ሎጂ": 9790,
      "መጫ": 9791,
      "ኮኖ": 9792,
      "alge": 9793,
      "regu": 9794,
      "lime": 9795,
      "ator": 9796,
      "mum": 9797,
      "asayansi": 9798,
      "travers": 9799,
      "myth": 9800,
      "የሚገኙ": 9801,
      "Jamus": 9802,
      "ọ̀nù": 9803,
      "pataki": 9804,
      "53": 9805,
      "ago": 9806,
      "lli": 9807,
      "ሺህ": 9808,
      "ዩናይት": 9809,
      "ጅም": 9810,
      "ጸባይ": 9811,
      "ṣá": 9812,
      "latin": 9813,
      "diction": 9814,
      "adhi": 9815,
      "joto": 9816,
      "mbabwe": 9817,
      "Gabas": 9818,
      "Mohammed": 9819,
      "Din": 9820,
      "ping": 9821,
      "Èyí": 9822,
      "ነግ": 9823,
      "አክ": 9824,
      "ከስ": 9825,
      "የለም": 9826,
      "ጭር": 9827,
      "tien": 9828,
      "dab": 9829,
      "dad": 9830,
      "makubwa": 9831,
      "novel": 9832,
      "ንግድ": 9833,
      "Government": 9834,
      "jenga": 9835,
      "olùdarí": 9836,
      "Civil": 9837,
      "existence": 9838,
      "correspond": 9839,
      "abubuwan": 9840,
      "Argentina": 9841,
      "Wam": 9842,
      "Yesu": 9843,
      "bì": 9844,
      "cru": 9845,
      "yọ́": 9846,
      "ሩም": 9847,
      "ining": 9848,
      "kaa": 9849,
      "rière": 9850,
      "parí": 9851,
      "moto": 9852,
      "wasannin": 9853,
      "cession": 9854,
      "shekarun": 9855,
      "mshairi": 9856,
      "wàá": 9857,
      "appara": 9858,
      "olórí": 9859,
      "distin": 9860,
      "ያለውን": 9861,
      "Zimbabwe": 9862,
      "Queen": 9863,
      "chukua": 9864,
      "Dire": 9865,
      "Distri": 9866,
      "Kanada": 9867,
      "aur": 9868,
      "bali": 9869,
      "basi": 9870,
      "odo": 9871,
      "wis": 9872,
      "went": 9873,
      "ሰባ": 9874,
      "ቅን": 9875,
      "በሬ": 9876,
      "የኖ": 9877,
      "mats": 9878,
      "oruko": 9879,
      "etu": 9880,
      "row": 9881,
      "gabas": 9882,
      "oul": 9883,
      "pakana": 9884,
      "Congo": 9885,
      "fils": 9886,
      "የቀድሞ": 9887,
      "Tarihin": 9888,
      "ዩናይትድ": 9889,
      "denti": 9890,
      "gel": 9891,
      "ml": 9892,
      "ሊቃ": 9893,
      "ምኒ": 9894,
      "ሰነ": 9895,
      "በኤ": 9896,
      "ቤቶች": 9897,
      "ታሪ": 9898,
      "ቹን": 9899,
      "አዋ": 9900,
      "ዘፋ": 9901,
      "ọjọ": 9902,
      "anisha": 9903,
      "tit": 9904,
      "ungan": 9905,
      "hizo": 9906,
      "nira": 9907,
      "fitar": 9908,
      "fact": 9909,
      "sojo": 9910,
      "pic": 9911,
      "Anci": 9912,
      "የአየር": 9913,
      "Amani": 9914,
      "በመጨረሻ": 9915,
      "ገብረ": 9916,
      "tsohuwar": 9917,
      "certaines": 9918,
      "références": 9919,
      "halafu": 9920,
      "78": 9921,
      "Sup": 9922,
      "Umar": 9923,
      "fla": 9924,
      "gée": 9925,
      "mvu": 9926,
      "série": 9927,
      "ሲቀ": 9928,
      "ሲሆኑ": 9929,
      "ሳተ": 9930,
      "ታም": 9931,
      "ከረም": 9932,
      "የኡ": 9933,
      "ገረ": 9934,
      "ፊዎች": 9935,
      "wame": 9936,
      "watsa": 9937,
      "defin": 9938,
      "usale": 9939,
      "cet": 9940,
      "Max": 9941,
      "Kifaransa": 9942,
      "phone": 9943,
      "ods": 9944,
      "founded": 9945,
      "class": 9946,
      "Misri": 9947,
      "titude": 9948,
      "ጠቅላይ": 9949,
      "መሆኑን": 9950,
      "Hab": 9951,
      "Ly": 9952,
      "kisi": 9953,
      "ènes": 9954,
      "ባታ": 9955,
      "ወድ": 9956,
      "ጀት": 9957,
      "ọpọ": 9958,
      "yaki": 9959,
      "dik": 9960,
      "dua": 9961,
      "gether": 9962,
      "sound": 9963,
      "formu": 9964,
      "kanda": 9965,
      "mance": 9966,
      "genre": 9967,
      "1924": 9968,
      "half": 9969,
      "described": 9970,
      "ክርስትና": 9971,
      "፲፰፻": 9972,
      "sakandare": 9973,
      "Aberdeen": 9974,
      "Aja": 9975,
      "Bill": 9976,
      "IA": 9977,
      "IP": 9978,
      "ctic": 9979,
      "equ": 9980,
      "tôt": 9981,
      "ቃሉ": 9982,
      "በሱ": 9983,
      "በሳ": 9984,
      "ብሔር": 9985,
      "ዕው": 9986,
      "የል": 9987,
      "ጋን": 9988,
      "ጻፈ": 9989,
      "liber": 9990,
      "contemp": 9991,
      "saman": 9992,
      "prix": 9993,
      "Sokoto": 9994,
      "bridge": 9995,
      "toujours": 9996,
      "ብሪታ": 9997,
      "61": 9998,
      "Sene": 9999
    },
    "merges": [
      [
        "a",
        "n"
      ],
      [
        "i",
        "n"
      ],
      [
        "a",
        "r"
      ],
      [
        "o",
        "n"
      ],
      [
        "e",
        "s"
      ],
      [
        "e",
        "n"
      ],
      [
        "e",
        "r"
      ],
      [
        "w",
        "a"
      ],
      [
        "t",
        "i"
      ],
      [
        "a",
        "l"
      ],
      [
        "i",
        "s"
      ],
      [
        "t",
        "h"
      ],
      [
        "y",
        "a"
      ],
      [
        "t",
        "a"
      ],
      [
        "d",
        "a"
      ],
      [
        "m",
        "a"
      ],
      [
        "o",
        "r"
      ],
      [
        "k",
        "a"
      ],
      [
        "u",
        "n"
      ],
      [
        "l",
        "e"
      ],
      [
        "d",
        "e"
      ],
      [
        "l",
        "a"
      ],
      [
        "r",
        "e"
      ],
      [
        "u",
        "r"
      ],
      [
        "l",
        "i"
      ],
      [
        "a",
        "s"
      ],
      [
        "t",
        "o"
      ],
      [
        "th",
        "e"
      ],
      [
        "t",
        "e"
      ],
      [
        "n",
        "a"
      ],
      [
        "c",
        "h"
      ],
      [
        "u",
        "s"
      ],
      [
        "b",
        "a"
      ],
      [
        "k",
        "u"
      ],
      [
        "o",
        "f"
      ],
      [
        "a",
        "m"
      ],
      [
        "r",
        "i"
      ],
      [
        "o",
        "m"
      ],
      [
        "en",
        "t"
      ],
      [
        "d",
        "i"
      ],
      [
        "s",
        "i"
      ],
      [
        "1",
        "9"
      ],
      [
        "h",
        "i"
      ],
      [
        "c",
        "e"
      ],
      [
        "an",
        "d"
      ],
      [
        "n",
        "i"
      ],
      [
        "q",
        "u"
      ],
      [
        "r",
        "a"
      ],
      [
        "ti",
        "on"
      ],
      [
        "k",
        "i"
      ],
      [
        "c",
        "i"
      ],
      [
        "h",
        "a"
      ],
      [
        "h",
        "e"
      ],
      [
        "e",
        "t"
      ],
      [
        "r",
        "o"
      ],
      [
        "s",
        "a"
      ],
      [
        "in",
        "g"
      ],
      [
        "i",
        "l"
      ],
      [
        "e",
        "l"
      ],
      [
        "o",
        "l"
      ],
      [
        "b",
        "i"
      ],
      [
        "g",
        "a"
      ],
      [
        "ẹ",
        "̀"
      ],
      [
        "al",
        "i"
      ],
      [
        "2",
        "0"
      ],
      [
        "f",
        "i"
      ],
      [
        "ar",
        "a"
      ],
      [
        "w",
        "ọ"
      ],
      [
        "n",
        "e"
      ],
      [
        "i",
        "t"
      ],
      [
        "d",
        "u"
      ],
      [
        "a",
        "t"
      ],
      [
        "s",
        "e"
      ],
      [
        "ẹ",
        "́"
      ],
      [
        "m",
        "e"
      ],
      [
        "g",
        "b"
      ],
      [
        "m",
        "i"
      ],
      [
        "p",
        "o"
      ],
      [
        "k",
        "e"
      ],
      [
        "an",
        "a"
      ],
      [
        "a",
        "u"
      ],
      [
        "o",
        "u"
      ],
      [
        "an",
        "i"
      ],
      [
        "s",
        "u"
      ],
      [
        "z",
        "a"
      ],
      [
        "t",
        "u"
      ],
      [
        "n",
        "í"
      ],
      [
        "l",
        "es"
      ],
      [
        "ar",
        "i"
      ],
      [
        "t",
        "er"
      ],
      [
        "k",
        "o"
      ],
      [
        "j",
        "i"
      ],
      [
        "g",
        "i"
      ],
      [
        "l",
        "o"
      ],
      [
        "d",
        "es"
      ],
      [
        "ọ",
        "́"
      ],
      [
        "wọ",
        "n"
      ],
      [
        "v",
        "e"
      ],
      [
        "c",
        "on"
      ],
      [
        "m",
        "ent"
      ],
      [
        "p",
        "a"
      ],
      [
        "g",
        "e"
      ],
      [
        "p",
        "ar"
      ],
      [
        "p",
        "e"
      ],
      [
        "es",
        "t"
      ],
      [
        "b",
        "u"
      ],
      [
        "s",
        "t"
      ],
      [
        "k",
        "in"
      ],
      [
        "i",
        "r"
      ],
      [
        "m",
        "o"
      ],
      [
        "qu",
        "e"
      ],
      [
        "an",
        "t"
      ],
      [
        "f",
        "a"
      ],
      [
        "er",
        "i"
      ],
      [
        "s",
        "o"
      ],
      [
        "f",
        "or"
      ],
      [
        "r",
        "é"
      ],
      [
        "e",
        "d"
      ],
      [
        "g",
        "u"
      ],
      [
        "እ",
        "ን"
      ],
      [
        "ar",
        "e"
      ],
      [
        "m",
        "u"
      ],
      [
        "in",
        "a"
      ],
      [
        "t",
        "í"
      ],
      [
        "M",
        "a"
      ],
      [
        "ọ",
        "̀"
      ],
      [
        "v",
        "i"
      ],
      [
        "ነ",
        "ው"
      ],
      [
        "b",
        "e"
      ],
      [
        "v",
        "er"
      ],
      [
        "c",
        "om"
      ],
      [
        "w",
        "an"
      ],
      [
        "k",
        "ar"
      ],
      [
        "d",
        "an"
      ],
      [
        "z",
        "i"
      ],
      [
        "k",
        "an"
      ],
      [
        "h",
        "u"
      ],
      [
        "ú",
        "n"
      ],
      [
        "y",
        "e"
      ],
      [
        "k",
        "wa"
      ],
      [
        "r",
        "an"
      ],
      [
        "r",
        "es"
      ],
      [
        "d",
        "é"
      ],
      [
        "c",
        "a"
      ],
      [
        "l",
        "y"
      ],
      [
        "m",
        "b"
      ],
      [
        "1",
        "8"
      ],
      [
        "j",
        "e"
      ],
      [
        "in",
        "i"
      ],
      [
        "g",
        "o"
      ],
      [
        "y",
        "an"
      ],
      [
        "in",
        "e"
      ],
      [
        "t",
        "s"
      ],
      [
        "T",
        "he"
      ],
      [
        "s",
        "he"
      ],
      [
        "y",
        "ar"
      ],
      [
        "p",
        "i"
      ],
      [
        "c",
        "o"
      ],
      [
        "w",
        "i"
      ],
      [
        "d",
        "o"
      ],
      [
        "l",
        "u"
      ],
      [
        "p",
        "ro"
      ],
      [
        "a",
        "b"
      ],
      [
        "t",
        "an"
      ],
      [
        "wa",
        "s"
      ],
      [
        "s",
        "on"
      ],
      [
        "s",
        "hi"
      ],
      [
        "ku",
        "ma"
      ],
      [
        "y",
        "o"
      ],
      [
        "20",
        "0"
      ],
      [
        "u",
        "l"
      ],
      [
        "I",
        "n"
      ],
      [
        "m",
        "an"
      ],
      [
        "j",
        "a"
      ],
      [
        "or",
        "i"
      ],
      [
        "s",
        "h"
      ],
      [
        ")",
        ","
      ],
      [
        "a",
        "d"
      ],
      [
        "ka",
        "ti"
      ],
      [
        "te",
        "d"
      ],
      [
        "a",
        "i"
      ],
      [
        "y",
        "i"
      ],
      [
        ")",
        "."
      ],
      [
        "un",
        "e"
      ],
      [
        "20",
        "1"
      ],
      [
        "n",
        "o"
      ],
      [
        "er",
        "e"
      ],
      [
        "t",
        "é"
      ],
      [
        "r",
        "í"
      ],
      [
        "የ",
        "ሚ"
      ],
      [
        "ቸ",
        "ው"
      ],
      [
        "A",
        "n"
      ],
      [
        "is",
        "t"
      ],
      [
        "c",
        "t"
      ],
      [
        "የ",
        "አ"
      ],
      [
        "e",
        "x"
      ],
      [
        "w",
        "e"
      ],
      [
        "a",
        "p"
      ],
      [
        "r",
        "u"
      ],
      [
        "s",
        "í"
      ],
      [
        "h",
        "ar"
      ],
      [
        "0",
        "0"
      ],
      [
        "l",
        "á"
      ],
      [
        "o",
        "p"
      ],
      [
        "ሳ",
        "ሌ"
      ],
      [
        "un",
        "i"
      ],
      [
        "g",
        "h"
      ],
      [
        "m",
        "p"
      ],
      [
        "al",
        "e"
      ],
      [
        "ም",
        "ሳሌ"
      ],
      [
        "w",
        "ar"
      ],
      [
        "መ",
        "ን"
      ],
      [
        "f",
        "u"
      ],
      [
        "l",
        "ẹ̀"
      ],
      [
        "to",
        "ka"
      ],
      [
        "u",
        "m"
      ],
      [
        "b",
        "o"
      ],
      [
        "b",
        "í"
      ],
      [
        "b",
        "an"
      ],
      [
        "ነ",
        "በ"
      ],
      [
        "c",
        "es"
      ],
      [
        "à",
        "wọn"
      ],
      [
        "s",
        "an"
      ],
      [
        "A",
        "l"
      ],
      [
        "wa",
        "ka"
      ],
      [
        "m",
        "ar"
      ],
      [
        "à",
        "n"
      ],
      [
        "t",
        "y"
      ],
      [
        "p",
        "u"
      ],
      [
        "ch",
        "i"
      ],
      [
        "h",
        "o"
      ],
      [
        "r",
        "in"
      ],
      [
        "a",
        "ti"
      ],
      [
        "al",
        "a"
      ],
      [
        "f",
        "e"
      ],
      [
        "ku",
        "wa"
      ],
      [
        "l",
        "é"
      ],
      [
        "የ",
        "ተ"
      ],
      [
        "N",
        "a"
      ],
      [
        "b",
        "y"
      ],
      [
        "y",
        "in"
      ],
      [
        "ን",
        "ድ"
      ],
      [
        "ch",
        "a"
      ],
      [
        "i",
        "li"
      ],
      [
        "L",
        "e"
      ],
      [
        "c",
        "in"
      ],
      [
        "A",
        "m"
      ],
      [
[...]
