{
  "version": "1.0",
  "truncation": null,
  "padding": null,
  "added_tokens": [
    {
      "id": 0,
      "content": "[UNK]",
      "single_word": false,
      "lstrip": false,
      "rstrip": false,
      "normalized": false,
      "special": true
    }
  ],
  "normalizer": {
    "type": "NFC"
  },
  "pre_tokenizer": {
    "type": "WhitespaceSplit"
  },
  "post_processor": null,
  "decoder": {
    "type": "ByteFallback"
  },
  "model": {
    "type": "BPE",
    "dropout": null,
    "unk_token": "[UNK]",
    "continuing_subword_prefix": null,
    "end_of_word_suffix": null,
    "fuse_unk": false,
    "byte_fallback": true,
    "ignore_merges": false,
    "vocab": {
      "[UNK]": 0,
      "<0x00>": 1,
      "<0x01>": 2,
      "<0x02>": 3,
      "<0x03>": 4,
      "<0x04>": 5,
      "<0x05>": 6,
      "<0x06>": 7,
      "<0x07>": 8,
      "<0x08>": 9,
      "<0x09>": 10,
      "<0x0A>": 11,
      "<0x0B>": 12,
      "<0x0C>": 13,
      "<0x0D>": 14,
      "<0x0E>": 15,
      "<0x0F>": 16,
      "<0x10>": 17,
      "<0x11>": 18,
      "<0x12>": 19,
      "<0x13>": 20,
      "<0x14>": 21,
      "<0x15>": 22,
      "<0x16>": 23,
      "<0x17>": 24,
      "<0x18>": 25,
      "<0x19>": 26,
      "<0x1A>": 27,
      "<0x1B>": 28,
      "<0x1C>": 29,
      "<0x1D>": 30,
      "<0x1E>": 31,
      "<0x1F>": 32,
      "<0x20>": 33,
      "<0x21>": 34,
      "<0x22>": 35,
      "<0x23>": 36,
      "<0x24>": 37,
      "<0x25>": 38,
      "<0x26>": 39,
      "<0x27>": 40,
      "<0x28>": 41,
      "<0x29>": 42,
      "<0x2A>": 43,
      "<0x2B>": 44,
      "<0x2C>": 45,
      "<0x2D>": 46,
      "<0x2E>": 47,
      "<0x2F>": 48,
      "<0x30>": 49,
      "<0x31>": 50,
      "<0x32>": 51,
      "<0x33>": 52,
      "<0x34>": 53,
      "<0x35>": 54,
      "<0x36>": 55,
      "<0x37>": 56,
      "<0x38>": 57,
      "<0x39>": 58,
      "<0x3A>": 59,
      "<0x3B>": 60,
      "<0x3C>": 61,
      "<0x3D>": 62,
      "<0x3E>": 63,
      "<0x3F>": 64,
      "<0x40>": 65,
      "<0x41>": 66,
      "<0x42>": 67,
      "<0x43>": 68,
      "<0x44>": 69,
      "<0x45>": 70,
      "<0x46>": 71,
      "<0x47>": 72,
      "<0x48>": 73,
      "<0x49>": 74,
      "<0x4A>": 75,
      "<0x4B>": 76,
      "<0x4C>": 77,
      "<0x4D>": 78,
      "<0x4E>": 79,
      "<0x4F>": 80,
      "<0x50>": 81,
      "<0x51>": 82,
      "<0x52>": 83,
      "<0x53>": 84,
      "<0x54>": 85,
      "<0x55>": 86,
      "<0x56>": 87,
      "<0x57>": 88,
      "<0x58>": 89,
      "<0x59>": 90,
      "<0x5A>": 91,
      "<0x5B>": 92,
      "<0x5C>": 93,
      "<0x5D>": 94,
      "<0x5E>": 95,
      "<0x5F>": 96,
      "<0x60>": 97,
      "<0x61>": 98,
      "<0x62>": 99,
      "<0x63>": 100,
      "<0x64>": 101,
      "<0x65>": 102,
      "<0x66>": 103,
      "<0x67>": 104,
      "<0x68>": 105,
      "<0x69>": 106,
      "<0x6A>": 107,
      "<0x6B>": 108,
      "<0x6C>": 109,
      "<0x6D>": 110,
      "<0x6E>": 111,
      "<0x6F>": 112,
      "<0x70>": 113,
      "<0x71>": 114,
      "<0x72>": 115,
      "<0x73>": 116,
      "<0x74>": 117,
      "<0x75>": 118,
      "<0x76>": 119,
      "<0x77>": 120,
      "<0x78>": 121,
      "<0x79>": 122,
      "<0x7A>": 123,
      "<0x7B>": 124,
      "<0x7C>": 125,
      "<0x7D>": 126,
      "<0x7E>": 127,
      "<0x7F>": 128,
      "<0x80>": 129,
      "<0x81>": 130,
      "<0x82>": 131,
      "<0x83>": 132,
      "<0x84>": 133,
      "<0x85>": 134,
      "<0x86>": 135,
      "<0x87>": 136,
      "<0x88>": 137,
      "<0x89>": 138,
      "<0x8A>": 139,
      "<0x8B>": 140,
      "<0x8C>": 141,
      "<0x8D>": 142,
      "<0x8E>": 143,
      "<0x8F>": 144,
      "<0x90>": 145,
      "<0x91>": 146,
      "<0x92>": 147,
      "<0x93>": 148,
      "<0x94>": 149,
      "<0x95>": 150,
      "<0x96>": 151,
      "<0x97>": 152,
      "<0x98>": 153,
      "<0x99>": 154,
      "<0x9A>": 155,
      "<0x9B>": 156,
      "<0x9C>": 157,
      "<0x9D>": 158,
      "<0x9E>": 159,
      "<0x9F>": 160,
      "<0xA0>": 161,
      "<0xA1>": 162,
      "<0xA2>": 163,
      "<0xA3>": 164,
      "<0xA4>": 165,
      "<0xA5>": 166,
      "<0xA6>": 167,
      "<0xA7>": 168,
      "<0xA8>": 169,
      "<0xA9>": 170,
      "<0xAA>": 171,
      "<0xAB>": 172,
      "<0xAC>": 173,
      "<0xAD>": 174,
      "<0xAE>": 175,
      "<0xAF>": 176,
      "<0xB0>": 177,
      "<0xB1>": 178,
      "<0xB2>": 179,
      "<0xB3>": 180,
      "<0xB4>": 181,
      "<0xB5>": 182,
      "<0xB6>": 183,
      "<0xB7>": 184,
      "<0xB8>": 185,
      "<0xB9>": 186,
      "<0xBA>": 187,
      "<0xBB>": 188,
      "<0xBC>": 189,
      "<0xBD>": 190,
      "<0xBE>": 191,
      "<0xBF>": 192,
      "<0xC0>": 193,
      "<0xC1>": 194,
      "<0xC2>": 195,
      "<0xC3>": 196,
      "<0xC4>": 197,
      "<0xC5>": 198,
      "<0xC6>": 199,
      "<0xC7>": 200,
      "<0xC8>": 201,
      "<0xC9>": 202,
      "<0xCA>": 203,
      "<0xCB>": 204,
      "<0xCC>": 205,
      "<0xCD>": 206,
      "<0xCE>": 207,
      "<0xCF>": 208,
      "<0xD0>": 209,
      "<0xD1>": 210,
      "<0xD2>": 211,
      "<0xD3>": 212,
      "<0xD4>": 213,
      "<0xD5>": 214,
      "<0xD6>": 215,
      "<0xD7>": 216,
      "<0xD8>": 217,
      "<0xD9>": 218,
      "<0xDA>": 219,
      "<0xDB>": 220,
      "<0xDC>": 221,
      "<0xDD>": 222,
      "<0xDE>": 223,
      "<0xDF>": 224,
      "<0xE0>": 225,
      "<0xE1>": 226,
      "<0xE2>": 227,
      "<0xE3>": 228,
      "<0xE4>": 229,
      "<0xE5>": 230,
      "<0xE6>": 231,
      "<0xE7>": 232,
      "<0xE8>": 233,
      "<0xE9>": 234,
      "<0xEA>": 235,
      "<0xEB>": 236,
      "<0xEC>": 237,
      "<0xED>": 238,
      "<0xEE>": 239,
      "<0xEF>": 240,
      "<0xF0>": 241,
      "<0xF1>": 242,
      "<0xF2>": 243,
      "<0xF3>": 244,
      "<0xF4>": 245,
      "<0xF5>": 246,
      "<0xF6>": 247,
      "<0xF7>": 248,
      "<0xF8>": 249,
      "<0xF9>": 250,
      "<0xFA>": 251,
      "<0xFB>": 252,
      "<0xFC>": 253,
      "<0xFD>": 254,
      "<0xFE>": 255,
      "<0xFF>": 256,
      "!": 257,
      "\"": 258,
      "#": 259,
      "$": 260,
      "%": 261,
      "&": 262,
      "'": 263,
      "(": 264,
      ")": 265,
      "*": 266,
      "+": 267,
      ",": 268,
      "-": 269,
      ".": 270,
      "/": 271,
      "0": 272,
      "1": 273,
      "2": 274,
      "3": 275,
      "4": 276,
      "5": 277,
      "6": 278,
      "7": 279,
      "8": 280,
      "9": 281,
      ":": 282,
      ";": 283,
      "<": 284,
      "=": 285,
      ">": 286,
      "?": 287,
      "@": 288,
      "A": 289,
      "B": 290,
      "C": 291,
      "D": 292,
      "E": 293,
      "F": 294,
      "G": 295,
      "H": 296,
      "I": 297,
      "J": 298,
      "K": 299,
      "L": 300,
      "M": 301,
      "N": 302,
      "O": 303,
      "P": 304,
      "Q": 305,
      "R": 306,
      "S": 307,
      "T": 308,
      "U": 309,
      "V": 310,
      "W": 311,
      "X": 312,
      "Y": 313,
      "Z": 314,
      "[": 315,
      "\\": 316,
      "]": 317,
      "^": 318,
      "_": 319,
      "`": 320,
      "a": 321,
      "b": 322,
      "c": 323,
      "d": 324,
      "e": 325,
      "f": 326,
      "g": 327,
      "h": 328,
      "i": 329,
      "j": 330,
      "k": 331,
      "l": 332,
      "m": 333,
      "n": 334,
      "o": 335,
      "p": 336,
      "q": 337,
      "r": 338,
      "s": 339,
      "t": 340,
      "u": 341,
      "v": 342,
      "w": 343,
      "x": 344,
      "y": 345,
      "z": 346,
      "{": 347,
      "|": 348,
      "}": 349,
      "~": 350,
      "¡": 351,
      "¢": 352,
      "£": 353,
      "¥": 354,
      "¦": 355,
      "§": 356,
      "©": 357,
      "ª": 358,
      "«": 359,
      "¬": 360,
      "­": 361,
      "®": 362,
      "¯": 363,
      "°": 364,
      "±": 365,
      "²": 366,
      "³": 367,
      "´": 368,
      "µ": 369,
      "·": 370,
      "¹": 371,
      "º": 372,
      "»": 373,
      "¼": 374,
      "½": 375,
      "¾": 376,
      "¿": 377,
      "À": 378,
      "Á": 379,
      "Â": 380,
      "Ä": 381,
      "Å": 382,
      "Æ": 383,
      "Ç": 384,
      "È": 385,
      "É": 386,
      "Ê": 387,
      "Ì": 388,
      "Í": 389,
      "Î": 390,
      "Ï": 391,
      "Ð": 392,
      "Ñ": 393,
      "Ò": 394,
      "Ó": 395,
      "Ô": 396,
      "Õ": 397,
      "Ö": 398,
      "×": 399,
      "Ø": 400,
      "Ù": 401,
      "Ú": 402,
      "Ü": 403,
      "Ý": 404,
      "Þ": 405,
      "ß": 406,
      "à": 407,
      "á": 408,
      "â": 409,
      "ã": 410,
      "ä": 411,
      "å": 412,
      "æ": 413,
      "ç": 414,
      "è": 415,
      "é": 416,
      "ê": 417,
      "ë": 418,
      "ì": 419,
      "í": 420,
      "î": 421,
      "ï": 422,
      "ð": 423,
      "ñ": 424,
      "ò": 425,
      "ó": 426,
      "ô": 427,
      "õ": 428,
      "ö": 429,
      "÷": 430,
      "ø": 431,
      "ù": 432,
      "ú": 433,
      "û": 434,
      "ü": 435,
      "ý": 436,
      "þ": 437,
      "ÿ": 438,
      "Ā": 439,
      "ā": 440,
      "Ă": 441,
      "ă": 442,
      "ą": 443,
      "ć": 444,
      "Ĉ": 445,
      "ĉ": 446,
      "Ċ": 447,
      "ċ": 448,
      "Č": 449,
      "č": 450,
      "ď": 451,
      "Đ": 452,
      "đ": 453,
      "Ē": 454,
      "ē": 455,
      "Ĕ": 456,
      "ĕ": 457,
      "ė": 458,
      "Ę": 459,
      "ę": 460,
      "ě": 461,
      "Ĝ": 462,
      "ĝ": 463,
      "ğ": 464,
      "Ġ": 465,
      "ġ": 466,
      "Ĥ": 467,
      "ĥ": 468,
      "Ħ": 469,
      "ħ": 470,
      "ĩ": 471,
      "Ī": 472,
      "ī": 473,
      "ĭ": 474,
      "į": 475,
      "İ": 476,
      "ı": 477,
      "Ĵ": 478,
      "ĵ": 479,
      "ĺ": 480,
      "Ļ": 481,
      "ļ": 482,
      "Ľ": 483,
      "ľ": 484,
      "Ł": 485,
      "ł": 486,
      "Ń": 487,
      "ń": 488,
      "Ņ": 489,
      "ņ": 490,
      "ň": 491,
      "Ŋ": 492,
      "ŋ": 493,
      "Ō": 494,
      "ō": 495,
      "ŏ": 496,
      "Ő": 497,
      "ő": 498,
      "Œ": 499,
      "œ": 500,
      "ŕ": 501,
      "Ŗ": 502,
      "ŗ": 503,
      "ř": 504,
      "Ś": 505,
      "ś": 506,
      "Ŝ": 507,
      "ŝ": 508,
      "Ş": 509,
      "ş": 510,
      "Š": 511,
      "š": 512,
      "ţ": 513,
      "ũ": 514,
      "Ū": 515,
      "ū": 516,
      "Ŭ": 517,
      "ŭ": 518,
      "ů": 519,
      "Ű": 520,
      "ű": 521,
      "ų": 522,
      "ŵ": 523,
      "ź": 524,
      "Ż": 525,
      "ż": 526,
      "Ž": 527,
      "ž": 528,
      "ſ": 529,
      "Ɓ": 530,
      "Ɔ": 531,
      "Ɗ": 532,
      "Ɛ": 533,
      "ƒ": 534,
      "Ƙ": 535,
      "ƙ": 536,
      "ơ": 537,
      "ƣ": 538,
      "ư": 539,
      "Ƴ": 540,
      "ƴ": 541,
      "ƿ": 542,
      "ǀ": 543,
      "ǎ": 544,
      "ǐ": 545,
      "ǒ": 546,
      "ǔ": 547,
      "ǝ": 548,
      "Ǟ": 549,
      "ǟ": 550,
      "ǣ": 551,
      "ǧ": 552,
      "ǫ": 553,
      "Ǵ": 554,
      "ǵ": 555,
      "Ƿ": 556,
      "Ǹ": 557,
      "ǹ": 558,
      "ș": 559,
      "Ț": 560,
      "ț": 561,
      "ȝ": 562,
      "Ȣ": 563,
      "Ȭ": 564,
      "ȭ": 565,
      "Ȯ": 566,
      "ȯ": 567,
      "Ȱ": 568,
      "ȱ": 569,
      "ɐ": 570,
      "ɑ": 571,
      "ɒ": 572,
      "ɓ": 573,
      "ɔ": 574,
      "ɕ": 575,
      "ɖ": 576,
      "ɗ": 577,
      "ə": 578,
      "ɚ": 579,
      "ɛ": 580,
      "ɜ": 581,
      "ɟ": 582,
      "ɡ": 583,
      "ɣ": 584,
      "ɤ": 585,
      "ɥ": 586,
      "ɦ": 587,
      "ɧ": 588,
      "ɨ": 589,
      "ɪ": 590,
      "ɫ": 591,
      "ɯ": 592,
      "ɰ": 593,
      "ɲ": 594,
      "ɳ": 595,
      "ɴ": 596,
      "ɵ": 597,
      "ɹ": 598,
      "ɻ": 599,
      "ɽ": 600,
      "ɾ": 601,
      "ʀ": 602,
      "ʁ": 603,
      "ʂ": 604,
      "ʃ": 605,
      "ʈ": 606,
      "ʉ": 607,
      "ʊ": 608,
      "ʋ": 609,
      "ʌ": 610,
      "ʎ": 611,
      "ʏ": 612,
      "ʑ": 613,
      "ʒ": 614,
      "ʔ": 615,
      "ʕ": 616,
      "ʰ": 617,
      "ʱ": 618,
      "ʲ": 619,
      "ʵ": 620,
      "ʷ": 621,
      "ʹ": 622,
      "ʻ": 623,
      "ʼ": 624,
      "ʽ": 625,
      "ʾ": 626,
      "ʿ": 627,
      "ˀ": 628,
      "ˁ": 629,
      "ˈ": 630,
      "ˌ": 631,
      "ː": 632,
      "ˑ": 633,
      "˘": 634,
      "˜": 635,
      "˝": 636,
      "˞": 637,
      "ˠ": 638,
      "ˤ": 639,
      "̀": 640,
      "́": 641,
      "̃": 642,
      "̄": 643,
      "̅": 644,
      "̇": 645,
      "̋": 646,
      "̌": 647,
      "̍": 648,
      "̕": 649,
      "̝": 650,
      "̠": 651,
      "̡": 652,
      "̣": 653,
      "̥": 654,
      "̩": 655,
      "̯": 656,
      "̱": 657,
      "̺": 658,
      "ͅ": 659,
      "͘": 660,
      "͟": 661,
      "͡": 662,
      "ͳ": 663,
      "͵": 664,
      "Ά": 665,
      "Έ": 666,
      "Ή": 667,
      "Ό": 668,
      "ΐ": 669,
      "Α": 670,
      "Β": 671,
      "Γ": 672,
      "Δ": 673,
      "Ε": 674,
      "Ζ": 675,
      "Η": 676,
      "Θ": 677,
      "Ι": 678,
      "Κ": 679,
      "Λ": 680,
      "Μ": 681,
      "Ν": 682,
      "Ξ": 683,
      "Ο": 684,
      "Π": 685,
      "Ρ": 686,
      "Σ": 687,
      "Τ": 688,
      "Υ": 689,
      "Φ": 690,
      "Χ": 691,
      "Ω": 692,
      "ά": 693,
      "έ": 694,
      "ή": 695,
      "ί": 696,
      "α": 697,
      "β": 698,
      "γ": 699,
      "δ": 700,
      "ε": 701,
      "ζ": 702,
      "η": 703,
      "θ": 704,
      "ι": 705,
      "κ": 706,
      "λ": 707,
      "μ": 708,
      "ν": 709,
      "ξ": 710,
      "ο": 711,
      "π": 712,
      "ρ": 713,
      "ς": 714,
      "σ": 715,
      "τ": 716,
      "υ": 717,
      "φ": 718,
      "χ": 719,
      "ψ": 720,
      "ω": 721,
      "ϊ": 722,
      "ό": 723,
      "ύ": 724,
      "ώ": 725,
      "ϐ": 726,
      "Ϙ": 727,
      "ϙ": 728,
      "ϛ": 729,
      "Ϝ": 730,
      "ϝ": 731,
      "Ϟ": 732,
      "ϟ": 733,
      "ϡ": 734,
      "ϵ": 735,
      "Ϻ": 736,
      "Ё": 737,
      "Ђ": 738,
      "Ј": 739,
      "Ў": 740,
      "А": 741,
      "Б": 742,
      "В": 743,
      "Г": 744,
      "Д": 745,
      "Е": 746,
      "Ж": 747,
      "З": 748,
      "И": 749,
      "Й": 750,
      "К": 751,
      "Л": 752,
      "М": 753,
      "Н": 754,
      "О": 755,
      "П": 756,
      "Р": 757,
      "С": 758,
      "Т": 759,
      "У": 760,
      "Ф": 761,
      "Х": 762,
      "Ц": 763,
      "Ч": 764,
      "Ш": 765,
      "Щ": 766,
      "Ъ": 767,
      "Ы": 768,
      "Э": 769,
      "Ю": 770,
      "Я": 771,
      "а": 772,
      "б": 773,
      "в": 774,
      "г": 775,
      "д": 776,
      "е": 777,
      "ж": 778,
      "з": 779,
      "и": 780,
      "й": 781,
      "к": 782,
      "л": 783,
      "м": 784,
      "н": 785,
      "о": 786,
      "п": 787,
      "р": 788,
      "с": 789,
      "т": 790,
      "у": 791,
      "ф": 792,
      "х": 793,
      "ц": 794,
      "ч": 795,
      "ш": 796,
      "щ": 797,
      "ъ": 798,
      "ы": 799,
      "ь": 800,
      "э": 801,
      "ю": 802,
      "я": 803,
      "ё": 804,
      "ђ": 805,
      "і": 806,
      "ї": 807,
      "ј": 808,
      "ћ": 809,
      "ќ": 810,
      "ў": 811,
      "џ": 812,
      "ғ": 813,
      "Қ": 814,
      "қ": 815,
      "ң": 816,
      "ҧ": 817,
      "ү": 818,
      "ұ": 819,
      "ҷ": 820,
      "Һ": 821,
      "һ": 822,
      "ӕ": 823,
      "ә": 824,
      "ӣ": 825,
      "Ө": 826,
      "ө": 827,
      "Գ": 828,
      "Դ": 829,
      "Ե": 830,
      "Հ": 831,
      "Մ": 832,
      "Ս": 833,
      "Ր": 834,
      "ա": 835,
      "բ": 836,
      "ե": 837,
      "է": 838,
      "թ": 839,
      "ի": 840,
      "լ": 841,
      "կ": 842,
      "մ": 843,
      "յ": 844,
      "ն": 845,
      "ո": 846,
      "պ": 847,
      "ս": 848,
      "վ": 849,
      "տ": 850,
      "ր": 851,
      "ց": 852,
      "ւ": 853,
      "ք": 854,
      "ֆ": 855,
      "և": 856,
      "֑": 857,
      "֛": 858,
      "֫": 859,
      "ְ": 860,
      "ֲ": 861,
      "ִ": 862,
      "ֵ": 863,
      "ֶ": 864,
      "ַ": 865,
      "ָ": 866,
      "ֹ": 867,
      "ּ": 868,
      "ׁ": 869,
      "ׂ": 870,
      "א": 871,
      "ב": 872,
      "ג": 873,
      "ד": 874,
      "ה": 875,
      "ו": 876,
      "ז": 877,
      "ח": 878,
      "ט": 879,
      "י": 880,
      "ך": 881,
      "כ": 882,
      "ל": 883,
      "ם": 884,
      "מ": 885,
      "ן": 886,
      "נ": 887,
      "ס": 888,
      "ע": 889,
      "ף": 890,
      "פ": 891,
      "ץ": 892,
      "צ": 893,
      "ק": 894,
      "ר": 895,
      "ש": 896,
      "ת": 897,
      "״": 898,
      "،": 899,
      "ء": 900,
      "آ": 901,
      "أ": 902,
      "ؤ": 903,
      "إ": 904,
      "ئ": 905,
      "ا": 906,
      "ب": 907,
      "ة": 908,
      "ت": 909,
      "ث": 910,
      "ج": 911,
      "ح": 912,
      "خ": 913,
      "د": 914,
      "ذ": 915,
      "ر": 916,
      "ز": 917,
      "س": 918,
      "ش": 919,
      "ص": 920,
      "ض": 921,
      "ط": 922,
      "ظ": 923,
      "ع": 924,
      "غ": 925,
      "ـ": 926,
      "ف": 927,
      "ق": 928,
      "ك": 929,
      "ل": 930,
      "م": 931,
      "ن": 932,
      "ه": 933,
      "و": 934,
      "ى": 935,
      "ي": 936,
      "ً": 937,
      "ٌ": 938,
      "ٍ": 939,
      "َ": 940,
      "ُ": 941,
      "ِ": 942,
      "ّ": 943,
      "ْ": 944,
      "ٓ": 945,
      "ٔ": 946,
      "٠": 947,
      "١": 948,
      "٢": 949,
      "٣": 950,
      "٤": 951,
      "٥": 952,
      "٦": 953,
      "٧": 954,
      "٨": 955,
      "٩": 956,
      "ٰ": 957,
      "ٱ": 958,
      "ٹ": 959,
      "پ": 960,
      "ځ": 961,
      "چ": 962,
      "ڈ": 963,
      "ڌ": 964,
      "ڑ": 965,
      "ړ": 966,
      "ښ": 967,
      "ک": 968,
      "ڪ": 969,
      "ڬ": 970,
      "گ": 971,
      "ں": 972,
      "ھ": 973,
      "ہ": 974,
      "ۆ": 975,
      "ۇ": 976,
      "ۋ": 977,
      "ی": 978,
      "ې": 979,
      "ە": 980,
      "ۖ": 981,
      "ۗ": 982,
      "ۘ": 983,
      "ۚ": 984,
      "۝": 985,
      "۞": 986,
      "۟": 987,
      "ۡ": 988,
      "ۢ": 989,
      "ۤ": 990,
      "ۥ": 991,
      "ۦ": 992,
      "ۧ": 993,
      "۬": 994,
      "ۭ": 995,
      "ܐ": 996,
      "ܒ": 997,
      "ܓ": 998,
      "ܕ": 999,
      "ܗ": 1000,
      "ܘ": 1001,
      "ܛ": 1002,
      "ܝ": 1003,
      "ܠ": 1004,
      "ܡ": 1005,
      "ܢ": 1006,
      "ܣ": 1007,
      "ܩ": 1008,
      "ܪ": 1009,
      "ܲ": 1010,
      "ܵ": 1011,
      "ނ": 1012,
      "ބ": 1013,
      "އ": 1014,
      "މ": 1015,
      "ދ": 1016,
      "ލ": 1017,
      "ގ": 1018,
      "ޔ": 1019,
      "ަ": 1020,
      "ާ": 1021,
      "ީ": 1022,
      "ު": 1023,
      "ޫ": 1024,
      "ެ": 1025,
      "ް": 1026,
      "ँ": 1027,
      "ं": 1028,
      "ः": 1029,
      "अ": 1030,
      "आ": 1031,
      "इ": 1032,
      "ई": 1033,
      "उ": 1034,
      "ऊ": 1035,
      "ए": 1036,
      "क": 1037,
      "ख": 1038,
      "ग": 1039,
      "घ": 1040,
      "च": 1041,
      "छ": 1042,
      "ज": 1043,
      "ट": 1044,
      "ड": 1045,
      "ढ": 1046,
      "ण": 1047,
      "त": 1048,
      "थ": 1049,
      "द": 1050,
      "ध": 1051,
      "न": 1052,
      "प": 1053,
      "फ": 1054,
      "ब": 1055,
      "भ": 1056,
      "म": 1057,
      "य": 1058,
      "र": 1059,
      "ल": 1060,
      "व": 1061,
      "श": 1062,
      "ष": 1063,
      "स": 1064,
      "ह": 1065,
      "़": 1066,
      "ा": 1067,
      "ि": 1068,
      "ी": 1069,
      "ु": 1070,
      "ू": 1071,
      "े": 1072,
      "ो": 1073,
      "ौ": 1074,
      "्": 1075,
      "।": 1076,
      "ং": 1077,
      "আ": 1078,
      "ই": 1079,
      "উ": 1080,
      "ও": 1081,
      "ক": 1082,
      "গ": 1083,
      "চ": 1084,
      "জ": 1085,
      "ট": 1086,
      "ণ": 1087,
      "ত": 1088,
      "দ": 1089,
      "ধ": 1090,
      "ন": 1091,
      "প": 1092,
      "ব": 1093,
      "ভ": 1094,
      "ম": 1095,
      "য": 1096,
      "র": 1097,
      "ল": 1098,
      "শ": 1099,
      "ষ": 1100,
      "স": 1101,
      "হ": 1102,
      "া": 1103,
      "ি": 1104,
      "ী": 1105,
      "ু": 1106,
      "ূ": 1107,
      "ে": 1108,
      "ো": 1109,
      "ৌ": 1110,
      "্": 1111,
      "ৎ": 1112,
      "৬": 1113,
      "৭": 1114,
      "৮": 1115,
      "ਘ": 1116,
      "ਜ": 1117,
      "ਨ": 1118,
      "ਪ": 1119,
      "ਬ": 1120,
      "ਮ": 1121,
      "ਸ": 1122,
      "ਹ": 1123,
      "ਾ": 1124,
      "ਿ": 1125,
      "ੀ": 1126,
      "ੋ": 1127,
      "ੰ": 1128,
      "ં": 1129,
      "આ": 1130,
      "ઇ": 1131,
      "ઈ": 1132,
      "ઉ": 1133,
      "ઊ": 1134,
      "ઓ": 1135,
      "ક": 1136,
      "ખ": 1137,
      "ગ": 1138,
      "છ": 1139,
      "જ": 1140,
      "ત": 1141,
      "ન": 1142,
      "ફ": 1143,
      "બ": 1144,
      "ભ": 1145,
      "મ": 1146,
      "ર": 1147,
      "લ": 1148,
      "વ": 1149,
      "શ": 1150,
      "સ": 1151,
      "હ": 1152,
      "ા": 1153,
      "ી": 1154,
      "ુ": 1155,
      "ે": 1156,
      "ો": 1157,
      "્": 1158,
      "அ": 1159,
      "உ": 1160,
      "ஓ": 1161,
      "க": 1162,
      "ங": 1163,
      "ச": 1164,
      "ஜ": 1165,
      "ட": 1166,
      "ண": 1167,
      "த": 1168,
      "ந": 1169,
      "ன": 1170,
      "ப": 1171,
      "ம": 1172,
      "ய": 1173,
      "ர": 1174,
      "ற": 1175,
      "ல": 1176,
      "ள": 1177,
      "ழ": 1178,
      "வ": 1179,
      "ஸ": 1180,
      "ா": 1181,
      "ி": 1182,
      "ீ": 1183,
      "ு": 1184,
      "ூ": 1185,
      "ே": 1186,
      "ை": 1187,
      "ொ": 1188,
      "ோ": 1189,
      "்": 1190,
      "ం": 1191,
      "క": 1192,
      "గ": 1193,
      "చ": 1194,
      "జ": 1195,
      "డ": 1196,
      "త": 1197,
      "ద": 1198,
      "న": 1199,
      "ప": 1200,
      "బ": 1201,
      "భ": 1202,
      "మ": 1203,
      "ర": 1204,
      "ల": 1205,
      "శ": 1206,
      "స": 1207,
      "హ": 1208,
      "ా": 1209,
      "ి": 1210,
      "ీ": 1211,
      "ు": 1212,
      "ె": 1213,
      "ే": 1214,
      "ై": 1215,
      "ొ": 1216,
      "ో": 1217,
      "్": 1218,
      "ം": 1219,
      "അ": 1220,
      "ഉ": 1221,
      "ഐ": 1222,
      "ക": 1223,
      "ട": 1224,
      "ഡ": 1225,
      "ണ": 1226,
      "ന": 1227,
      "പ": 1228,
      "ബ": 1229,
      "മ": 1230,
      "യ": 1231,
      "ര": 1232,
      "റ": 1233,
      "ല": 1234,
      "ള": 1235,
      "വ": 1236,
      "സ": 1237,
      "ാ": 1238,
      "ി": 1239,
      "ു": 1240,
      "െ": 1241,
      "േ": 1242,
      "ൈ": 1243,
      "ൊ": 1244,
      "്": 1245,
      "ൻ": 1246,
      "ൽ": 1247,
      "ං": 1248,
      "ක": 1249,
      "ග": 1250,
      "ච": 1251,
      "ජ": 1252,
      "ට": 1253,
      "ඩ": 1254,
      "ණ": 1255,
      "ත": 1256,
      "ද": 1257,
      "ධ": 1258,
      "න": 1259,
      "ප": 1260,
      "බ": 1261,
      "ම": 1262,
      "ය": 1263,
      "ර": 1264,
      "ල": 1265,
      "ව": 1266,
      "ශ": 1267,
      "ස": 1268,
      "හ": 1269,
      "්": 1270,
      "ා": 1271,
      "ි": 1272,
      "ී": 1273,
      "ු": 1274,
      "ේ": 1275,
      "ෝ": 1276,
      "ก": 1277,
      "ข": 1278,
      "ค": 1279,
      "ง": 1280,
      "จ": 1281,
      "ช": 1282,
      "ณ": 1283,
      "ด": 1284,
      "ต": 1285,
      "ท": 1286,
      "น": 1287,
      "บ": 1288,
      "ป": 1289,
      "ผ": 1290,
      "พ": 1291,
      "ภ": 1292,
      "ม": 1293,
      "ย": 1294,
      "ร": 1295,
      "ว": 1296,
      "ศ": 1297,
      "ษ": 1298,
      "ส": 1299,
      "ห": 1300,
      "อ": 1301,
      "ฯ": 1302,
      "ะ": 1303,
      "ั": 1304,
      "า": 1305,
      "ิ": 1306,
      "ี": 1307,
      "ื": 1308,
      "ุ": 1309,
      "฿": 1310,
      "เ": 1311,
      "แ": 1312,
      "ใ": 1313,
      "ไ": 1314,
      "็": 1315,
      "่": 1316,
      "้": 1317,
      "์": 1318,
      "་": 1319,
      "ཐ": 1320,
      "པ": 1321,
      "ཕ": 1322,
      "བ": 1323,
      "མ": 1324,
      "ལ": 1325,
      "ི": 1326,
      "ུ": 1327,
      "ླ": 1328,
      "ည": 1329,
      "တ": 1330,
      "ဓ": 1331,
      "န": 1332,
      "ယ": 1333,
      "ဝ": 1334,
      "ီ": 1335,
      "ု": 1336,
      "်": 1337,
      "ა": 1338,
      "ბ": 1339,
      "გ": 1340,
      "დ": 1341,
      "ე": 1342,
      "ვ": 1343,
      "ზ": 1344,
      "თ": 1345,
      "ი": 1346,
      "კ": 1347,
      "ლ": 1348,
      "მ": 1349,
      "ნ": 1350,
      "ო": 1351,
      "პ": 1352,
      "რ": 1353,
      "ს": 1354,
      "ტ": 1355,
      "უ": 1356,
      "ფ": 1357,
      "ქ": 1358,
      "ყ": 1359,
      "შ": 1360,
      "ჩ": 1361,
      "ც": 1362,
      "ძ": 1363,
      "ჭ": 1364,
      "ხ": 1365,
      "ჰ": 1366,
      "ᇁ": 1367,
      "ሀ": 1368,
      "ሁ": 1369,
      "ሂ": 1370,
      "ሃ": 1371,
      "ሄ": 1372,
      "ህ": 1373,
      "ሆ": 1374,
      "ሇ": 1375,
      "ለ": 1376,
      "ሉ": 1377,
      "ሊ": 1378,
      "ላ": 1379,
      "ሌ": 1380,
      "ል": 1381,
      "ሎ": 1382,
      "ሏ": 1383,
      "ሐ": 1384,
      "ሑ": 1385,
      "ሒ": 1386,
      "ሓ": 1387,
      "ሔ": 1388,
      "ሕ": 1389,
      "ሖ": 1390,
      "ሗ": 1391,
      "መ": 1392,
      "ሙ": 1393,
      "ሚ": 1394,
      "ማ": 1395,
      "ሜ": 1396,
      "ም": 1397,
      "ሞ": 1398,
      "ሟ": 1399,
      "ሠ": 1400,
      "ሡ": 1401,
      "ሢ": 1402,
      "ሣ": 1403,
      "ሤ": 1404,
      "ሥ": 1405,
      "ሦ": 1406,
      "ሧ": 1407,
      "ረ": 1408,
      "ሩ": 1409,
      "ሪ": 1410,
      "ራ": 1411,
      "ሬ": 1412,
      "ር": 1413,
      "ሮ": 1414,
      "ሯ": 1415,
      "ሰ": 1416,
      "ሱ": 1417,
      "ሲ": 1418,
      "ሳ": 1419,
      "ሴ": 1420,
      "ስ": 1421,
      "ሶ": 1422,
      "ሷ": 1423,
      "ሸ": 1424,
      "ሹ": 1425,
      "ሺ": 1426,
      "ሻ": 1427,
      "ሼ": 1428,
      "ሽ": 1429,
      "ሾ": 1430,
      "ሿ": 1431,
      "ቀ": 1432,
      "ቁ": 1433,
      "ቂ": 1434,
      "ቃ": 1435,
      "ቄ": 1436,
      "ቅ": 1437,
      "ቆ": 1438,
      "ቇ": 1439,
      "ቈ": 1440,
      "ቊ": 1441,
      "ቋ": 1442,
      "ቌ": 1443,
      "ቍ": 1444,
      "ቐ": 1445,
      "ቓ": 1446,
      "ቕ": 1447,
      "ቖ": 1448,
      "ቛ": 1449,
      "በ": 1450,
      "ቡ": 1451,
      "ቢ": 1452,
      "ባ": 1453,
      "ቤ": 1454,
      "ብ": 1455,
      "ቦ": 1456,
      "ቧ": 1457,
      "ቨ": 1458,
      "ቩ": 1459,
      "ቪ": 1460,
      "ቫ": 1461,
      "ቬ": 1462,
      "ቭ": 1463,
      "ቮ": 1464,
      "ቯ": 1465,
      "ተ": 1466,
      "ቱ": 1467,
      "ቲ": 1468,
      "ታ": 1469,
      "ቴ": 1470,
      "ት": 1471,
      "ቶ": 1472,
      "ቷ": 1473,
      "ቸ": 1474,
      "ቹ": 1475,
      "ቺ": 1476,
      "ቻ": 1477,
      "ቼ": 1478,
      "ች": 1479,
      "ቾ": 1480,
      "ቿ": 1481,
      "ኀ": 1482,
      "ኁ": 1483,
      "ኂ": 1484,
      "ኃ": 1485,
      "ኄ": 1486,
      "ኅ": 1487,
      "ኆ": 1488,
      "ኇ": 1489,
      "ኈ": 1490,
      "ኊ": 1491,
      "ኋ": 1492,
      "ኌ": 1493,
      "ኍ": 1494,
      "ነ": 1495,
      "ኑ": 1496,
      "ኒ": 1497,
      "ና": 1498,
      "ኔ": 1499,
      "ን": 1500,
      "ኖ": 1501,
      "ኗ": 1502,
      "ኘ": 1503,
      "ኙ": 1504,
      "ኚ": 1505,
      "ኛ": 1506,
      "ኜ": 1507,
      "ኝ": 1508,
      "ኞ": 1509,
      "ኟ": 1510,
      "አ": 1511,
      "ኡ": 1512,
      "ኢ": 1513,
      "ኣ": 1514,
      "ኤ": 1515,
      "እ": 1516,
      "ኦ": 1517,
      "ኧ": 1518,
      "ከ": 1519,
      "ኩ": 1520,
      "ኪ": 1521,
      "ካ": 1522,
      "ኬ": 1523,
      "ክ": 1524,
      "ኮ": 1525,
      "ኰ": 1526,
      "ኲ": 1527,
      "ኳ": 1528,
      "ኴ": 1529,
      "ኵ": 1530,
      "ኸ": 1531,
      "ኹ": 1532,
      "ኺ": 1533,
      "ኻ": 1534,
      "ኼ": 1535,
      "ኽ": 1536,
      "ኾ": 1537,
      "ዂ": 1538,
      "ዃ": 1539,
      "ዅ": 1540,
      "ወ": 1541,
      "ዉ": 1542,
      "ዊ": 1543,
      "ዋ": 1544,
      "ዌ": 1545,
      "ው": 1546,
      "ዎ": 1547,
      "ዐ": 1548,
      "ዑ": 1549,
      "ዒ": 1550,
      "ዓ": 1551,
      "ዔ": 1552,
      "ዕ": 1553,
      "ዖ": 1554,
      "ዘ": 1555,
      "ዙ": 1556,
      "ዚ": 1557,
      "ዛ": 1558,
      "ዜ": 1559,
      "ዝ": 1560,
      "ዞ": 1561,
      "ዟ": 1562,
      "ዠ": 1563,
      "ዡ": 1564,
      "ዢ": 1565,
      "ዣ": 1566,
      "ዤ": 1567,
      "ዥ": 1568,
      "ዦ": 1569,
      "ዧ": 1570,
      "የ": 1571,
      "ዩ": 1572,
      "ዪ": 1573,
      "ያ": 1574,
      "ዬ": 1575,
      "ይ": 1576,
      "ዮ": 1577,
      "ደ": 1578,
      "ዱ": 1579,
      "ዲ": 1580,
      "ዳ": 1581,
      "ዴ": 1582,
      "ድ": 1583,
      "ዶ": 1584,
      "ዷ": 1585,
      "ዸ": 1586,
      "ዺ": 1587,
      "ዻ": 1588,
      "ዼ": 1589,
      "ዽ": 1590,
      "ዾ": 1591,
      "ዿ": 1592,
      "ጀ": 1593,
      "ጁ": 1594,
      "ጂ": 1595,
      "ጃ": 1596,
      "ጄ": 1597,
      "ጅ": 1598,
      "ጆ": 1599,
      "ጇ": 1600,
      "ገ": 1601,
      "ጉ": 1602,
      "ጊ": 1603,
      "ጋ": 1604,
      "ጌ": 1605,
      "ግ": 1606,
      "ጎ": 1607,
      "ጏ": 1608,
      "ጐ": 1609,
      "ጒ": 1610,
      "ጓ": 1611,
      "ጔ": 1612,
      "ጕ": 1613,
      "ጘ": 1614,
      "ጙ": 1615,
      "ጚ": 1616,
      "ጛ": 1617,
      "ጜ": 1618,
      "ጝ": 1619,
      "ጞ": 1620,
      "ጠ": 1621,
      "ጡ": 1622,
      "ጢ": 1623,
      "ጣ": 1624,
      "ጤ": 1625,
      "ጥ": 1626,
      "ጦ": 1627,
      "ጧ": 1628,
      "ጨ": 1629,
      "ጩ": 1630,
      "ጪ": 1631,
      "ጫ": 1632,
      "ጬ": 1633,
      "ጭ": 1634,
      "ጮ": 1635,
      "ጯ": 1636,
      "ጰ": 1637,
      "ጱ": 1638,
      "ጲ": 1639,
      "ጳ": 1640,
      "ጴ": 1641,
      "ጵ": 1642,
      "ጶ": 1643,
      "ጸ": 1644,
      "ጹ": 1645,
      "ጺ": 1646,
      "ጻ": 1647,
      "ጼ": 1648,
      "ጽ": 1649,
      "ጾ": 1650,
      "ጿ": 1651,
      "ፀ": 1652,
      "ፁ": 1653,
      "ፂ": 1654,
      "ፃ": 1655,
      "ፄ": 1656,
      "ፅ": 1657,
      "ፆ": 1658,
      "ፈ": 1659,
      "ፉ": 1660,
      "ፊ": 1661,
      "ፋ": 1662,
      "ፌ": 1663,
      "ፍ": 1664,
      "ፎ": 1665,
      "ፏ": 1666,
      "ፐ": 1667,
      "ፑ": 1668,
      "ፒ": 1669,
      "ፓ": 1670,
      "ፔ": 1671,
      "ፕ": 1672,
      "ፖ": 1673,
      "ፗ": 1674,
      "ፘ": 1675,
      "፟": 1676,
      "፡": 1677,
      "።": 1678,
      "፣": 1679,
      "፤": 1680,
      "፥": 1681,
      "፦": 1682,
      "፧": 1683,
      "፨": 1684,
      "፩": 1685,
      "፪": 1686,
      "፫": 1687,
      "፬": 1688,
      "፭": 1689,
      "፮": 1690,
      "፯": 1691,
      "፰": 1692,
      "፱": 1693,
      "፲": 1694,
      "፳": 1695,
      "፴": 1696,
      "፵": 1697,
      "፶": 1698,
      "፷": 1699,
      "፸": 1700,
      "፹": 1701,
      "፺": 1702,
      "፻": 1703,
      "፼": 1704,
      "ᎆ": 1705,
      "᎗": 1706,
      "Ꭰ": 1707,
      "Ꭶ": 1708,
      "Ꭷ": 1709,
      "Ꭹ": 1710,
      "Ꭿ": 1711,
      "Ꮃ": 1712,
      "Ꮉ": 1713,
      "Ꮒ": 1714,
      "Ꮝ": 1715,
      "Ꮧ": 1716,
      "Ꮳ": 1717,
      "Ꮻ": 1718,
      "Ꮼ": 1719,
      "Ꮿ": 1720,
      "Ᏼ": 1721,
      "ᑕ": 1722,
      "ᑖ": 1723,
      "ᑭ": 1724,
      "ᓕ": 1725,
      "ᕋ": 1726,
      "ᕐ": 1727,
      "ᖅ": 1728,
      "᛫": 1729,
      "ᠠ": 1730,
      "ᠤ": 1731,
      "ᠨ": 1732,
      "ᠪ": 1733,
      "ᠭ": 1734,
      "ᠯ": 1735,
      "ᠲ": 1736,
      "ᠷ": 1737,
      "ᴀ": 1738,
      "ᴋ": 1739,
      "ᴍ": 1740,
      "ᴛ": 1741,
      "ḅ": 1742,
      "ḇ": 1743,
      "ḋ": 1744,
      "Ḍ": 1745,
      "ḍ": 1746,
      "ḏ": 1747,
      "Ḑ": 1748,
      "ḑ": 1749,
      "ḕ": 1750,
      "ḗ": 1751,
      "ḡ": 1752,
      "Ḥ": 1753,
      "ḥ": 1754,
      "Ḫ": 1755,
      "ḫ": 1756,
      "Ḱ": 1757,
      "ḱ": 1758,
      "ḳ": 1759,
      "ḵ": 1760,
      "ḷ": 1761,
      "Ḿ": 1762,
      "ḿ": 1763,
      "ṁ": 1764,
      "Ṃ": 1765,
      "ṃ": 1766,
      "Ṅ": 1767,
      "ṅ": 1768,
      "ṇ": 1769,
      "ṉ": 1770,
      "ṍ": 1771,
      "ṕ": 1772,
      "ṙ": 1773,
      "ṛ": 1774,
      "ṟ": 1775,
      "ṡ": 1776,
      "Ṣ": 1777,
      "ṣ": 1778,
      "ṫ": 1779,
      "Ṭ": 1780,
      "ṭ": 1781,
      "Ṯ": 1782,
      "ṯ": 1783,
      "ṷ": 1784,
      "ẁ": 1785,
      "ẃ": 1786,
      "ẉ": 1787,
      "Ẓ": 1788,
      "ẓ": 1789,
      "Ạ": 1790,
      "ạ": 1791,
      "ả": 1792,
      "ấ": 1793,
      "ầ": 1794,
      "ẵ": 1795,
      "Ẹ": 1796,
      "ẹ": 1797,
      "ẽ": 1798,
      "ế": 1799,
      "ề": 1800,
      "ể": 1801,
      "ễ": 1802,
      "ệ": 1803,
      "ỉ": 1804,
      "Ị": 1805,
      "ị": 1806,
      "Ọ": 1807,
      "ọ": 1808,
      "ố": 1809,
      "ồ": 1810,
      "ộ": 1811,
      "ớ": 1812,
      "ờ": 1813,
      "ở": 1814,
      "Ợ": 1815,
      "ợ": 1816,
      "Ụ": 1817,
      "ụ": 1818,
      "ủ": 1819,
      "ữ": 1820,
      "ỳ": 1821,
      "ỵ": 1822,
      "ỷ": 1823,
      "ἀ": 1824,
      "ἁ": 1825,
      "ἄ": 1826,
      "ἅ": 1827,
      "Ἀ": 1828,
      "Ἁ": 1829,
      "Ἄ": 1830,
      "Ἅ": 1831,
      "ἐ": 1832,
      "ἑ": 1833,
      "ἒ": 1834,
      "ἔ": 1835,
      "ἕ": 1836,
      "Ἐ": 1837,
      "Ἔ": 1838,
      "ἠ": 1839,
      "ἡ": 1840,
      "ἤ": 1841,
      "ἥ": 1842,
      "Ἡ": 1843,
      "ἰ": 1844,
      "ἱ": 1845,
      "ἴ": 1846,
      "Ἰ": 1847,
      "Ἱ": 1848,
      "Ἴ": 1849,
      "Ἵ": 1850,
      "ὀ": 1851,
      "ὁ": 1852,
      "ὄ": 1853,
      "Ὀ": 1854,
      "ὐ": 1855,
      "ὑ": 1856,
      "Ὑ": 1857,
      "ὥ": 1858,
      "ὰ": 1859,
      "ὴ": 1860,
      "ὶ": 1861,
      "ὸ": 1862,
      "ᾱ": 1863,
      "ᾶ": 1864,
      "᾽": 1865,
      "ῃ": 1866,
      "ῆ": 1867,
      "ῖ": 1868,
      "ῦ": 1869,
      "Ῥ": 1870,
      "ῶ": 1871,
      "​": 1872,
      "‌": 1873,
      "‍": 1874,
      "‎": 1875,
      "‏": 1876,
      "‐": 1877,
      "‑": 1878,
      "–": 1879,
      "—": 1880,
      "―": 1881,
      "‘": 1882,
      "’": 1883,
      "‛": 1884,
      "“": 1885,
      "”": 1886,
      "„": 1887,
      "‟": 1888,
      "†": 1889,
      "•": 1890,
      "…": 1891,
      "‧": 1892,
      "‬": 1893,
      "′": 1894,
      "″": 1895,
      "‹": 1896,
      "›": 1897,
      "‿": 1898,
      "⁂": 1899,
      "⁄": 1900,
      "⁠": 1901,
      "⁣": 1902,
      "ⁿ": 1903,
      "₂": 1904,
      "₦": 1905,
      "₨": 1906,
      "₫": 1907,
      "€": 1908,
      "₮": 1909,
      "₿": 1910,
      "⃣": 1911,
      "℅": 1912,
      "ℑ": 1913,
      "ℓ": 1914,
      "ℕ": 1915,
      "ℜ": 1916,
      "ℝ": 1917,
      "™": 1918,
      "ℤ": 1919,
      "⅓": 1920,
      "⅔": 1921,
      "←": 1922,
      "↑": 1923,
      "→": 1924,
      "↔": 1925,
      "↵": 1926,
      "⇒": 1927,
      "⇔": 1928,
      "∀": 1929,
      "∅": 1930,
      "∆": 1931,
      "∈": 1932,
      "∉": 1933,
      "∑": 1934,
      "−": 1935,
      "∗": 1936,
      "√": 1937,
      "∝": 1938,
      "∞": 1939,
      "∧": 1940,
      "∨": 1941,
      "∪": 1942,
      "∴": 1943,
      "∷": 1944,
      "≈": 1945,
      "≠": 1946,
      "≡": 1947,
      "≤": 1948,
      "≥": 1949,
      "⊂": 1950,
      "⊆": 1951,
      "⊇": 1952,
      "⊊": 1953,
      "⊕": 1954,
      "⋅": 1955,
      "⋔": 1956,
      "⋯": 1957,
      "▀": 1958,
      "▂": 1959,
      "▄": 1960,
      "█": 1961,
      "░": 1962,
      "▶": 1963,
      "◌": 1964,
      "●": 1965,
      "★": 1966,
      "☆": 1967,
      "☔": 1968,
      "☜": 1969,
      "☞": 1970,
      "☪": 1971,
      "♒": 1972,
      "♥": 1973,
      "♦": 1974,
      "✅": 1975,
      "✈": 1976,
      "✍": 1977,
      "✓": 1978,
      "✞": 1979,
      "✳": 1980,
      "❀": 1981,
      "❌": 1982,
      "❖": 1983,
      "➞": 1984,
      "⟨": 1985,
      "⟩": 1986,
      "⢁": 1987,
      "⣴": 1988,
      "⣿": 1989,
      "ⲇ": 1990,
      "ⲓ": 1991,
      "ⲡ": 1992,
      "ⴰ": 1993,
      "ⴱ": 1994,
      "ⴳ": 1995,
      "ⴷ": 1996,
      "ⴻ": 1997,
      "ⴼ": 1998,
      "ⵉ": 1999,
      "ⵍ": 2000,
      "ⵎ": 2001,
      "ⵏ": 2002,
      "ⵓ": 2003,
      "ⵔ": 2004,
      "ⵖ": 2005,
      "ⵙ": 2006,
      "ⵜ": 2007,
      "ⵢ": 2008,
      "ⵣ": 2009,
      "、": 2010,
      "。": 2011,
      "「": 2012,
      "」": 2013,
      "【": 2014,
      "】": 2015,
      "あ": 2016,
      "い": 2017,
      "う": 2018,
      "え": 2019,
      "お": 2020,
      "か": 2021,
      "が": 2022,
      "き": 2023,
      "く": 2024,
      "け": 2025,
      "こ": 2026,
      "ご": 2027,
      "さ": 2028,
      "し": 2029,
      "じ": 2030,
      "す": 2031,
      "せ": 2032,
      "そ": 2033,
      "た": 2034,
      "だ": 2035,
      "ち": 2036,
      "つ": 2037,
      "で": 2038,
      "と": 2039,
      "な": 2040,
      "に": 2041,
      "の": 2042,
      "は": 2043,
      "ひ": 2044,
      "び": 2045,
      "ふ": 2046,
      "ぷ": 2047,
      "べ": 2048,
      "ほ": 2049,
      "ま": 2050,
      "み": 2051,
      "も": 2052,
      "ょ": 2053,
      "よ": 2054,
      "ら": 2055,
      "り": 2056,
      "る": 2057,
      "れ": 2058,
      "わ": 2059,
      "を": 2060,
      "ん": 2061,
      "ア": 2062,
      "ィ": 2063,
      "イ": 2064,
      "ゥ": 2065,
      "ウ": 2066,
      "エ": 2067,
      "オ": 2068,
      "カ": 2069,
      "ガ": 2070,
      "キ": 2071,
      "ギ": 2072,
      "ク": 2073,
      "グ": 2074,
      "ケ": 2075,
      "コ": 2076,
      "ゴ": 2077,
      "サ": 2078,
      "ザ": 2079,
      "シ": 2080,
      "ジ": 2081,
      "ス": 2082,
      "ズ": 2083,
      "セ": 2084,
      "ゼ": 2085,
      "ソ": 2086,
      "タ": 2087,
      "ダ": 2088,
      "チ": 2089,
      "ッ": 2090,
      "ツ": 2091,
      "テ": 2092,
      "ト": 2093,
      "ド": 2094,
      "ナ": 2095,
      "ニ": 2096,
      "ネ": 2097,
      "ハ": 2098,
      "バ": 2099,
      "パ": 2100,
      "ヒ": 2101,
      "ビ": 2102,
      "ピ": 2103,
      "フ": 2104,
      "ブ": 2105,
      "プ": 2106,
      "ベ": 2107,
      "ボ": 2108,
      "ポ": 2109,
      "マ": 2110,
      "ム": 2111,
      "メ": 2112,
      "モ": 2113,
      "ヤ": 2114,
      "ョ": 2115,
      "ヨ": 2116,
      "ラ": 2117,
      "リ": 2118,
      "ル": 2119,
      "レ": 2120,
      "ロ": 2121,
      "ワ": 2122,
      "ン": 2123,
      "・": 2124,
      "ー": 2125,
      "ㄱ": 2126,
      "ㄷ": 2127,
      "ㄹ": 2128,
      "ㅂ": 2129,
      "ㅇ": 2130,
      "ㅈ": 2131,
      "一": 2132,
      "丁": 2133,
      "七": 2134,
      "万": 2135,
      "三": 2136,
      "上": 2137,
      "下": 2138,
      "不": 2139,
      "与": 2140,
      "专": 2141,
      "世": 2142,
      "东": 2143,
      "两": 2144,
      "严": 2145,
      "中": 2146,
      "丰": 2147,
      "丹": 2148,
      "主": 2149,
      "义": 2150,
      "之": 2151,
      "乌": 2152,
      "九": 2153,
      "书": 2154,
      "争": 2155,
      "事": 2156,
      "二": 2157,
      "云": 2158,
      "五": 2159,
      "亚": 2160,
      "亜": 2161,
      "京": 2162,
      "人": 2163,
      "仁": 2164,
      "今": 2165,
      "仏": 2166,
      "仙": 2167,
      "代": 2168,
      "令": 2169,
      "仲": 2170,
      "任": 2171,
      "伊": 2172,
      "伍": 2173,
      "伏": 2174,
      "会": 2175,
      "伝": 2176,
      "伟": 2177,
      "伦": 2178,
      "伯": 2179,
      "体": 2180,
      "何": 2181,
      "作": 2182,
      "佺": 2183,
      "例": 2184,
      "供": 2185,
      "侠": 2186,
      "俊": 2187,
      "信": 2188,
      "們": 2189,
      "倫": 2190,
      "健": 2191,
      "偶": 2192,
      "偿": 2193,
      "傳": 2194,
      "儒": 2195,
      "儿": 2196,
      "兄": 2197,
      "兆": 2198,
      "光": 2199,
      "兎": 2200,
      "兒": 2201,
      "兖": 2202,
      "全": 2203,
      "八": 2204,
      "公": 2205,
      "六": 2206,
      "兰": 2207,
      "共": 2208,
      "内": 2209,
      "円": 2210,
      "写": 2211,
      "农": 2212,
      "分": 2213,
      "刑": 2214,
      "列": 2215,
      "刘": 2216,
      "判": 2217,
      "利": 2218,
      "剌": 2219,
      "剑": 2220,
      "剛": 2221,
      "剣": 2222,
      "劉": 2223,
      "办": 2224,
      "加": 2225,
      "务": 2226,
      "労": 2227,
      "勉": 2228,
      "勤": 2229,
      "包": 2230,
      "化": 2231,
      "北": 2232,
      "匠": 2233,
      "匡": 2234,
      "十": 2235,
      "华": 2236,
      "南": 2237,
      "博": 2238,
      "印": 2239,
      "原": 2240,
      "厦": 2241,
      "参": 2242,
      "友": 2243,
      "双": 2244,
      "发": 2245,
      "取": 2246,
      "口": 2247,
      "古": 2248,
      "只": 2249,
      "可": 2250,
      "台": 2251,
      "史": 2252,
      "叶": 2253,
      "司": 2254,
      "各": 2255,
      "合": 2256,
      "吉": 2257,
      "同": 2258,
      "名": 2259,
      "向": 2260,
      "君": 2261,
      "吠": 2262,
      "启": 2263,
      "吳": 2264,
      "吴": 2265,
      "员": 2266,
      "周": 2267,
      "和": 2268,
      "品": 2269,
      "哈": 2270,
      "哥": 2271,
      "哲": 2272,
      "商": 2273,
      "善": 2274,
      "喋": 2275,
      "喾": 2276,
      "嚴": 2277,
      "四": 2278,
      "団": 2279,
      "国": 2280,
      "國": 2281,
      "園": 2282,
      "土": 2283,
      "在": 2284,
      "地": 2285,
      "坊": 2286,
      "坎": 2287,
      "垒": 2288,
      "城": 2289,
      "執": 2290,
      "基": 2291,
      "堂": 2292,
      "堅": 2293,
      "塔": 2294,
      "塞": 2295,
      "墨": 2296,
      "壁": 2297,
      "士": 2298,
      "壬": 2299,
      "处": 2300,
      "复": 2301,
      "外": 2302,
      "夜": 2303,
      "夢": 2304,
      "大": 2305,
      "天": 2306,
      "太": 2307,
      "夫": 2308,
      "头": 2309,
      "奈": 2310,
      "女": 2311,
      "好": 2312,
      "如": 2313,
      "妹": 2314,
      "始": 2315,
      "姜": 2316,
      "威": 2317,
      "娃": 2318,
      "婉": 2319,
      "婷": 2320,
      "嫩": 2321,
      "嬴": 2322,
      "子": 2323,
      "孔": 2324,
      "字": 2325,
      "孙": 2326,
      "季": 2327,
      "学": 2328,
      "孫": 2329,
      "宁": 2330,
      "宇": 2331,
      "安": 2332,
      "宋": 2333,
      "宗": 2334,
      "官": 2335,
      "宜": 2336,
      "宝": 2337,
      "客": 2338,
      "宣": 2339,
      "宮": 2340,
      "家": 2341,
      "密": 2342,
      "富": 2343,
      "寒": 2344,
      "寧": 2345,
      "射": 2346,
      "尊": 2347,
      "小": 2348,
      "少": 2349,
      "尔": 2350,
      "尧": 2351,
      "尹": 2352,
      "尼": 2353,
      "居": 2354,
      "屋": 2355,
      "屬": 2356,
      "山": 2357,
      "岛": 2358,
      "岢": 2359,
      "峯": 2360,
      "峰": 2361,
      "島": 2362,
      "崎": 2363,
      "川": 2364,
      "州": 2365,
      "己": 2366,
      "巴": 2367,
      "市": 2368,
      "布": 2369,
      "师": 2370,
      "希": 2371,
      "帝": 2372,
      "帶": 2373,
      "常": 2374,
      "幌": 2375,
      "平": 2376,
      "年": 2377,
      "广": 2378,
      "庄": 2379,
      "庆": 2380,
      "庖": 2381,
      "庚": 2382,
      "庠": 2383,
      "度": 2384,
      "庭": 2385,
      "康": 2386,
      "廑": 2387,
      "延": 2388,
      "建": 2389,
      "弗": 2390,
      "张": 2391,
      "張": 2392,
      "強": 2393,
      "弾": 2394,
      "归": 2395,
      "彩": 2396,
      "彼": 2397,
      "徐": 2398,
      "得": 2399,
      "御": 2400,
      "復": 2401,
      "徳": 2402,
      "德": 2403,
      "徽": 2404,
      "心": 2405,
      "志": 2406,
      "念": 2407,
      "性": 2408,
      "怪": 2409,
      "总": 2410,
      "恆": 2411,
      "恨": 2412,
      "恩": 2413,
      "您": 2414,
      "情": 2415,
      "想": 2416,
      "愈": 2417,
      "意": 2418,
      "愛": 2419,
      "感": 2420,
      "憲": 2421,
      "成": 2422,
      "我": 2423,
      "戦": 2424,
      "所": 2425,
      "扃": 2426,
      "手": 2427,
      "才": 2428,
      "托": 2429,
      "批": 2430,
      "承": 2431,
      "拓": 2432,
      "拳": 2433,
      "拾": 2434,
      "指": 2435,
      "挺": 2436,
      "据": 2437,
      "探": 2438,
      "摩": 2439,
      "操": 2440,
      "改": 2441,
      "政": 2442,
      "敏": 2443,
      "教": 2444,
      "敬": 2445,
      "數": 2446,
      "文": 2447,
      "斎": 2448,
      "斬": 2449,
      "斯": 2450,
      "新": 2451,
      "方": 2452,
      "旅": 2453,
      "旗": 2454,
      "无": 2455,
      "日": 2456,
      "旧": 2457,
      "早": 2458,
      "时": 2459,
      "昆": 2460,
      "昊": 2461,
      "昌": 2462,
      "明": 2463,
      "星": 2464,
      "映": 2465,
      "春": 2466,
      "昭": 2467,
      "時": 2468,
      "晏": 2469,
      "晓": 2470,
      "景": 2471,
      "暂": 2472,
      "曜": 2473,
      "書": 2474,
      "曹": 2475,
      "替": 2476,
      "月": 2477,
      "望": 2478,
      "朝": 2479,
      "期": 2480,
      "木": 2481,
      "未": 2482,
      "本": 2483,
      "札": 2484,
      "朱": 2485,
      "朴": 2486,
      "李": 2487,
      "杜": 2488,
      "条": 2489,
      "杭": 2490,
      "東": 2491,
      "杵": 2492,
      "林": 2493,
      "柏": 2494,
      "柔": 2495,
      "查": 2496,
      "柳": 2497,
      "树": 2498,
      "校": 2499,
      "格": 2500,
      "桀": 2501,
      "桂": 2502,
      "梅": 2503,
      "检": 2504,
      "棚": 2505,
      "棠": 2506,
      "森": 2507,
      "植": 2508,
      "楊": 2509,
      "楚": 2510,
      "楠": 2511,
      "極": 2512,
      "構": 2513,
      "槐": 2514,
      "樂": 2515,
      "樊": 2516,
      "横": 2517,
      "樹": 2518,
      "橋": 2519,
      "橙": 2520,
      "機": 2521,
      "欧": 2522,
      "欽": 2523,
      "歌": 2524,
      "正": 2525,
      "武": 2526,
      "歴": 2527,
      "死": 2528,
      "殖": 2529,
      "段": 2530,
      "殺": 2531,
      "母": 2532,
      "毛": 2533,
      "民": 2534,
      "気": 2535,
      "水": 2536,
      "永": 2537,
      "汉": 2538,
      "汕": 2539,
      "江": 2540,
      "池": 2541,
      "沃": 2542,
      "沈": 2543,
      "沙": 2544,
      "沟": 2545,
      "沪": 2546,
      "河": 2547,
      "泄": 2548,
      "泉": 2549,
      "法": 2550,
      "波": 2551,
      "泥": 2552,
      "泪": 2553,
      "泰": 2554,
      "泽": 2555,
      "洋": 2556,
      "津": 2557,
      "洲": 2558,
      "流": 2559,
      "济": 2560,
      "浙": 2561,
      "浦": 2562,
      "浩": 2563,
      "海": 2564,
      "涿": 2565,
      "淄": 2566,
      "深": 2567,
      "添": 2568,
      "渡": 2569,
      "渤": 2570,
      "温": 2571,
      "港": 2572,
      "湖": 2573,
      "湘": 2574,
      "湛": 2575,
      "湯": 2576,
      "湾": 2577,
      "滑": 2578,
      "滨": 2579,
      "漢": 2580,
      "漪": 2581,
      "漳": 2582,
      "潮": 2583,
      "潽": 2584,
      "澎": 2585,
      "澤": 2586,
      "澳": 2587,
      "濠": 2588,
      "火": 2589,
      "灵": 2590,
      "炎": 2591,
      "為": 2592,
      "烟": 2593,
      "無": 2594,
      "焦": 2595,
      "然": 2596,
      "煐": 2597,
      "煞": 2598,
      "照": 2599,
      "熊": 2600,
      "熱": 2601,
      "燕": 2602,
      "爱": 2603,
      "父": 2604,
      "爾": 2605,
      "牛": 2606,
      "牟": 2607,
      "物": 2608,
      "牺": 2609,
      "犀": 2610,
      "犬": 2611,
      "独": 2612,
      "猪": 2613,
      "猫": 2614,
      "猿": 2615,
      "玉": 2616,
      "王": 2617,
      "现": 2618,
      "玲": 2619,
      "珊": 2620,
      "珍": 2621,
      "現": 2622,
      "球": 2623,
      "理": 2624,
      "琪": 2625,
      "瑟": 2626,
      "璠": 2627,
      "璧": 2628,
      "環": 2629,
      "瓔": 2630,
      "瓦": 2631,
      "甘": 2632,
      "生": 2633,
      "産": 2634,
      "用": 2635,
      "甫": 2636,
      "甬": 2637,
      "田": 2638,
      "甲": 2639,
      "男": 2640,
      "画": 2641,
      "略": 2642,
      "當": 2643,
      "疆": 2644,
      "疏": 2645,
      "登": 2646,
      "白": 2647,
      "的": 2648,
      "皇": 2649,
      "皋": 2650,
      "皖": 2651,
      "盆": 2652,
      "盛": 2653,
      "盧": 2654,
      "目": 2655,
      "直": 2656,
      "相": 2657,
      "真": 2658,
      "石": 2659,
      "磁": 2660,
      "礼": 2661,
      "祖": 2662,
      "神": 2663,
      "祥": 2664,
      "票": 2665,
      "福": 2666,
      "禦": 2667,
      "禮": 2668,
      "秀": 2669,
      "私": 2670,
      "秋": 2671,
      "科": 2672,
      "秘": 2673,
      "秦": 2674,
      "稽": 2675,
      "空": 2676,
      "立": 2677,
      "章": 2678,
      "竹": 2679,
      "笑": 2680,
      "第": 2681,
      "筆": 2682,
      "策": 2683,
      "節": 2684,
      "篇": 2685,
      "米": 2686,
      "粤": 2687,
      "粵": 2688,
      "精": 2689,
      "約": 2690,
      "素": 2691,
      "細": 2692,
      "統": 2693,
      "經": 2694,
      "綺": 2695,
      "綽": 2696,
      "総": 2697,
      "緑": 2698,
      "縞": 2699,
      "约": 2700,
      "纪": 2701,
      "纵": 2702,
      "线": 2703,
      "统": 2704,
      "罗": 2705,
      "罚": 2706,
      "罪": 2707,
      "羅": 2708,
      "羊": 2709,
      "美": 2710,
      "群": 2711,
      "義": 2712,
      "羲": 2713,
      "羽": 2714,
      "翊": 2715,
      "耀": 2716,
      "老": 2717,
      "考": 2718,
      "耆": 2719,
      "耳": 2720,
      "聿": 2721,
      "肃": 2722,
      "肉": 2723,
      "肖": 2724,
      "肥": 2725,
      "育": 2726,
      "胆": 2727,
      "胶": 2728,
      "臘": 2729,
      "自": 2730,
      "舒": 2731,
      "舜": 2732,
      "船": 2733,
      "色": 2734,
      "艸": 2735,
      "节": 2736,
      "芜": 2737,
      "芬": 2738,
      "花": 2739,
      "芳": 2740,
      "苏": 2741,
      "苓": 2742,
      "英": 2743,
      "茂": 2744,
      "茶": 2745,
      "草": 2746,
      "荣": 2747,
      "莆": 2748,
      "莱": 2749,
      "華": 2750,
      "菲": 2751,
      "营": 2752,
      "萧": 2753,
      "葛": 2754,
      "蒲": 2755,
      "蓝": 2756,
      "蓟": 2757,
      "蓮": 2758,
      "蔡": 2759,
      "蕭": 2760,
      "薇": 2761,
      "藏": 2762,
      "蘭": 2763,
      "虎": 2764,
      "虫": 2765,
      "蛇": 2766,
      "蝴": 2767,
      "蝶": 2768,
      "蠻": 2769,
      "血": 2770,
      "衆": 2771,
      "行": 2772,
      "術": 2773,
      "街": 2774,
      "表": 2775,
      "裁": 2776,
      "西": 2777,
      "覧": 2778,
      "親": 2779,
      "觀": 2780,
      "記": 2781,
      "許": 2782,
      "詩": 2783,
      "話": 2784,
      "誕": 2785,
      "語": 2786,
      "説": 2787,
      "論": 2788,
      "謎": 2789,
      "謝": 2790,
      "謹": 2791,
      "譚": 2792,
      "让": 2793,
      "议": 2794,
      "话": 2795,
      "语": 2796,
      "诸": 2797,
      "谭": 2798,
      "豚": 2799,
      "象": 2800,
      "豢": 2801,
      "豪": 2802,
      "貝": 2803,
      "貫": 2804,
      "買": 2805,
      "賈": 2806,
      "贵": 2807,
      "贾": 2808,
      "赔": 2809,
      "赣": 2810,
      "赤": 2811,
      "趙": 2812,
      "跆": 2813,
      "跡": 2814,
      "路": 2815,
      "身": 2816,
      "軍": 2817,
      "轮": 2818,
      "轼": 2819,
      "辛": 2820,
      "辣": 2821,
      "農": 2822,
      "辽": 2823,
      "达": 2824,
      "运": 2825,
      "远": 2826,
      "迦": 2827,
      "迪": 2828,
      "通": 2829,
      "連": 2830,
      "逸": 2831,
      "道": 2832,
      "達": 2833,
      "遷": 2834,
      "邦": 2835,
      "邯": 2836,
      "郎": 2837,
      "郑": 2838,
      "部": 2839,
      "郭": 2840,
      "郷": 2841,
      "都": 2842,
      "酒": 2843,
      "重": 2844,
      "野": 2845,
      "金": 2846,
      "鉉": 2847,
      "銀": 2848,
      "銘": 2849,
      "錯": 2850,
      "鏡": 2851,
      "鐵": 2852,
      "钱": 2853,
      "铁": 2854,
      "铜": 2855,
      "锦": 2856,
      "镜": 2857,
      "長": 2858,
      "长": 2859,
      "門": 2860,
      "閔": 2861,
      "门": 2862,
      "间": 2863,
      "阪": 2864,
      "阳": 2865,
      "阵": 2866,
      "阿": 2867,
      "陀": 2868,
      "陇": 2869,
      "陈": 2870,
      "降": 2871,
      "陕": 2872,
      "陛": 2873,
      "陰": 2874,
      "陸": 2875,
      "陽": 2876,
      "隆": 2877,
      "際": 2878,
      "雄": 2879,
      "雅": 2880,
      "集": 2881,
      "雍": 2882,
      "雙": 2883,
      "雨": 2884,
      "雪": 2885,
      "雯": 2886,
      "雲": 2887,
      "雷": 2888,
      "霑": 2889,
      "露": 2890,
      "青": 2891,
      "非": 2892,
      "面": 2893,
      "韓": 2894,
      "韜": 2895,
      "韦": 2896,
      "韩": 2897,
      "韶": 2898,
      "順": 2899,
      "頊": 2900,
      "領": 2901,
      "顓": 2902,
      "顺": 2903,
      "顿": 2904,
      "風": 2905,
      "食": 2906,
      "飲": 2907,
      "飾": 2908,
      "首": 2909,
      "香": 2910,
      "馬": 2911,
      "騎": 2912,
      "騏": 2913,
      "马": 2914,
      "高": 2915,
      "魂": 2916,
      "魏": 2917,
      "魚": 2918,
      "鮮": 2919,
      "鰐": 2920,
      "鱷": 2921,
      "鳥": 2922,
      "鶏": 2923,
      "鷗": 2924,
      "鹰": 2925,
      "鹿": 2926,
      "麒": 2927,
      "麟": 2928,
      "麻": 2929,
      "黃": 2930,
      "黄": 2931,
      "黎": 2932,
      "黑": 2933,
      "黒": 2934,
      "黔": 2935,
      "黙": 2936,
      "鼠": 2937,
      "齊": 2938,
      "齐": 2939,
      "龍": 2940,
      "龙": 2941,
      "龜": 2942,
      "ꜜ": 2943,
      "ꜣ": 2944,
      "Ꜹ": 2945,
      "가": 2946,
      "감": 2947,
      "강": 2948,
      "갱": 2949,
      "건": 2950,
      "게": 2951,
      "견": 2952,
      "경": 2953,
      "계": 2954,
      "고": 2955,
      "곱": 2956,
      "공": 2957,
      "과": 2958,
      "교": 2959,
      "구": 2960,
      "국": 2961,
      "군": 2962,
      "그": 2963,
      "글": 2964,
      "금": 2965,
      "기": 2966,
      "까": 2967,
      "깨": 2968,
      "꽃": 2969,
      "끼": 2970,
      "나": 2971,
      "남": 2972,
      "내": 2973,
      "너": 2974,
      "네": 2975,
      "넷": 2976,
      "녁": 2977,
      "년": 2978,
      "념": 2979,
      "녕": 2980,
      "노": 2981,
      "누": 2982,
      "눈": 2983,
      "뉴": 2984,
      "느": 2985,
      "는": 2986,
      "니": 2987,
      "님": 2988,
      "다": 2989,
      "닦": 2990,
      "달": 2991,
      "당": 2992,
      "대": 2993,
      "덟": 2994,
      "도": 2995,
      "독": 2996,
      "동": 2997,
      "되": 2998,
      "둘": 2999,
      "드": 3000,
      "든": 3001,
      "들": 3002,
      "디": 3003,
      "라": 3004,
      "람": 3005,
      "랑": 3006,
      "래": 3007,
      "러": 3008,
      "레": 3009,
      "로": 3010,
      "록": 3011,
      "룡": 3012,
      "루": 3013,
      "르": 3014,
      "륵": 3015,
      "른": 3016,
      "를": 3017,
      "리": 3018,
      "립": 3019,
      "마": 3020,
      "만": 3021,
      "말": 3022,
      "맙": 3023,
      "망": 3024,
      "매": 3025,
      "메": 3026,
      "면": 3027,
      "명": 3028,
      "모": 3029,
      "목": 3030,
      "무": 3031,
      "문": 3032,
      "물": 3033,
      "미": 3034,
      "민": 3035,
      "바": 3036,
      "박": 3037,
      "반": 3038,
      "발": 3039,
      "방": 3040,
      "백": 3041,
      "베": 3042,
      "별": 3043,
      "보": 3044,
      "본": 3045,
      "부": 3046,
      "북": 3047,
      "불": 3048,
      "비": 3049,
      "빨": 3050,
      "사": 3051,
      "삭": 3052,
      "산": 3053,
      "삼": 3054,
      "상": 3055,
      "생": 3056,
      "서": 3057,
      "석": 3058,
      "선": 3059,
      "설": 3060,
      "섯": 3061,
      "성": 3062,
      "세": 3063,
      "셋": 3064,
      "셰": 3065,
      "소": 3066,
      "송": 3067,
      "수": 3068,
      "순": 3069,
      "쉰": 3070,
      "스": 3071,
      "습": 3072,
      "시": 3073,
      "식": 3074,
      "신": 3075,
      "십": 3076,
      "쌀": 3077,
      "아": 3078,
      "안": 3079,
      "애": 3080,
      "야": 3081,
      "양": 3082,
      "어": 3083,
      "에": 3084,
      "여": 3085,
      "연": 3086,
      "열": 3087,
      "영": 3088,
      "예": 3089,
      "오": 3090,
      "온": 3091,
      "요": 3092,
      "우": 3093,
      "운": 3094,
      "울": 3095,
      "월": 3096,
      "위": 3097,
      "유": 3098,
      "육": 3099,
      "윤": 3100,
      "율": 3101,
      "은": 3102,
      "을": 3103,
      "음": 3104,
      "의": 3105,
      "이": 3106,
      "인": 3107,
      "일": 3108,
      "잉": 3109,
      "자": 3110,
      "작": 3111,
      "장": 3112,
      "재": 3113,
      "저": 3114,
      "적": 3115,
      "전": 3116,
      "점": 3117,
      "제": 3118,
      "조": 3119,
      "존": 3120,
      "죄": 3121,
      "죠": 3122,
      "주": 3123,
      "죽": 3124,
      "중": 3125,
      "즈": 3126,
      "즘": 3127,
      "지": 3128,
      "직": 3129,
      "징": 3130,
      "차": 3131,
      "참": 3132,
      "천": 3133,
      "철": 3134,
      "청": 3135,
      "체": 3136,
      "총": 3137,
      "축": 3138,
      "치": 3139,
      "친": 3140,
      "칠": 3141,
      "카": 3142,
      "칸": 3143,
      "커": 3144,
      "코": 3145,
      "쿄": 3146,
      "크": 3147,
      "키": 3148,
      "탄": 3149,
      "탕": 3150,
      "터": 3151,
      "토": 3152,
      "투": 3153,
      "트": 3154,
      "특": 3155,
      "티": 3156,
      "파": 3157,
      "팔": 3158,
      "페": 3159,
      "평": 3160,
      "폐": 3161,
      "포": 3162,
      "프": 3163,
      "피": 3164,
      "하": 3165,
      "한": 3166,
      "할": 3167,
      "합": 3168,
      "해": 3169,
      "향": 3170,
      "헌": 3171,
      "현": 3172,
      "형": 3173,
      "호": 3174,
      "혼": 3175,
      "홉": 3176,
      "화": 3177,
      "활": 3178,
      "흔": 3179,
      "희": 3180,
      "히": 3181,
      "": 3182,
      "": 3183,
      "": 3184,
      "": 3185,
      "ﷲ": 3186,
      "ﷺ": 3187,
      "︎": 3188,
      "️": 3189,
      "ﺀ": 3190,
      "ﺍ": 3191,
      "ﺎ": 3192,
      "ﺏ": 3193,
      "ﺐ": 3194,
      "ﺑ": 3195,
      "ﺞ": 3196,
      "ﺡ": 3197,
      "ﺩ": 3198,
      "ﺮ": 3199,
      "ﺯ": 3200,
      "ﺷ": 3201,
      "ﺼ": 3202,
      "ﺽ": 3203,
      "ﻄ": 3204,
      "ﻋ": 3205,
      "ﻓ": 3206,
      "ﻗ": 3207,
      "ﻟ": 3208,
      "ﻠ": 3209,
      "ﻤ": 3210,
      "ﻥ": 3211,
      "ﻧ": 3212,
      "ﻬ": 3213,
      "ﻲ": 3214,
      "ﻳ": 3215,
      "ﻴ": 3216,
      "﻿": 3217,
      "（": 3218,
      "）": 3219,
      "，": 3220,
      "／": 3221,
      "：": 3222,
      "；": 3223,
      "？": 3224,
      "Ｚ": 3225,
      "～": 3226,
      "￼": 3227,
      "�": 3228,
      "𐌌": 3229,
      "𐌐": 3230,
      "𐌑": 3231,
      "𐌚": 3232,
      "𐌠": 3233,
      "𐌡": 3234,
      "𐌢": 3235,
      "𐎢": 3236,
      "𐎤": 3237,
      "𐎽": 3238,
      "𐏁": 3239,
      "𐤀": 3240,
      "𐤁": 3241,
      "𐤃": 3242,
      "𐤊": 3243,
      "𐤋": 3244,
      "𐤌": 3245,
      "𐤍": 3246,
      "𐤏": 3247,
      "𐤔": 3248,
      "𐦡": 3249,
      "𐦲": 3250,
      "𐦴": 3251,
      "𐦷": 3252,
      "𒄀": 3253,
      "𒅗": 3254,
      "𒈾": 3255,
      "𒌷": 3256,
      "𓅓": 3257,
      "𓅖": 3258,
      "𓆎": 3259,
      "𓇌": 3260,
      "𓊖": 3261,
      "𓎡": 3262,
      "𓏏": 3263,
      "𓏛": 3264,
      "𝘢": 3265,
      "𝘦": 3266,
      "𝘪": 3267,
      "𝘭": 3268,
      "𝘰": 3269,
      "𝘱": 3270,
      "𞤢": 3271,
      "𞤣": 3272,
      "𞤤": 3273,
      "𞤦": 3274,
      "𞤪": 3275,
      "𞤫": 3276,
      "𞤭": 3277,
      "𞤳": 3278,
      "𞤴": 3279,
      "𞤵": 3280,
      "𞤷": 3281,
      "𞤼": 3282,
      "𞥅": 3283,
      "𞥆": 3284,
      "🌼": 3285,
      "🌿": 3286,
      "🍁": 3287,
      "🍃": 3288,
      "🏿": 3289,
      "💐": 3290,
      "💟": 3291,
      "💥": 3292,
      "💫": 3293,
      "📌": 3294,
      "📚": 3295,
      "📝": 3296,
      "🔸": 3297,
      "🔹": 3298,
      "😨": 3299,
      "🙏": 3300,
      "an": 3301,
      "ar": 3302,
      "in": 3303,
      "wa": 3304,
      "on": 3305,
      "er": 3306,
      "en": 3307,
      "ka": 3308,
      "ti": 3309,
      "ya": 3310,
      "da": 3311,
      "ta": 3312,
      "ma": 3313,
      "es": 3314,
      "li": 3315,
      "un": 3316,
      "la": 3317,
      "is": 3318,
      "he": 3319,
      "or": 3320,
      "le": 3321,
      "ba": 3322,
      "na": 3323,
      "ku": 3324,
      "ha": 3325,
      "de": 3326,
      "sa": 3327,
      "ur": 3328,
      "to": 3329,
      "hi": 3330,
      "si": 3331,
      "re": 3332,
      "ki": 3333,
      "te": 3334,
      "ni": 3335,
      "al": 3336,
      "19": 3337,
      "di": 3338,
      "ri": 3339,
      "ga": 3340,
      "ra": 3341,
      "the": 3342,
      "mi": 3343,
      "of": 3344,
      "us": 3345,
      "ẹ̀": 3346,
      "ci": 3347,
      "bi": 3348,
      "ce": 3349,
      "ara": 3350,
      "om": 3351,
      "za": 3352,
      "wọ": 3353,
      "20": 3354,
      "ẹ́": 3355,
      "ana": 3356,
      "gb": 3357,
      "as": 3358,
      "and": 3359,
      "ent": 3360,
      "fi": 3361,
      "ke": 3362,
      "ol": 3363,
      "th": 3364,
      "ani": 3365,
      "tion": 3366,
      "ní": 3367,
      "ing": 3368,
      "ro": 3369,
      "ch": 3370,
      "am": 3371,
      "ne": 3372,
      "ji": 3373,
      "ko": 3374,
      "el": 3375,
      "qu": 3376,
      "ari": 3377,
      "ọ́": 3378,
      "wọn": 3379,
      "et": 3380,
      "su": 3381,
      "il": 3382,
      "tu": 3383,
      "me": 3384,
      "du": 3385,
      "se": 3386,
      "Ma": 3387,
      "mu": 3388,
      "kin": 3389,
      "pa": 3390,
      "gi": 3391,
      "lo": 3392,
      "fa": 3393,
      "po": 3394,
      "እን": 3395,
      "ali": 3396,
      "tí": 3397,
      "ọ̀": 3398,
      "bu": 3399,
      "ነው": 3400,
      "eri": 3401,
      "ina": 3402,
      "au": 3403,
      "zi": 3404,
      "ún": 3405,
      "kan": 3406,
      "kar": 3407,
      "sh": 3408,
      "kwa": 3409,
      "ou": 3410,
      "tan": 3411,
      "ye": 3412,
      "mo": 3413,
      "wan": 3414,
      "are": 3415,
      "ter": 3416,
      "it": 3417,
      "gu": 3418,
      "ge": 3419,
      "she": 3420,
      "yan": 3421,
      "pe": 3422,
      "les": 3423,
      "hu": 3424,
      "ve": 3425,
      "yar": 3426,
      "ir": 3427,
      "so": 3428,
      "dan": 3429,
      "je": 3430,
      "shi": 3431,
      "san": 3432,
      "kuma": 3433,
      "ja": 3434,
      "ነው።": 3435,
      "ini": 3436,
      "go": 3437,
      "vi": 3438,
      "des": 3439,
      "yo": 3440,
      "st": 3441,
      "18": 3442,
      "be": 3443,
      "kati": 3444,
      "at": 3445,
      "ran": 3446,
      "con": 3447,
      "yi": 3448,
      "ment": 3449,
      "200": 3450,
      "rí": 3451,
      "est": 3452,
      "pi": 3453,
      "የሚ": 3454,
      "man": 3455,
      "ቸው": 3456,
      "for": 3457,
      "201": 3458,
      "bo": 3459,
      "par": 3460,
      "ré": 3461,
      "የአ": 3462,
      "do": 3463,
      "lu": 3464,
      "ል።": 3465,
      "ine": 3466,
      "ver": 3467,
      "sí": 3468,
      "ca": 3469,
      "lá": 3470,
      "fu": 3471,
      "ts": 3472,
      "ai": 3473,
      "ሳሌ": 3474,
      "que": 3475,
      "lẹ̀": 3476,
      "ምሳሌ": 3477,
      "መን": 3478,
      "we": 3479,
      "toka": 3480,
      "ly": 3481,
      "bí": 3482,
      "ban": 3483,
      "mar": 3484,
      "l'": 3485,
      "Ba": 3486,
      "ነበ": 3487,
      "ori": 3488,
      "àwọn": 3489,
      "waka": 3490,
      ").": 3491,
      "har": 3492,
      "wi": 3493,
      "àn": 3494,
      "ere": 3495,
      "um": 3496,
      "com": 3497,
      "res": 3498,
      "In": 3499,
      "cha": 3500,
      "The": 3501,
      "war": 3502,
      "dé": 3503,
      "Wa": 3504,
      "uni": 3505,
      "00": 3506,
      "kuwa": 3507,
      "የተ": 3508,
      "ad": 3509,
      "yin": 3510,
      "ru": 3511,
      "An": 3512,
      "ንድ": 3513,
      "),": 3514,
      "Na": 3515,
      "una": 3516,
      "tar": 3517,
      "co": 3518,
      "s,": 3519,
      "ዎች": 3520,
      "cikin": 3521,
      "Àwọn": 3522,
      "kara": 3523,
      "chi": 3524,
      "ati": 3525,
      "እና": 3526,
      "rin": 3527,
      "cin": 3528,
      "ላይ": 3529,
      "Ki": 3530,
      "mba": 3531,
      "ed": 3532,
      "ct": 3533,
      "ነት": 3534,
      "jẹ́": 3535,
      "daga": 3536,
      "ul": 3537,
      "Ni": 3538,
      "son": 3539,
      "zo": 3540,
      "d'": 3541,
      "እንደ": 3542,
      "Am": 3543,
      "199": 3544,
      "àti": 3545,
      "aka": 3546,
      "ho": 3547,
      "gba": 3548,
      "won": 3549,
      "wo": 3550,
      "ማር": 3551,
      "katika": 3552,
      "pro": 3553,
      "rẹ̀": 3554,
      "lé": 3555,
      "ted": 3556,
      "tsa": 3557,
      "no": 3558,
      "Al": 3559,
      "ọd": 3560,
      "fe": 3561,
      "ber": 3562,
      "jeri": 3563,
      "ist": 3564,
      "oni": 3565,
      "jeriya": 3566,
      "mwaka": 3567,
      "ty": 3568,
      "ili": 3569,
      "gh": 3570,
      "une": 3571,
      "ab": 3572,
      "wọ́": 3573,
      "ለው": 3574,
      "jo": 3575,
      "ìn": 3576,
      "Af": 3577,
      "lú": 3578,
      "ris": 3579,
      "té": 3580,
      "shekar": 3581,
      "yu": 3582,
      "ùn": 3583,
      "ከተ": 3584,
      "ju": 3585,
      "mai": 3586,
      "ll": 3587,
      "s.": 3588,
      "ap": 3589,
      "op": 3590,
      "No": 3591,
      "don": 3592,
      "sar": 3593,
      "mp": 3594,
      "wen": 3595,
      "ያን": 3596,
      "ex": 3597,
      "isi": 3598,
      "ṣe": 3599,
      "Le": 3600,
      "zu": 3601,
      "ሆን": 3602,
      "gbà": 3603,
      "198": 3604,
      "dè": 3605,
      "La": 3606,
      "fin": 3607,
      "nan": 3608,
      "hai": 3609,
      "lan": 3610,
      "በአ": 3611,
      "kun": 3612,
      "Wali": 3613,
      "ọdún": 3614,
      "a.": 3615,
      "nin": 3616,
      "እስ": 3617,
      "kọ́": 3618,
      "tun": 3619,
      "far": 3620,
      "pu": 3621,
      "ada": 3622,
      "ces": 3623,
      "197": 3624,
      "was": 3625,
      "ዚህ": 3626,
      "shekara": 3627,
      "ትዮ": 3628,
      "ማርኛ": 3629,
      "በመ": 3630,
      "ወደ": 3631,
      "ረት": 3632,
      "olo": 3633,
      "gan": 3634,
      "196": 3635,
      "ኢትዮ": 3636,
      "ለት": 3637,
      "Sa": 3638,
      "በት": 3639,
      "od": 3640,
      "by": 3641,
      "ነበር": 3642,
      "ure": 3643,
      "han": 3644,
      "ነገ": 3645,
      "Ta": 3646,
      "mọ": 3647,
      "can": 3648,
      "ኢትዮጵ": 3649,
      "ló": 3650,
      "a,": 3651,
      "Afri": 3652,
      "shekarar": 3653,
      "wọ́n": 3654,
      "17": 3655,
      "ín": 3656,
      "tokasi": 3657,
      "tó": 3658,
      "tic": 3659,
      "sì": 3660,
      "ውስ": 3661,
      "orí": 3662,
      "Najeriya": 3663,
      "Itokasi": 3664,
      "ትር": 3665,
      "ኢትዮጵያ": 3666,
      "የአማርኛ": 3667,
      "ìj": 3668,
      "che": 3669,
      "liwa": 3670,
      "èdè": 3671,
      "ten": 3672,
      "sha": 3673,
      "shin": 3674,
      "wanda": 3675,
      "gun": 3676,
      "asa": 3677,
      "kutoka": 3678,
      "bar": 3679,
      "rom": 3680,
      "tes": 3681,
      "kọ": 3682,
      "bá": 3683,
      "ac": 3684,
      "16": 3685,
      "áà": 3686,
      "15": 3687,
      "per": 3688,
      "fun": 3689,
      "fan": 3690,
      "wana": 3691,
      "pé": 3692,
      "his": 3693,
      "sun": 3694,
      "አይ": 3695,
      "Mu": 3696,
      "ene": 3697,
      "ስት": 3698,
      "ther": 3699,
      "bel": 3700,
      "fún": 3701,
      "Ro": 3702,
      "qui": 3703,
      "yana": 3704,
      "kó": 3705,
      "Se": 3706,
      "der": 3707,
      "ኛው": 3708,
      "በተ": 3709,
      "kama": 3710,
      "with": 3711,
      "tra": 3712,
      "ግን": 3713,
      "gbo": 3714,
      "Pa": 3715,
      "ck": 3716,
      "gar": 3717,
      "lọ": 3718,
      "lin": 3719,
      "ቶች": 3720,
      "nín": 3721,
      "ውስጥ": 3722,
      "ሪያ": 3723,
      "ph": 3724,
      "uri": 3725,
      "min": 3726,
      "wali": 3727,
      "ስተ": 3728,
      "Ar": 3729,
      "10": 3730,
      "'s": 3731,
      "hat": 3732,
      "ction": 3733,
      "os": 3734,
      "ወይ": 3735,
      "din": 3736,
      "jọ́": 3737,
      "ire": 3738,
      "ጊዜ": 3739,
      "En": 3740,
      "Mar": 3741,
      "up": 3742,
      "jú": 3743,
      "tin": 3744,
      "ariki": 3745,
      "አን": 3746,
      "ይህ": 3747,
      "mon": 3748,
      "195": 3749,
      "፡፡": 3750,
      "matsa": 3751,
      "gra": 3752,
      "dans": 3753,
      "እንዲ": 3754,
      "Da": 3755,
      "náà": 3756,
      "mata": 3757,
      "የመ": 3758,
      "Ra": 3759,
      "ውን": 3760,
      "ren": 3761,
      "ክል": 3762,
      "ምን": 3763,
      "fo": 3764,
      "cal": 3765,
      "14": 3766,
      "ንጉ": 3767,
      "tare": 3768,
      "ርስ": 3769,
      "ita": 3770,
      "ṣẹ́": 3771,
      "zuwa": 3772,
      "De": 3773,
      "ስለ": 3774,
      "zar": 3775,
      "men": 3776,
      "va": 3777,
      "ọmọ": 3778,
      "es,": 3779,
      "ትርጉ": 3780,
      "ቀን": 3781,
      "usu": 3782,
      "Ka": 3783,
      "kuu": 3784,
      "nínú": 3785,
      "ሆነ": 3786,
      "መንግ": 3787,
      "Uni": 3788,
      "eré": 3789,
      "e,": 3790,
      "Ne": 3791,
      "sur": 3792,
      "ዘመ": 3793,
      "yí": 3794,
      "isha": 3795,
      "y,": 3796,
      "írí": 3797,
      "dá": 3798,
      "12": 3799,
      "Jo": 3800,
      "Mi": 3801,
      "ሪክ": 3802,
      "asar": 3803,
      "'a": 3804,
      "Nobel": 3805,
      "from": 3806,
      "Tan": 3807,
      "kò": 3808,
      "amba": 3809,
      "አገ": 3810,
      "Re": 3811,
      "zaliwa": 3812,
      "tà": 3813,
      "por": 3814,
      "lar": 3815,
      "né": 3816,
      "láti": 3817,
      "lia": 3818,
      "tre": 3819,
      "Tu": 3820,
      "that": 3821,
      "wasan": 3822,
      "matsayin": 3823,
      "mb": 3824,
      "ለም": 3825,
      "wani": 3826,
      "pọ̀": 3827,
      "194": 3828,
      "gbe": 3829,
      "ድር": 3830,
      "ሲሆን": 3831,
      "wenye": 3832,
      "Ku": 3833,
      "ዓ.": 3834,
      "II": 3835,
      "ant": 3836,
      "cor": 3837,
      "sion": 3838,
      "ሰው": 3839,
      "ወይም": 3840,
      "gbé": 3841,
      "ld": 3842,
      "wà": 3843,
      "jọ": 3844,
      "ትርጉሙ": 3845,
      "Li": 3846,
      "watan": 3847,
      "hin": 3848,
      "fir": 3849,
      "mé": 3850,
      "kà": 3851,
      "mọ̀": 3852,
      "13": 3853,
      "ux": 3854,
      "lla": 3855,
      "ነበር።": 3856,
      "ኋላ": 3857,
      "ṣù": 3858,
      "tions": 3859,
      "Vi": 3860,
      "ìí": 3861,
      "Mo": 3862,
      "Nà": 3863,
      "ሳይ": 3864,
      "ong": 3865,
      "yake": 3866,
      "nchi": 3867,
      "ከተማ": 3868,
      "ድረ": 3869,
      "pour": 3870,
      "ለመ": 3871,
      "ay": 3872,
      "íríà": 3873,
      "bli": 3874,
      "Nàìj": 3875,
      "nì": 3876,
      "bin": 3877,
      "ut": 3878,
      "ደረ": 3879,
      "ዓ.ም": 3880,
      "risto": 3881,
      "lus": 3882,
      "Nàìjíríà": 3883,
      "vo": 3884,
      "gẹ́": 3885,
      "wá": 3886,
      "kani": 3887,
      "le-": 3888,
      "suka": 3889,
      "Mare": 3890,
      "bir": 3891,
      "one": 3892,
      "ታት": 3893,
      "pen": 3894,
      "sance": 3895,
      "rè": 3896,
      "ins": 3897,
      "ence": 3898,
      "isa": 3899,
      "በኋላ": 3900,
      "yàn": 3901,
      "urs": 3902,
      "kana": 3903,
      "pia": 3904,
      "mma": 3905,
      "ers": 3906,
      "ibi": 3907,
      "duni": 3908,
      "ጀመ": 3909,
      "Ji": 3910,
      "Ch": 3911,
      "ዓመ": 3912,
      "ry": 3913,
      "asi": 3914,
      "ሪካ": 3915,
      "gaba": 3916,
      "cu": 3917,
      "cho": 3918,
      "pin": 3919,
      "dis": 3920,
      "uli": 3921,
      "und": 3922,
      "Ja": 3923,
      "land": 3924,
      "ያል": 3925,
      "እስከ": 3926,
      "má": 3927,
      "1,": 3928,
      "zama": 3929,
      "ዘመን": 3930,
      "pín": 3931,
      "ania": 3932,
      "ọjọ́": 3933,
      "..": 3934,
      "ረትና": 3935,
      "ደግ": 3936,
      "ṣè": 3937,
      "awon": 3938,
      "Me": 3939,
      "ilé": 3940,
      "eni": 3941,
      "Nig": 3942,
      "ትን": 3943,
      "orílẹ̀": 3944,
      "lọ́": 3945,
      "tional": 3946,
      "Walio": 3947,
      "Mana": 3948,
      "ìlú": 3949,
      "ለማ": 3950,
      "ተረትና": 3951,
      "193": 3952,
      "gha": 3953,
      "ክፍ": 3954,
      "ƙasar": 3955,
      "ሮች": 3956,
      "lati": 3957,
      "ser": 3958,
      "Waliozaliwa": 3959,
      "Si": 3960,
      "jin": 3961,
      "sta": 3962,
      "Ya": 3963,
      "tur": 3964,
      "gwa": 3965,
      "ሥት": 3966,
      "vel": 3967,
      "sé": 3968,
      "ust": 3969,
      "ble": 3970,
      "vya": 3971,
      "Kan": 3972,
      "-èdè": 3973,
      "አንድ": 3974,
      "ise": 3975,
      "sti": 3976,
      "gin": 3977,
      "ary": 3978,
      "t,": 3979,
      "ofariki": 3980,
      "af": 3981,
      "Bo": 3982,
      "Ameri": 3983,
      "ede": 3984,
      "Waliofariki": 3985,
      "ንግ": 3986,
      "ida": 3987,
      "Tuzo": 3988,
      "ala": 3989,
      "kasance": 3990,
      "lè": 3991,
      "ton": 3992,
      "pri": 3993,
      "rẹ": 3994,
      "ደር": 3995,
      "jẹ": 3996,
      "ishi": 3997,
      "mia": 3998,
      "ዓ.ም.": 3999,
      "ques": 4000,
      "zarta": 4001,
      "bwa": 4002,
      "cent": 4003,
      "ሉ።": 4004,
      "ère": 4005,
      "jihar": 4006,
      "jì": 4007,
      "Co": 4008,
      "Afrika": 4009,
      "loka": 4010,
      "id": 4011,
      "1.": 4012,
      "በር": 4013,
      "Manazarta": 4014,
      "ele": 4015,
      "Marekani": 4016,
      "000": 4017,
      "ms": 4018,
      "shu": 4019,
      "pre": 4020,
      "መስ": 4021,
      "gaban": 4022,
      "Ha": 4023,
      "gen": 4024,
      "ingi": 4025,
      "kí": 4026,
      "tana": 4027,
      "sy": 4028,
      "ነበረ": 4029,
      "mes": 4030,
      "án": 4031,
      "hii": 4032,
      "kon": 4033,
      "mili": 4034,
      "ard": 4035,
      "He": 4036,
      "nu": 4037,
      "መል": 4038,
      "ሆኑ": 4039,
      "bab": 4040,
      "Gu": 4041,
      "Par": 4042,
      "mber": 4043,
      "አብ": 4044,
      "Nigeri": 4045,
      "Ju": 4046,
      "já": 4047,
      "kasa": 4048,
      "fara": 4049,
      "tì": 4050,
      "olu": 4051,
      "ጋር": 4052,
      "awọn": 4053,
      "kubwa": 4054,
      "wé": 4055,
      "አል": 4056,
      "ọ́n": 4057,
      "whi": 4058,
      "So": 4059,
      "husu": 4060,
      "pas": 4061,
      "mas": 4062,
      "dí": 4063,
      "ven": 4064,
      "yen": 4065,
      "jer": 4066,
      "pínlẹ̀": 4067,
      "tro": 4068,
      "ናት": 4069,
      "vu": 4070,
      "Baada": 4071,
      "ese": 4072,
      "ya.": 4073,
      "ará": 4074,
      "ልጅ": 4075,
      "Fran": 4076,
      "iṣẹ́": 4077,
      "ile": 4078,
      "ችን": 4079,
      "ታወ": 4080,
      "plus": 4081,
      "ናቸው": 4082,
      "እንግ": 4083,
      "ron": 4084,
      "shindi": 4085,
      "wn": 4086,
      "ff": 4087,
      "ደግሞ": 4088,
      "lẹ́": 4089,
      "use": 4090,
      "Ní": 4091,
      "በማ": 4092,
      "ስም": 4093,
      "ደብ": 4094,
      "wor": 4095,
      "2,": 4096,
      "farko": 4097,
      "ziki": 4098,
      "Ali": 4099,
      "iya": 4100,
      "Kar": 4101,
      "Yor": 4102,
      "Papa": 4103,
      "gé": 4104,
      "hadi": 4105,
      "ተረ": 4106,
      "ny": 4107,
      "ብዙ": 4108,
      "nom": 4109,
      "mshindi": 4110,
      "የኢትዮጵያ": 4111,
      "llon": 4112,
      "tt": 4113,
      "ታሪክ": 4114,
      "ya,": 4115,
      "pré": 4116,
      "uru": 4117,
      "omo": 4118,
      "አባ": 4119,
      "ilẹ̀": 4120,
      "suna": 4121,
      "ክልበ": 4122,
      "le,": 4123,
      "ish": 4124,
      "tawa": 4125,
      "ድረስ": 4126,
      "wò": 4127,
      "Maka": 4128,
      "ዓክልበ": 4129,
      "አስ": 4130,
      "ation": 4131,
      "rùn": 4132,
      "le.": 4133,
      "መንግሥት": 4134,
      "kio": 4135,
      "oro": 4136,
      "Di": 4137,
      "pla": 4138,
      "Mas": 4139,
      "0,": 4140,
      "sai": 4141,
      "tal": 4142,
      "25": 4143,
      "ges": 4144,
      "gbá": 4145,
      "mbo": 4146,
      "ore": 4147,
      "ranar": 4148,
      "ors": 4149,
      "Ri": 4150,
      "rò": 4151,
      "Ita": 4152,
      "hari": 4153,
      "bayan": 4154,
      "mani": 4155,
      "cri": 4156,
      "ዓክልበ.": 4157,
      "versi": 4158,
      "(200": 4159,
      "Ab": 4160,
      "haife": 4161,
      "yìn": 4162,
      "gbè": 4163,
      "mer": 4164,
      "ብር": 4165,
      "New": 4166,
      "የሚገ": 4167,
      "ƙa": 4168,
      "Con": 4169,
      "yau": 4170,
      "ራት": 4171,
      "yìí": 4172,
      "ta,": 4173,
      "pan": 4174,
      "ome": 4175,
      "ses": 4176,
      "tún": 4177,
      "giyar": 4178,
      "Ti": 4179,
      "oló": 4180,
      "masu": 4181,
      "amo": 4182,
      "To": 4183,
      "Is": 4184,
      "vec": 4185,
      "hun": 4186,
      "lement": 4187,
      "ሎች": 4188,
      "ቤት": 4189,
      "ተኛ": 4190,
      "ze": 4191,
      "him": 4192,
      "tukio": 4193,
      "ura": 4194,
      "ርት": 4195,
      "ባለ": 4196,
      "ላል።": 4197,
      "ቋን": 4198,
      "kẹ": 4199,
      "Com": 4200,
      "lokacin": 4201,
      "kasar": 4202,
      "Bi": 4203,
      "Au": 4204,
      "biyu": 4205,
      "Tanz": 4206,
      "orílẹ̀-èdè": 4207,
      "tọ́": 4208,
      "እግ": 4209,
      "dar": 4210,
      "dia": 4211,
      "aux": 4212,
      "መር": 4213,
      "ነገር": 4214,
      "2.": 4215,
      "kwai": 4216,
      "hali": 4217,
      "ɗan": 4218,
      "chini": 4219,
      "Lu": 4220,
      "ንጉሥ": 4221,
      "o,": 4222,
      "ungu": 4223,
      "አለ": 4224,
      "kọ̀": 4225,
      "ትም": 4226,
      "ast": 4227,
      "wó": 4228,
      "23": 4229,
      "ዋና": 4230,
      "eneo": 4231,
      "Ke": 4232,
      "Su": 4233,
      "kum": 4234,
      "shen": 4235,
      "Po": 4236,
      "ርያ": 4237,
      "\".": 4238,
      "ang": 4239,
      "ቤተ": 4240,
      "ቋንቋ": 4241,
      "ward": 4242,
      "Matukio": 4243,
      "Il": 4244,
      "Kwa": 4245,
      "fal": 4246,
      "which": 4247,
      "karan": 4248,
      "tta": 4249,
      "ይገ": 4250,
      "bẹ̀": 4251,
      "ory": 4252,
      "col": 4253,
      "istori": 4254,
      "avec": 4255,
      "ያልተ": 4256,
      "ዚያ": 4257,
      "ንም": 4258,
      "ራዊ": 4259,
      "Jam": 4260,
      "yawan": 4261,
      "inda": 4262,
      "mun": 4263,
      "nes": 4264,
      "kini": 4265,
      "gy": 4266,
      "ማለት": 4267,
      "Ho": 4268,
      "mji": 4269,
      "tane": 4270,
      "birnin": 4271,
      "4,": 4272,
      "alikuwa": 4273,
      "እንግሊ": 4274,
      "ée": 4275,
      "phi": 4276,
      "ste": 4277,
      "nìyàn": 4278,
      "mbali": 4279,
      "anu": 4280,
      "mna": 4281,
      "oṣù": 4282,
      "uku": 4283,
      "ላት": 4284,
      "wa,": 4285,
      "11": 4286,
      "sont": 4287,
      "ተረጎ": 4288,
      "6,": 4289,
      "Har": 4290,
      "189": 4291,
      "Les": 4292,
      "0.": 4293,
      "ሁሉ": 4294,
      "orin": 4295,
      "kú": 4296,
      "As": 4297,
      "5,": 4298,
      "yè": 4299,
      "ẹ̀kọ́": 4300,
      "ጥር": 4301,
      "ዳን": 4302,
      "ght": 4303,
      "አካ": 4304,
      "ክርስ": 4305,
      "le-ede": 4306,
      "7,": 4307,
      "ዘመነ": 4308,
      "ona": 4309,
      "tai": 4310,
      "190": 4311,
      "ans": 4312,
      "cer": 4313,
      "ባቢ": 4314,
      "hara": 4315,
      "ongo": 4316,
      "publi": 4317,
      "thi": 4318,
      "ƙwa": 4319,
      "yya": 4320,
      "dì": 4321,
      "Lo": 4322,
      "pẹ̀": 4323,
      "lle": 4324,
      "፲፱": 4325,
      "zai": 4326,
      "lugha": 4327,
      "ereza": 4328,
      "ansa": 4329,
      "ɗa": 4330,
      "wu": 4331,
      "ግብ": 4332,
      "es.": 4333,
      "mwana": 4334,
      "ጥን": 4335,
      "moja": 4336,
      "የማ": 4337,
      "ingereza": 4338,
      "hn": 4339,
      "tive": 4340,
      "የም": 4341,
      "its": 4342,
      "d,": 4343,
      "6.": 4344,
      "ድን": 4345,
      "kwenye": 4346,
      "ባል": 4347,
      "ገር": 4348,
      "Fi": 4349,
      "vyo": 4350,
      "ok": 4351,
      "enti": 4352,
      "Sta": 4353,
      "የሚያ": 4354,
      "ènìyàn": 4355,
      "--": 4356,
      "kali": 4357,
      "Fe": 4358,
      "ríkà": 4359,
      "ቱን": 4360,
      "inter": 4361,
      "ding": 4362,
      "Nijeriya": 4363,
      "4.": 4364,
      "ንያ": 4365,
      "ውያን": 4366,
      "yẹ": 4367,
      "mí": 4368,
      "ninu": 4369,
      "cul": 4370,
      "Universi": 4371,
      "uti": 4372,
      "3,": 4373,
      "dha": 4374,
      "ንስ": 4375,
      "Kristo": 4376,
      "ata": 4377,
      "ተረጎመ": 4378,
      "tò": 4379,
      "car": 4380,
      "Do": 4381,
      "አም": 4382,
      "ከል": 4383,
      "int": 4384,
      "ens": 4385,
      "ce,": 4386,
      "gine": 4387,
      "jen": 4388,
      "dà": 4389,
      "pres": 4390,
      "እንግሊዝ": 4391,
      "፲፱፻": 4392,
      "ሞች": 4393,
      "langu": 4394,
      "Makala": 4395,
      "watu": 4396,
      "er,": 4397,
      "tique": 4398,
      "ያልተተረጎመ": 4399,
      "21": 4400,
      "t.": 4401,
      "ys": 4402,
      "ìgbà": 4403,
      "aiki": 4404,
      "were": 4405,
      "ig": 4406,
      "kai": 4407,
      "yé": 4408,
      "tri": 4409,
      "bre": 4410,
      "kafa": 4411,
      "7.": 4412,
      "las": 4413,
      "laya": 4414,
      "e.": 4415,
      "28": 4416,
      "አመ": 4417,
      "Jihar": 4418,
      "Ge": 4419,
      "mis": 4420,
      "ké": 4421,
      "lai": 4422,
      "inahusu": 4423,
      "uran": 4424,
      "cewa": 4425,
      "ዛት": 4426,
      "ላል": 4427,
      "yà": 4428,
      "Go": 4429,
      "mul": 4430,
      "University": 4431,
      "Far": 4432,
      "5.": 4433,
      "ቸውን": 4434,
      "ded": 4435,
      "dom": 4436,
      "alá": 4437,
      "waki": 4438,
      "mọ́": 4439,
      "orile-ede": 4440,
      "firka": 4441,
      "Col": 4442,
      "pte": 4443,
      "ture": 4444,
      "ken": 4445,
      "3.": 4446,
      "Afirka": 4447,
      "wọ̀": 4448,
      "soci": 4449,
      "wata": 4450,
      "Ad": 4451,
      "ዋል።": 4452,
      "/ም": 4453,
      "አስተ": 4454,
      "hemu": 4455,
      "maka": 4456,
      "29": 4457,
      "ምሮ": 4458,
      "ob": 4459,
      "out": 4460,
      "wake": 4461,
      "John": 4462,
      "ree": 4463,
      "ዓ/ም": 4464,
      "Kristo).": 4465,
      "Ben": 4466,
      "በሚ": 4467,
      "ma,": 4468,
      "(Baada": 4469,
      "mw": 4470,
      "visi": 4471,
      "òṣè": 4472,
      "Tanzania": 4473,
      "በዚህ": 4474,
      "ፈረ": 4475,
      "bara": 4476,
      "ne,": 4477,
      "kwan": 4478,
      "30": 4479,
      "Be": 4480,
      "Du": 4481,
      "bà": 4482,
      "ነበሩ": 4483,
      "pel": 4484,
      "mpi": 4485,
      "እንዳ": 4486,
      "ora": 4487,
      "Man": 4488,
      "ታዊ": 4489,
      "ord": 4490,
      "low": 4491,
      "wa.": 4492,
      "Ìpínlẹ̀": 4493,
      "እር": 4494,
      "had": 4495,
      "vent": 4496,
      "arin": 4497,
      "22": 4498,
      "ወረ": 4499,
      "cre": 4500,
      "umani": 4501,
      "ƙwallon": 4502,
      "qu'": 4503,
      "led": 4504,
      "my": 4505,
      "pà": 4506,
      "ወን": 4507,
      "ሜሪካ": 4508,
      "ṣà": 4509,
      "ake": 4510,
      "cy": 4511,
      "Ko": 4512,
      "l’": 4513,
      "parti": 4514,
      "ጠር": 4515,
      "ጦር": 4516,
      "val": 4517,
      "sini": 4518,
      "ìbí": 4519,
      "amma": 4520,
      "med": 4521,
      "ves": 4522,
      "ger": 4523,
      "24": 4524,
      "ame": 4525,
      "gro": 4526,
      "uro": 4527,
      "lamu": 4528,
      "dake": 4529,
      "hili": 4530,
      "jama": 4531,
      "kì": 4532,
      "tant": 4533,
      "Kati": 4534,
      "ድም": 4535,
      "jerumani": 4536,
      "amoja": 4537,
      "(an": 4538,
      "ሰዎች": 4539,
      "den": 4540,
      "ሌላ": 4541,
      "'ar": 4542,
      "but": 4543,
      "pè": 4544,
      "መለ": 4545,
      "là": 4546,
      "poli": 4547,
      ".አ": 4548,
      "mutu": 4549,
      "mita": 4550,
      "ons": 4551,
      "katifu": 4552,
      "Bri": 4553,
      "ምና": 4554,
      "lli": 4555,
      "ity": 4556,
      "Ok": 4557,
      "ቅር": 4558,
      "ṣẹ": 4559,
      "ዝብ": 4560,
      "ria": 4561,
      "sel": 4562,
      "ta.": 4563,
      "babban": 4564,
      "ዲስ": 4565,
      "wannan": 4566,
      "cation": 4567,
      "rans": 4568,
      "Nai": 4569,
      "anzi": 4570,
      "all": 4571,
      "falme": 4572,
      "Bu": 4573,
      "1-": 4574,
      "o.": 4575,
      "Pro": 4576,
      "Th": 4577,
      "siku": 4578,
      "tọ́ka": 4579,
      "Hi": 4580,
      "ሉት": 4581,
      "ከፍ": 4582,
      "also": 4583,
      "gẹ́gẹ́": 4584,
      "BK": 4585,
      "ting": 4586,
      "gbẹ́": 4587,
      "ologi": 4588,
      "ሥራ": 4589,
      "Ọ̀": 4590,
      "hana": 4591,
      "ussi": 4592,
      "fí": 4593,
      "ràn": 4594,
      "vil": 4595,
      "jù": 4596,
      "yyar": 4597,
      "ያለ": 4598,
      "lórí": 4599,
      "5)": 4600,
      "chan": 4601,
      "mara": 4602,
      "ሰብ": 4603,
      "ጨረ": 4604,
      "is,": 4605,
      "hen": 4606,
      "samu": 4607,
      "እነ": 4608,
      "ka.": 4609,
      "kari": 4610,
      "Karne": 4611,
      "ሆኖ": 4612,
      "fer": 4613,
      "ስራ": 4614,
      "jà": 4615,
      "Jami": 4616,
      "jina": 4617,
      "lam": 4618,
      "መደብ": 4619,
      "(201": 4620,
      "gún": 4621,
      "pẹ̀lú": 4622,
      "27": 4623,
      "Chi": 4624,
      "War": 4625,
      "ka,": 4626,
      "mẹ́": 4627,
      "Asi": 4628,
      "Wil": 4629,
      "national": 4630,
      "comme": 4631,
      "yankin": 4632,
      "sana": 4633,
      "maji": 4634,
      "bili": 4635,
      "Pi": 4636,
      "ጀመሪያ": 4637,
      "lex": 4638,
      "sọ": 4639,
      "sehemu": 4640,
      "ally": 4641,
      "d.": 4642,
      "ተው": 4643,
      "zina": 4644,
      "comp": 4645,
      "not": 4646,
      "ዓመት": 4647,
      "rès": 4648,
      "mú": 4649,
      "kamar": 4650,
      "bila": 4651,
      "ብሎ": 4652,
      "Wi": 4653,
      "ká": 4654,
      "6)": 4655,
      "dda": 4656,
      "fon": 4657,
      "ፊት": 4658,
      "Abu": 4659,
      "anci": 4660,
      "pamoja": 4661,
      "ረው": 4662,
      "2019": 4663,
      "Ingi": 4664,
      "other": 4665,
      "era": 4666,
      "ምክ": 4667,
      "fani": 4668,
      "cou": 4669,
      "ዓም": 4670,
      "met": 4671,
      "tari": 4672,
      "sou": 4673,
      "ጠቀ": 4674,
      "mkuu": 4675,
      "ይወ": 4676,
      "ማሪ": 4677,
      "lakini": 4678,
      "nje": 4679,
      "rọ̀": 4680,
      "ƙafa": 4681,
      "ved": 4682,
      "ቅዱ": 4683,
      "gir": 4684,
      "bia": 4685,
      "8,": 4686,
      "ች።": 4687,
      "ọba": 4688,
      "Amẹ́": 4689,
      "Ana": 4690,
      "Janu": 4691,
      "Te": 4692,
      "bun": 4693,
      "Inter": 4694,
      "miaka": 4695,
      "Amẹ́ríkà": 4696,
      "መካ": 4697,
      "Pe": 4698,
      "ments": 4699,
      "cra": 4700,
      "Ca": 4701,
      "anan": 4702,
      "\",": 4703,
      "kuna": 4704,
      "ላቸው": 4705,
      "daya": 4706,
      "eshi": 4707,
      "m,": 4708,
      "ያስ": 4709,
      "saba": 4710,
      "On": 4711,
      "9,": 4712,
      "Ken": 4713,
      "ወር": 4714,
      "has": 4715,
      "teur": 4716,
      "usul": 4717,
      "clu": 4718,
      "on,": 4719,
      "4)": 4720,
      "Kam": 4721,
      "elle": 4722,
      "Shu": 4723,
      "mwa": 4724,
      "shugaban": 4725,
      "Ga": 4726,
      "2018": 4727,
      "wasu": 4728,
      "ዝር": 4729,
      "first": 4730,
      "ቦች": 4731,
      "lation": 4732,
      "zili": 4733,
      "She": 4734,
      "omi": 4735,
      "7)": 4736,
      "አበ": 4737,
      "3)": 4738,
      "(A": 4739,
      "26": 4740,
      "ፈር": 4741,
      "ous": 4742,
      "ilu": 4743,
      "Je": 4744,
      "chool": 4745,
      "te,": 4746,
      "lù": 4747,
      "ከዚህ": 4748,
      "indi": 4749,
      "bon": 4750,
      "bru": 4751,
      "len": 4752,
      "èyí": 4753,
      "máa": 4754,
      "òṣèré": 4755,
      "tara": 4756,
      "tàbí": 4757,
      "ilé-": 4758,
      "የሚገኝ": 4759,
      "1)": 4760,
      "Mwaka": 4761,
      "age": 4762,
      "ne.": 4763,
      "ባህ": 4764,
      "Ingila": 4765,
      "Was": 4766,
      "ምር": 4767,
      "188": 4768,
      "oní": 4769,
      "9.": 4770,
      "été": 4771,
      "tawala": 4772,
      "ተቀ": 4773,
      "bẹ̀rẹ̀": 4774,
      "ብቻ": 4775,
      "mì": 4776,
      "ክርስቲ": 4777,
      "van": 4778,
      "ወለ": 4779,
      "kea": 4780,
      "sin": 4781,
      "istan": 4782,
      "ሁለ": 4783,
      "ደቡ": 4784,
      "Nor": 4785,
      "jali": 4786,
      "ም።": 4787,
      "mutane": 4788,
      "ds": 4789,
      "istoria": 4790,
      "ኤል": 4791,
      "bur": 4792,
      "ተር": 4793,
      "Mata": 4794,
      "sig": 4795,
      "Or": 4796,
      "8.": 4797,
      "ling": 4798,
      "ባት": 4799,
      "tain": 4800,
      "baada": 4801,
      "'i": 4802,
      "hasa": 4803,
      "fici": 4804,
      "tọ́kasí": 4805,
      "tte": 4806,
      "gbogbo": 4807,
      "Bar": 4808,
      "ogra": 4809,
      "ua": 4810,
      "ሥር": 4811,
      "fẹ́": 4812,
      "Cha": 4813,
      "ww": 4814,
      "ሁም": 4815,
      "kwanza": 4816,
      "rand": 4817,
      "ክት": 4818,
      "andishi": 4819,
      "Yan": 4820,
      "ሁን": 4821,
      "አር": 4822,
      "garin": 4823,
      "Nigeria": 4824,
      "ቢያ": 4825,
      "ዘንድ": 4826,
      "Septe": 4827,
      "ላንድ": 4828,
      "bẹ́": 4829,
      "dele": 4830,
      "በብ": 4831,
      "Ala": 4832,
      "zini": 4833,
      "kawa": 4834,
      "ohun": 4835,
      "Jap": 4836,
      "ማን": 4837,
      "fina": 4838,
      "duk": 4839,
      "አገር": 4840,
      "በኢትዮጵያ": 4841,
      "BC": 4842,
      ".ኤ": 4843,
      "ọ̀n": 4844,
      "entre": 4845,
      "ral": 4846,
      "ገድ": 4847,
      "ኖች": 4848,
      "2)": 4849,
      "wakazi": 4850,
      "Hau": 4851,
      "imp": 4852,
      "y.": 4853,
      "San": 4854,
      "ታቸው": 4855,
      "mag": 4856,
      "liki": 4857,
      "እንግሊዝኛ": 4858,
      "dún": 4859,
      "oc": 4860,
      "50": 4861,
      "At": 4862,
      "produ": 4863,
      "ba,": 4864,
      "aikin": 4865,
      "Duni": 4866,
      "premi": 4867,
      "stru": 4868,
      "ሁለት": 4869,
      "Ib": 4870,
      "mù": 4871,
      "ተመ": 4872,
      "Ru": 4873,
      "ገን": 4874,
      "have": 4875,
      "Muha": 4876,
      "fil": 4877,
      "ef": 4878,
      "ወቅ": 4879,
      "kàn": 4880,
      "ጀምሮ": 4881,
      "olù": 4882,
      "'yan": 4883,
      "King": 4884,
      "dogo": 4885,
      "és": 4886,
      "ell": 4887,
      "ak": 4888,
      "karantar": 4889,
      "ayé": 4890,
      "አው": 4891,
      "dai": 4892,
      "vie": 4893,
      "For": 4894,
      "ofin": 4895,
      "sá": 4896,
      "ቅም": 4897,
      "kazini": 4898,
      "ቃል": 4899,
      "ቆጣ": 4900,
      "የር": 4901,
      ".አ.": 4902,
      "እ.ኤ": 4903,
      "dio": 4904,
      "Qu": 4905,
      "éri": 4906,
      "pò": 4907,
      "chu": 4908,
      "Kas": 4909,
      "temp": 4910,
      "dara": 4911,
      "wengi": 4912,
      "ቅዱስ": 4913,
      "mafi": 4914,
      "red": 4915,
      "bai": 4916,
      "dú": 4917,
      "s'": 4918,
      "jan": 4919,
      "yoyin": 4920,
      "ungo": 4921,
      "Dan": 4922,
      "መሰ": 4923,
      "tho": 4924,
      "የት": 4925,
      "shine": 4926,
      "jami": 4927,
      "fuata": 4928,
      "ናቸው።": 4929,
      "ìwé": 4930,
      "Car": 4931,
      "ለያ": 4932,
      "ሔር": 4933,
      "kam": 4934,
      "faransa": 4935,
      "Febru": 4936,
      "lili": 4937,
      "gli": 4938,
      "ojo": 4939,
      "Shi": 4940,
      "huri": 4941,
      "nígbà": 4942,
      "Ap": 4943,
      "ትና": 4944,
      "Nove": 4945,
      "run": 4946,
      "yasa": 4947,
      "emp": 4948,
      "ag": 4949,
      "takatifu": 4950,
      "Hu": 4951,
      "sen": 4952,
      "cen": 4953,
      "zaidi": 4954,
      "Ghana": 4955,
      "Africa": 4956,
      "tàn": 4957,
      "ear": 4958,
      "lẹ": 4959,
      "ተከ": 4960,
      "pr": 4961,
      "ንዳ": 4962,
      "ዋል": 4963,
      "ጽሐ": 4964,
      "sau": 4965,
      "ትምህ": 4966,
      "dur": 4967,
      "sed": 4968,
      "Award": 4969,
      "Ban": 4970,
      "tam": 4971,
      "በረ": 4972,
      "this": 4973,
      "bor": 4974,
      "ያለው": 4975,
      "Bir": 4976,
      "esi": 4977,
      "Ada": 4978,
      "stitu": 4979,
      "RD": 4980,
      "rou": 4981,
      "km": 4982,
      "dau": 4983,
      "ƙar": 4984,
      "ይል": 4985,
      "aribi": 4986,
      "nchini": 4987,
      "ƙasa": 4988,
      "ገብ": 4989,
      "hada": 4990,
      "zaji": 4991,
      "ont": 4992,
      "Sou": 4993,
      "dre": 4994,
      "ግራ": 4995,
      "ልጣ": 4996,
      "ቁጥር": 4997,
      "seri": 4998,
      "ገኘ": 4999,
      "Wor": 5000,
      "Yo": 5001,
      "in,": 5002,
      "Fo": 5003,
      "kanin": 5004,
      "ሌሎች": 5005,
      "non": 5006,
      "በላይ": 5007,
      "እንዲሁም": 5008,
      "isho": 5009,
      "ọdun": 5010,
      "kungiyar": 5011,
      "phy": 5012,
      "who": 5013,
      "àrùn": 5014,
      "jini": 5015,
      "ጀር": 5016,
      "pata": 5017,
      "tani": 5018,
      "wí": 5019,
      "ስን": 5020,
      "riki": 5021,
      "ደቡብ": 5022,
      "Sha": 5023,
      "Wan": 5024,
      "Wọ́n": 5025,
      "forma": 5026,
      "spe": 5027,
      "ዓለም": 5028,
      "rubu": 5029,
      "zan": 5030,
      "Okto": 5031,
      "gbò": 5032,
      "odun": 5033,
      "ንን": 5034,
      "her": 5035,
      "amfani": 5036,
      "ወጣ": 5037,
      "k.": 5038,
      "Viungo": 5039,
      "Apri": 5040,
      "gion": 5041,
      "koa": 5042,
      "us,": 5043,
      "United": 5044,
      "His": 5045,
      "ano": 5046,
      "cas": 5047,
      "d’": 5048,
      "unci": 5049,
      "ማዊ": 5050,
      "Gi": 5051,
      "Muhamma": 5052,
      "king": 5053,
      "shiga": 5054,
      "Ber": 5055,
      "fran": 5056,
      "መረ": 5057,
      "በቀ": 5058,
      "መጠ": 5059,
      "ባይ": 5060,
      "used": 5061,
      "ታል።": 5062,
      "ill": 5063,
      "rì": 5064,
      "ving": 5065,
      "trans": 5066,
      "take": 5067,
      "School": 5068,
      "mais": 5069,
      "esa": 5070,
      "gasar": 5071,
      "i,": 5072,
      "velop": 5073,
      "ከአ": 5074,
      "kọ́kọ́": 5075,
      "ለይ": 5076,
      "Are": 5077,
      "ስታ": 5078,
      "ናዊ": 5079,
      "Naiji": 5080,
      "cce": 5081,
      "ner": 5082,
      "sannan": 5083,
      "tr": 5084,
      "ùbá": 5085,
      "ሜን": 5086,
      "their": 5087,
      "Bab": 5088,
      "//": 5089,
      "Tur": 5090,
      "bíi": 5091,
      "puis": 5092,
      "የው": 5093,
      "pá": 5094,
      "dy": 5095,
      "ሲያ": 5096,
      "mor": 5097,
      "aki": 5098,
      "ìnrin": 5099,
      "በሰ": 5100,
      "kasu": 5101,
      "American": 5102,
      "jalisar": 5103,
      "ሳት": 5104,
      "Bur": 5105,
      "ró": 5106,
      "ቦታ": 5107,
      "Un": 5108,
      "ገና": 5109,
      "tarehe": 5110,
      "joba": 5111,
      "ጣል": 5112,
      "100": 5113,
      "rayu": 5114,
      "sent": 5115,
      "ባለው": 5116,
      "ben": 5117,
      "fim": 5118,
      "ọjọ́ìbí": 5119,
      "kùn": 5120,
      "duniya": 5121,
      "ande": 5122,
      "2020": 5123,
      "tokana": 5124,
      "sílẹ̀": 5125,
      "dín": 5126,
      "tation": 5127,
      "deux": 5128,
      "huku": 5129,
      "Yorùbá": 5130,
      "ፈረን": 5131,
      "al-": 5132,
      "posi": 5133,
      "xi": 5134,
      "leur": 5135,
      "part": 5136,
      "IS": 5137,
      "0)": 5138,
      "Ara": 5139,
      "Aug": 5140,
      "Bra": 5141,
      "kè": 5142,
      "te.": 5143,
      "main": 5144,
      "year": 5145,
      "ብራ": 5146,
      "wakati": 5147,
      "lima": 5148,
      "186": 5149,
      "(C": 5150,
      "9)": 5151,
      "liam": 5152,
      "በስ": 5153,
      "ዘር": 5154,
      "juu": 5155,
      "Min": 5156,
      "Kus": 5157,
      "baya": 5158,
      "L'": 5159,
      "hy": 5160,
      "187": 5161,
      "Geor": 5162,
      "ttp": 5163,
      "hiyo": 5164,
      "jam": 5165,
      "endele": 5166,
      "http": 5167,
      "ሚያ": 5168,
      "ከዚያ": 5169,
      "l'é": 5170,
      "pinle": 5171,
      "sara": 5172,
      "ge,": 5173,
      "bert": 5174,
      "cé": 5175,
      "Amur": 5176,
      "yali": 5177,
      "ሥታት": 5178,
      "መካከል": 5179,
      "ዎቹ": 5180,
      "anti": 5181,
      "ungiyar": 5182,
      "gue": 5183,
      "sis": 5184,
      "ced": 5185,
      "Mis": 5186,
      "ጠራ": 5187,
      "://": 5188,
      "cs": 5189,
      "ይታ": 5190,
      "bay": 5191,
      "እ.ኤ.አ.": 5192,
      "Ujerumani": 5193,
      "shir": 5194,
      "inclu": 5195,
      "gwamna": 5196,
      "Por": 5197,
      "ìmọ̀": 5198,
      "sa,": 5199,
      "cro": 5200,
      "wadan": 5201,
      "ba.": 5202,
      "úkọ": 5203,
      "ታላ": 5204,
      "buga": 5205,
      "ጨረሻ": 5206,
      "Kis": 5207,
      "Uingereza": 5208,
      "kristo": 5209,
      "nípa": 5210,
      "itwa": 5211,
      "Mari": 5212,
      "dent": 5213,
      "rent": 5214,
      "ከመ": 5215,
      "ከነ": 5216,
      "lie": 5217,
      "kno": 5218,
      "ሰራ": 5219,
      "shekaru": 5220,
      "pon": 5221,
      "time": 5222,
      "ce.": 5223,
      "iliyo": 5224,
      "jama'a": 5225,
      "ሴት": 5226,
      "በዘመነ": 5227,
      "Gre": 5228,
      "Euro": 5229,
      "kira": 5230,
      "daban": 5231,
      "mawa": 5232,
      "ẹ́r": 5233,
      "eno": 5234,
      "Per": 5235,
      "ople": 5236,
      "da,": 5237,
      "ሃይ": 5238,
      "8)": 5239,
      "jia": 5240,
      "jáde": 5241,
      "tres": 5242,
      "It": 5243,
      "gal": 5244,
      "ham": 5245,
      "lò": 5246,
      "Najeriya.": 5247,
      "nd": 5248,
      "ach": 5249,
      "kẹ́": 5250,
      "pẹ": 5251,
      "ìdì": 5252,
      "jir": 5253,
      "ça": 5254,
      "dro": 5255,
      "pọ": 5256,
      "boda": 5257,
      "uwa": 5258,
      "ሥነ": 5259,
      "ኖር": 5260,
      "maso": 5261,
      "lí": 5262,
      "eral": 5263,
      "kejì": 5264,
      "yanzu": 5265,
      "የቀ": 5266,
      "karatun": 5267,
      "ctor": 5268,
      "hanyar": 5269,
      "Nàìjíríà.": 5270,
      "para": 5271,
      "Fa": 5272,
      "taka": 5273,
      "zaman": 5274,
      "ires": 5275,
      "Lago": 5276,
      "core": 5277,
      "prin": 5278,
      "lori": 5279,
      "sami": 5280,
      "vita": 5281,
      "bet": 5282,
      "c.": 5283,
      "zwa": 5284,
      "u,": 5285,
      "Indi": 5286,
      "akan": 5287,
      "sama": 5288,
      "ètò": 5289,
      "ሰማ": 5290,
      "sa.": 5291,
      "(199": 5292,
      "ks": 5293,
      "ilikuwa": 5294,
      "dini": 5295,
      "kol": 5296,
      "cour": 5297,
      "rá": 5298,
      "ስና": 5299,
      "ትል": 5300,
      "upande": 5301,
      "Kusini": 5302,
      "m.": 5303,
      "እግዚ": 5304,
      "diff": 5305,
      "tis": 5306,
      "Katika": 5307,
      "vers": 5308,
      "40": 5309,
      "gre": 5310,
      "abin": 5311,
      "Hai": 5312,
      "gari": 5313,
      "dhi": 5314,
      "ክፍለ": 5315,
      "fà": 5316,
      "tement": 5317,
      "port": 5318,
      "S.": 5319,
      "cep": 5320,
      "ìdí": 5321,
      "ẹgbẹ́": 5322,
      "la,": 5323,
      "2-": 5324,
      "usi": 5325,
      "yawa": 5326,
      "Bayan": 5327,
      "ìjọba": 5328,
      "walio": 5329,
      "ምክንያ": 5330,
      "kazi": 5331,
      "Jami'ar": 5332,
      "pli": 5333,
      "éta": 5334,
      "ደን": 5335,
      "than": 5336,
      "num": 5337,
      "gbọ́n": 5338,
      "ቆጣጠር": 5339,
      "some": 5340,
      "yun": 5341,
      "wato": 5342,
      "dire": 5343,
      "ishwa": 5344,
      "African": 5345,
      "ግዛት": 5346,
      "most": 5347,
      "ስብ": 5348,
      "ታይ": 5349,
      "lah": 5350,
      "d'un": 5351,
      "hon": 5352,
      "Ger": 5353,
      "ፍራ": 5354,
      "nyingi": 5355,
      "Oro": 5356,
      "huru": 5357,
      "fami": 5358,
      "Char": 5359,
      "ምዕ": 5360,
      "ይና": 5361,
      "ያው": 5362,
      "እግዚአብ": 5363,
      "bri": 5364,
      "baki": 5365,
      "karne": 5366,
      "fé": 5367,
      "ምድር": 5368,
      "ot": 5369,
      "pos": 5370,
      "ራሱ": 5371,
      "cur": 5372,
      "አት": 5373,
      "እጅ": 5374,
      "ደት": 5375,
      "World": 5376,
      "Oktoba": 5377,
      "been": 5378,
      "ወሰ": 5379,
      "ይባ": 5380,
      "አካባቢ": 5381,
      "game": 5382,
      "nor": 5383,
      "ጆች": 5384,
      "aro": 5385,
      "wacce": 5386,
      "dun": 5387,
      "Europe": 5388,
      "ሽን": 5389,
      "kafin": 5390,
      "tsakanin": 5391,
      "ከፍተኛ": 5392,
      "Bel": 5393,
      "n.": 5394,
      "ስር": 5395,
      "ኞች": 5396,
      "sub": 5397,
      "sunan": 5398,
      "Alex": 5399,
      "sàn": 5400,
      "ሆነው": 5401,
      "de,": 5402,
      "alif": 5403,
      "sor": 5404,
      "gina": 5405,
      "Lon": 5406,
      "ሊያ": 5407,
      "ገለ": 5408,
      "ጎር": 5409,
      "gor": 5410,
      "omin": 5411,
      "isiwa": 5412,
      "im": 5413,
      "መሠ": 5414,
      "ገደ": 5415,
      "ṣẹ̀": 5416,
      "anza": 5417,
      "ler": 5418,
      "kula": 5419,
      "gas": 5420,
      "gharibi": 5421,
      "vari": 5422,
      "ግር": 5423,
      "digi": 5424,
      "kópa": 5425,
      "William": 5426,
      "በል": 5427,
      "ls": 5428,
      "ême": 5429,
      "Pau": 5430,
      "ime": 5431,
      "gbó": 5432,
      "A.": 5433,
      "tor": 5434,
      "tẹ́": 5435,
      "ክር": 5436,
      "ክርስቲያን": 5437,
      "Pres": 5438,
      "utili": 5439,
      "ይገኛ": 5440,
      "ité": 5441,
      "ib": 5442,
      "ras": 5443,
      "fanin": 5444,
      "ojú": 5445,
      "ገባ": 5446,
      "እግዚአብሔር": 5447,
      "mto": 5448,
      "ወንድ": 5449,
      "ዶች": 5450,
      "አንዱ": 5451,
      "k,": 5452,
      "tion,": 5453,
      "i.": 5454,
      "ማስ": 5455,
      "rie": 5456,
      "cti": 5457,
      "III": 5458,
      "uta": 5459,
      "yá": 5460,
      "pati": 5461,
      "Ade": 5462,
      "iki": 5463,
      "yọ": 5464,
      "ክፍል": 5465,
      "Rom": 5466,
      "ጠቅ": 5467,
      "ጦርነት": 5468,
      "ሩት": 5469,
      "ግል": 5470,
      "ẹlẹ́": 5471,
      "danar": 5472,
      "ts,": 5473,
      "ple": 5474,
      "al'": 5475,
      "mwandishi": 5476,
      "kas": 5477,
      "gida": 5478,
      "sauran": 5479,
      "biyar": 5480,
      "new": 5481,
      "እግር": 5482,
      "Oba": 5483,
      "tso": 5484,
      "erre": 5485,
      "ይስ": 5486,
      "vol": 5487,
      "ɗin": 5488,
      "እንደሚ": 5489,
      "asili": 5490,
      "ìpínlẹ̀": 5491,
      "muziki": 5492,
      "mbalimbali": 5493,
      "ትምህርት": 5494,
      "የነበረ": 5495,
      "toire": 5496,
      "jùlọ": 5497,
      "vis": 5498,
      "||": 5499,
      "ሞት": 5500,
      "ይች": 5501,
      "kék": 5502,
      "kili": 5503,
      "lui": 5504,
      "d'une": 5505,
      "aika": 5506,
      "kékeré": 5507,
      "vin": 5508,
      "lán": 5509,
      "sui": 5510,
      "ኒያ": 5511,
      "rú": 5512,
      "'est": 5513,
      "Ci": 5514,
      "dari": 5515,
      "ባር": 5516,
      "saboda": 5517,
      "መድ": 5518,
      "matai": 5519,
      "መጣ": 5520,
      "ingine": 5521,
      "gbègbè": 5522,
      "Amerika": 5523,
      "vir": 5524,
      "girma": 5525,
      "የስ": 5526,
      "rika": 5527,
      "àà": 5528,
      "lára": 5529,
      "pha": 5530,
      "Mon": 5531,
      "ቀር": 5532,
      "ፍት": 5533,
      "Babban": 5534,
      "samar": 5535,
      "ለን": 5536,
      "ደም": 5537,
      "ọ̀rọ̀": 5538,
      "w.": 5539,
      "ልክ": 5540,
      "gidan": 5541,
      "ደረገ": 5542,
      "Tara": 5543,
      "mman": 5544,
      "aru": 5545,
      "Ag": 5546,
      "tabi": 5547,
      "መጽሐ": 5548,
      "gbegbe": 5549,
      "Cor": 5550,
      "nà": 5551,
      "Ilé": 5552,
      "ተራ": 5553,
      "ቱም": 5554,
      "አረ": 5555,
      "haifi": 5556,
      "ẹni": 5557,
      "tele.": 5558,
      "kumbu": 5559,
      "አዲስ": 5560,
      "into": 5561,
      "National": 5562,
      "unt": 5563,
      "kwamba": 5564,
      "ቀት": 5565,
      "Sun": 5566,
      "Ex": 5567,
      "ato": 5568,
      "more": 5569,
      "ዕለ": 5570,
      "Ẹ̀": 5571,
      "ful": 5572,
      "Orodha": 5573,
      "sous": 5574,
      "ony": 5575,
      "ma.": 5576,
      "ዮን": 5577,
      "የመጀመሪያ": 5578,
      "We": 5579,
      "nuna": 5580,
      "ipa": 5581,
      "ራል": 5582,
      "አቆጣጠር": 5583,
      "በተለይ": 5584,
      "koloni": 5585,
      "line": 5586,
      "mwi": 5587,
      "que,": 5588,
      "cle": 5589,
      "http://": 5590,
      "ዋን": 5591,
      "vant": 5592,
      "አፍ": 5593,
      "oly": 5594,
      "láà": 5595,
      "centur": 5596,
      "ታል": 5597,
      "ṣi": 5598,
      "ከተሞች": 5599,
      "Ah": 5600,
      "domin": 5601,
      "óò": 5602,
      "kyau": 5603,
      "ክስ": 5604,
      "ters": 5605,
      "Ste": 5606,
      "በላ": 5607,
      "an,": 5608,
      "guda": 5609,
      "insi": 5610,
      "haka": 5611,
      "after": 5612,
      "mala": 5613,
      "ጥንታዊ": 5614,
      "sababu": 5615,
      "frança": 5616,
      "sẹ̀": 5617,
      "sìn": 5618,
      "mal": 5619,
      "Colle": 5620,
      "cond": 5621,
      "ሕዝብ": 5622,
      "ጠቃ": 5623,
      "ግብጽ": 5624,
      "aussi": 5625,
      "August": 5626,
      "London": 5627,
      "በጣ": 5628,
      "kusini": 5629,
      "old": 5630,
      "bisa": 5631,
      "fito": 5632,
      "kokin": 5633,
      "wood": 5634,
      "ology": 5635,
      "ድሞ": 5636,
      "eria": 5637,
      "Daga": 5638,
      "Aust": 5639,
      "mulkin": 5640,
      "ምዕራ": 5641,
      "ኩል": 5642,
      "International": 5643,
      "su.": 5644,
      "tangu": 5645,
      "ቀው": 5646,
      "ዳር": 5647,
      "ship": 5648,
      "Musul": 5649,
      "ani.": 5650,
      "tanen": 5651,
      "ራስ": 5652,
      "ክለ": 5653,
      "Kenya": 5654,
      "two": 5655,
      "በው": 5656,
      "anz": 5657,
      "urin": 5658,
      "gon": 5659,
      "ọ́ìdì": 5660,
      "fanya": 5661,
      "ẹ́rọ́ìdì": 5662,
      "ást": 5663,
      "under": 5664,
      "አበባ": 5665,
      "Arewa": 5666,
      "ander": 5667,
      "abu": 5668,
      "here": 5669,
      "ástẹ́rọ́ìdì": 5670,
      "ማኖ": 5671,
      "Pet": 5672,
      "ልዩ": 5673,
      "የሱ": 5674,
      "makarantar": 5675,
      "such": 5676,
      "kia": 5677,
      "(S": 5678,
      "Kara": 5679,
      "fait": 5680,
      "Hausa": 5681,
      "gí": 5682,
      "ogun": 5683,
      "በፊት": 5684,
      "ከሚ": 5685,
      "yenye": 5686,
      "Her": 5687,
      "bùn": 5688,
      "ème": 5689,
      "cré": 5690,
      "ጥቅም": 5691,
      "tern": 5692,
      "usa": 5693,
      "This": 5694,
      "rìn": 5695,
      "Lá": 5696,
      "arabu": 5697,
      "pal": 5698,
      "tour": 5699,
      "ለያዩ": 5700,
      "tumi": 5701,
      "anzia": 5702,
      "Us": 5703,
      "vid": 5704,
      "ልድ": 5705,
      "samun": 5706,
      "60": 5707,
      "ላም": 5708,
      "siasa": 5709,
      "ታው": 5710,
      "rọ": 5711,
      "hivyo": 5712,
      "Jamhuri": 5713,
      "gùn": 5714,
      "Èkó": 5715,
      "ki,": 5716,
      "fá": 5717,
      "ካል": 5718,
      "tech": 5719,
      "filamu": 5720,
      "Ago": 5721,
      "anné": 5722,
      "toliki": 5723,
      "sic": 5724,
      "ined": 5725,
      "known": 5726,
      "ako": 5727,
      "yayin": 5728,
      "እነዚህ": 5729,
      "être": 5730,
      "over": 5731,
      "sina": 5732,
      "l,": 5733,
      "yon": 5734,
      "ዓመታት": 5735,
      ",000": 5736,
      "ọ̀kan": 5737,
      "ue": 5738,
      "ille": 5739,
      "ህል": 5740,
      "የሰ": 5741,
      "wer": 5742,
      "ተኛው": 5743,
      "tumia": 5744,
      "ወቅት": 5745,
      "wasa": 5746,
      "tish": 5747,
      "sup": 5748,
      "ሱም": 5749,
      "popu": 5750,
      "ነገሥታት": 5751,
      "méjì": 5752,
      "gano": 5753,
      "መጥ": 5754,
      "ቀጥ": 5755,
      "warar": 5756,
      "3-": 5757,
      "wajen": 5758,
      "person": 5759,
      "paka": 5760,
      "nombre": 5761,
      "South": 5762,
      "Bro": 5763,
      "ዮሐ": 5764,
      "manyan": 5765,
      "Tari": 5766,
      "rán": 5767,
      "cted": 5768,
      "plan": 5769,
      "ሮፓ": 5770,
      "Aus": 5771,
      "Ipinle": 5772,
      "Ufaransa": 5773,
      "185": 5774,
      "ma'": 5775,
      "ገኝ": 5776,
      "ፈል": 5777,
      "inf": 5778,
      "sanya": 5779,
      "Nijeriya.": 5780,
      "dition": 5781,
      "ተወ": 5782,
      "ይህም": 5783,
      "semb": 5784,
      "glish": 5785,
      "CO": 5786,
      "Fil": 5787,
      "rà": 5788,
      "tẹ": 5789,
      "ሪካዊ": 5790,
      "même": 5791,
      "gaji": 5792,
      "Italia": 5793,
      "clas": 5794,
      "sci": 5795,
      "inayo": 5796,
      "tatta": 5797,
      "lake": 5798,
      "tou": 5799,
      "níbi": 5800,
      "አይነት": 5801,
      "80": 5802,
      "በግ": 5803,
      "St": 5804,
      "ines": 5805,
      "Oṣù": 5806,
      "ረተ": 5807,
      "lect": 5808,
      "Of": 5809,
      "irin": 5810,
      "Gwa": 5811,
      "lis": 5812,
      "ley": 5813,
      "ojoibi": 5814,
      "Oc": 5815,
      "set": 5816,
      "weza": 5817,
      "English": 5818,
      "Ili": 5819,
      "plu": 5820,
      "en,": 5821,
      "Bor": 5822,
      "day": 5823,
      "lánẹ́": 5824,
      "ንና": 5825,
      "ነበረ።": 5826,
      "ጀርመን": 5827,
      "May": 5828,
      "ሬት": 5829,
      "Shugaban": 5830,
      "lor": 5831,
      "ures": 5832,
      "ማዕ": 5833,
      "ኳስ": 5834,
      "bayyana": 5835,
      "cette": 5836,
      "Allah": 5837,
      "koma": 5838,
      "184": 5839,
      "risti": 5840,
      "ባቸው": 5841,
      "ዮሐንስ": 5842,
      "ches": 5843,
      "huo": 5844,
      "dont": 5845,
      "Awọn": 5846,
      "ambayo": 5847,
      "lánẹ́tì": 5848,
      "uis": 5849,
      "they": 5850,
      "ስፋ": 5851,
      "ዕለት": 5852,
      "ìgbàjá": 5853,
      "Sy": 5854,
      "ከለ": 5855,
      "ጠረ": 5856,
      "ẹ̀yẹ": 5857,
      "yukan": 5858,
      "FA": 5859,
      "way": 5860,
      "enne": 5861,
      "géné": 5862,
      "Ce": 5863,
      "wri": 5864,
      "tical": 5865,
      "...": 5866,
      "gne": 5867,
      "yadda": 5868,
      "Januari": 5869,
      "sù": 5870,
      "የግ": 5871,
      "lau": 5872,
      "wadanda": 5873,
      "ning": 5874,
      "bas": 5875,
      "name": 5876,
      "ያም": 5877,
      "reli": 5878,
      "ጀመርያ": 5879,
      "China": 5880,
      "Nigerian": 5881,
      "tle": 5882,
      "Mal": 5883,
      "iko": 5884,
      "jari": 5885,
      "plánẹ́tì": 5886,
      "tẹ̀": 5887,
      "አድር": 5888,
      "kudu": 5889,
      "prof": 5890,
      "ties": 5891,
      "aliye": 5892,
      "Kad": 5893,
      "Wana": 5894,
      "Agosti": 5895,
      "bali": 5896,
      "voir": 5897,
      "wara": 5898,
      "ያዘ": 5899,
      "ashara": 5900,
      "language": 5901,
      "ሙሉ": 5902,
      "comm": 5903,
      "AN": 5904,
      "ሠራ": 5905,
      "ግድም": 5906,
      "wahili": 5907,
      "Ingila.": 5908,
      "kaskazini": 5909,
      "ft": 5910,
      "ተን": 5911,
      "ፕሬ": 5912,
      "bẹ́ẹ̀": 5913,
      "Duniya": 5914,
      "ères": 5915,
      "sho": 5916,
      "aṣ": 5917,
      "bro": 5918,
      "35": 5919,
      "aji": 5920,
      "31": 5921,
      "andi": 5922,
      "inu": 5923,
      "ብት": 5924,
      "orúkọ": 5925,
      "chagu": 5926,
      "serikali": 5927,
      "ástẹ́rọ́ìdì.": 5928,
      "Yuni": 5929,
      "jeshi": 5930,
      "ውድ": 5931,
      "ይን": 5932,
      "iso": 5933,
      "Lagos": 5934,
      "Zi": 5935,
      "ሪዎች": 5936,
      "Sar": 5937,
      "amp": 5938,
      "ገበ": 5939,
      "dist": 5940,
      "Lugha": 5941,
      "akwai": 5942,
      "islamu": 5943,
      "zikia": 5944,
      "አስተዳ": 5945,
      "Pri": 5946,
      "gani": 5947,
      "ዓት": 5948,
      "የሆነ": 5949,
      "ይለ": 5950,
      "end": 5951,
      "taba": 5952,
      "àmì": 5953,
      "fasi": 5954,
      "Historia": 5955,
      "ናል።": 5956,
      "ደው": 5957,
      "lat": 5958,
      "esti": 5959,
      "ብሔ": 5960,
      "ቴዎ": 5961,
      "ፈው": 5962,
      "Julai": 5963,
      "kand": 5964,
      "እም": 5965,
      "sie": 5966,
      "ፈረንሳይ": 5967,
      "endelea": 5968,
      "cher": 5969,
      "kh": 5970,
      "ሰን": 5971,
      "maeneo": 5972,
      "pita": 5973,
      "Ogun": 5974,
      "siyasa": 5975,
      "Mash": 5976,
      "Yar": 5977,
      "ker": 5978,
      "mbe": 5979,
      "ምንም": 5980,
      "Nchi": 5981,
      "akọ": 5982,
      "refu": 5983,
      "tele": 5984,
      "Roma": 5985,
      "ላክ": 5986,
      "gudanar": 5987,
      "public": 5988,
      "Dis": 5989,
      "Kat": 5990,
      "እው": 5991,
      "del": 5992,
      "city": 5993,
      "Saint": 5994,
      "Han": 5995,
      "jar": 5996,
      "ህዝብ": 5997,
      "መት": 5998,
      "ታሪካዊ": 5999,
      "ጨማሪ": 6000,
      "ned": 6001,
      "lógún": 6002,
      "bé": 6003,
      "bò": 6004,
      "ign": 6005,
      "Za": 6006,
      "ia": 6007,
      "pti": 6008,
      "ቲካ": 6009,
      "ences": 6010,
      "vern": 6011,
      "70": 6012,
      "die": 6013,
      "zer": 6014,
      "አቀ": 6015,
      "ki.": 6016,
      "ration": 6017,
      "ናል": 6018,
      "ገኙ": 6019,
      "suke": 6020,
      "gbajú": 6021,
      "istory": 6022,
      "Juni": 6023,
      "dó": 6024,
      "r.": 6025,
      "Mtakatifu": 6026,
      "princi": 6027,
      "kiya": 6028,
      "Machi": 6029,
      "El": 6030,
      "ough": 6031,
      "ልም": 6032,
      "Gra": 6033,
      "well": 6034,
      "tokea": 6035,
      "ርክ": 6036,
      "Mashariki": 6037,
      "gel": 6038,
      "dama": 6039,
      "lon": 6040,
      "ላለ": 6041,
      "ኢን": 6042,
      "ጥናት": 6043,
      "Bal": 6044,
      "kilo": 6045,
      "upe": 6046,
      "ìtọ́kasí": 6047,
      "ላዊ": 6048,
      "ይታወ": 6049,
      "Mai": 6050,
      "mbi": 6051,
      "consi": 6052,
      "ween": 6053,
      "ctions": 6054,
      "came": 6055,
      "አሜሪካ": 6056,
      "peke": 6057,
      "በጣም": 6058,
      "Ser": 6059,
      "TV": 6060,
      "rín": 6061,
      "ath": 6062,
      "tuna": 6063,
      "ould": 6064,
      "vile": 6065,
      "form": 6066,
      "ምክንያት": 6067,
      "Anna": 6068,
      "አማ": 6069,
      "gizaji": 6070,
      "ራቸው": 6071,
      "ይት": 6072,
      "Najeriya,": 6073,
      "cts": 6074,
      "wípé": 6075,
      "Kaduna": 6076,
      "tafi": 6077,
      "ered": 6078,
      "abo": 6079,
      "yayi": 6080,
      "Wakristo": 6081,
      "cade": 6082,
      "Aare": 6083,
      "ህን": 6084,
      "Mala": 6085,
      "kina": 6086,
      "BN": 6087,
      "ሰር": 6088,
      "autres": 6089,
      "vement": 6090,
      "York": 6091,
      "Orí": 6092,
      "ባሕ": 6093,
      "tak": 6094,
      "ዎችን": 6095,
      "ደረጃ": 6096,
      "Abdu": 6097,
      "State": 6098,
      "partic": 6099,
      "cess": 6100,
      "mfalme": 6101,
      "ልማ": 6102,
      "tat": 6103,
      "Mei": 6104,
      "ated": 6105,
      "cus": 6106,
      "Awon": 6107,
      "jour": 6108,
      "gabatar": 6109,
      "ሳብ": 6110,
      "መነ": 6111,
      "Tazama": 6112,
      "ance": 6113,
      "የኤ": 6114,
      "fuat": 6115,
      "2011": 6116,
      "bú": 6117,
      "ደል": 6118,
      "ዓመቱ": 6119,
      "act": 6120,
      "vé": 6121,
      "90": 6122,
      "መንገድ": 6123,
      "West": 6124,
      "contin": 6125,
      "Party": 6126,
      "agba": 6127,
      "ሮማ": 6128,
      "many": 6129,
      "Ibi": 6130,
      "tex": 6131,
      "lack": 6132,
      "biashara": 6133,
      "uba": 6134,
      "ዮች": 6135,
      "cember": 6136,
      "ganda": 6137,
      "dára": 6138,
      "karibu": 6139,
      "January": 6140,
      "àkọ́kọ́": 6141,
      "wanci": 6142,
      "yao": 6143,
      "Dar": 6144,
      "Ed": 6145,
      "aye": 6146,
      "mò": 6147,
      "teurs": 6148,
      "arewa": 6149,
      "ወንዝ": 6150,
      "bra": 6151,
      "ልጆች": 6152,
      "Muhammad": 6153,
      "yer": 6154,
      "maza": 6155,
      "pendan": 6156,
      "alo": 6157,
      "fen": 6158,
      "tọ̀": 6159,
      "ምህ": 6160,
      "ዛሬ": 6161,
      "waje": 6162,
      "vision": 6163,
      "RD1-": 6164,
      "AS": 6165,
      "impor": 6166,
      "só": 6167,
      "Hen": 6168,
      "mat": 6169,
      "September": 6170,
      "'an": 6171,
      "የካ": 6172,
      "volu": 6173,
      "yamma": 6174,
      "ይወት": 6175,
      "Dese": 6176,
      "Pu": 6177,
      "Itali": 6178,
      "ነጻ": 6179,
      "kamma": 6180,
      "(198": 6181,
      "ino": 6182,
      "2015": 6183,
      "nis": 6184,
      "zungu": 6185,
      "ውም": 6186,
      "kuli": 6187,
      "sè": 6188,
      "ምስ": 6189,
      "may": 6190,
      "ung": 6191,
      "የበ": 6192,
      "kir": 6193,
      "lọ́wọ́": 6194,
      "zon": 6195,
      "ress": 6196,
      "37": 6197,
      "àgbà": 6198,
      "ሙዚ": 6199,
      "ofu": 6200,
      "December": 6201,
      "clo": 6202,
      "rais": 6203,
      "mìn": 6204,
      "ቶስ": 6205,
      "huko": 6206,
      "2007": 6207,
      "ɗaya": 6208,
      "ሃይማኖ": 6209,
      "Desemba": 6210,
      "www.": 6211,
      "ከት": 6212,
      "birni": 6213,
      "score": 6214,
      "bari": 6215,
      "utar": 6216,
      "ሳዊ": 6217,
      "unda": 6218,
      "thio": 6219,
      "kammala": 6220,
      "Es": 6221,
      "ይህን": 6222,
      "taifa": 6223,
      "nou": 6224,
      "dépar": 6225,
      "Ulaya": 6226,
      "agbègbè": 6227,
      "kù": 6228,
      "tori": 6229,
      "vre": 6230,
      "kuanzia": 6231,
      "እንዲህ": 6232,
      "jirgin": 6233,
      "jé": 6234,
      "agbá": 6235,
      "padà": 6236,
      "Rayu": 6237,
      "Aprili": 6238,
      "sake": 6239,
      "tofa": 6240,
      "2010": 6241,
      "pt": 6242,
      "ልብ": 6243,
      "ኛ፦": 6244,
      "leo": 6245,
      "Rais": 6246,
      "'in": 6247,
      "thé": 6248,
      "ani,": 6249,
      "pele": 6250,
      "masa": 6251,
      "dili": 6252,
      "kumomin": 6253,
      "Septemba": 6254,
      "Zam": 6255,
      "aga": 6256,
      "36": 6257,
      "uko": 6258,
      "ም፣": 6259,
      "Naijiria": 6260,
      "Ori": 6261,
      "peut": 6262,
      "grand": 6263,
      "ርድ": 6264,
      "orun": 6265,
      "wọ̀n": 6266,
      "between": 6267,
      "quel": 6268,
      "rough": 6269,
      "hàn": 6270,
      "ተብሎ": 6271,
      "commun": 6272,
      "hukumar": 6273,
      "8-": 6274,
      "Air": 6275,
      "ንቲ": 6276,
      "አፈ": 6277,
      "iru": 6278,
      "መልክ": 6279,
      "Abi": 6280,
      "Wal": 6281,
      "àgbé": 6282,
      "መው": 6283,
      "ጎን": 6284,
      "Mji": 6285,
      "bìnrin": 6286,
      "በቅ": 6287,
      "ብረት": 6288,
      "als": 6289,
      "chake": 6290,
      "(19": 6291,
      "alth": 6292,
      "''": 6293,
      "ሉቃ": 6294,
      "የአሜሪካ": 6295,
      "Ay": 6296,
      "mama": 6297,
      "2012": 6298,
      "kundi": 6299,
      "ሆነ።": 6300,
      "kwaikwa": 6301,
      "ቋንቋዎች": 6302,
      "long": 6303,
      "pra": 6304,
      "éga": 6305,
      "Atlan": 6306,
      "jum": 6307,
      "ṣu": 6308,
      "James": 6309,
      "Amurka": 6310,
      "US": 6311,
      "Áf": 6312,
      "ፓር": 6313,
      "ind": 6314,
      "visiwa": 6315,
      "ila": 6316,
      "jus": 6317,
      "mic": 6318,
      "Mto": 6319,
      "Sh": 6320,
      "waɗan": 6321,
      "pris": 6322,
      "where": 6323,
      "ል፣": 6324,
      "anar": 6325,
      "kuta": 6326,
      "yara": 6327,
      "መንግስት": 6328,
      "iye": 6329,
      "ሚኒ": 6330,
      "እየ": 6331,
      "mi,": 6332,
      "tia": 6333,
      "(ከ": 6334,
      "ይቀ": 6335,
      "ልጣን": 6336,
      "180": 6337,
      "2014": 6338,
      "British": 6339,
      "suc": 6340,
      "2006": 6341,
      "ked": 6342,
      "Pla": 6343,
      "Ìtọ́kasí": 6344,
      "ular": 6345,
      "ስለዚህ": 6346,
      "ṣèlú": 6347,
      "fol": 6348,
      "when": 6349,
      "di,": 6350,
      "Jose": 6351,
      "igba": 6352,
      "ሊክ": 6353,
      "ደጋ": 6354,
      "historia": 6355,
      "ለምሳሌ": 6356,
      "art": 6357,
      "samman": 6358,
      "ISBN": 6359,
      "Ac": 6360,
      "eli": 6361,
      "iste": 6362,
      "C.": 6363,
      "ሀገ": 6364,
      "very": 6365,
      "kọ̀ọ́": 6366,
      "ወረዳ": 6367,
      "ìmù": 6368,
      "ልግ": 6369,
      "እያ": 6370,
      "tala": 6371,
      "እንጂ": 6372,
      "mwigizaji": 6373,
      "uhuru": 6374,
      "àì": 6375,
      "ፖለ": 6376,
      "Februari": 6377,
      "ss": 6378,
      "nal": 6379,
      "Àà": 6380,
      "kutokana": 6381,
      "ọ̀pọ̀": 6382,
      "br": 6383,
      "ረብ": 6384,
      "ጉዳ": 6385,
      "ፈለ": 6386,
      "mash": 6387,
      "fannin": 6388,
      "Lan": 6389,
      "mati": 6390,
      "halar": 6391,
      "off": 6392,
      "tofauti": 6393,
      "tsi": 6394,
      "les,": 6395,
      "Iba": 6396,
      "ሉቃስ": 6397,
      "FI": 6398,
      "Ethio": 6399,
      "አዳ": 6400,
      "mutanen": 6401,
      "sani": 6402,
      "tab": 6403,
      "VI": 6404,
      "òrùn": 6405,
      "ብለው": 6406,
      "ጽሑ": 6407,
      "kila": 6408,
      "Watu": 6409,
      "Novemba": 6410,
      "ndani": 6411,
      "(P": 6412,
      "maru": 6413,
      "Austra": 6414,
      "dra": 6415,
      "George": 6416,
      "ṣí": 6417,
      "ine,": 6418,
      "በሽ": 6419,
      "ዋቂ": 6420,
      "kiyar": 6421,
      "náà.": 6422,
      "ነበሩ።": 6423,
      "Lou": 6424,
      "ombe": 6425,
      "ìtàn": 6426,
      "45": 6427,
      "work": 6428,
      "Des": 6429,
      "mur": 6430,
      "àwon": 6431,
      "only": 6432,
      "cture": 6433,
      "States": 6434,
      "ኖሩ": 6435,
      "trou": 6436,
      "ainsi": 6437,
      "exp": 6438,
      "ስሙ": 6439,
      "baba": 6440,
      "Tun": 6441,
      "ይዘ": 6442,
      "አለቃ": 6443,
      "minist": 6444,
      "gram": 6445,
      "Mil": 6446,
      "atta": 6447,
      "ከተማው": 6448,
      "kilomita": 6449,
      "yay": 6450,
      "fore": 6451,
      "pelu": 6452,
      "Agba": 6453,
      "ኖስ": 6454,
      "omini": 6455,
      "zamani": 6456,
      "offici": 6457,
      "France": 6458,
      "hol": 6459,
      "sing": 6460,
      "Majalisar": 6461,
      "karamar": 6462,
      "4-": 6463,
      "gawa": 6464,
      "jet": 6465,
      "yóò": 6466,
      "ተፈ": 6467,
      "film": 6468,
      "Bahari": 6469,
      "mission": 6470,
      "አሁን": 6471,
      "cis": 6472,
      "fini": 6473,
      "Kẹ": 6474,
      "naa": 6475,
      "2000": 6476,
      "City": 6477,
      "jí": 6478,
      "jeo": 6479,
      "number": 6480,
      "ተና": 6481,
      "ጥሩ": 6482,
      "katoliki": 6483,
      "ይባላል።": 6484,
      "ṣeré": 6485,
      "kashin": 6486,
      "juli": 6487,
      "Jina": 6488,
      "Tana": 6489,
      "g,": 6490,
      "የእስ": 6491,
      "Lat": 6492,
      "bus": 6493,
      "ቻይና": 6494,
      "ጮች": 6495,
      "ነገሮች": 6496,
      "jọba": 6497,
      "then": 6498,
      "gent": 6499,
      "መዝ": 6500,
      "ኔታ": 6501,
      "tsarin": 6502,
      "ola": 6503,
      "wilaya": 6504,
      "መጨረሻ": 6505,
      "about": 6506,
      "utawala": 6507,
      "ላማ": 6508,
      "ወች": 6509,
      "site": 6510,
      "(N": 6511,
      "ver,": 6512,
      "tés": 6513,
      "position": 6514,
      "Gir": 6515,
      "November": 6516,
      "dou": 6517,
      "Bas": 6518,
      "Cent": 6519,
      "dù": 6520,
      "histori": 6521,
      "àkó": 6522,
      "ረዳ": 6523,
      "ሮስ": 6524,
      "nation": 6525,
      "mataifa": 6526,
      "Octo": 6527,
      "mocra": 6528,
      "2003": 6529,
      "Charles": 6530,
      "tá": 6531,
      "usta": 6532,
      "እንስ": 6533,
      "group": 6534,
      "ፖለቲካ": 6535,
      "በም": 6536,
      "ፍል": 6537,
      "hala": 6538,
      "የሚለው": 6539,
      "ps": 6540,
      "omen": 6541,
      "de.": 6542,
      "sia": 6543,
      "97": 6544,
      "Tare": 6545,
      "(M": 6546,
      "ero": 6547,
      "syste": 6548,
      "6-": 6549,
      "Che": 6550,
      "Den": 6551,
      "ሶች": 6552,
      "ድል": 6553,
      "ws": 6554,
      "lafi": 6555,
      "tics": 6556,
      "February": 6557,
      "idi": 6558,
      "gbon": 6559,
      "during": 6560,
      "Pre": 6561,
      "Sal": 6562,
      "ate": 6563,
      "stu": 6564,
      "òun": 6565,
      "net": 6566,
      "terri": 6567,
      "century": 6568,
      "(ojoibi": 6569,
      "ዋቢ": 6570,
      "ዝርዝር": 6571,
      "dali": 6572,
      "habi": 6573,
      "2005": 6574,
      "se,": 6575,
      "karni": 6576,
      "Katsina": 6577,
      "cial": 6578,
      "ette": 6579,
      "Sam": 6580,
      "ci,": 6581,
      "ድርጅ": 6582,
      "to,": 6583,
      "musul": 6584,
      "መጀመርያ": 6585,
      "nement": 6586,
      "qu'il": 6587,
      "ilé-ẹ̀kọ́": 6588,
      "lina": 6589,
      "où": 6590,
      "fois": 6591,
      "ologie": 6592,
      "c,": 6593,
      "የኢ": 6594,
      "ደራ": 6595,
      "maa": 6596,
      "aláì": 6597,
      "digiri": 6598,
      "ti,": 6599,
      "esha": 6600,
      "Kano": 6601,
      "mpire": 6602,
      "'Yan": 6603,
      "hukumomin": 6604,
      "u.": 6605,
      "March": 6606,
      "Cam": 6607,
      "ረም": 6608,
      "ይሆ": 6609,
      "1960": 6610,
      "également": 6611,
      "October": 6612,
      "ት፣": 6613,
      "lashe": 6614,
      "koso": 6615,
      "nínu": 6616,
      "darí": 6617,
      "1892": 6618,
      "መጽሐፍ": 6619,
      "vernment": 6620,
      "Ver": 6621,
      "nel": 6622,
      "fano": 6623,
      "ሕዝ": 6624,
      "milli": 6625,
      "ክሉ": 6626,
      "conomi": 6627,
      "rasmi": 6628,
      "faf": 6629,
      "manin": 6630,
      "ami": 6631,
      "lejin": 6632,
      "olly": 6633,
      "ነው፡፡": 6634,
      "Sara": 6635,
      "2013": 6636,
      "ን፡": 6637,
      "ẹ̀ẹ́": 6638,
      "ter,": 6639,
      "wezi": 6640,
      "ክርስቶስ": 6641,
      "alors": 6642,
      "ነሳ": 6643,
      "musamman": 6644,
      "አንዳ": 6645,
      "Dola": 6646,
      "Faransa": 6647,
      "kw": 6648,
      "UN": 6649,
      "mkubwa": 6650,
      "binci": 6651,
      "ሎት": 6652,
      "iwe": 6653,
      "litta": 6654,
      "Del": 6655,
      "-o": 6656,
      "ts.": 6657,
      "34": 6658,
      "arti": 6659,
      "loso": 6660,
      "Jean": 6661,
      "ነቱ": 6662,
      "rẹ̀.": 6663,
      "Siku": 6664,
      "partie": 6665,
      "Tra": 6666,
      "tú": 6667,
      "ume": 6668,
      "እኔ": 6669,
      "esta": 6670,
      "is.": 6671,
      "there": 6672,
      "mutum": 6673,
      "nau": 6674,
      "pes": 6675,
      "ከሰ": 6676,
      "Kiingereza": 6677,
      "julo": 6678,
      "anga": 6679,
      "Gree": 6680,
      "Tai": 6681,
      "mwan": 6682,
      "ẹlẹ́bùn": 6683,
      "Chan": 6684,
      "kuji": 6685,
      "College": 6686,
      "ለች": 6687,
      "bahari": 6688,
      "Ibadan": 6689,
      "Ele": 6690,
      "dri": 6691,
      "pania": 6692,
      "ሁኔታ": 6693,
      "in.": 6694,
      "let": 6695,
      "sinimá": 6696,
      "pẹlu": 6697,
      "ال": 6698,
      "miji": 6699,
      "Adé": 6700,
      "ròyìn": 6701,
      "hom": 6702,
      "char": 6703,
      "ቢሆን": 6704,
      "yal": 6705,
      "fíìmù": 6706,
      "North": 6707,
      "kwaikwayo": 6708,
      "Kir": 6709,
      "arab": 6710,
      "population": 6711,
      "ሁኑ": 6712,
      "ካር": 6713,
      "ጠው": 6714,
      "Ààrẹ": 6715,
      "Fasi": 6716,
      "Stu": 6717,
      "sas": 6718,
      "Sala": 6719,
      "Kuna": 6720,
      "ées": 6721,
      "ሀገር": 6722,
      "magharibi": 6723,
      "would": 6724,
      "July": 6725,
      "Oló": 6726,
      "ከር": 6727,
      "ṣiṣẹ́": 6728,
      "yoyi": 6729,
      "wón": 6730,
      "zed": 6731,
      "ፈን": 6732,
      "ፋት": 6733,
      "jagor": 6734,
      "አመት": 6735,
      "Japan": 6736,
      "kamfanin": 6737,
      "ዲያ": 6738,
      "መንፈ": 6739,
      "on.": 6740,
      "Asia": 6741,
      "ነጋ": 6742,
      "mace": 6743,
      "Al-": 6744,
      "Fizikia": 6745,
      "gbajúmọ̀": 6746,
      "1999": 6747,
      "ቅድ": 6748,
      "mali": 6749,
      "Mutane": 6750,
      "wájú": 6751,
      "Fasihi": 6752,
      "ijoba": 6753,
      "llo": 6754,
      "organ": 6755,
      "tout": 6756,
      "idadi": 6757,
      "yote": 6758,
      "tto": 6759,
      "አይደ": 6760,
      "thern": 6761,
      "ko,": 6762,
      "ville": 6763,
      "ስ፣": 6764,
      "ፍጥ": 6765,
      "gbọ̀n": 6766,
      "wiki": 6767,
      "pàá": 6768,
      "ተሰ": 6769,
      "ane": 6770,
      "መራ": 6771,
      "መሆኑ": 6772,
      "ruwa": 6773,
      "asalin": 6774,
      "moder": 6775,
      "2016": 6776,
      "አለው": 6777,
      "ያህል": 6778,
      "malla": 6779,
      "karkashin": 6780,
      "haifin": 6781,
      "ayyukan": 6782,
      "lambar": 6783,
      "rayuwa": 6784,
      "Kiswahili": 6785,
      "inú": 6786,
      "kiri": 6787,
      "constitu": 6788,
      "stan": 6789,
      "አያ": 6790,
      "maj": 6791,
      "ing,": 6792,
      "ሙዚቃ": 6793,
      "IV": 6794,
      "da.": 6795,
      "graphi": 6796,
      "ቀበ": 6797,
      "ቁር": 6798,
      "tion.": 6799,
      "hukuma": 6800,
      "ማርቆ": 6801,
      "shirye": 6802,
      "techni": 6803,
      "Cro": 6804,
      "iṣẹ": 6805,
      "torí": 6806,
      "ራን": 6807,
      "ቻቸው": 6808,
      "péri": 6809,
      "julikana": 6810,
      "Ak": 6811,
      "appel": 6812,
      "Don": 6813,
      "Mkoa": 6814,
      "Prin": 6815,
      "kayan": 6816,
      "ẹ̀yà": 6817,
      "ase": 6818,
      "()": 6819,
      "91": 6820,
      "ga,": 6821,
      "Lẹ́": 6822,
      "ፈላ": 6823,
      "able": 6824,
      "በአንድ": 6825,
      "Kananan": 6826,
      "lẹ́yìn": 6827,
      "ይስጥ": 6828,
      "diyo": 6829,
      "gbẹ": 6830,
      "keo": 6831,
      "Marejeo": 6832,
      "patikana": 6833,
      "Aba": 6834,
      "Olu": 6835,
      "Mungu": 6836,
      "gur": 6837,
      "n,": 6838,
      "ዘጋ": 6839,
      "yabo": 6840,
      "ምንጮች": 6841,
      "Kongo": 6842,
      "gran": 6843,
      "tif": 6844,
      "musi": 6845,
      "fur": 6846,
      "ገዛ": 6847,
      "ጌታ": 6848,
      "yansi": 6849,
      "rench": 6850,
      "Tiba": 6851,
      "ራዊት": 6852,
      "Haifaf": 6853,
      "ይገኛል።": 6854,
      "tsohon": 6855,
      "sà": 6856,
      "pays": 6857,
      "|-": 6858,
      "ም፡": 6859,
      "ስላ": 6860,
      "ታዋቂ": 6861,
      "ንጉስ": 6862,
      "département": 6863,
      "Joseph": 6864,
      "mashariki": 6865,
      "Acade": 6866,
      "arch": 6867,
      "hesa": 6868,
      "òfin": 6869,
      "fai": 6870,
      "2009": 6871,
      "forme": 6872,
      "em": 6873,
      "nada": 6874,
      "sive": 6875,
      "Kuma": 6876,
      "B.": 6877,
      "kifo": 6878,
      "sul": 6879,
      "kwallon": 6880,
      "shirin": 6881,
      "compo": 6882,
      "የላ": 6883,
      "dévelop": 6884,
      "ምዕራብ": 6885,
      "Gen": 6886,
      "mand": 6887,
      "via": 6888,
      "June": 6889,
      "ቷል።": 6890,
      "fia": 6891,
      "situ": 6892,
      "ged": 6893,
      "zin": 6894,
      "ጋራ": 6895,
      "son,": 6896,
      "ongozi": 6897,
      "selu": 6898,
      "ሥርወ": 6899,
      "Uru": 6900,
      "mare": 6901,
      "adar": 6902,
      "ማረ": 6903,
      "Roma,": 6904,
      "lọpọ̀": 6905,
      "Haifaffun": 6906,
      "lì": 6907,
      "’ar": 6908,
      "high": 6909,
      "tena": 6910,
      "était": 6911,
      "fẹ̀": 6912,
      "p.": 6913,
      "ወል": 6914,
      "inst": 6915,
      "shed": 6916,
      "የተሰ": 6917,
      "Kudu": 6918,
      "Christi": 6919,
      "tus": 6920,
      "huwa": 6921,
      "2008": 6922,
      "Bí": 6923,
      "መሪ": 6924,
      "መሳ": 6925,
      "ፕሮ": 6926,
      "kusa": 6927,
      "AD": 6928,
      "French": 6929,
      "Jac": 6930,
      "Val": 6931,
      "(T": 6932,
      "pili": 6933,
      "http://www.": 6934,
      "ወገን": 6935,
      "hudu": 6936,
      "became": 6937,
      "Miji": 6938,
      "Gar": 6939,
      "h,": 6940,
      "hata": 6941,
      "viron": 6942,
      "(I": 6943,
      "win": 6944,
      "kuhusu": 6945,
      "fasa": 6946,
      "called": 6947,
      "nyingine": 6948,
      "kis": 6949,
      "goma": 6950,
      "taire": 6951,
      "ፈርዖ": 6952,
      "ባህር": 6953,
      "kùnrin": 6954,
      "ng": 6955,
      "ambao": 6956,
      "አሸ": 6957,
      "ይመስ": 6958,
      "gbọ́": 6959,
      "ብርሃ": 6960,
      "kata": 6961,
      "re,": 6962,
      "yika": 6963,
      "Paul": 6964,
      "gori": 6965,
      "ƙi": 6966,
      "ችው": 6967,
      "ንት": 6968,
      "huwar": 6969,
      "que.": 6970,
      "permet": 6971,
      "'yar": 6972,
      "talla": 6973,
      "karatu": 6974,
      "binrin": 6975,
      "eniyan": 6976,
      "’a": 6977,
      "unge": 6978,
      "sour": 6979,
      "place": 6980,
      "ስቴ": 6981,
      "ክፍላ": 6982,
      "ria.": 6983,
      "premier": 6984,
      "ጋል": 6985,
      "ፓን": 6986,
      "ents": 6987,
      "lẹ̀-èdè": 6988,
      "በተጨማሪ": 6989,
      "Kanisa": 6990,
      "cè": 6991,
      "yari": 6992,
      "vili": 6993,
      "ale": 6994,
      "njia": 6995,
      "ልት": 6996,
      "ፎች": 6997,
      "BBC": 6998,
      "mnan": 6999,
      "culture": 7000,
      "Roman": 7001,
      "\")": 7002,
      "Dans": 7003,
      "très": 7004,
      "እየተ": 7005,
      "après": 7006,
      "አገልግ": 7007,
      "ታላቅ": 7008,
      "Musulunci": 7009,
      "2004": 7010,
      "ilimi": 7011,
      "yayyun": 7012,
      "gn": 7013,
      "later": 7014,
      "bes": 7015,
      "ọn": 7016,
      "ento": 7017,
      "himu": 7018,
      "tano": 7019,
      "région": 7020,
      "kunan": 7021,
      "jerin": 7022,
      "2017": 7023,
      "apa": 7024,
      "በዚያ": 7025,
      "ወታ": 7026,
      "riwa": 7027,
      "cause": 7028,
      "Sin": 7029,
      "mil": 7030,
      "zake": 7031,
      "through": 7032,
      "Anti": 7033,
      "Yamma": 7034,
      "mbili": 7035,
      "ሩን": 7036,
      "ety": 7037,
      "mìnà": 7038,
      "kra": 7039,
      "second": 7040,
      "ographi": 7041,
      "Ebun": 7042,
      "Fin": 7043,
      "bọ́": 7044,
      "pwani": 7045,
      "majalisar": 7046,
      "ashi": 7047,
      "wote": 7048,
      "Alexander": 7049,
      "Musa": 7050,
      "ollywood": 7051,
      "Kasa": 7052,
      "»,": 7053,
      "ly,": 7054,
      "mari": 7055,
      "kab": 7056,
      "urch": 7057,
      "constru": 7058,
      "sieurs": 7059,
      "eyi": 7060,
      "ጣት": 7061,
      "takar": 7062,
      "Wannan": 7063,
      "v.": 7064,
      "lead": 7065,
      "Lam": 7066,
      "hùn": 7067,
      "ሳን": 7068,
      "ብሪ": 7069,
      "አላ": 7070,
      "archi": 7071,
      "respon": 7072,
      "1980": 7073,
      "Kemia": 7074,
      "39": 7075,
      "kuku": 7076,
      "ብላ": 7077,
      "ዚሁ": 7078,
      "የታ": 7079,
      "ጋይ": 7080,
      "bakar": 7081,
      "elles": 7082,
      "origin": 7083,
      "ቶችን": 7084,
      "Rayayyun": 7085,
      "ይታወቃ": 7086,
      "75": 7087,
      "Kai": 7088,
      "fina-": 7089,
      "(በ": 7090,
      "ባን": 7091,
      "state": 7092,
      "masana": 7093,
      "gá": 7094,
      "oko": 7095,
      "rap": 7096,
      "ዘመናዊ": 7097,
      "kawaida": 7098,
      "Kaskazini": 7099,
      "መሠረት": 7100,
      "années": 7101,
      "Pr": 7102,
      "ጥሮ": 7103,
      "peu": 7104,
      "people": 7105,
      "opé": 7106,
      "air": 7107,
      "uses": 7108,
      "-ì": 7109,
      "Pen": 7110,
      "mìí": 7111,
      "ሜትር": 7112,
      "table": 7113,
      "tẹ́lẹ̀": 7114,
      "ule": 7115,
      "cifi": 7116,
      "Ai": 7117,
      "bẹ": 7118,
      "jẹ̀": 7119,
      "ማቴዎ": 7120,
      "ሳቸው": 7121,
      "ፍሬ": 7122,
      "ጣልያን": 7123,
      "e-": 7124,
      "onge": 7125,
      "ómìnà": 7126,
      "ሲን": 7127,
      "ግባ": 7128,
      "Tanzani": 7129,
      "term": 7130,
      "zil": 7131,
      "ce-": 7132,
      "muhimu": 7133,
      "écri": 7134,
      "ball": 7135,
      "rik": 7136,
      "tanga": 7137,
      "People": 7138,
      "Iṣẹ́": 7139,
      "Omo": 7140,
      "ገል": 7141,
      "badili": 7142,
      "gene": 7143,
      "informa": 7144,
      "us.": 7145,
      "Open": 7146,
      "cla": 7147,
      "rest": 7148,
      "wenyewe": 7149,
      "Wilaya": 7150,
      "Tangu": 7151,
      "Mor": 7152,
      "ሳል": 7153,
      "ናን": 7154,
      "lokaci": 7155,
      "waɗanda": 7156,
      "Pas": 7157,
      "Island": 7158,
      "ለች።": 7159,
      "ኮች": 7160,
      "1990": 7161,
      "léwò": 7162,
      "ilimin": 7163,
      "n.k.": 7164,
      "al'um": 7165,
      "(\"": 7166,
      "ሎን": 7167,
      "ራሉ።": 7168,
      "yuka": 7169,
      "AC": 7170,
      "anta": 7171,
      "ንጉሠ": 7172,
      "olórin": 7173,
      "Mer": 7174,
      "tel": 7175,
      "wed": 7176,
      "Kiarabu": 7177,
      "1970": 7178,
      "magana": 7179,
      "tent": 7180,
      "Ibra": 7181,
      "Empire": 7182,
      "d-": 7183,
      "ማህ": 7184,
      "life": 7185,
      "français": 7186,
      "Tho": 7187,
      "gẹ": 7188,
      "oloselu": 7189,
      "mwanamuziki": 7190,
      "ሆኖም": 7191,
      "ወለደ": 7192,
      "Kin": 7193,
      "».": 7194,
      "mfu": 7195,
      "nigba": 7196,
      "ject": 7197,
      "ፓርቲ": 7198,
      "depen": 7199,
      "My": 7200,
      "Vol": 7201,
      "«የ": 7202,
      "kabi": 7203,
      "olú": 7204,
      "farkon": 7205,
      "ref": 7206,
      "ተነ": 7207,
      "ዙሪያ": 7208,
      "ዝም": 7209,
      "urar": 7210,
      "stand": 7211,
      "elect": 7212,
      "chumi": 7213,
      "Ré": 7214,
      "star": 7215,
      "if": 7216,
      "ena": 7217,
      "yaani": 7218,
      "500": 7219,
      "Institu": 7220,
      "All": 7221,
      "rus": 7222,
      "መቀ": 7223,
      "like": 7224,
      "Baba": 7225,
      "ነገሠ": 7226,
      "bata": 7227,
      "(E": 7228,
      "bó": 7229,
      "en.": 7230,
      "kal": 7231,
      "entifi": 7232,
      "Black": 7233,
      "Gro": 7234,
      "dàn": 7235,
      "kya": 7236,
      "ዩኒ": 7237,
      "titu": 7238,
      "la.": 7239,
      "harshen": 7240,
      "/)": 7241,
      "di.": 7242,
      "የነበሩ": 7243,
      "ይሰ": 7244,
      "àgbéléwò": 7245,
      "siya": 7246,
      "33": 7247,
      "FM": 7248,
      "German": 7249,
      "Lit": 7250,
      "ቀረ": 7251,
      "made": 7252,
      "jimbo": 7253,
      "ድረግ": 7254,
      "Kwalejin": 7255,
      "finai": 7256,
      "ዕለታት": 7257,
      "ky": 7258,
      "sol": 7259,
      "olog": 7260,
      "four": 7261,
      "ዮር": 7262,
      "ji,": 7263,
      "ped": 7264,
      "dhaa": 7265,
      "diffé": 7266,
      "mìíràn": 7267,
      "Dur": 7268,
      "Eli": 7269,
      "eur": 7270,
      "ፈት": 7271,
      "Love": 7272,
      "obìnrin": 7273,
      "አንዳንድ": 7274,
      "natur": 7275,
      "sasa": 7276,
      "Wakati": 7277,
      "Awards": 7278,
      "influ": 7279,
      "halarci": 7280,
      "Tarehe": 7281,
      "BA": 7282,
      "DP": 7283,
      "Ibrahim": 7284,
      "Alá": 7285,
      "Vo": 7286,
      "ሩ።": 7287,
      "ባዊ": 7288,
      "three": 7289,
      "tamment": 7290,
      "lors": 7291,
      "sans": 7292,
      "2002": 7293,
      "hoto": 7294,
      "rún": 7295,
      "ከበ": 7296,
      "Soci": 7297,
      "gwamnatin": 7298,
      "ዘን": 7299,
      "ይጠ": 7300,
      "ገዳ": 7301,
      "damu": 7302,
      "kusan": 7303,
      "lọ́dún": 7304,
      "ገኘው": 7305,
      "Ahma": 7306,
      "5-": 7307,
      "ode": 7308,
      "zabe": 7309,
      "being": 7310,
      ")፣": 7311,
      "Kyau": 7312,
      "Pat": 7313,
      "roni": 7314,
      "በየ": 7315,
      "ከራ": 7316,
      "notamment": 7317,
      "Alakoso": 7318,
      "rubuta": 7319,
      "April": 7320,
      "agbegbe": 7321,
      "kisiwa": 7322,
      "ቀናት": 7323,
      "ባሉ": 7324,
      "ግጥ": 7325,
      "er.": 7326,
      "sifi": 7327,
      "zaben": 7328,
      "sosai": 7329,
      "cutar": 7330,
      "Abubakar": 7331,
      "tarihi": 7332,
      "gíga": 7333,
      "t-": 7334,
      "tains": 7335,
      "And": 7336,
      "ክራ": 7337,
      "lic": 7338,
      "J.": 7339,
      "neman": 7340,
      "ford": 7341,
      "7-": 7342,
      "ሥላ": 7343,
      "አጥ": 7344,
      "kiran": 7345,
      "ric": 7346,
      "sociation": 7347,
      "Can": 7348,
      "Academy": 7349,
      "Huku": 7350,
      "Yana": 7351,
      "kún": 7352,
      "husi": 7353,
      "veau": 7354,
      "book": 7355,
      "አካል": 7356,
      "(197": 7357,
      "band": 7358,
      "David": 7359,
      "ipò": 7360,
      "ጠና": 7361,
      "gali": 7362,
      "face": 7363,
      "ክልል": 7364,
      "zinazo": 7365,
      "ààyè": 7366,
      "ባሕር": 7367,
      "AM": 7368,
      "tats": 7369,
      "including": 7370,
      "rẹ́": 7371,
      "ልደት": 7372,
      "ስያ": 7373,
      "enta": 7374,
      "ciki": 7375,
      "kasuwanci": 7376,
      "kistan": 7377,
      "mbu": 7378,
      "radi": 7379,
      "coun": 7380,
      "(የ": 7381,
      "Sch": 7382,
      "ቀል": 7383,
      "ọwọ́": 7384,
      "male": 7385,
      "bal": 7386,
      "abubu": 7387,
      "pekee": 7388,
      "ጽሑፍ": 7389,
      "tha": 7390,
      "amin": 7391,
      "bour": 7392,
      "hairi": 7393,
      "velopment": 7394,
      "uwan": 7395,
      "መጻ": 7396,
      "ሦስት": 7397,
      "ቀዳ": 7398,
      "ያሉ": 7399,
      "ገው": 7400,
      "any": 7401,
      "sation": 7402,
      "zilizo": 7403,
      "You": 7404,
      "years": 7405,
      "Lab": 7406,
      "Os": 7407,
      "dọ́": 7408,
      "owo": 7409,
      "ìgbé": 7410,
      "lewa": 7411,
      "mie": 7412,
      "exemp": 7413,
      "Annabi": 7414,
      "Uganda": 7415,
      "ile-": 7416,
      "an.": 7417,
      "ra,": 7418,
      "sìkò": 7419,
      "présent": 7420,
      "première": 7421,
      "plusieurs": 7422,
      "East": 7423,
      "early": 7424,
      "Umoja": 7425,
      "iṣ": 7426,
      "ón": 7427,
      "ዕል": 7428,
      "Ọjọ́": 7429,
      "dancin": 7430,
      "vuti": 7431,
      "ደብረ": 7432,
      "philoso": 7433,
      "ከብ": 7434,
      "ወዳ": 7435,
      "ወጥ": 7436,
      "Ọdún": 7437,
      "nifi": 7438,
      "taima": 7439,
      "burg": 7440,
      "የሱስ": 7441,
      "Tarihi": 7442,
      "Kal": 7443,
      "gement": 7444,
      "መቶ": 7445,
      "ማይ": 7446,
      "ቨር": 7447,
      "Nijar": 7448,
      "ማርያም": 7449,
      "ሁሉም": 7450,
      "Guine": 7451,
      "oun": 7452,
      "environ": 7453,
      "makaran": 7454,
      "የተለያዩ": 7455,
      "zote": 7456,
      "ምናል": 7457,
      "Abuja": 7458,
      "ፕሬዚ": 7459,
      "Hun": 7460,
      "bina": 7461,
      "cours": 7462,
      "99": 7463,
      "Jer": 7464,
      "bles": 7465,
      "ctive": 7466,
      "ሻዎች": 7467,
      "በእ": 7468,
      "ጥረ": 7469,
      "rashin": 7470,
      "dinin": 7471,
      "si.": 7472,
      "0,000": 7473,
      "pande": 7474,
      "ƙin": 7475,
      "ማች": 7476,
      "የህ": 7477,
      "ẹyẹ": 7478,
      "org": 7479,
      "si,": 7480,
      "Robert": 7481,
      "PC": 7482,
      "ika": 7483,
      "idan": 7484,
      "ugu": 7485,
      "dubu": 7486,
      "Medi": 7487,
      "(እንግሊዝኛ": 7488,
      "vit": 7489,
      "ቲን": 7490,
      "አራ": 7491,
      "riban": 7492,
      "crip": 7493,
      "ክርስቲያ": 7494,
      "z,": 7495,
      "hawa": 7496,
      "ton,": 7497,
      "-I": 7498,
      "ተዋ": 7499,
      "ism": 7500,
      "web": 7501,
      "tary": 7502,
      "Martin": 7503,
      "sée": 7504,
      "àkọ́": 7505,
      "ማጣ": 7506,
      "ካም": 7507,
      "ውሮፓ": 7508,
      "saka": 7509,
      "ge.": 7510,
      "itace": 7511,
      "dhidi": 7512,
      "aláìsí": 7513,
      "Jana": 7514,
      "ƙungiyar": 7515,
      "Ọba": 7516,
      "til": 7517,
      "የሚል": 7518,
      "tàkì": 7519,
      "የምት": 7520,
      "Lin": 7521,
      "Ola": 7522,
      "Pol": 7523,
      "48": 7524,
      "uel": 7525,
      "እርሱ": 7526,
      "የነበረው": 7527,
      "ሥላሴ": 7528,
      "38": 7529,
      "Fir": 7530,
      "M.": 7531,
      "Mara": 7532,
      "maduni": 7533,
      "pou": 7534,
      "peti": 7535,
      "masara": 7536,
      "kọ̀wé": 7537,
      "Vita": 7538,
      "mam": 7539,
      "unga": 7540,
      "By": 7541,
      "Ye": 7542,
      "ሄድ": 7543,
      "የሰው": 7544,
      "light": 7545,
      "cel": 7546,
      "ṣùgbọ́n": 7547,
      "cara": 7548,
      "biwa": 7549,
      "ji.": 7550,
      "point": 7551,
      "Isa": 7552,
      "Olú": 7553,
      "Ras": 7554,
      "mist": 7555,
      "bawa": 7556,
      "bihi": 7557,
      "bijin": 7558,
      "dunia": 7559,
      "Áfríkà": 7560,
      "Ile": 7561,
      "kwe": 7562,
      "appe": 7563,
      "Best": 7564,
      "Sci": 7565,
      "Whi": 7566,
      "hor": 7567,
      "ttu": 7568,
      "ìdá": 7569,
      "ላን": 7570,
      "bayar": 7571,
      "ried": 7572,
      "go,": 7573,
      "wever,": 7574,
      "አምላክ": 7575,
      "ማስታወ": 7576,
      "(d.": 7577,
      "ታቸውን": 7578,
      "እድ": 7579,
      "dif": 7580,
      "ገንዘ": 7581,
      "ጠቃላይ": 7582,
      "score0": 7583,
      "Sikukuu": 7584,
      "jó": 7585,
      "zari": 7586,
      "zation": 7587,
      "type": 7588,
      "Rich": 7589,
      "possi": 7590,
      "nun": 7591,
      "ሌክት": 7592,
      "osere": 7593,
      "እጅግ": 7594,
      "Gwamna": 7595,
      "Ina": 7596,
      "vient": 7597,
      "contr": 7598,
      "lowing": 7599,
      "mjini": 7600,
      "wù": 7601,
      "ስቱ": 7602,
      "ጠን": 7603,
      "zaɓ": 7604,
      "mulki": 7605,
      "found": 7606,
      "Que": 7607,
      "ti.": 7608,
      "list": 7609,
      "tum": 7610,
      "Amerika.": 7611,
      "bàdàn": 7612,
      "th,": 7613,
      "tribu": 7614,
      "pù": 7615,
      "òṣeré": 7616,
      "bada": 7617,
      "these": 7618,
      "differ": 7619,
      "fiel": 7620,
      "peri": 7621,
      "Tanbihi": 7622,
      "milioni": 7623,
      "anzibar": 7624,
      "Ful": 7625,
      "Fed": 7626,
      "History": 7627,
      "Spa": 7628,
      "mfuata": 7629,
      "ware": 7630,
      "ላው": 7631,
      "ይቻ": 7632,
      "ግ.": 7633,
      "እንቅ": 7634,
      "common": 7635,
      "miliyan": 7636,
      "ጠቀም": 7637,
      "ሃይማኖት": 7638,
      "TA": 7639,
      "pren": 7640,
      "Ear": 7641,
      "Zanzibar": 7642,
      "fẹ": 7643,
      "jira": 7644,
      "2015,": 7645,
      "Democra": 7646,
      "shirya": 7647,
      "-19": 7648,
      "mou": 7649,
      "li,": 7650,
      "same": 7651,
      "Agbegbe": 7652,
      "Cibi": 7653,
      "Nuwa": 7654,
      "jò": 7655,
      "Òun": 7656,
      "ላሉ።": 7657,
      "በእንግሊዝኛ": 7658,
      "tayi": 7659,
      "kan.": 7660,
      "ሳይሆን": 7661,
      "mwanasiasa": 7662,
      "tarihin": 7663,
      "dúgbò": 7664,
      "gbara": 7665,
      "buil": 7666,
      "Ter": 7667,
      "ሴቶች": 7668,
      "በደቡብ": 7669,
      "ዓይ": 7670,
      "የሩ": 7671,
      "ዳግ": 7672,
      "ገነ": 7673,
      "muda": 7674,
      "tsawon": 7675,
      "pàtàkì": 7676,
      "chaguzi": 7677,
      "yama": 7678,
      "tatu": 7679,
      "mea": 7680,
      "úsù": 7681,
      "ቀድሞ": 7682,
      "ደስ": 7683,
      "bakwai": 7684,
      "gabar": 7685,
      "fice": 7686,
      "giriki": 7687,
      "wari": 7688,
      "inte": 7689,
      "leurs": 7690,
      "world": 7691,
      "Sai": 7692,
      "kwen": 7693,
      "nord": 7694,
      "kiwa": 7695,
      "babbar": 7696,
      "depuis": 7697,
      "1998": 7698,
      "Ama": 7699,
      "Sau": 7700,
      "labara": 7701,
      "refer": 7702,
      "jimi": 7703,
      "náà,": 7704,
      "ìbílẹ̀": 7705,
      "Naijiria.": 7706,
      "ክርስት": 7707,
      "tattalin": 7708,
      "momi": 7709,
      "dọ̀": 7710,
      "ባብ": 7711,
      "አሳ": 7712,
      "ዮስ": 7713,
      "maana": 7714,
      "nítorí": 7715,
      "kom": 7716,
      "kere": 7717,
      "s)": 7718,
      "uf": 7719,
      "chama": 7720,
      "Bat": 7721,
      "በታ": 7722,
      "በኩል": 7723,
      "hel": 7724,
      "alààyè": 7725,
      "me,": 7726,
      "kare": 7727,
      "gbáyé": 7728,
      "langue": 7729,
      "ወርቅ": 7730,
      "Rayuwar": 7731,
      "marubu": 7732,
      "Micha": 7733,
      "Greek": 7734,
      "ፖሊ": 7735,
      "syst": 7736,
      "አባል": 7737,
      "yàwó": 7738,
      "laire": 7739,
      "volution": 7740,
      "64": 7741,
      "aina": 7742,
      "owó": 7743,
      "ፍና": 7744,
      "gbẹ̀": 7745,
      "ሲሆን፣": 7746,
      "ሁለተኛው": 7747,
      "born": 7748,
      "Karamar": 7749,
      "ep": 7750,
      "auto": 7751,
      "version": 7752,
      "River": 7753,
      "Portu": 7754,
      "Fer": 7755,
      "ክብ": 7756,
      "የነ": 7757,
      "su,": 7758,
      "papa": 7759,
      "ነትን": 7760,
      "ጀመረ": 7761,
      "kasashen": 7762,
      "68": 7763,
      "Wo": 7764,
      "team": 7765,
      "nia": 7766,
      "O.": 7767,
      "P.": 7768,
      "gọ́": 7769,
      "vy": 7770,
      "ተቋ": 7771,
      "ዋት": 7772,
      "tiques": 7773,
      "mada": 7774,
      "sili": 7775,
      "የተባለው": 7776,
      "መረጃ": 7777,
      "anzishwa": 7778,
      "Cas": 7779,
      "kta": 7780,
      "uka": 7781,
      "wurin": 7782,
      "አቶ": 7783,
      "ṣì": 7784,
      "hilo": 7785,
      "ወለዱ": 7786,
      "የመጀመሪያው": 7787,
      "400": 7788,
      "damar": 7789,
      "mtu": 7790,
      "አድ": 7791,
      "ondo": 7792,
      "haki": 7793,
      "biya": 7794,
      "ils": 7795,
      "2014,": 7796,
      "hankali": 7797,
      "Paris": 7798,
      "Hukumar": 7799,
      "Elle": 7800,
      "Ijoba": 7801,
      "ተዋል።": 7802,
      "ኮን": 7803,
      "times": 7804,
      "unin": 7805,
      "ilẹ": 7806,
      "servi": 7807,
      "gres": 7808,
      "ዕዝ": 7809,
      "death": 7810,
      "»)": 7811,
      "ሕግ": 7812,
      "ትው": 7813,
      "ያዊ": 7814,
      "mitin": 7815,
      "ing.": 7816,
      "Mayu": 7817,
      "2017,": 7818,
      "1994": 7819,
      "ingia": 7820,
      "Turai": 7821,
      "ES": 7822,
      "féren": 7823,
      "-ẹ̀yẹ": 7824,
      "Juli": 7825,
      "mm": 7826,
      "rù": 7827,
      "ላሉ": 7828,
      "መዋ": 7829,
      "ይሄ": 7830,
      "ግሪክ": 7831,
      "tali": 7832,
      "kimanin": 7833,
      "teau": 7834,
      "2011,": 7835,
      "2016,": 7836,
      "የተክሉ": 7837,
      "signifi": 7838,
      "takriban": 7839,
      "gg": 7840,
      "jou": 7841,
      "bien": 7842,
      "gie": 7843,
      "Gómìnà": 7844,
      "ሪቱ": 7845,
      "ጠፋ": 7846,
      "dawo": 7847,
      "keji": 7848,
      "stra": 7849,
      "appli": 7850,
      "exi": 7851,
      "በመሆኑ": 7852,
      "olojia": 7853,
      "olóṣèlú": 7854,
      "ọ̀pọ̀lọpọ̀": 7855,
      "Seri": 7856,
      "ite": 7857,
      "pur": 7858,
      "moins": 7859,
      "2012,": 7860,
      "cultur": 7861,
      "ሚካ": 7862,
      "ቲክ": 7863,
      "ቶቹ": 7864,
      "የኦ": 7865,
      "ጥያ": 7866,
      "nasara": 7867,
      "sant": 7868,
      "Lakini": 7869,
      "mwisho": 7870,
      "dò": 7871,
      "gou": 7872,
      "els": 7873,
      "Peter": 7874,
      "Louis": 7875,
      "ሦር": 7876,
      "አየር": 7877,
      "ገኛ": 7878,
      "sil": 7879,
      "papọ̀": 7880,
      "rẹ̀,": 7881,
      "Isra": 7882,
      "wakil": 7883,
      "elf": 7884,
      "cations": 7885,
      "major": 7886,
      "Nas": 7887,
      "pẹ́": 7888,
      "የን": 7889,
      "እንኳ": 7890,
      "ምንጭ": 7891,
      "Union": 7892,
      "yn": 7893,
      "lea": 7894,
      "fut": 7895,
      "appro": 7896,
      "Lib": 7897,
      "ስማ": 7898,
      "ቢት": 7899,
      "ካሌ": 7900,
      "ግለ": 7901,
      "onimo": 7902,
      "apá": 7903,
      "Legas": 7904,
      "himman": 7905,
      "መጠን": 7906,
      "ትልቅ": 7907,
      "2001": 7908,
      "2019,": 7909,
      "ide": 7910,
      "ዲህ": 7911,
      "ፊደል": 7912,
      "wadda": 7913,
      "kiti": 7914,
      "ያንዳን": 7915,
      "dínlógún": 7916,
      "ይችላል።": 7917,
      "Michael": 7918,
      "32": 7919,
      "ziri": 7920,
      "contre": 7921,
      "ine.": 7922,
      "rd": 7923,
      "ባል።": 7924,
      "ፖር": 7925,
      "mapo": 7926,
      "sayansi": 7927,
      "Magharibi": 7928,
      "sanin": 7929,
      "kungi": 7930,
      "ident": 7931,
      "Yohan": 7932,
      "Fas": 7933,
      "Mul": 7934,
      "et,": 7935,
      "pital": 7936,
      "menti": 7937,
      "km²": 7938,
      "Oly": 7939,
      "Pop": 7940,
      "Ƴan": 7941,
      "ኃይል": 7942,
      "ኘው": 7943,
      "ጡት": 7944,
      "chuku": 7945,
      "contra": 7946,
      "do,": 7947,
      "adhim": 7948,
      "ይታወቃል።": 7949,
      "ምናልባት": 7950,
      "Hali": 7951,
      "pani": 7952,
      "Book": 7953,
      "(196": 7954,
      "0-": 7955,
      "egbe": 7956,
      "ታን": 7957,
      "የሆኑ": 7958,
      "ስለሆነ": 7959,
      "angla": 7960,
      "አይደለም": 7961,
      "ister": 7962,
      "-daban": 7963,
      "ዜና": 7964,
      "ይዩ": 7965,
      "ግዛ": 7966,
      "hau": 7967,
      "በትን": 7968,
      "mana": 7969,
      "sune": 7970,
      "limi": 7971,
      "safi": 7972,
      "trois": 7973,
      "Sul": 7974,
      "toni": 7975,
      "ዝና": 7976,
      "estern": 7977,
      "cika": 7978,
      "1987": 7979,
      "አባት": 7980,
      "Japani": 7981,
      "jam'i": 7982,
      "Cette": 7983,
      "now": 7984,
      "acti": 7985,
      "Maria": 7986,
      "=\"": 7987,
      "Moro": 7988,
      "ima": 7989,
      "ር-": 7990,
      "ብሊክ": 7991,
      "ከማ": 7992,
      "ganin": 7993,
      "kumbukumbu": 7994,
      "(;": 7995,
      "ሐይ": 7996,
      "FIFA": 7997,
      "ይር": 7998,
      "ፓንያ": 7999,
      "nafasi": 8000,
      "እንደሆነ": 8001,
      "Royal": 8002,
      "Lẹ́yìn": 8003,
      "mapokeo": 8004,
      "9-": 8005,
      "tabu": 8006,
      "ista": 8007,
      "Bank": 8008,
      "58": 8009,
      "በሌላ": 8010,
      "kabila": 8011,
      "town": 8012,
      "alle": 8013,
      "raba": 8014,
      "kanta": 8015,
      "ature": 8016,
      "lilikuwa": 8017,
      "physi": 8018,
      "suite": 8019,
      "Tarayyar": 8020,
      "fuatana": 8021,
      "inté": 8022,
      "....": 8023,
      "(kwa": 8024,
      "አለም": 8025,
      "both": 8026,
      "umba": 8027,
      "1993": 8028,
      "onekana": 8029,
      "kẹrin": 8030,
      "certain": 8031,
      "daban-daban": 8032,
      "ajili": 8033,
      "entomon": 8034,
      "Kana": 8035,
      "gege": 8036,
      "Andre": 8037,
      "178": 8038,
      "-ún": 8039,
      "Akin": 8040,
      "Glo": 8041,
      "በቃ": 8042,
      "ይጠቀ": 8043,
      "ገቡ": 8044,
      "mahaifin": 8045,
      "lations": 8046,
      "hizi": 8047,
      "alu": 8048,
      "mirefu": 8049,
      "member": 8050,
      "com/": 8051,
      "1997": 8052,
      "mengine": 8053,
      "hindi": 8054,
      "milima": 8055,
      "prési": 8056,
      "Thomas": 8057,
      "Cibiyar": 8058,
      "St.": 8059,
      "lit": 8060,
      "Son": 8061,
      "Ìbàdàn": 8062,
      "ƙida": 8063,
      "ሊዮን": 8064,
      "ምል": 8065,
      "በዓ": 8066,
      "kale": 8067,
      "hal": 8068,
      "እንደገና": 8069,
      "Nigeria.": 8070,
      "míràn": 8071,
      "Bau": 8072,
      "Russi": 8073,
      "neo": 8074,
      "1991": 8075,
      "150": 8076,
      "Muhammadu": 8077,
      "Tri": 8078,
      "dd": 8079,
      "mwen": 8080,
      "sp": 8081,
      "haɗa": 8082,
      "shida": 8083,
      "baadaye": 8084,
      "dian": 8085,
      "Mac": 8086,
      "cated": 8087,
      "imu": 8088,
      "mkoa": 8089,
      "ራል።": 8090,
      "ውጤ": 8091,
      "ዛኛው": 8092,
      "የእ": 8093,
      "ዳዊ": 8094,
      "mahali": 8095,
      "dies": 8096,
      "cell": 8097,
      "walikuwa": 8098,
      "rayuwar": 8099,
      "ado": 8100,
      "opo": 8101,
      "anda": 8102,
      "ch,": 8103,
      "ques,": 8104,
      "tsar": 8105,
      "against": 8106,
      "wú": 8107,
      "wun": 8108,
      "ɗau": 8109,
      "ነቶች": 8110,
      "sile": 8111,
      "fika": 8112,
      "Makarantar": 8113,
      "before": 8114,
      "wengine": 8115,
      "Enugu": 8116,
      "ደረጉ": 8117,
      "ọ̀nà": 8118,
      "ጎርጎር": 8119,
      "ṣẹ̀lẹ̀": 8120,
      "Richard": 8121,
      "ages": 8122,
      "Bre": 8123,
      "pol": 8124,
      "በነ": 8125,
      "ብን": 8126,
      "ጠል": 8127,
      "’i": 8128,
      "isari": 8129,
      "babu": 8130,
      "jiji": 8131,
      "Mutu": 8132,
      "Eng": 8133,
      "ማርቆስ": 8134,
      "kwenda": 8135,
      "Cal": 8136,
      "Women": 8137,
      "while": 8138,
      "estival": 8139,
      "-à": 8140,
      "Kol": 8141,
      "Phili": 8142,
      "gbi": 8143,
      "wao": 8144,
      "taken": 8145,
      "lated": 8146,
      "omina": 8147,
      "count": 8148,
      "Benin": 8149,
      "Ethiopia": 8150,
      "sítì": 8151,
      "በብዛት": 8152,
      "Hispania": 8153,
      "በሽታ": 8154,
      "eu": 8155,
      "étu": 8156,
      "ko.": 8157,
      "Film": 8158,
      "aje": 8159,
      "kofu": 8160,
      "tran": 8161,
      "ṣò": 8162,
      "tes,": 8163,
      "gni": 8164,
      "moni": 8165,
      "yahu": 8166,
      "ess": 8167,
      "muka": 8168,
      "47": 8169,
      "bọ̀": 8170,
      "መቅ": 8171,
      "፲፰": 8172,
      "ṣir": 8173,
      "re.": 8174,
      "yi,": 8175,
      "2016.": 8176,
      "ሳይን": 8177,
      "Bello": 8178,
      "መንፈስ": 8179,
      "jeni": 8180,
      "n'": 8181,
      "bi,": 8182,
      "fili": 8183,
      "berg": 8184,
      "généra": 8185,
      "pú": 8186,
      "Ìlú": 8187,
      "ìgb": 8188,
      "ሲል": 8189,
      "ብዛት": 8190,
      "nipa": 8191,
      "wọn.": 8192,
      "less": 8193,
      "Angel": 8194,
      "እስያ": 8195,
      "First": 8196,
      "D.": 8197,
      "2018,": 8198,
      "Kingdom": 8199,
      "Mus": 8200,
      "Sco": 8201,
      "kofin": 8202,
      "mó": 8203,
      "መም": 8204,
      "መና": 8205,
      "በጥ": 8206,
      "ውቅ": 8207,
      "man,": 8208,
      "ማጣቀ": 8209,
      "Ur": 8210,
      "ars": 8211,
      "base": 8212,
      "Cana": 8213,
      "Fab": 8214,
      "Kò": 8215,
      "ረግ": 8216,
      "ችል": 8217,
      "Hotuna": 8218,
      "Tech": 8219,
      "300": 8220,
      "kimi": 8221,
      "sty": 8222,
      "pindi": 8223,
      "U.": 8224,
      "sẹ́": 8225,
      "ኒው": 8226,
      "ciyar": 8227,
      "autre": 8228,
      "dangan": 8229,
      "ከተለው": 8230,
      "effe": 8231,
      "ንዳር": 8232,
      "55": 8233,
      "God": 8234,
      "late": 8235,
      "Mkuu": 8236,
      "ìl": 8237,
      "ɗu": 8238,
      "issance": 8239,
      "ort": 8240,
      "sal": 8241,
      "logi": 8242,
      "ilé-iṣẹ́": 8243,
      "ƙidayar": 8244,
      "Dé": 8245,
      "zuri": 8246,
      "anal": 8247,
      "toa": 8248,
      "meji": 8249,
      "Pope": 8250,
      "Visiwa": 8251,
      "ሚስት": 8252,
      "ኃይለ": 8253,
      "ከታ": 8254,
      "ዕብራ": 8255,
      "የሞ": 8256,
      "wili": 8257,
      "በአሁኑ": 8258,
      "indust": 8259,
      "Has": 8260,
      "elé": 8261,
      "kan,": 8262,
      "Mary": 8263,
      "(«": 8264,
      "Ká": 8265,
      "ሥቱ": 8266,
      "ግድ": 8267,
      "land,": 8268,
      "Nígbà": 8269,
      "ጥንት": 8270,
      "dua": 8271,
      "NA": 8272,
      "oju": 8273,
      "w,": 8274,
      "በኛ": 8275,
      "ገዥ": 8276,
      "ፊል": 8277,
      "alipo": 8278,
      "play": 8279,
      "---": 8280,
      "አፍሪካ": 8281,
      "ẹ̀ẹ́sì": 8282,
      "Cali": 8283,
      "Grand": 8284,
      "mini": 8285,
      "ennes": 8286,
      "vait": 8287,
      "Duk": 8288,
      "High": 8289,
      "Cong": 8290,
      "úúsù": 8291,
      "ውጭ": 8292,
      "ያደር": 8293,
      "kupi": 8294,
      "sakand": 8295,
      "haifiyar": 8296,
      "Ibile": 8297,
      "shirye-": 8298,
      "(O": 8299,
      "Egy": 8300,
      "Hel": 8301,
      "Tsar": 8302,
      "phe": 8303,
      "Republic": 8304,
      "Brazil": 8305,
      "éle": 8306,
      "ƙara": 8307,
      "ማል": 8308,
      "ሪት": 8309,
      "በሙሉ": 8310,
      "አሉ": 8311,
      "ክን": 8312,
      "see": 8313,
      "ye,": 8314,
      "cons": 8315,
      "1995": 8316,
      "hannu": 8317,
      "ambako": 8318,
      "née": 8319,
      "trodu": 8320,
      "mnamo": 8321,
      "እምነት": 8322,
      "R.": 8323,
      "wit": 8324,
      "mall": 8325,
      "Olympi": 8326,
      "Dau": 8327,
      "ሕይወት": 8328,
      "ይፋ": 8329,
      "ገጽ": 8330,
      "temps": 8331,
      "akoko": 8332,
      "pendant": 8333,
      "rana": 8334,
      "tage": 8335,
      "based": 8336,
      "cir": 8337,
      "1996": 8338,
      "voi": 8339,
      "und)": 8340,
      "Association": 8341,
      "Guinea": 8342,
      "Sir": 8343,
      "ቡድን": 8344,
      "ብል": 8345,
      "ቱርክ": 8346,
      "አህ": 8347,
      "ካታ": 8348,
      "enye": 8349,
      "bangar": 8350,
      "mpya": 8351,
      "gboyè": 8352,
      "ስተኛ": 8353,
      "Yoruba": 8354,
      "anzisha": 8355,
      "ወታደ": 8356,
      "caract": 8357,
      "Yohane": 8358,
      "K.": 8359,
      "py": 8360,
      "titi": 8361,
      "Latin": 8362,
      "establi": 8363,
      "Ze": 8364,
      "ring": 8365,
      "ሕንድ": 8366,
      "ሳሰ": 8367,
      "ኝነት": 8368,
      "አና": 8369,
      "የዓለም": 8370,
      "፡በ": 8371,
      "maisha": 8372,
      "order": 8373,
      "bikin": 8374,
      "títí": 8375,
      "lábẹ́": 8376,
      "ስራቅ": 8377,
      "nú": 8378,
      "vina": 8379,
      "back": 8380,
      "ci.": 8381,
      "(a": 8382,
      "Kun": 8383,
      "fus": 8384,
      "ndi": 8385,
      "ን፣": 8386,
      "ዝማች": 8387,
      "ብሔራዊ": 8388,
      "hesabiwa": 8389,
      "Arabi": 8390,
      "uishe": 8391,
      "Mpaka": 8392,
      "bis": 8393,
      "ሙት": 8394,
      "ኑስ": 8395,
      "ውሃ": 8396,
      "ዘዴ": 8397,
      "ጥበብ": 8398,
      "ፍቅር": 8399,
      "huadhim": 8400,
      "come": 8401,
      "gargaji": 8402,
      "wengi,": 8403,
      "የውጭ": 8404,
      "ፍልስ": 8405,
      "masana'an": 8406,
      "our": 8407,
      "von": 8408,
      "tu.": 8409,
      "réali": 8410,
      "ative": 8411,
      ");": 8412,
      "Mur": 8413,
      "Ìgbé": 8414,
      "ማት": 8415,
      "pewa": 8416,
      "፲፱፻፶": 8417,
      "continu": 8418,
      "ei": 8419,
      "pose": 8420,
      "prote": 8421,
      "cording": 8422,
      "tura": 8423,
      "ስል": 8424,
      "ስቶ": 8425,
      "ያሳ": 8426,
      "ይዞ": 8427,
      "Ọmọ": 8428,
      "kadhaa": 8429,
      "haɗin": 8430,
      "did": 8431,
      "rama": 8432,
      "ket": 8433,
      "177": 8434,
      "lọ.": 8435,
      "kálẹ̀": 8436,
      "Borno": 8437,
      "àkọ́lé": 8438,
      "Nuwamba": 8439,
      "ካሌንዳር": 8440,
      "ጎርጎርያን": 8441,
      "dina": 8442,
      "prom": 8443,
      "semble": 8444,
      "ሥልጣን": 8445,
      "ራኤል": 8446,
      "በኦ": 8447,
      "ọ̀lù": 8448,
      "zarin": 8449,
      "ọjọ́aláìsí": 8450,
      "dàgbà": 8451,
      "bility": 8452,
      "ሁለተኛ": 8453,
      "fásítì": 8454,
      "ድርጅት": 8455,
      "ወልደ": 8456,
      "ሳይንሳዊ": 8457,
      "%)": 8458,
      "hwa": 8459,
      "thor": 8460,
      "actu": 8461,
      "Second": 8462,
      "cord": 8463,
      "fas": 8464,
      "hé": 8465,
      "imani": 8466,
      "lun": 8467,
      "ችሁ": 8468,
      "የቆ": 8469,
      "masha": 8470,
      "ment,": 8471,
      "ዳንት": 8472,
      "Tsa": 8473,
      "to.": 8474,
      "ducation": 8475,
      "ouest": 8476,
      "oyè": 8477,
      "òkè": 8478,
      "መሬት": 8479,
      "ስድ": 8480,
      "ከላ": 8481,
      "የቀን": 8482,
      "kadi": 8483,
      "sever": 8484,
      "ቸው።": 8485,
      "wáyé": 8486,
      "bou": 8487,
      "cat": 8488,
      "could": 8489,
      "nde": 8490,
      "tè": 8491,
      "ሥጋ": 8492,
      "anen": 8493,
      "ke,": 8494,
      "conne": 8495,
      "Pakistan": 8496,
      "Ilimi": 8497,
      "avant": 8498,
      "mwezi": 8499,
      "tsu": 8500,
      "shari": 8501,
      "2015.": 8502,
      "Henry": 8503,
      "gè": 8504,
      "h.": 8505,
      "ìròyìn": 8506,
      "ረጋ": 8507,
      "ርቶ": 8508,
      "ጊዮር": 8509,
      "esse": 8510,
      "due": 8511,
      "atre": 8512,
      "asali": 8513,
      "groupe": 8514,
      "ከዚያም": 8515,
      "ከነዓ": 8516,
      "importan": 8517,
      "ጊዮርጊ": 8518,
      "-O": 8519,
      "56": 8520,
      "1975": 8521,
      "pany": 8522,
      "አቅ": 8523,
      "ዴት": 8524,
      "kawo": 8525,
      "lafa": 8526,
      "nam": 8527,
      "dola": 8528,
      "አገራት": 8529,
      "Poli": 8530,
      "የማይ": 8531,
      "sára": 8532,
      "jamii": 8533,
      "ቀጥሎ": 8534,
      "rich": 8535,
      "souvent": 8536,
      "spa": 8537,
      "ƙir": 8538,
      "ለሁ": 8539,
      "ሰጥ": 8540,
      "ስቃ": 8541,
      "ቦት": 8542,
      "ያያ": 8543,
      "ጽሕ": 8544,
      "kalẹ̀": 8545,
      "(1": 8546,
      "Phi": 8547,
      "Pal": 8548,
      "Sil": 8549,
      "rai": 8550,
      "shar": 8551,
      "1989": 8552,
      "derni": 8553,
      "Argent": 8554,
      "Adam": 8555,
      "ተቃ": 8556,
      "ጠብ": 8557,
      "sayen": 8558,
      "2091": 8559,
      "Life": 8560,
      "ibile": 8561,
      "taimaka": 8562,
      "jusqu'": 8563,
      "Vir": 8564,
      "rian": 8565,
      "mir": 8566,
      "Church": 8567,
      "hìn": 8568,
      "ipo": 8569,
      "yẹ̀": 8570,
      "ኪያ": 8571,
      "ካን": 8572,
      "ዛዝ": 8573,
      "ደጃ": 8574,
      "safa": 8575,
      "addinin": 8576,
      "ምንት": 8577,
      "፲፱፻፷": 8578,
      "ሥራቅ": 8579,
      "ri.": 8580,
      "ngu": 8581,
      "ል፡፡": 8582,
      "በጎርጎርያን": 8583,
      "ዝርያ": 8584,
      "የለ": 8585,
      "የኮ": 8586,
      "de-": 8587,
      "simp": 8588,
      "thro": 8589,
      "chungu": 8590,
      "fafa": 8591,
      "Kijerumani": 8592,
      "Albert": 8593,
      "ጊዜም": 8594,
      "ስለሚ": 8595,
      "mbre": 8596,
      "ደረሰ": 8597,
      "ደራሲ": 8598,
      "Philip": 8599,
      "fron": 8600,
      "father": 8601,
      "érica": 8602,
      "lara": 8603,
      "pam": 8604,
      "ሏል።": 8605,
      "የሆነው": 8606,
      "ድሮ": 8607,
      "ጠላ": 8608,
      "‎‎": 8609,
      "ancin": 8610,
      "202": 8611,
      "ትርጉም": 8612,
      "large": 8613,
      "kẹ́kọ̀ọ́": 8614,
      "communi": 8615,
      "hing": 8616,
      "oma": 8617,
      "former": 8618,
      "partir": 8619,
      "Act": 8620,
      "tọ": 8621,
      "የለው": 8622,
      "yota": 8623,
      "Soko": 8624,
      "ድረስ)": 8625,
      "የሚያስ": 8626,
      "production": 8627,
      "ተከታ": 8628,
      "Birnin": 8629,
      "ማስታወሻዎች": 8630,
      "ገንዘብ": 8631,
      "Gam": 8632,
      "aure": 8633,
      "dge": 8634,
      "haya": 8635,
      "langues": 8636,
      "mus": 8637,
      "osu": 8638,
      "በኢ": 8639,
      "ጋሪ": 8640,
      "2014.": 8641,
      "bunge": 8642,
      "Ibn": 8643,
      "rar": 8644,
      "tiki": 8645,
      "lian": 8646,
      "rawar": 8647,
      "1982": 8648,
      "cheo": 8649,
      "America": 8650,
      "46": 8651,
      "Bá": 8652,
      "CM": 8653,
      "eto": 8654,
      "ነቱን": 8655,
      "ገሩ": 8656,
      "until": 8657,
      "kimataifa": 8658,
      "Francis": 8659,
      "kẹta": 8660,
      "watakatifu": 8661,
      "Orílẹ̀-èdè": 8662,
      "መጻሕ": 8663,
      "ያንዳንዱ": 8664,
      "49": 8665,
      "ná": 8666,
      "rangi": 8667,
      "compu": 8668,
      "1950": 8669,
      "ሙን": 8670,
      "ሱን": 8671,
      "ቤቱ": 8672,
      "ዋጋ": 8673,
      "ገት": 8674,
      "ጠሩ": 8675,
      "ጥቅ": 8676,
      "kaya": 8677,
      "huu": 8678,
      "llar": 8679,
      "Afrika.": 8680,
      "Kur": 8681,
      "fre": 8682,
      "kuru": 8683,
      "fira": 8684,
      "présen": 8685,
      "familia": 8686,
      "Cy": 8687,
      "mmoja": 8688,
      "ለ።": 8689,
      "nasar": 8690,
      "tege": 8691,
      "OL": 8692,
      "élé": 8693,
      "ared": 8694,
      "isation": 8695,
      "Nollywood": 8696,
      "ƙun": 8697,
      "ናይት": 8698,
      "ክሲ": 8699,
      "dec": 8700,
      "area": 8701,
      "conna": 8702,
      "2010,": 8703,
      "síwájú": 8704,
      "commer": 8705,
      "òṣèlú": 8706,
      "Kamusi": 8707,
      "ማቴዎስ": 8708,
      "labarai": 8709,
      "57": 8710,
      "kashi": 8711,
      "shi.": 8712,
      "A)": 8713,
      "Mc": 8714,
      "rer": 8715,
      "በራ": 8716,
      "ዲዮ": 8717,
      "les.": 8718,
      "ed.": 8719,
      "olowo": 8720,
      "Day": 8721,
      "gwamnan": 8722,
      "Saint-": 8723,
      "lafiya": 8724,
      "Bara": 8725,
      "Spe": 8726,
      "albu": 8727,
      "Johan": 8728,
      "taniya": 8729,
      "AR": 8730,
      "ውል": 8731,
      "arri": 8732,
      "ings": 8733,
      "irun": 8734,
      "2013,": 8735,
      "India": 8736,
      "1976": 8737,
      "1966": 8738,
      "kọkàn": 8739,
      "present": 8740,
      "አውሮፓ": 8741,
      "system": 8742,
      "Salaam": 8743,
      "bwe": 8744,
      "tru": 8745,
      "fix": 8746,
      "Kimi": 8747,
      "multi": 8748,
      "Publi": 8749,
      "ace": 8750,
      "c'est": 8751,
      "ksi": 8752,
      "uchumi": 8753,
      "ለጠ": 8754,
      "ነፍ": 8755,
      "mary": 8756,
      "Kaisari": 8757,
      "tàgé": 8758,
      "Yes": 8759,
      "États": 8760,
      "Lea": 8761,
      "Frank": 8762,
      "Land": 8763,
      "ቀይ": 8764,
      "ẹrẹ": 8765,
      "taji": 8766,
      "የሚታወ": 8767,
      "um,": 8768,
      "1992": 8769,
      "Lega": 8770,
      "ወይንም": 8771,
      "ayẹyẹ": 8772,
      "duniya.": 8773,
      "ulio": 8774,
      "Gaba": 8775,
      "ዕለተ": 8776,
      "(ከ1892": 8777,
      "grande": 8778,
      "near": 8779,
      "nouvel": 8780,
      "Mexi": 8781,
      "hand": 8782,
      "ip": 8783,
      "àá": 8784,
      "ዘው": 8785,
      "sakama": 8786,
      "tu,": 8787,
      "ambapo": 8788,
      "ማጣቀሻ": 8789,
      "Mos": 8790,
      "quent": 8791,
      "soit": 8792,
      "family": 8793,
      "Pra": 8794,
      "kes": 8795,
      "sto": 8796,
      "àgbáyé": 8797,
      "ልጁ": 8798,
      "ማሽ": 8799,
      "hak": 8800,
      "kowa": 8801,
      "ellement": 8802,
      "gia": 8803,
      "lọ́gbọ̀n": 8804,
      "Farkon": 8805,
      "ography": 8806,
      "ሌክትሪክ": 8807,
      "67": 8808,
      "associ": 8809,
      "resul": 8810,
      "Eneo": 8811,
      "ሜዳ": 8812,
      "አሉ።": 8813,
      "daida": 8814,
      "rage": 8815,
      "የአፍ": 8816,
      "Kale": 8817,
      "ፈርዖን": 8818,
      "rikisho": 8819,
      "</": 8820,
      "Gab": 8821,
      "mambo": 8822,
      "simi": 8823,
      "Leo": 8824,
      "Ol": 8825,
      "bs": 8826,
      "og": 8827,
      "ሊን": 8828,
      "ሥፍራ": 8829,
      "በስተ": 8830,
      "ቴሌ": 8831,
      "1920": 8832,
      "1918": 8833,
      "dida": 8834,
      "karin": 8835,
      "የተፈ": 8836,
      "በማለት": 8837,
      "Sudan": 8838,
      "Biranen": 8839,
      "yaliyo": 8840,
      "ራሱን": 8841,
      "développe": 8842,
      "Bus": 8843,
      "Er": 8844,
      "One": 8845,
      "siri": 8846,
      "1988": 8847,
      "ological": 8848,
      "(tí": 8849,
      "::": 8850,
      "Ham": 8851,
      "kwu": 8852,
      "መላ": 8853,
      "waye": 8854,
      "kabisa": 8855,
      "samo": 8856,
      "hiyar": 8857,
      "pop": 8858,
      "jẹsára": 8859,
      "différent": 8860,
      "cam": 8861,
      "mate": 8862,
      "pay": 8863,
      "program": 8864,
      "sions": 8865,
      "politique": 8866,
      "Christian": 8867,
      "98": 8868,
      "fari": 8869,
      "mẹ": 8870,
      "ውሀ": 8871,
      "askofu": 8872,
      "መሰረት": 8873,
      "kyautar": 8874,
      "yammacin": 8875,
      "Ath": 8876,
      "jwa": 8877,
      "rist": 8878,
      "waju": 8879,
      "hakan": 8880,
      "died": 8881,
      "ghu": 8882,
      "mwenye": 8883,
      "ሆይ": 8884,
      "ድና": 8885,
      "koyar": 8886,
      "አገሮች": 8887,
      "Jami’ar": 8888,
      "Arewacin": 8889,
      "Disamba": 8890,
      "(ya": 8891,
      "(18": 8892,
      "Tal": 8893,
      "ctur": 8894,
      "After": 8895,
      "Tanzania.": 8896,
      "kka": 8897,
      "mfano": 8898,
      "ሜት": 8899,
      "ከም": 8900,
      "kashe": 8901,
      "ma'a": 8902,
      "labar": 8903,
      "ison": 8904,
      "them": 8905,
      "kowan": 8906,
      "l'a": 8907,
      "cover": 8908,
      "ክፍሎች": 8909,
      "በርካታ": 8910,
      "Alimfuata": 8911,
      "bọ́ọ̀lù": 8912,
      "ht": 8913,
      "l.": 8914,
      "ra.": 8915,
      "shi,": 8916,
      "Alha": 8917,
      "Akwai": 8918,
      "Oṣu": 8919,
      "ዶሮ": 8920,
      "ፈራ": 8921,
      "ziwa": 8922,
      "ትንሽ": 8923,
      "wakifuata": 8924,
      "RD2-": 8925,
      "Abdulla": 8926,
      "መልክዓ": 8927,
      "àìsàn": 8928,
      "kabla": 8929,
      "bani": 8930,
      "eth": 8931,
      "1984": 8932,
      "1967": 8933,
      "colle": 8934,
      "Asa": 8935,
      "gare": 8936,
      "ቴክ": 8937,
      "ጸሐ": 8938,
      "arziki": 8939,
      "Ang": 8940,
      "donc": 8941,
      "yanayin": 8942,
      "duniani": 8943,
      "ma'aika": 8944,
      "huadhimisha": 8945,
      "ney": 8946,
      "exist": 8947,
      "Washing": 8948,
      "(The": 8949,
      "Eu": 8950,
      "clai": 8951,
      "kisi": 8952,
      "ለቀ": 8953,
      "አራት": 8954,
      "ጉል": 8955,
      "makuu": 8956,
      "hamia": 8957,
      "olf": 8958,
      "though": 8959,
      "1979": 8960,
      "babisha": 8961,
      "Edward": 8962,
      "mirefu).": 8963,
      "Hasa": 8964,
      "Swe": 8965,
      "hus": 8966,
      "head": 8967,
      "cei": 8968,
      "gua": 8969,
      "government": 8970,
      "cole": 8971,
      "1945": 8972,
      "Ale": 8973,
      "àjọ": 8974,
      "ቡር": 8975,
      "ካባቢ": 8976,
      "ኮት": 8977,
      "ወራ": 8978,
      "wala": 8979,
      "cewar": 8980,
      "administ": 8981,
      "ghts": 8982,
      "1986": 8983,
      "1974": 8984,
      "1977": 8985,
      "zinabaki": 8986,
      "ografia": 8987,
      "ደረገው": 8988,
      "tabba": 8989,
      "million": 8990,
      "Fabra": 8991,
      "Wat": 8992,
      "ît": 8993,
      "américa": 8994,
      "mean": 8995,
      "1983": 8996,
      "syn": 8997,
      "96": 8998,
      "Fun": 8999,
      "Sol": 9000,
      "ndogo": 9001,
      "ጥብ": 9002,
      "ision": 9003,
      "ባቢሎን": 9004,
      "Usman": 9005,
      "ጉዳይ": 9006,
      "modern": 9007,
      "Bauchi": 9008,
      "sayensi": 9009,
      "neno": 9010,
      "demo": 9011,
      "poin": 9012,
      "té,": 9013,
      "Music": 9014,
      "around": 9015,
      "ለሚ": 9016,
      "ታችን": 9017,
      "ክብር": 9018,
      "simu": 9019,
      "wanao": 9020,
      "1=": 9021,
      "cteur": 9022,
      "anin": 9023,
      "mach": 9024,
      "often": 9025,
      "connu": 9026,
      "2011.": 9027,
      "ctori": 9028,
      "menta": 9029,
      "Oyo": 9030,
      "jọ̀": 9031,
      "àṣà": 9032,
      "ƙo": 9033,
      "ሞን": 9034,
      "ዕድ": 9035,
      "ፍን": 9036,
      "takwa": 9037,
      "dia.": 9038,
      "memba": 9039,
      "ston": 9040,
      "ግንኙ": 9041,
      "Nàìjíríà,": 9042,
      "jumla": 9043,
      "Ani": 9044,
      "Dani": 9045,
      "zara": 9046,
      "ço": 9047,
      "oper": 9048,
      "nées": 9049,
      "CN": 9050,
      "E.": 9051,
      "mpaka": 9052,
      "nent": 9053,
      "x,": 9054,
      "ቅርስ": 9055,
      "ት።": 9056,
      "አጋ": 9057,
      "jinsi": 9058,
      "wòrán": 9059,
      "ሁለቱ": 9060,
      "ትምህር": 9061,
      "ተራራ": 9062,
      "አቀፍ": 9063,
      "principa": 9064,
      "Democratic": 9065,
      "aba": 9066,
      "blo": 9067,
      "geni": 9068,
      "mito": 9069,
      "(193": 9070,
      "Une": 9071,
      "መደ": 9072,
      "ቁጥ": 9073,
      "ተት": 9074,
      "cian": 9075,
      "ríwá": 9076,
      "ck,": 9077,
      "ውንት": 9078,
      "ሳይንስ": 9079,
      "kúrò": 9080,
      "dúró": 9081,
      "talabijin": 9082,
      "ምልክት": 9083,
      "Ire": 9084,
      "ungan": 9085,
      "or,": 9086,
      "futa": 9087,
      "AL": 9088,
      "Gasar": 9089,
      "Ira": 9090,
      "small": 9091,
      "ኑን": 9092,
      "የሌ": 9093,
      "ግባር": 9094,
      "haka,": 9095,
      "ri,": 9096,
      "ẹ̀rọ": 9097,
      "karshe": 9098,
      "yanki": 9099,
      "Waislamu": 9100,
      "child": 9101,
      "haifar": 9102,
      "ports": 9103,
      "yake.": 9104,
      "word": 9105,
      "bàbá": 9106,
      "Hanyoyin": 9107,
      "fuatwa": 9108,
      "each": 9109,
      "nye": 9110,
      "solu": 9111,
      "lika": 9112,
      "cia": 9113,
      "filin": 9114,
      "el,": 9115,
      "Hon": 9116,
      "kìí": 9117,
      "èrè": 9118,
      "ɗi": 9119,
      "ለተ": 9120,
      "introdu": 9121,
      "dam": 9122,
      "tuttu": 9123,
      "iran": 9124,
      "makabila": 9125,
      "ṣíṣe": 9126,
      "C'est": 9127,
      "zao": 9128,
      "org/": 9129,
      "Sel": 9130,
      "acikin": 9131,
      "ɗari": 9132,
      "ሚሊዮን": 9133,
      "ሲቲ": 9134,
      "ወጡ": 9135,
      "tuntun": 9136,
      "cally": 9137,
      "pindu": 9138,
      "km2": 9139,
      "(,": 9140,
      "Oli": 9141,
      "rict": 9142,
      "koki": 9143,
      "because": 9144,
      "action": 9145,
      "Faran": 9146,
      "several": 9147,
      "g.": 9148,
      "ìbá": 9149,
      "በዚሁ": 9150,
      "matu": 9151,
      "kur": 9152,
      "langa": 9153,
      "1971": 9154,
      "160": 9155,
      "Movie": 9156,
      "ናት።": 9157,
      "እንስሳ": 9158,
      "2=": 9159,
      "44": 9160,
      "Sana": 9161,
      "edi": 9162,
      "cap": 9163,
      "1978": 9164,
      "Maris": 9165,
      "otball": 9166,
      "Califor": 9167,
      "95": 9168,
      "OR": 9169,
      "ቃላት": 9170,
      "አቡ": 9171,
      "ché": 9172,
      "go.": 9173,
      "1973": 9174,
      "ድንጋይ": 9175,
      "Wasan": 9176,
      "ibn": 9177,
      "science": 9178,
      "Sarkin": 9179,
      "akọrin": 9180,
      "ṣirí": 9181,
      "Aka": 9182,
      "Bon": 9183,
      "Red": 9184,
      "gini": 9185,
      "mà": 9186,
      "mah": 9187,
      "laka": 9188,
      "capita": 9189,
      "adhi": 9190,
      "vation": 9191,
      "C)": 9192,
      "Ile-": 9193,
      "muni": 9194,
      "own": 9195,
      "ቂት": 9196,
      "ጥና": 9197,
      "ጨዋ": 9198,
      "na,": 9199,
      "hama": 9200,
      "wiwa": 9201,
      "የተባለ": 9202,
      "considé": 9203,
      "Abdul": 9204,
      "ከነዓን": 9205,
      "lafazi": 9206,
      "-i": 9207,
      "Dou": 9208,
      "Men": 9209,
      "fonction": 9210,
      "emplo": 9211,
      "utilisé": 9212,
      "Abe": 9213,
      "dẹ́": 9214,
      "ሎጂ": 9215,
      "መጫ": 9216,
      "ርን": 9217,
      "ቀስ": 9218,
      "ኘት": 9219,
      "ኮኖ": 9220,
      "ይላል።": 9221,
      "የሚገኙ": 9222,
      "ominira": 9223,
      "dani": 9224,
      "ulu": 9225,
      "wing": 9226,
      "se.": 9227,
      "astron": 9228,
      "Jos": 9229,
      "bọ": 9230,
      "pó": 9231,
      "ራም": 9232,
      "ሺህ": 9233,
      "ክሮ": 9234,
      "ዩናይት": 9235,
      "ጸባይ": 9236,
      "ṣá": 9237,
      "allo": 9238,
      "2007.": 9239,
      "Law": 9240,
      "ọ̀nù": 9241,
      "Chuo": 9242,
      "Sho": 9243,
      "Wam": 9244,
      "history": 9245,
      "quali": 9246,
      "2006.": 9247,
      "Bay": 9248,
      "lée": 9249,
      "Niger": 9250,
      "speci": 9251,
      "Chin": 9252,
      "Èyí": 9253,
      "አሰ": 9254,
      "ዩስ": 9255,
      "kaka": 9256,
      "makubwa": 9257,
      "lime": 9258,
      "gaz": 9259,
      "ንግድ": 9260,
      "mẹ́ta": 9261,
      "olùdarí": 9262,
      "Austria": 9263,
      "trouve": 9264,
      "Institute": 9265,
      "ጊዮርጊስ": 9266,
      "bì": 9267,
      "koko": 9268,
      "illa": 9269,
      "Ango": 9270,
      "(in": 9271,
      "Mili": 9272,
      "Umar": 9273,
      "av": 9274,
      "yọ́": 9275,
      "ምኒ": 9276,
      "ጭር": 9277,
      "anna": 9278,
      "parí": 9279,
      "shekarun": 9280,
      "wasannin": 9281,
      "wàá": 9282,
      "mshairi": 9283,
      "olórí": 9284,
      "Good": 9285,
      "ብርሃን": 9286,
      "abubuwan": 9287,
      "ose": 9288,
      "mu,": 9289,
      "pole": 9290,
      "selon": 9291,
      "Festival": 9292,
      "በሬ": 9293,
      "ession": 9294,
      "oruko": 9295,
      "rike": 9296,
      "astern": 9297,
      "pakana": 9298,
      "ye.": 9299,
      "be,": 9300,
      "jenga": 9301,
      "gwamnati": 9302,
      "Port": 9303,
      "የቀድሞ": 9304,
      "Tarihin": 9305,
      "period": 9306,
      "ዩናይትድ": 9307,
      "encore": 9308,
      "tous": 9309,
      "oft": 9310,
      "aient": 9311,
      "code": 9312,
      "1985": 9313,
      "Apol": 9314,
      "ira": 9315,
      "ሊቃ": 9316,
      "ሲቀ": 9317,
      "ቤቶች": 9318,
      "ታሪ": 9319,
      "አዋ": 9320,
      "ኢየሱስ": 9321,
      "ዘፋ": 9322,
      "የለም": 9323,
      "ገረ": 9324,
      "ọjọ": 9325,
      "dic": 9326,
      "chara": 9327,
      "sojo": 9328,
      "የአየር": 9329,
      "በመጨረሻ": 9330,
      "ገብረ": 9331,
      "tsohuwar": 9332,
      "mataima": 9333,
      "halafu": 9334,
      "europé": 9335,
      "Iya": 9336,
      "Tar": 9337,
      "fra": 9338,
      "enda": 9339,
      "al,": 9340,
      "mi.": 9341,
      "dera": 9342,
      "series": 9343,
      "Prof": 9344,
      "Trans": 9345,
      "mvu": 9346,
      "pya": 9347,
      "ሲሆኑ": 9348,
      "ሳተ": 9349,
      "ኞቹ": 9350,
      "የኖ": 9351,
      "ጅም": 9352,
      "ፊዎች": 9353,
      "wame": 9354,
      "watsa": 9355,
      "hizo": 9356,
      "te-": 9357,
      "1914": 9358,
      "fitar": 9359,
      "dant": 9360,
      "taron": 9361,
      "Kifaransa": 9362,
      "Marekani.": 9363,
      "(2005)": 9364,
      "ጠቅላይ": 9365,
      "Premi": 9366,
      "chukua": 9367,
      "Ash": 9368,
      "dered": 9369,
      "ambo": 9370,
      "finan": 9371,
      "since": 9372,
      "view": 9373,
      "Fasa": 9374,
      "መታ": 9375,
      "ሰነ": 9376,
      "ባታ": 9377,
      "ከስ": 9378,
      "ወድ": 9379,
      "dab": 9380,
      "ordina": 9381,
      "particuli": 9382,
      "መሆኑን": 9383,
      "ክርስትና": 9384,
      "፲፰፻": 9385,
      "sakandare": 9386,
      "Ida": 9387,
      "Para": 9388,
      "ditional": 9389,
      "bit": 9390,
      "key": 9391,
      "1969": 9392,
      "Sahara": 9393,
      "However,": 9394,
      "Star": 9395,
      "fed": 9396,
      "ብሔር": 9397,
      "ከረም": 9398,
      "ዕው": 9399,
      "ጻፈ": 9400,
      "ọpọ": 9401,
      "side": 9402,
      "ni:": 9403,
      "alpha": 9404,
      "dik": 9405,
      "celui": 9406,
      "exten": 9407,
      "House": 9408,
      "non-": 9409,
      "hydro": 9410,
      "ብሪታ": 9411,
      "nar": 9412,
      "data": 9413,
      "law": 9414,
      "vide": 9415,
      "histoire": 9416,
      "Patri": 9417,
      "(G": 9418,
      "(16": 9419,
      "Bin": 9420,
      "Dut": 9421,
      "Yu": 9422,
      "ስሞች": 9423,
      "ግም": 9424,
      "kacin": 9425,
      "Mali": 9426,
      "ja,": 9427,
      "yi.": 9428,
      "jua": 9429,
      "influence": 9430,
      "(He": 9431,
      "ga.": 9432,
      "Moham": 9433,
      "Colum": 9434,
      "occu": 9435,
      "Apple": 9436,
      "85": 9437,
      "Bene": 9438,
      "F.": 9439,
      "ìyá": 9440,
      "ሎቹ": 9441,
      "፪፻": 9442,
      "rasu": 9443,
      "elu": 9444,
      "shiry": 9445,
      "2006,": 9446,
      "lub": 9447,
      "origine": 9448,
      "hannun": 9449,
      "ነበረው": 9450,
      "Anamb": 9451,
      "ታላቁ": 9452,
      "European": 9453,
      "Aw": 9454,
      "Sur": 9455,
      "dence": 9456,
      "eux": 9457,
      "élect": 9458,
      "artic": 9459,
      "inten": 9460,
      "aire": 9461,
      "Kil": 9462,
      "mta": 9463,
      "ሊቀ": 9464,
      "ነግ": 9465,
      "ከና": 9466,
      "ጋን": 9467,
      "kutumia": 9468,
      "alum": 9469,
      "super": 9470,
      "fada": 9471,
      "irú": 9472,
      "2017.": 9473,
      "tengene": 9474,
      "ጊዜው": 9475,
      "ambazo": 9476,
      "Tovuti": 9477,
      "Isla": 9478,
      "ያለውን": 9479,
      "cô": 9480,
      "dor": 9481,
      "zani": 9482,
      "hivi": 9483,
      "yed": 9484,
      "1981": 9485,
      "1965": 9486,
      "Cour": 9487,
      "There": 9488,
      "Nu": 9489,
      "heshi": 9490,
      "መጡ": 9491,
      "wai": 9492,
      "ery": 9493,
      "espa": 9494,
      "using": 9495,
      "harkokin": 9496,
      "uniyar": 9497,
      "mbabwe": 9498,
      "ባህል": 9499,
      "tambu": 9500,
      "pataki": 9501,
      "utamaduni": 9502,
      "kuliko": 9503,
      "Australia": 9504,
      "ስቃሴ": 9505,
      "Had": 9506,
      "épo": 9507,
      "isme": 9508,
      "ty,": 9509,
      "1972": 9510,
      "1930": 9511,
      "htm": 9512,
      "(U": 9513,
      "-ẹ̀kọ́": 9514,
      "Gẹ̀ẹ́sì": 9515,
      "I,": 9516,
      "Kwan": 9517,
      "ipinle": 9518,
      "ሪስ": 9519,
      "በሳ": 9520,
      "በኮ": 9521,
      "አሉት": 9522,
      "ይቆ": 9523,
      "ፋርስ": 9524,
      "wasi": 9525,
      "date": 9526,
      "saman": 9527,
      "miwa": 9528,
      "fihàn": 9529,
      "loma": 9530,
      "Hivyo": 9531,
      "Shehu": 9532,
      "tumiwa": 9533,
      "tumika": 9534,
      "Central": 9535,
      "ቢሆንም": 9536,
      "U.S.": 9537,
      "Fá": 9538,
      "zz": 9539,
      "bado": 9540,
      "jade": 9541,
      "référen": 9542,
      "mark": 9543,
      "10,": 9544,
      "2018.": 9545,
      "important": 9546,
      "Dara": 9547,
      "twa": 9548,
      "ማግ": 9549,
      "ከረ": 9550,
      "ዓላማ": 9551,
      "kudancin": 9552,
      "hayo": 9553,
      "faire": 9554,
      "Wakazi": 9555,
      "trava": 9556,
      "nufin": 9557,
      "Common": 9558,
      "አምባ": 9559,
      "Amẹ́ríkà.": 9560,
      "Zimbabwe": 9561,
      "ይሆናል።": 9562,
      "Delta": 9563,
      "42": 9564,
      "pona": 9565,
      "éra": 9566,
      "ando": 9567,
      "change": 9568,
      "66": 9569,
      "Din": 9570,
      "መጋ": 9571,
      "anisha": 9572,
      "tobi": 9573,
      "mu.": 9574,
      "power": 9575,
      "kanda": 9576,
      "doma": 9577,
      "10.": 9578,
      "following": 9579,
      "ዩኒቨር": 9580,
      "field": 9581,
      "እንቅስቃሴ": 9582,
      "(15": 9583,
      "named": 9584,
      "region": 9585,
      "dit": 9586,
      "mit": 9587,
      "seed": 9588,
      "atur": 9589,
      "1952": 9590,
      "international": 9591,
      "Pierre": 9592,
      "Jean-": 9593,
      "Poland": 9594,
      "aci": 9595,
      "eff": 9596,
      "ምፒ": 9597,
      "ቅል": 9598,
      "ቅን": 9599,
      "ተጽ": 9600,
      "ታም": 9601,
      "ጀት": 9602,
      "hazi": 9603,
      "usha": 9604,
      "keje": 9605,
      "እንዴት": 9606,
      "l'É": 9607,
      "mengi": 9608,
      "Pia": 9609,
      "court": 9610,
      "ክለብ": 9611,
      "ይቀራሉ።": 9612,
      "holanzi": 9613,
      "አገልግሎት": 9614,
      "gouver": 9615,
      "ikan": 9616,
      "ête": 9617,
      "tuo": 9618,
      "(17": 9619,
      "Res": 9620,
      "Tom": 9621,
      "dwa": 9622,
      "በኤ": 9623,
      "ፉት": 9624,
      "nahiyar": 9625,
      "fikia": 9626,
      "commen": 9627,
      "በአን": 9628,
      "ንግል": 9629,
      "languages": 9630,
      "ምርጫ": 9631,
      "arufu": 9632,
      "arabci": 9633,
      "ይመስላል።": 9634,
      "ዕብራይስጥ": 9635,
      "bat": 9636,
      "ter.": 9637,
      "désig": 9638,
      "lieu": 9639,
      "Ox": 9640,
      "oli": 9641,
      "sla": 9642,
      "spé": 9643,
      "yì": 9644,
      "ሠራዊት": 9645,
      "ሪፐ": 9646,
      "ሰባ": 9647,
      "አክ": 9648,
      "ከሆነ": 9649,
      "ጥም": 9650,
      "organi": 9651,
      "leyin": 9652,
      "sabon": 9653,
      "ghan": 9654,
      "téra": 9655,
      "1962": 9656,
      "News": 9657,
      "ከነዚህ": 9658,
      "cès": 9659,
      "système": 9660,
      "\"The": 9661,
      "(An": 9662,
      "Year": 9663,
      "mika": 9664,
      "2020,": 9665,
      "Congress": 9666,
      "(L": 9667,
      "Pó": 9668,
      "school": 9669,
      "àjẹsára": 9670,
      "በብዙ": 9671,
      "ወገ": 9672,
      "ጋት": 9673,
      "ọlọ́": 9674,
      "cibiyar": 9675,
      "jejeni": 9676,
      "descri": 9677,
      "iyaka": 9678,
      "ológun": 9679,
      "አለው።": 9680,
      "AT": 9681,
      "88": 9682,
      "Iran": 9683,
      "cli": 9684,
      "የኡ": 9685,
      "matan": 9686,
      "maarufu": 9687,
      "reg": 9688,
      "bantu": 9689,
      "Alg": 9690,
      "ቤተክርስቲያን": 9691,
      "Ziwa": 9692,
      "littafin": 9693,
      "መጻሕፍት": 9694,
      "kaa": 9695,
      "kusu": 9696,
      "1929": 9697,
      "ina,": 9698,
      "terme": 9699,
      "ating": 9700,
      "provin": 9701,
      "Group": 9702,
      "different": 9703,
      "tory": 9704,
      "walla": 9705,
      "tume": 9706,
      "kansa": 9707,
      "cate": 9708,
      "የተባ": 9709,
      "Kejì": 9710,
      "abinci": 9711,
      "እውነት": 9712,
      "púpọ̀": 9713,
      "Alhaji": 9714,
      "tabbatar": 9715,
      "(m": 9716,
      "concer": 9717,
      "publique": 9718,
      "(13": 9719,
      "ama": 9720,
      "event": 9721,
      "sch": 9722,
      "ማኅ": 9723,
      "ቀሳ": 9724,
      "1917": 9725,
      "በመሆን": 9726,
      "gundu": 9727,
      "ምንጊዜም": 9728,
      "መልኩ": 9729,
      "taient": 9730,
      "Ọ̀yọ́": 9731,
      "ተመሳ": 9732,
      "sakamakon": 9733,
      "shiryen": 9734,
      "CE": 9735,
      "ming": 9736,
      "engine": 9737,
      "biti": 9738,
      "alis": 9739,
      "Mw": 9740,
      "n'est": 9741,
      "will": 9742,
      "ሙያ": 9743,
      "ር፣": 9744,
      "በሱ": 9745,
      "ተክል": 9746,
      "ጣን": 9747,
      "bio": 9748,
      "ashin": 9749,
      "guerre": 9750,
      "1964": 9751,
      "shafi": 9752,
      "Williams": 9753,
      "possible": 9754,
      "Sene": 9755,
      "halin": 9756,
      "tumba": 9757,
      "2009,": 9758,
      "Jour": 9759,
      "Government": 9760,
      "(B": 9761,
      "(K": 9762,
      "IN": 9763,
      "Mé": 9764,
      "Western": 9765,
      "tz": 9766,
      "Ìgbà": 9767,
      "Ìdí": 9768,
      "ńlá": 9769,
      "isan": 9770,
      "zaune": 9771,
      "bíbí": 9772,
      "መንግሥታት": 9773,
      "ዘመኑ": 9774,
      "2019.": 9775,
      "Kamfanin": 9776,
      "andika": 9777,
      "Federal": 9778,
      "gargajiya": 9779,
      "gré": 9780,
      "rong": 9781,
      "began": 9782,
      "we,": 9783,
      "déc": 9784,
      "VID": 9785,
      "Domini": 9786,
      "tten": 9787,
      "ሞክራ": 9788,
      "ቂያ": 9789,
      "fadin": 9790,
      "joto": 9791,
      "joko": 9792,
      "díẹ̀": 9793,
      "makao": 9794,
      "kawai": 9795,
      "formation": 9796,
      "onyesha": 9797,
      "ልማት": 9798,
      "ተመሳሳይ": 9799,
      "77": 9800,
      "Aja": 9801,
      "ait": 9802,
      "eko": 9803,
      "œu": 9804,
      "tifi": 9805,
      "tas": 9806,
      "d'autres": 9807,
      "voire": 9808,
      "'ya": 9809,
      "PP": 9810,
      "Tele": 9811,
      "sus": 9812,
      "ìṣẹ̀lẹ̀": 9813,
      "ዝን": 9814,
      "ይሁን": 9815,
      "ግሪ": 9816,
      "ፍር": 9817,
      "ፎር": 9818,
      "1925": 9819,
      "ets": 9820,
      "dest": 9821,
      "የአር": 9822,
      "expres": 9823,
      "kóso": 9824,
      "ኛውም": 9825,
      "1959": 9826,
      "II,": 9827,
      "yawancin": 9828,
      "ìdíje": 9829,
      "በተለይም": 9830,
      "tẹli": 9831,
      "latini": 9832,
      "ይቻላል።": 9833,
      "pí": 9834,
      "test": 9835,
      "kui": 9836,
      "seu": 9837,
      "They": 9838,
      "tradition": 9839,
      "Armen": 9840,
      "afrika": 9841,
      "ficial": 9842,
      "direct": 9843,
      "Hindi": 9844,
      "Poly": 9845,
      "Zari": 9846,
      "ctu": 9847,
      "ሀብ": 9848,
      "ሉን": 9849,
      "ሩም": 9850,
      "ሰም": 9851,
      "ሳር": 9852,
      "ተካ": 9853,
      "የራ": 9854,
      "የጀርመን": 9855,
      "ዳም": 9856,
      "yakin": 9857,
      "hewa": 9858,
      "kura": 9859,
      "msingi": 9860,
      "Hadi": 9861,
      "oluilu": 9862,
      "አመታት": 9863,
      "ጥቅምት": 9864,
      "Yunifásítì": 9865,
      "ographie": 9866,
      "wùjọ": 9867,
      "yahudi": 9868,
      "Tro": 9869,
      "ni.": 9870,
      "Johnson": 9871,
      "iness": 9872,
      "Jack": 9873,
      "control": 9874,
      "avoir": 9875,
      "poly": 9876,
      "Ìbẹ̀rẹ̀": 9877,
      "በካ": 9878,
      "ተጫ": 9879,
      "ከባ": 9880,
      "የዚህ": 9881,
      "ፖርት": 9882,
      "sala": 9883,
      "nipas": 9884,
      "jiho": 9885,
      "biyu,": 9886,
      "Dunia": 9887,
      "wadannan": 9888,
      "ìdílé": 9889,
      "Bou": 9890,
      "Dist": 9891,
      "cing": 9892,
      "maye": 9893,
      "concep": 9894,
      "formed": 9895,
      "Viet": 9896,
      "center": 9897,
      "Great": 9898,
      "Fred": 9899,
      "lom": 9900,
      "àdúgbò": 9901,
      "ሶስት": 9902,
      "ደገ": 9903,
      "ፊያ": 9904,
      "mayar": 9905,
      "kufuatana": 9906,
      "sayari": 9907,
      "kiasi": 9908,
      "tanni": 9909,
      "የአውሮፓ": 9910,
      "harar": 9911,
      "chache": 9912,
      "Nairo": 9913,
      "ሕዝቡ": 9914,
      "Cup": 9915,
      "Turan": 9916,
      "coup": 9917,
      "Fu": 9918,
      "Ife": 9919,
      "Kẹ́": 9920,
      "gara": 9921,
      "መሣ": 9922,
      "ሪቃ": 9923,
      "ቆይ": 9924,
      "ቸዋል።": 9925,
      "አጠ": 9926,
      "እኩል": 9927,
      "mad": 9928,
      "peup": 9929,
      "wọ̀nyí": 9930,
      "Urusi": 9931,
      "fina-finai": 9932,
      "siyasan": 9933,
      "ሚካኤል": 9934,
      "Jari": 9935,
      "cipa": 9936,
      "open": 9937,
      "land.": 9938,
      "gener": 9939,
      "----": 9940,
      "comple": 9941,
      "School,": 9942,
      "Mohammed": 9943,
      "T.": 9944,
      "blia": 9945,
      "cum": 9946,
      "gì": 9947,
      "òbí": 9948,
      "በሩ": 9949,
      "ẹran": 9950,
      "kuzaliwa": 9951,
      "ha,": 9952,
      "fiimu": 9953,
      "japona": 9954,
      "እስካ": 9955,
      "kàwé": 9956,
      "እንግዲህ": 9957,
      "mìni": 9958,
      "linguis": 9959,
      "jul": 9960,
      "Indon": 9961,
      "COVID": 9962,
      "Imo": 9963,
      "List": 9964,
      "Sen": 9965,
      "W.": 9966,
      "mpa": 9967,
      "rum": 9968,
      "xy": 9969,
      "ájú": 9970,
      "በደ": 9971,
      "ቷን": 9972,
      "ቸዉ": 9973,
      "ነፃ": 9974,
      "ኤን": 9975,
      "የል": 9976,
      "thè": 9977,
      "wancin": 9978,
      "ደርግ": 9979,
      "የሚገኝበት": 9980,
      "lililo": 9981,
      "ዩኒቨርሲቲ": 9982,
      "54": 9983,
      "Olo": 9984,
      "Otto": 9985,
      "karu": 9986,
      "agri": 9987,
      "Aikin": 9988,
      "dare": 9989,
      "ህግ": 9990,
      "ርሱ": 9991,
      "ሸን": 9992,
      "ነሣ": 9993,
      "ወስ": 9994,
      "ዳሪ": 9995,
      "read": 9996,
      "des,": 9997,
      "forces": 9998,
      "ched": 9999
    },
    "merges": [
      [
        "a",
        "n"
      ],
      [
        "a",
        "r"
      ],
      [
        "i",
        "n"
      ],
      [
        "w",
        "a"
      ],
      [
        "o",
        "n"
      ],
      [
        "e",
        "r"
      ],
      [
        "e",
        "n"
      ],
      [
        "k",
        "a"
      ],
      [
        "t",
        "i"
      ],
      [
        "y",
        "a"
      ],
      [
        "d",
        "a"
      ],
      [
        "t",
        "a"
      ],
      [
        "m",
        "a"
      ],
      [
        "e",
        "s"
      ],
      [
        "l",
        "i"
      ],
      [
        "u",
        "n"
      ],
      [
        "l",
        "a"
      ],
      [
        "i",
        "s"
      ],
      [
        "h",
        "e"
      ],
      [
        "o",
        "r"
      ],
      [
        "l",
        "e"
      ],
      [
        "b",
        "a"
      ],
      [
        "n",
        "a"
      ],
      [
        "k",
        "u"
      ],
      [
        "h",
        "a"
      ],
      [
        "d",
        "e"
      ],
      [
        "s",
        "a"
      ],
      [
        "u",
        "r"
      ],
      [
        "t",
        "o"
      ],
      [
        "h",
        "i"
      ],
      [
        "s",
        "i"
      ],
      [
        "r",
        "e"
      ],
      [
        "k",
        "i"
      ],
      [
        "t",
        "e"
      ],
      [
        "n",
        "i"
      ],
      [
        "a",
        "l"
      ],
      [
        "1",
        "9"
      ],
      [
        "d",
        "i"
      ],
      [
        "r",
        "i"
      ],
      [
        "g",
        "a"
      ],
      [
        "r",
        "a"
      ],
      [
        "t",
        "he"
      ],
      [
        "m",
        "i"
      ],
      [
        "o",
        "f"
      ],
      [
        "u",
        "s"
      ],
      [
        "ẹ",
        "̀"
      ],
      [
        "c",
        "i"
      ],
      [
        "b",
        "i"
      ],
      [
        "c",
        "e"
      ],
      [
        "ar",
        "a"
      ],
      [
        "o",
        "m"
      ],
      [
        "z",
        "a"
      ],
      [
        "w",
        "ọ"
      ],
      [
        "2",
        "0"
      ],
      [
        "ẹ",
        "́"
      ],
      [
        "an",
        "a"
      ],
      [
        "g",
        "b"
      ],
      [
        "a",
        "s"
      ],
      [
        "an",
        "d"
      ],
      [
        "en",
        "t"
      ],
      [
        "f",
        "i"
      ],
      [
        "k",
        "e"
      ],
      [
        "o",
        "l"
      ],
      [
        "t",
        "h"
      ],
      [
        "an",
        "i"
      ],
      [
        "ti",
        "on"
      ],
      [
        "n",
        "í"
      ],
      [
        "in",
        "g"
      ],
      [
        "r",
        "o"
      ],
      [
        "c",
        "h"
      ],
      [
        "a",
        "m"
      ],
      [
        "n",
        "e"
      ],
      [
        "j",
        "i"
      ],
      [
        "k",
        "o"
      ],
      [
        "e",
        "l"
      ],
      [
        "q",
        "u"
      ],
      [
        "ar",
        "i"
      ],
      [
        "ọ",
        "́"
      ],
      [
        "wọ",
        "n"
      ],
      [
        "e",
        "t"
      ],
      [
        "s",
        "u"
      ],
      [
        "i",
        "l"
      ],
      [
        "t",
        "u"
      ],
      [
        "m",
        "e"
      ],
      [
        "d",
        "u"
      ],
      [
        "s",
        "e"
      ],
      [
        "M",
        "a"
      ],
      [
        "m",
        "u"
      ],
      [
        "k",
        "in"
      ],
      [
        "p",
        "a"
      ],
      [
        "g",
        "i"
      ],
      [
        "l",
        "o"
      ],
      [
        "f",
        "a"
      ],
      [
        "p",
        "o"
      ],
      [
        "እ",
        "ን"
      ],
      [
        "a",
        "li"
      ],
      [
        "t",
        "í"
      ],
      [
        "ọ",
        "̀"
      ],
      [
        "b",
        "u"
      ],
      [
        "ነ",
        "ው"
      ],
      [
        "er",
        "i"
      ],
      [
        "in",
        "a"
      ],
      [
        "a",
        "u"
      ],
      [
        "z",
        "i"
      ],
      [
        "ú",
        "n"
      ],
      [
        "k",
        "an"
      ],
      [
        "k",
        "ar"
      ],
      [
        "s",
        "h"
      ],
      [
        "k",
        "wa"
      ],
      [
        "o",
        "u"
      ],
      [
        "t",
        "an"
      ],
      [
        "y",
        "e"
      ],
      [
        "m",
        "o"
      ],
      [
        "w",
        "an"
      ],
      [
        "ar",
        "e"
      ],
      [
        "t",
        "er"
      ],
      [
        "i",
        "t"
      ],
      [
        "g",
        "u"
      ],
      [
        "g",
        "e"
      ],
      [
        "s",
        "he"
      ],
      [
        "y",
        "an"
      ],
      [
        "p",
        "e"
      ],
      [
        "l",
        "es"
      ],
      [
        "h",
        "u"
      ],
      [
        "v",
        "e"
      ],
      [
        "y",
        "ar"
      ],
      [
        "i",
        "r"
      ],
      [
        "s",
        "o"
      ],
      [
        "d",
        "an"
      ],
      [
        "j",
        "e"
      ],
      [
        "s",
        "hi"
      ],
      [
        "s",
        "an"
      ],
      [
        "ku",
        "ma"
      ],
      [
        "j",
        "a"
      ],
      [
        "ነው",
        "።"
      ],
      [
        "in",
        "i"
      ],
      [
        "g",
        "o"
      ],
      [
        "v",
        "i"
      ],
      [
        "d",
        "es"
      ],
      [
        "y",
        "o"
      ],
      [
        "s",
        "t"
      ],
      [
        "1",
        "8"
      ],
      [
        "b",
        "e"
      ],
      [
        "ka",
        "ti"
      ],
      [
        "a",
        "t"
      ],
      [
        "r",
        "an"
      ],
      [
        "c",
        "on"
      ],
      [
        "y",
        "i"
      ],
      [
        "m",
        "ent"
      ],
      [
        "20",
        "0"
      ],
      [
        "r",
        "í"
      ],
      [
        "es",
        "t"
      ],
      [
        "p",
        "i"
      ],
      [
        "የ",
        "ሚ"
      ],
      [
        "m",
        "an"
      ],
      [
        "ቸ",
        "ው"
      ],
      [
        "f",
        "or"
      ],
      [
        "20",
        "1"
      ],
      [
        "b",
        "o"
      ],
      [
        "p",
        "ar"
      ],
      [
        "r",
        "é"
      ],
      [
        "የ",
        "አ"
      ],
      [
        "d",
        "o"
      ],
      [
        "l",
        "u"
      ],
      [
        "ል",
        "።"
      ],
      [
        "in",
        "e"
      ],
      [
        "v",
        "er"
      ],
      [
        "s",
        "í"
      ],
      [
        "c",
        "a"
      ],
      [
        "l",
        "á"
      ],
      [
        "f",
        "u"
      ],
      [
        "t",
        "s"
      ],
      [
        "a",
        "i"
      ],
      [
        "ሳ",
        "ሌ"
      ],
      [
        "qu",
        "e"
      ],
      [
        "l",
        "ẹ̀"
      ],
      [
        "ም",
        "ሳሌ"
      ],
      [
        "መ",
        "ን"
      ],
      [
        "w",
        "e"
      ],
      [
        "to",
        "ka"
      ],
      [
        "l",
        "y"
      ],
      [
        "b",
        "í"
      ],
      [
        "b",
        "an"
      ],
      [
        "m",
        "ar"
      ],
      [
        "l",
        "'"
      ],
      [
        "B",
        "a"
      ],
      [
        "ነ",
        "በ"
      ],
      [
        "or",
        "i"
      ],
      [
        "à",
        "wọn"
      ],
      [
        "wa",
        "ka"
      ],
      [
        ")",
        "."
      ],
      [
        "h",
        "ar"
      ],
      [
        "w",
        "i"
      ],
      [
        "à",
        "n"
      ],
      [
        "er",
        "e"
      ],
      [
        "u",
        "m"
      ],
      [
        "c",
        "om"
      ],
      [
        "r",
        "es"
      ],
      [
        "I",
        "n"
      ],
      [
        "c",
        "ha"
      ],
      [
        "T",
        "he"
      ],
      [
        "w",
        "ar"
      ],
      [
        "d",
        "é"
      ],
      [
        "W",
        "a"
      ],
      [
        "un",
        "i"
      ],
      [
        "0",
        "0"
      ],
      [
        "ku",
        "wa"
      ],
      [
        "የ",
        "ተ"
      ],
      [
        "a",
        "d"
      ],
      [
        "y",
        "in"
      ],
      [
        "r",
        "u"
      ],
      [
        "A",
        "n"
      ],
      [
        "ን",
        "ድ"
      ],
      [
        ")",
        ","
      ],
      [
        "N",
        "a"
      ],
      [
        "un",
        "a"
      ],
      [
        "t",
        "ar"
      ],
      [
        "c",
        "o"
      ],
      [
        "s",
        ","
      ],
      [
        "ዎ",
        "ች"
      ],
      [
        "ci",
        "kin"
      ],
      [
        "À",
        "wọn"
      ],
      [
        "k",
        "ara"
      ],
      [
        "c",
        "hi"
      ],
      [
        "a",
        "ti"
      ],
      [
        "እ",
        "ና"
      ],
      [
        "r",
        "in"
      ],
      [
        "c",
        "in"
      ],
      [
        "ላ",
        "ይ"
      ],
      [
        "K",
        "i"
      ],
      [
        "m",
        "ba"
      ],
      [
        "e",
        "d"
      ],
      [
        "c",
        "t"
      ],
      [
        "ነ",
        "ት"
      ],
      [
        "j",
        "ẹ́"
      ],
      [
        "da",
        "ga"
      ],
      [
        "u",
        "l"
      ],
      [
        "N",
        "i"
      ],
      [
        "s",
        "on"
      ],
      [
        "z",
        "o"
      ],
      [
        "d",
        "'"
      ],
      [
        "እን",
        "ደ"
      ],
      [
        "A",
        "m"
      ],
      [
        "19",
        "9"
      ],
      [
        "à",
        "ti"
      ],
      [
        "a",
        "ka"
      ],
      [
        "h",
        "o"
      ],
      [
        "g",
        "ba"
      ],
      [
        "w",
        "on"
      ],
      [
        "w",
        "o"
      ],
      [
        "ማ",
        "ር"
      ],
      [
        "kati",
        "ka"
      ],
      [
        "p",
        "ro"
      ],
      [
        "r",
        "ẹ̀"
      ],
      [
        "l",
        "é"
      ],
      [
        "te",
        "d"
      ],
      [
        "t",
        "sa"
      ],
      [
        "n",
        "o"
      ],
      [
        "A",
        "l"
      ],
      [
        "ọ",
        "d"
[...]
