{
  "version": "1.0",
  "truncation": null,
  "padding": null,
  "added_tokens": [
    {
      "id": 0,
      "content": "[UNK]",
      "single_word": false,
      "lstrip": false,
      "rstrip": false,
      "normalized": false,
      "special": true
    }
  ],
  "normalizer": {
    "type": "NFC"
  },
  "pre_tokenizer": {
    "type": "WhitespaceSplit"
  },
  "post_processor": null,
  "decoder": null,
  "model": {
    "type": "BPE",
    "dropout": null,
    "unk_token": "[UNK]",
    "continuing_subword_prefix": null,
    "end_of_word_suffix": null,
    "fuse_unk": false,
    "byte_fallback": false,
    "ignore_merges": false,
    "vocab": {
      "[UNK]": 0,
      "!": 1,
      "\"": 2,
      "#": 3,
      "$": 4,
      "%": 5,
      "&": 6,
      "'": 7,
      "(": 8,
      ")": 9,
      "*": 10,
      "+": 11,
      ",": 12,
      "-": 13,
      ".": 14,
      "/": 15,
      "0": 16,
      "1": 17,
      "2": 18,
      "3": 19,
      "4": 20,
      "5": 21,
      "6": 22,
      "7": 23,
      "8": 24,
      "9": 25,
      ":": 26,
      ";": 27,
      "<": 28,
      "=": 29,
      ">": 30,
      "?": 31,
      "@": 32,
      "A": 33,
      "B": 34,
      "C": 35,
      "D": 36,
      "E": 37,
      "F": 38,
      "G": 39,
      "H": 40,
      "I": 41,
      "J": 42,
      "K": 43,
      "L": 44,
      "M": 45,
      "N": 46,
      "O": 47,
      "P": 48,
      "Q": 49,
      "R": 50,
      "S": 51,
      "T": 52,
      "U": 53,
      "V": 54,
      "W": 55,
      "X": 56,
      "Y": 57,
      "Z": 58,
      "[": 59,
      "\\": 60,
      "]": 61,
      "^": 62,
      "_": 63,
      "`": 64,
      "a": 65,
      "b": 66,
      "c": 67,
      "d": 68,
      "e": 69,
      "f": 70,
      "g": 71,
      "h": 72,
      "i": 73,
      "j": 74,
      "k": 75,
      "l": 76,
      "m": 77,
      "n": 78,
      "o": 79,
      "p": 80,
      "q": 81,
      "r": 82,
      "s": 83,
      "t": 84,
      "u": 85,
      "v": 86,
      "w": 87,
      "x": 88,
      "y": 89,
      "z": 90,
      "{": 91,
      "|": 92,
      "}": 93,
      "~": 94,
      "¡": 95,
      "¢": 96,
      "£": 97,
      "¥": 98,
      "¦": 99,
      "§": 100,
      "©": 101,
      "ª": 102,
      "«": 103,
      "¬": 104,
      "­": 105,
      "®": 106,
      "¯": 107,
      "°": 108,
      "±": 109,
      "²": 110,
      "³": 111,
      "´": 112,
      "µ": 113,
      "·": 114,
      "¹": 115,
      "º": 116,
      "»": 117,
      "¼": 118,
      "½": 119,
      "¾": 120,
      "¿": 121,
      "À": 122,
      "Á": 123,
      "Â": 124,
      "Ä": 125,
      "Å": 126,
      "Æ": 127,
      "Ç": 128,
      "È": 129,
      "É": 130,
      "Ê": 131,
      "Ì": 132,
      "Í": 133,
      "Î": 134,
      "Ï": 135,
      "Ð": 136,
      "Ñ": 137,
      "Ò": 138,
      "Ó": 139,
      "Ô": 140,
      "Õ": 141,
      "Ö": 142,
      "×": 143,
      "Ø": 144,
      "Ù": 145,
      "Ú": 146,
      "Ü": 147,
      "Ý": 148,
      "Þ": 149,
      "ß": 150,
      "à": 151,
      "á": 152,
      "â": 153,
      "ã": 154,
      "ä": 155,
      "å": 156,
      "æ": 157,
      "ç": 158,
      "è": 159,
      "é": 160,
      "ê": 161,
      "ë": 162,
      "ì": 163,
      "í": 164,
      "î": 165,
      "ï": 166,
      "ð": 167,
      "ñ": 168,
      "ò": 169,
      "ó": 170,
      "ô": 171,
      "õ": 172,
      "ö": 173,
      "÷": 174,
      "ø": 175,
      "ù": 176,
      "ú": 177,
      "û": 178,
      "ü": 179,
      "ý": 180,
      "þ": 181,
      "ÿ": 182,
      "Ā": 183,
      "ā": 184,
      "Ă": 185,
      "ă": 186,
      "ą": 187,
      "ć": 188,
      "Ĉ": 189,
      "ĉ": 190,
      "Ċ": 191,
      "ċ": 192,
      "Č": 193,
      "č": 194,
      "ď": 195,
      "Đ": 196,
      "đ": 197,
      "Ē": 198,
      "ē": 199,
      "Ĕ": 200,
      "ĕ": 201,
      "ė": 202,
      "Ę": 203,
      "ę": 204,
      "ě": 205,
      "Ĝ": 206,
      "ĝ": 207,
      "ğ": 208,
      "Ġ": 209,
      "ġ": 210,
      "Ĥ": 211,
      "ĥ": 212,
      "Ħ": 213,
      "ħ": 214,
      "ĩ": 215,
      "Ī": 216,
      "ī": 217,
      "ĭ": 218,
      "į": 219,
      "İ": 220,
      "ı": 221,
      "Ĵ": 222,
      "ĵ": 223,
      "ĺ": 224,
      "Ļ": 225,
      "ļ": 226,
      "Ľ": 227,
      "ľ": 228,
      "Ł": 229,
      "ł": 230,
      "Ń": 231,
      "ń": 232,
      "Ņ": 233,
      "ņ": 234,
      "ň": 235,
      "Ŋ": 236,
      "ŋ": 237,
      "Ō": 238,
      "ō": 239,
      "ŏ": 240,
      "Ő": 241,
      "ő": 242,
      "Œ": 243,
      "œ": 244,
      "ŕ": 245,
      "Ŗ": 246,
      "ŗ": 247,
      "ř": 248,
      "Ś": 249,
      "ś": 250,
      "Ŝ": 251,
      "ŝ": 252,
      "Ş": 253,
      "ş": 254,
      "Š": 255,
      "š": 256,
      "ţ": 257,
      "ũ": 258,
      "Ū": 259,
      "ū": 260,
      "Ŭ": 261,
      "ŭ": 262,
      "ů": 263,
      "Ű": 264,
      "ű": 265,
      "ų": 266,
      "ŵ": 267,
      "ź": 268,
      "Ż": 269,
      "ż": 270,
      "Ž": 271,
      "ž": 272,
      "ſ": 273,
      "Ɓ": 274,
      "Ɔ": 275,
      "Ɗ": 276,
      "Ɛ": 277,
      "ƒ": 278,
      "Ƙ": 279,
      "ƙ": 280,
      "ơ": 281,
      "ƣ": 282,
      "ư": 283,
      "Ƴ": 284,
      "ƴ": 285,
      "ƿ": 286,
      "ǀ": 287,
      "ǎ": 288,
      "ǐ": 289,
      "ǒ": 290,
      "ǔ": 291,
      "ǝ": 292,
      "Ǟ": 293,
      "ǟ": 294,
      "ǣ": 295,
      "ǧ": 296,
      "ǫ": 297,
      "Ǵ": 298,
      "ǵ": 299,
      "Ƿ": 300,
      "Ǹ": 301,
      "ǹ": 302,
      "ș": 303,
      "Ț": 304,
      "ț": 305,
      "ȝ": 306,
      "Ȣ": 307,
      "Ȭ": 308,
      "ȭ": 309,
      "Ȯ": 310,
      "ȯ": 311,
      "Ȱ": 312,
      "ȱ": 313,
      "ɐ": 314,
      "ɑ": 315,
      "ɒ": 316,
      "ɓ": 317,
      "ɔ": 318,
      "ɕ": 319,
      "ɖ": 320,
      "ɗ": 321,
      "ə": 322,
      "ɚ": 323,
      "ɛ": 324,
      "ɜ": 325,
      "ɟ": 326,
      "ɡ": 327,
      "ɣ": 328,
      "ɤ": 329,
      "ɥ": 330,
      "ɦ": 331,
      "ɧ": 332,
      "ɨ": 333,
      "ɪ": 334,
      "ɫ": 335,
      "ɯ": 336,
      "ɰ": 337,
      "ɲ": 338,
      "ɳ": 339,
      "ɴ": 340,
      "ɵ": 341,
      "ɹ": 342,
      "ɻ": 343,
      "ɽ": 344,
      "ɾ": 345,
      "ʀ": 346,
      "ʁ": 347,
      "ʂ": 348,
      "ʃ": 349,
      "ʈ": 350,
      "ʉ": 351,
      "ʊ": 352,
      "ʋ": 353,
      "ʌ": 354,
      "ʎ": 355,
      "ʏ": 356,
      "ʑ": 357,
      "ʒ": 358,
      "ʔ": 359,
      "ʕ": 360,
      "ʰ": 361,
      "ʱ": 362,
      "ʲ": 363,
      "ʵ": 364,
      "ʷ": 365,
      "ʹ": 366,
      "ʻ": 367,
      "ʼ": 368,
      "ʽ": 369,
      "ʾ": 370,
      "ʿ": 371,
      "ˀ": 372,
      "ˁ": 373,
      "ˈ": 374,
      "ˌ": 375,
      "ː": 376,
      "ˑ": 377,
      "˘": 378,
      "˜": 379,
      "˝": 380,
      "˞": 381,
      "ˠ": 382,
      "ˤ": 383,
      "̀": 384,
      "́": 385,
      "̃": 386,
      "̄": 387,
      "̅": 388,
      "̇": 389,
      "̋": 390,
      "̌": 391,
      "̍": 392,
      "̕": 393,
      "̝": 394,
      "̠": 395,
      "̡": 396,
      "̣": 397,
      "̥": 398,
      "̩": 399,
      "̯": 400,
      "̱": 401,
      "̺": 402,
      "ͅ": 403,
      "͘": 404,
      "͟": 405,
      "͡": 406,
      "ͳ": 407,
      "͵": 408,
      "Ά": 409,
      "Έ": 410,
      "Ή": 411,
      "Ό": 412,
      "ΐ": 413,
      "Α": 414,
      "Β": 415,
      "Γ": 416,
      "Δ": 417,
      "Ε": 418,
      "Ζ": 419,
      "Η": 420,
      "Θ": 421,
      "Ι": 422,
      "Κ": 423,
      "Λ": 424,
      "Μ": 425,
      "Ν": 426,
      "Ξ": 427,
      "Ο": 428,
      "Π": 429,
      "Ρ": 430,
      "Σ": 431,
      "Τ": 432,
      "Υ": 433,
      "Φ": 434,
      "Χ": 435,
      "Ω": 436,
      "ά": 437,
      "έ": 438,
      "ή": 439,
      "ί": 440,
      "α": 441,
      "β": 442,
      "γ": 443,
      "δ": 444,
      "ε": 445,
      "ζ": 446,
      "η": 447,
      "θ": 448,
      "ι": 449,
      "κ": 450,
      "λ": 451,
      "μ": 452,
      "ν": 453,
      "ξ": 454,
      "ο": 455,
      "π": 456,
      "ρ": 457,
      "ς": 458,
      "σ": 459,
      "τ": 460,
      "υ": 461,
      "φ": 462,
      "χ": 463,
      "ψ": 464,
      "ω": 465,
      "ϊ": 466,
      "ό": 467,
      "ύ": 468,
      "ώ": 469,
      "ϐ": 470,
      "Ϙ": 471,
      "ϙ": 472,
      "ϛ": 473,
      "Ϝ": 474,
      "ϝ": 475,
      "Ϟ": 476,
      "ϟ": 477,
      "ϡ": 478,
      "ϵ": 479,
      "Ϻ": 480,
      "Ё": 481,
      "Ђ": 482,
      "Ј": 483,
      "Ў": 484,
      "А": 485,
      "Б": 486,
      "В": 487,
      "Г": 488,
      "Д": 489,
      "Е": 490,
      "Ж": 491,
      "З": 492,
      "И": 493,
      "Й": 494,
      "К": 495,
      "Л": 496,
      "М": 497,
      "Н": 498,
      "О": 499,
      "П": 500,
      "Р": 501,
      "С": 502,
      "Т": 503,
      "У": 504,
      "Ф": 505,
      "Х": 506,
      "Ц": 507,
      "Ч": 508,
      "Ш": 509,
      "Щ": 510,
      "Ъ": 511,
      "Ы": 512,
      "Э": 513,
      "Ю": 514,
      "Я": 515,
      "а": 516,
      "б": 517,
      "в": 518,
      "г": 519,
      "д": 520,
      "е": 521,
      "ж": 522,
      "з": 523,
      "и": 524,
      "й": 525,
      "к": 526,
      "л": 527,
      "м": 528,
      "н": 529,
      "о": 530,
      "п": 531,
      "р": 532,
      "с": 533,
      "т": 534,
      "у": 535,
      "ф": 536,
      "х": 537,
      "ц": 538,
      "ч": 539,
      "ш": 540,
      "щ": 541,
      "ъ": 542,
      "ы": 543,
      "ь": 544,
      "э": 545,
      "ю": 546,
      "я": 547,
      "ё": 548,
      "ђ": 549,
      "і": 550,
      "ї": 551,
      "ј": 552,
      "ћ": 553,
      "ќ": 554,
      "ў": 555,
      "џ": 556,
      "ғ": 557,
      "Қ": 558,
      "қ": 559,
      "ң": 560,
      "ҧ": 561,
      "ү": 562,
      "ұ": 563,
      "ҷ": 564,
      "Һ": 565,
      "һ": 566,
      "ӕ": 567,
      "ә": 568,
      "ӣ": 569,
      "Ө": 570,
      "ө": 571,
      "Գ": 572,
      "Դ": 573,
      "Ե": 574,
      "Հ": 575,
      "Մ": 576,
      "Ս": 577,
      "Ր": 578,
      "ա": 579,
      "բ": 580,
      "ե": 581,
      "է": 582,
      "թ": 583,
      "ի": 584,
      "լ": 585,
      "կ": 586,
      "մ": 587,
      "յ": 588,
      "ն": 589,
      "ո": 590,
      "պ": 591,
      "ս": 592,
      "վ": 593,
      "տ": 594,
      "ր": 595,
      "ց": 596,
      "ւ": 597,
      "ք": 598,
      "ֆ": 599,
      "և": 600,
      "֑": 601,
      "֛": 602,
      "֫": 603,
      "ְ": 604,
      "ֲ": 605,
      "ִ": 606,
      "ֵ": 607,
      "ֶ": 608,
      "ַ": 609,
      "ָ": 610,
      "ֹ": 611,
      "ּ": 612,
      "ׁ": 613,
      "ׂ": 614,
      "א": 615,
      "ב": 616,
      "ג": 617,
      "ד": 618,
      "ה": 619,
      "ו": 620,
      "ז": 621,
      "ח": 622,
      "ט": 623,
      "י": 624,
      "ך": 625,
      "כ": 626,
      "ל": 627,
      "ם": 628,
      "מ": 629,
      "ן": 630,
      "נ": 631,
      "ס": 632,
      "ע": 633,
      "ף": 634,
      "פ": 635,
      "ץ": 636,
      "צ": 637,
      "ק": 638,
      "ר": 639,
      "ש": 640,
      "ת": 641,
      "״": 642,
      "،": 643,
      "ء": 644,
      "آ": 645,
      "أ": 646,
      "ؤ": 647,
      "إ": 648,
      "ئ": 649,
      "ا": 650,
      "ب": 651,
      "ة": 652,
      "ت": 653,
      "ث": 654,
      "ج": 655,
      "ح": 656,
      "خ": 657,
      "د": 658,
      "ذ": 659,
      "ر": 660,
      "ز": 661,
      "س": 662,
      "ش": 663,
      "ص": 664,
      "ض": 665,
      "ط": 666,
      "ظ": 667,
      "ع": 668,
      "غ": 669,
      "ـ": 670,
      "ف": 671,
      "ق": 672,
      "ك": 673,
      "ل": 674,
      "م": 675,
      "ن": 676,
      "ه": 677,
      "و": 678,
      "ى": 679,
      "ي": 680,
      "ً": 681,
      "ٌ": 682,
      "ٍ": 683,
      "َ": 684,
      "ُ": 685,
      "ِ": 686,
      "ّ": 687,
      "ْ": 688,
      "ٓ": 689,
      "ٔ": 690,
      "٠": 691,
      "١": 692,
      "٢": 693,
      "٣": 694,
      "٤": 695,
      "٥": 696,
      "٦": 697,
      "٧": 698,
      "٨": 699,
      "٩": 700,
      "ٰ": 701,
      "ٱ": 702,
      "ٹ": 703,
      "پ": 704,
      "ځ": 705,
      "چ": 706,
      "ڈ": 707,
      "ڌ": 708,
      "ڑ": 709,
      "ړ": 710,
      "ښ": 711,
      "ک": 712,
      "ڪ": 713,
      "ڬ": 714,
      "گ": 715,
      "ں": 716,
      "ھ": 717,
      "ہ": 718,
      "ۆ": 719,
      "ۇ": 720,
      "ۋ": 721,
      "ی": 722,
      "ې": 723,
      "ە": 724,
      "ۖ": 725,
      "ۗ": 726,
      "ۘ": 727,
      "ۚ": 728,
      "۝": 729,
      "۞": 730,
      "۟": 731,
      "ۡ": 732,
      "ۢ": 733,
      "ۤ": 734,
      "ۥ": 735,
      "ۦ": 736,
      "ۧ": 737,
      "۬": 738,
      "ۭ": 739,
      "ܐ": 740,
      "ܒ": 741,
      "ܓ": 742,
      "ܕ": 743,
      "ܗ": 744,
      "ܘ": 745,
      "ܛ": 746,
      "ܝ": 747,
      "ܠ": 748,
      "ܡ": 749,
      "ܢ": 750,
      "ܣ": 751,
      "ܩ": 752,
      "ܪ": 753,
      "ܲ": 754,
      "ܵ": 755,
      "ނ": 756,
      "ބ": 757,
      "އ": 758,
      "މ": 759,
      "ދ": 760,
      "ލ": 761,
      "ގ": 762,
      "ޔ": 763,
      "ަ": 764,
      "ާ": 765,
      "ީ": 766,
      "ު": 767,
      "ޫ": 768,
      "ެ": 769,
      "ް": 770,
      "ँ": 771,
      "ं": 772,
      "ः": 773,
      "अ": 774,
      "आ": 775,
      "इ": 776,
      "ई": 777,
      "उ": 778,
      "ऊ": 779,
      "ए": 780,
      "क": 781,
      "ख": 782,
      "ग": 783,
      "घ": 784,
      "च": 785,
      "छ": 786,
      "ज": 787,
      "ट": 788,
      "ड": 789,
      "ढ": 790,
      "ण": 791,
      "त": 792,
      "थ": 793,
      "द": 794,
      "ध": 795,
      "न": 796,
      "प": 797,
      "फ": 798,
      "ब": 799,
      "भ": 800,
      "म": 801,
      "य": 802,
      "र": 803,
      "ल": 804,
      "व": 805,
      "श": 806,
      "ष": 807,
      "स": 808,
      "ह": 809,
      "़": 810,
      "ा": 811,
      "ि": 812,
      "ी": 813,
      "ु": 814,
      "ू": 815,
      "े": 816,
      "ो": 817,
      "ौ": 818,
      "्": 819,
      "।": 820,
      "ং": 821,
      "আ": 822,
      "ই": 823,
      "উ": 824,
      "ও": 825,
      "ক": 826,
      "গ": 827,
      "চ": 828,
      "জ": 829,
      "ট": 830,
      "ণ": 831,
      "ত": 832,
      "দ": 833,
      "ধ": 834,
      "ন": 835,
      "প": 836,
      "ব": 837,
      "ভ": 838,
      "ম": 839,
      "য": 840,
      "র": 841,
      "ল": 842,
      "শ": 843,
      "ষ": 844,
      "স": 845,
      "হ": 846,
      "া": 847,
      "ি": 848,
      "ী": 849,
      "ু": 850,
      "ূ": 851,
      "ে": 852,
      "ো": 853,
      "ৌ": 854,
      "্": 855,
      "ৎ": 856,
      "৬": 857,
      "৭": 858,
      "৮": 859,
      "ਘ": 860,
      "ਜ": 861,
      "ਨ": 862,
      "ਪ": 863,
      "ਬ": 864,
      "ਮ": 865,
      "ਸ": 866,
      "ਹ": 867,
      "ਾ": 868,
      "ਿ": 869,
      "ੀ": 870,
      "ੋ": 871,
      "ੰ": 872,
      "ં": 873,
      "આ": 874,
      "ઇ": 875,
      "ઈ": 876,
      "ઉ": 877,
      "ઊ": 878,
      "ઓ": 879,
      "ક": 880,
      "ખ": 881,
      "ગ": 882,
      "છ": 883,
      "જ": 884,
      "ત": 885,
      "ન": 886,
      "ફ": 887,
      "બ": 888,
      "ભ": 889,
      "મ": 890,
      "ર": 891,
      "લ": 892,
      "વ": 893,
      "શ": 894,
      "સ": 895,
      "હ": 896,
      "ા": 897,
      "ી": 898,
      "ુ": 899,
      "ે": 900,
      "ો": 901,
      "્": 902,
      "அ": 903,
      "உ": 904,
      "ஓ": 905,
      "க": 906,
      "ங": 907,
      "ச": 908,
      "ஜ": 909,
      "ட": 910,
      "ண": 911,
      "த": 912,
      "ந": 913,
      "ன": 914,
      "ப": 915,
      "ம": 916,
      "ய": 917,
      "ர": 918,
      "ற": 919,
      "ல": 920,
      "ள": 921,
      "ழ": 922,
      "வ": 923,
      "ஸ": 924,
      "ா": 925,
      "ி": 926,
      "ீ": 927,
      "ு": 928,
      "ூ": 929,
      "ே": 930,
      "ை": 931,
      "ொ": 932,
      "ோ": 933,
      "்": 934,
      "ం": 935,
      "క": 936,
      "గ": 937,
      "చ": 938,
      "జ": 939,
      "డ": 940,
      "త": 941,
      "ద": 942,
      "న": 943,
      "ప": 944,
      "బ": 945,
      "భ": 946,
      "మ": 947,
      "ర": 948,
      "ల": 949,
      "శ": 950,
      "స": 951,
      "హ": 952,
      "ా": 953,
      "ి": 954,
      "ీ": 955,
      "ు": 956,
      "ె": 957,
      "ే": 958,
      "ై": 959,
      "ొ": 960,
      "ో": 961,
      "్": 962,
      "ം": 963,
      "അ": 964,
      "ഉ": 965,
      "ഐ": 966,
      "ക": 967,
      "ട": 968,
      "ഡ": 969,
      "ണ": 970,
      "ന": 971,
      "പ": 972,
      "ബ": 973,
      "മ": 974,
      "യ": 975,
      "ര": 976,
      "റ": 977,
      "ല": 978,
      "ള": 979,
      "വ": 980,
      "സ": 981,
      "ാ": 982,
      "ി": 983,
      "ു": 984,
      "െ": 985,
      "േ": 986,
      "ൈ": 987,
      "ൊ": 988,
      "്": 989,
      "ൻ": 990,
      "ൽ": 991,
      "ං": 992,
      "ක": 993,
      "ග": 994,
      "ච": 995,
      "ජ": 996,
      "ට": 997,
      "ඩ": 998,
      "ණ": 999,
      "ත": 1000,
      "ද": 1001,
      "ධ": 1002,
      "න": 1003,
      "ප": 1004,
      "බ": 1005,
      "ම": 1006,
      "ය": 1007,
      "ර": 1008,
      "ල": 1009,
      "ව": 1010,
      "ශ": 1011,
      "ස": 1012,
      "හ": 1013,
      "්": 1014,
      "ා": 1015,
      "ි": 1016,
      "ී": 1017,
      "ු": 1018,
      "ේ": 1019,
      "ෝ": 1020,
      "ก": 1021,
      "ข": 1022,
      "ค": 1023,
      "ง": 1024,
      "จ": 1025,
      "ช": 1026,
      "ณ": 1027,
      "ด": 1028,
      "ต": 1029,
      "ท": 1030,
      "น": 1031,
      "บ": 1032,
      "ป": 1033,
      "ผ": 1034,
      "พ": 1035,
      "ภ": 1036,
      "ม": 1037,
      "ย": 1038,
      "ร": 1039,
      "ว": 1040,
      "ศ": 1041,
      "ษ": 1042,
      "ส": 1043,
      "ห": 1044,
      "อ": 1045,
      "ฯ": 1046,
      "ะ": 1047,
      "ั": 1048,
      "า": 1049,
      "ิ": 1050,
      "ี": 1051,
      "ื": 1052,
      "ุ": 1053,
      "฿": 1054,
      "เ": 1055,
      "แ": 1056,
      "ใ": 1057,
      "ไ": 1058,
      "็": 1059,
      "่": 1060,
      "้": 1061,
      "์": 1062,
      "་": 1063,
      "ཐ": 1064,
      "པ": 1065,
      "ཕ": 1066,
      "བ": 1067,
      "མ": 1068,
      "ལ": 1069,
      "ི": 1070,
      "ུ": 1071,
      "ླ": 1072,
      "ည": 1073,
      "တ": 1074,
      "ဓ": 1075,
      "န": 1076,
      "ယ": 1077,
      "ဝ": 1078,
      "ီ": 1079,
      "ု": 1080,
      "်": 1081,
      "ა": 1082,
      "ბ": 1083,
      "გ": 1084,
      "დ": 1085,
      "ე": 1086,
      "ვ": 1087,
      "ზ": 1088,
      "თ": 1089,
      "ი": 1090,
      "კ": 1091,
      "ლ": 1092,
      "მ": 1093,
      "ნ": 1094,
      "ო": 1095,
      "პ": 1096,
      "რ": 1097,
      "ს": 1098,
      "ტ": 1099,
      "უ": 1100,
      "ფ": 1101,
      "ქ": 1102,
      "ყ": 1103,
      "შ": 1104,
      "ჩ": 1105,
      "ც": 1106,
      "ძ": 1107,
      "ჭ": 1108,
      "ხ": 1109,
      "ჰ": 1110,
      "ᇁ": 1111,
      "ሀ": 1112,
      "ሁ": 1113,
      "ሂ": 1114,
      "ሃ": 1115,
      "ሄ": 1116,
      "ህ": 1117,
      "ሆ": 1118,
      "ሇ": 1119,
      "ለ": 1120,
      "ሉ": 1121,
      "ሊ": 1122,
      "ላ": 1123,
      "ሌ": 1124,
      "ል": 1125,
      "ሎ": 1126,
      "ሏ": 1127,
      "ሐ": 1128,
      "ሑ": 1129,
      "ሒ": 1130,
      "ሓ": 1131,
      "ሔ": 1132,
      "ሕ": 1133,
      "ሖ": 1134,
      "ሗ": 1135,
      "መ": 1136,
      "ሙ": 1137,
      "ሚ": 1138,
      "ማ": 1139,
      "ሜ": 1140,
      "ም": 1141,
      "ሞ": 1142,
      "ሟ": 1143,
      "ሠ": 1144,
      "ሡ": 1145,
      "ሢ": 1146,
      "ሣ": 1147,
      "ሤ": 1148,
      "ሥ": 1149,
      "ሦ": 1150,
      "ሧ": 1151,
      "ረ": 1152,
      "ሩ": 1153,
      "ሪ": 1154,
      "ራ": 1155,
      "ሬ": 1156,
      "ር": 1157,
      "ሮ": 1158,
      "ሯ": 1159,
      "ሰ": 1160,
      "ሱ": 1161,
      "ሲ": 1162,
      "ሳ": 1163,
      "ሴ": 1164,
      "ስ": 1165,
      "ሶ": 1166,
      "ሷ": 1167,
      "ሸ": 1168,
      "ሹ": 1169,
      "ሺ": 1170,
      "ሻ": 1171,
      "ሼ": 1172,
      "ሽ": 1173,
      "ሾ": 1174,
      "ሿ": 1175,
      "ቀ": 1176,
      "ቁ": 1177,
      "ቂ": 1178,
      "ቃ": 1179,
      "ቄ": 1180,
      "ቅ": 1181,
      "ቆ": 1182,
      "ቇ": 1183,
      "ቈ": 1184,
      "ቊ": 1185,
      "ቋ": 1186,
      "ቌ": 1187,
      "ቍ": 1188,
      "ቐ": 1189,
      "ቓ": 1190,
      "ቕ": 1191,
      "ቖ": 1192,
      "ቛ": 1193,
      "በ": 1194,
      "ቡ": 1195,
      "ቢ": 1196,
      "ባ": 1197,
      "ቤ": 1198,
      "ብ": 1199,
      "ቦ": 1200,
      "ቧ": 1201,
      "ቨ": 1202,
      "ቩ": 1203,
      "ቪ": 1204,
      "ቫ": 1205,
      "ቬ": 1206,
      "ቭ": 1207,
      "ቮ": 1208,
      "ቯ": 1209,
      "ተ": 1210,
      "ቱ": 1211,
      "ቲ": 1212,
      "ታ": 1213,
      "ቴ": 1214,
      "ት": 1215,
      "ቶ": 1216,
      "ቷ": 1217,
      "ቸ": 1218,
      "ቹ": 1219,
      "ቺ": 1220,
      "ቻ": 1221,
      "ቼ": 1222,
      "ች": 1223,
      "ቾ": 1224,
      "ቿ": 1225,
      "ኀ": 1226,
      "ኁ": 1227,
      "ኂ": 1228,
      "ኃ": 1229,
      "ኄ": 1230,
      "ኅ": 1231,
      "ኆ": 1232,
      "ኇ": 1233,
      "ኈ": 1234,
      "ኊ": 1235,
      "ኋ": 1236,
      "ኌ": 1237,
      "ኍ": 1238,
      "ነ": 1239,
      "ኑ": 1240,
      "ኒ": 1241,
      "ና": 1242,
      "ኔ": 1243,
      "ን": 1244,
      "ኖ": 1245,
      "ኗ": 1246,
      "ኘ": 1247,
      "ኙ": 1248,
      "ኚ": 1249,
      "ኛ": 1250,
      "ኜ": 1251,
      "ኝ": 1252,
      "ኞ": 1253,
      "ኟ": 1254,
      "አ": 1255,
      "ኡ": 1256,
      "ኢ": 1257,
      "ኣ": 1258,
      "ኤ": 1259,
      "እ": 1260,
      "ኦ": 1261,
      "ኧ": 1262,
      "ከ": 1263,
      "ኩ": 1264,
      "ኪ": 1265,
      "ካ": 1266,
      "ኬ": 1267,
      "ክ": 1268,
      "ኮ": 1269,
      "ኰ": 1270,
      "ኲ": 1271,
      "ኳ": 1272,
      "ኴ": 1273,
      "ኵ": 1274,
      "ኸ": 1275,
      "ኹ": 1276,
      "ኺ": 1277,
      "ኻ": 1278,
      "ኼ": 1279,
      "ኽ": 1280,
      "ኾ": 1281,
      "ዂ": 1282,
      "ዃ": 1283,
      "ዅ": 1284,
      "ወ": 1285,
      "ዉ": 1286,
      "ዊ": 1287,
      "ዋ": 1288,
      "ዌ": 1289,
      "ው": 1290,
      "ዎ": 1291,
      "ዐ": 1292,
      "ዑ": 1293,
      "ዒ": 1294,
      "ዓ": 1295,
      "ዔ": 1296,
      "ዕ": 1297,
      "ዖ": 1298,
      "ዘ": 1299,
      "ዙ": 1300,
      "ዚ": 1301,
      "ዛ": 1302,
      "ዜ": 1303,
      "ዝ": 1304,
      "ዞ": 1305,
      "ዟ": 1306,
      "ዠ": 1307,
      "ዡ": 1308,
      "ዢ": 1309,
      "ዣ": 1310,
      "ዤ": 1311,
      "ዥ": 1312,
      "ዦ": 1313,
      "ዧ": 1314,
      "የ": 1315,
      "ዩ": 1316,
      "ዪ": 1317,
      "ያ": 1318,
      "ዬ": 1319,
      "ይ": 1320,
      "ዮ": 1321,
      "ደ": 1322,
      "ዱ": 1323,
      "ዲ": 1324,
      "ዳ": 1325,
      "ዴ": 1326,
      "ድ": 1327,
      "ዶ": 1328,
      "ዷ": 1329,
      "ዸ": 1330,
      "ዺ": 1331,
      "ዻ": 1332,
      "ዼ": 1333,
      "ዽ": 1334,
      "ዾ": 1335,
      "ዿ": 1336,
      "ጀ": 1337,
      "ጁ": 1338,
      "ጂ": 1339,
      "ጃ": 1340,
      "ጄ": 1341,
      "ጅ": 1342,
      "ጆ": 1343,
      "ጇ": 1344,
      "ገ": 1345,
      "ጉ": 1346,
      "ጊ": 1347,
      "ጋ": 1348,
      "ጌ": 1349,
      "ግ": 1350,
      "ጎ": 1351,
      "ጏ": 1352,
      "ጐ": 1353,
      "ጒ": 1354,
      "ጓ": 1355,
      "ጔ": 1356,
      "ጕ": 1357,
      "ጘ": 1358,
      "ጙ": 1359,
      "ጚ": 1360,
      "ጛ": 1361,
      "ጜ": 1362,
      "ጝ": 1363,
      "ጞ": 1364,
      "ጠ": 1365,
      "ጡ": 1366,
      "ጢ": 1367,
      "ጣ": 1368,
      "ጤ": 1369,
      "ጥ": 1370,
      "ጦ": 1371,
      "ጧ": 1372,
      "ጨ": 1373,
      "ጩ": 1374,
      "ጪ": 1375,
      "ጫ": 1376,
      "ጬ": 1377,
      "ጭ": 1378,
      "ጮ": 1379,
      "ጯ": 1380,
      "ጰ": 1381,
      "ጱ": 1382,
      "ጲ": 1383,
      "ጳ": 1384,
      "ጴ": 1385,
      "ጵ": 1386,
      "ጶ": 1387,
      "ጸ": 1388,
      "ጹ": 1389,
      "ጺ": 1390,
      "ጻ": 1391,
      "ጼ": 1392,
      "ጽ": 1393,
      "ጾ": 1394,
      "ጿ": 1395,
      "ፀ": 1396,
      "ፁ": 1397,
      "ፂ": 1398,
      "ፃ": 1399,
      "ፄ": 1400,
      "ፅ": 1401,
      "ፆ": 1402,
      "ፈ": 1403,
      "ፉ": 1404,
      "ፊ": 1405,
      "ፋ": 1406,
      "ፌ": 1407,
      "ፍ": 1408,
      "ፎ": 1409,
      "ፏ": 1410,
      "ፐ": 1411,
      "ፑ": 1412,
      "ፒ": 1413,
      "ፓ": 1414,
      "ፔ": 1415,
      "ፕ": 1416,
      "ፖ": 1417,
      "ፗ": 1418,
      "ፘ": 1419,
      "፟": 1420,
      "፡": 1421,
      "።": 1422,
      "፣": 1423,
      "፤": 1424,
      "፥": 1425,
      "፦": 1426,
      "፧": 1427,
      "፨": 1428,
      "፩": 1429,
      "፪": 1430,
      "፫": 1431,
      "፬": 1432,
      "፭": 1433,
      "፮": 1434,
      "፯": 1435,
      "፰": 1436,
      "፱": 1437,
      "፲": 1438,
      "፳": 1439,
      "፴": 1440,
      "፵": 1441,
      "፶": 1442,
      "፷": 1443,
      "፸": 1444,
      "፹": 1445,
      "፺": 1446,
      "፻": 1447,
      "፼": 1448,
      "ᎆ": 1449,
      "᎗": 1450,
      "Ꭰ": 1451,
      "Ꭶ": 1452,
      "Ꭷ": 1453,
      "Ꭹ": 1454,
      "Ꭿ": 1455,
      "Ꮃ": 1456,
      "Ꮉ": 1457,
      "Ꮒ": 1458,
      "Ꮝ": 1459,
      "Ꮧ": 1460,
      "Ꮳ": 1461,
      "Ꮻ": 1462,
      "Ꮼ": 1463,
      "Ꮿ": 1464,
      "Ᏼ": 1465,
      "ᑕ": 1466,
      "ᑖ": 1467,
      "ᑭ": 1468,
      "ᓕ": 1469,
      "ᕋ": 1470,
      "ᕐ": 1471,
      "ᖅ": 1472,
      "᛫": 1473,
      "ᠠ": 1474,
      "ᠤ": 1475,
      "ᠨ": 1476,
      "ᠪ": 1477,
      "ᠭ": 1478,
      "ᠯ": 1479,
      "ᠲ": 1480,
      "ᠷ": 1481,
      "ᴀ": 1482,
      "ᴋ": 1483,
      "ᴍ": 1484,
      "ᴛ": 1485,
      "ḅ": 1486,
      "ḇ": 1487,
      "ḋ": 1488,
      "Ḍ": 1489,
      "ḍ": 1490,
      "ḏ": 1491,
      "Ḑ": 1492,
      "ḑ": 1493,
      "ḕ": 1494,
      "ḗ": 1495,
      "ḡ": 1496,
      "Ḥ": 1497,
      "ḥ": 1498,
      "Ḫ": 1499,
      "ḫ": 1500,
      "Ḱ": 1501,
      "ḱ": 1502,
      "ḳ": 1503,
      "ḵ": 1504,
      "ḷ": 1505,
      "Ḿ": 1506,
      "ḿ": 1507,
      "ṁ": 1508,
      "Ṃ": 1509,
      "ṃ": 1510,
      "Ṅ": 1511,
      "ṅ": 1512,
      "ṇ": 1513,
      "ṉ": 1514,
      "ṍ": 1515,
      "ṕ": 1516,
      "ṙ": 1517,
      "ṛ": 1518,
      "ṟ": 1519,
      "ṡ": 1520,
      "Ṣ": 1521,
      "ṣ": 1522,
      "ṫ": 1523,
      "Ṭ": 1524,
      "ṭ": 1525,
      "Ṯ": 1526,
      "ṯ": 1527,
      "ṷ": 1528,
      "ẁ": 1529,
      "ẃ": 1530,
      "ẉ": 1531,
      "Ẓ": 1532,
      "ẓ": 1533,
      "Ạ": 1534,
      "ạ": 1535,
      "ả": 1536,
      "ấ": 1537,
      "ầ": 1538,
      "ẵ": 1539,
      "Ẹ": 1540,
      "ẹ": 1541,
      "ẽ": 1542,
      "ế": 1543,
      "ề": 1544,
      "ể": 1545,
      "ễ": 1546,
      "ệ": 1547,
      "ỉ": 1548,
      "Ị": 1549,
      "ị": 1550,
      "Ọ": 1551,
      "ọ": 1552,
      "ố": 1553,
      "ồ": 1554,
      "ộ": 1555,
      "ớ": 1556,
      "ờ": 1557,
      "ở": 1558,
      "Ợ": 1559,
      "ợ": 1560,
      "Ụ": 1561,
      "ụ": 1562,
      "ủ": 1563,
      "ữ": 1564,
      "ỳ": 1565,
      "ỵ": 1566,
      "ỷ": 1567,
      "ἀ": 1568,
      "ἁ": 1569,
      "ἄ": 1570,
      "ἅ": 1571,
      "Ἀ": 1572,
      "Ἁ": 1573,
      "Ἄ": 1574,
      "Ἅ": 1575,
      "ἐ": 1576,
      "ἑ": 1577,
      "ἒ": 1578,
      "ἔ": 1579,
      "ἕ": 1580,
      "Ἐ": 1581,
      "Ἔ": 1582,
      "ἠ": 1583,
      "ἡ": 1584,
      "ἤ": 1585,
      "ἥ": 1586,
      "Ἡ": 1587,
      "ἰ": 1588,
      "ἱ": 1589,
      "ἴ": 1590,
      "Ἰ": 1591,
      "Ἱ": 1592,
      "Ἴ": 1593,
      "Ἵ": 1594,
      "ὀ": 1595,
      "ὁ": 1596,
      "ὄ": 1597,
      "Ὀ": 1598,
      "ὐ": 1599,
      "ὑ": 1600,
      "Ὑ": 1601,
      "ὥ": 1602,
      "ὰ": 1603,
      "ὴ": 1604,
      "ὶ": 1605,
      "ὸ": 1606,
      "ᾱ": 1607,
      "ᾶ": 1608,
      "᾽": 1609,
      "ῃ": 1610,
      "ῆ": 1611,
      "ῖ": 1612,
      "ῦ": 1613,
      "Ῥ": 1614,
      "ῶ": 1615,
      "​": 1616,
      "‌": 1617,
      "‍": 1618,
      "‎": 1619,
      "‏": 1620,
      "‐": 1621,
      "‑": 1622,
      "–": 1623,
      "—": 1624,
      "―": 1625,
      "‘": 1626,
      "’": 1627,
      "‛": 1628,
      "“": 1629,
      "”": 1630,
      "„": 1631,
      "‟": 1632,
      "†": 1633,
      "•": 1634,
      "…": 1635,
      "‧": 1636,
      "‬": 1637,
      "′": 1638,
      "″": 1639,
      "‹": 1640,
      "›": 1641,
      "‿": 1642,
      "⁂": 1643,
      "⁄": 1644,
      "⁠": 1645,
      "⁣": 1646,
      "ⁿ": 1647,
      "₂": 1648,
      "₦": 1649,
      "₨": 1650,
      "₫": 1651,
      "€": 1652,
      "₮": 1653,
      "₿": 1654,
      "⃣": 1655,
      "℅": 1656,
      "ℑ": 1657,
      "ℓ": 1658,
      "ℕ": 1659,
      "ℜ": 1660,
      "ℝ": 1661,
      "™": 1662,
      "ℤ": 1663,
      "⅓": 1664,
      "⅔": 1665,
      "←": 1666,
      "↑": 1667,
      "→": 1668,
      "↔": 1669,
      "↵": 1670,
      "⇒": 1671,
      "⇔": 1672,
      "∀": 1673,
      "∅": 1674,
      "∆": 1675,
      "∈": 1676,
      "∉": 1677,
      "∑": 1678,
      "−": 1679,
      "∗": 1680,
      "√": 1681,
      "∝": 1682,
      "∞": 1683,
      "∧": 1684,
      "∨": 1685,
      "∪": 1686,
      "∴": 1687,
      "∷": 1688,
      "≈": 1689,
      "≠": 1690,
      "≡": 1691,
      "≤": 1692,
      "≥": 1693,
      "⊂": 1694,
      "⊆": 1695,
      "⊇": 1696,
      "⊊": 1697,
      "⊕": 1698,
      "⋅": 1699,
      "⋔": 1700,
      "⋯": 1701,
      "▀": 1702,
      "▂": 1703,
      "▄": 1704,
      "█": 1705,
      "░": 1706,
      "▶": 1707,
      "◌": 1708,
      "●": 1709,
      "★": 1710,
      "☆": 1711,
      "☔": 1712,
      "☜": 1713,
      "☞": 1714,
      "☪": 1715,
      "♒": 1716,
      "♥": 1717,
      "♦": 1718,
      "✅": 1719,
      "✈": 1720,
      "✍": 1721,
      "✓": 1722,
      "✞": 1723,
      "✳": 1724,
      "❀": 1725,
      "❌": 1726,
      "❖": 1727,
      "➞": 1728,
      "⟨": 1729,
      "⟩": 1730,
      "⢁": 1731,
      "⣴": 1732,
      "⣿": 1733,
      "ⲇ": 1734,
      "ⲓ": 1735,
      "ⲡ": 1736,
      "ⴰ": 1737,
      "ⴱ": 1738,
      "ⴳ": 1739,
      "ⴷ": 1740,
      "ⴻ": 1741,
      "ⴼ": 1742,
      "ⵉ": 1743,
      "ⵍ": 1744,
      "ⵎ": 1745,
      "ⵏ": 1746,
      "ⵓ": 1747,
      "ⵔ": 1748,
      "ⵖ": 1749,
      "ⵙ": 1750,
      "ⵜ": 1751,
      "ⵢ": 1752,
      "ⵣ": 1753,
      "、": 1754,
      "。": 1755,
      "「": 1756,
      "」": 1757,
      "【": 1758,
      "】": 1759,
      "あ": 1760,
      "い": 1761,
      "う": 1762,
      "え": 1763,
      "お": 1764,
      "か": 1765,
      "が": 1766,
      "き": 1767,
      "く": 1768,
      "け": 1769,
      "こ": 1770,
      "ご": 1771,
      "さ": 1772,
      "し": 1773,
      "じ": 1774,
      "す": 1775,
      "せ": 1776,
      "そ": 1777,
      "た": 1778,
      "だ": 1779,
      "ち": 1780,
      "つ": 1781,
      "で": 1782,
      "と": 1783,
      "な": 1784,
      "に": 1785,
      "の": 1786,
      "は": 1787,
      "ひ": 1788,
      "び": 1789,
      "ふ": 1790,
      "ぷ": 1791,
      "べ": 1792,
      "ほ": 1793,
      "ま": 1794,
      "み": 1795,
      "も": 1796,
      "ょ": 1797,
      "よ": 1798,
      "ら": 1799,
      "り": 1800,
      "る": 1801,
      "れ": 1802,
      "わ": 1803,
      "を": 1804,
      "ん": 1805,
      "ア": 1806,
      "ィ": 1807,
      "イ": 1808,
      "ゥ": 1809,
      "ウ": 1810,
      "エ": 1811,
      "オ": 1812,
      "カ": 1813,
      "ガ": 1814,
      "キ": 1815,
      "ギ": 1816,
      "ク": 1817,
      "グ": 1818,
      "ケ": 1819,
      "コ": 1820,
      "ゴ": 1821,
      "サ": 1822,
      "ザ": 1823,
      "シ": 1824,
      "ジ": 1825,
      "ス": 1826,
      "ズ": 1827,
      "セ": 1828,
      "ゼ": 1829,
      "ソ": 1830,
      "タ": 1831,
      "ダ": 1832,
      "チ": 1833,
      "ッ": 1834,
      "ツ": 1835,
      "テ": 1836,
      "ト": 1837,
      "ド": 1838,
      "ナ": 1839,
      "ニ": 1840,
      "ネ": 1841,
      "ハ": 1842,
      "バ": 1843,
      "パ": 1844,
      "ヒ": 1845,
      "ビ": 1846,
      "ピ": 1847,
      "フ": 1848,
      "ブ": 1849,
      "プ": 1850,
      "ベ": 1851,
      "ボ": 1852,
      "ポ": 1853,
      "マ": 1854,
      "ム": 1855,
      "メ": 1856,
      "モ": 1857,
      "ヤ": 1858,
      "ョ": 1859,
      "ヨ": 1860,
      "ラ": 1861,
      "リ": 1862,
      "ル": 1863,
      "レ": 1864,
      "ロ": 1865,
      "ワ": 1866,
      "ン": 1867,
      "・": 1868,
      "ー": 1869,
      "ㄱ": 1870,
      "ㄷ": 1871,
      "ㄹ": 1872,
      "ㅂ": 1873,
      "ㅇ": 1874,
      "ㅈ": 1875,
      "一": 1876,
      "丁": 1877,
      "七": 1878,
      "万": 1879,
      "三": 1880,
      "上": 1881,
      "下": 1882,
      "不": 1883,
      "与": 1884,
      "专": 1885,
      "世": 1886,
      "东": 1887,
      "两": 1888,
      "严": 1889,
      "中": 1890,
      "丰": 1891,
      "丹": 1892,
      "主": 1893,
      "义": 1894,
      "之": 1895,
      "乌": 1896,
      "九": 1897,
      "书": 1898,
      "争": 1899,
      "事": 1900,
      "二": 1901,
      "云": 1902,
      "五": 1903,
      "亚": 1904,
      "亜": 1905,
      "京": 1906,
      "人": 1907,
      "仁": 1908,
      "今": 1909,
      "仏": 1910,
      "仙": 1911,
      "代": 1912,
      "令": 1913,
      "仲": 1914,
      "任": 1915,
      "伊": 1916,
      "伍": 1917,
      "伏": 1918,
      "会": 1919,
      "伝": 1920,
      "伟": 1921,
      "伦": 1922,
      "伯": 1923,
      "体": 1924,
      "何": 1925,
      "作": 1926,
      "佺": 1927,
      "例": 1928,
      "供": 1929,
      "侠": 1930,
      "俊": 1931,
      "信": 1932,
      "們": 1933,
      "倫": 1934,
      "健": 1935,
      "偶": 1936,
      "偿": 1937,
      "傳": 1938,
      "儒": 1939,
      "儿": 1940,
      "兄": 1941,
      "兆": 1942,
      "光": 1943,
      "兎": 1944,
      "兒": 1945,
      "兖": 1946,
      "全": 1947,
      "八": 1948,
      "公": 1949,
      "六": 1950,
      "兰": 1951,
      "共": 1952,
      "内": 1953,
      "円": 1954,
      "写": 1955,
      "农": 1956,
      "分": 1957,
      "刑": 1958,
      "列": 1959,
      "刘": 1960,
      "判": 1961,
      "利": 1962,
      "剌": 1963,
      "剑": 1964,
      "剛": 1965,
      "剣": 1966,
      "劉": 1967,
      "办": 1968,
      "加": 1969,
      "务": 1970,
      "労": 1971,
      "勉": 1972,
      "勤": 1973,
      "包": 1974,
      "化": 1975,
      "北": 1976,
      "匠": 1977,
      "匡": 1978,
      "十": 1979,
      "华": 1980,
      "南": 1981,
      "博": 1982,
      "印": 1983,
      "原": 1984,
      "厦": 1985,
      "参": 1986,
      "友": 1987,
      "双": 1988,
      "发": 1989,
      "取": 1990,
      "口": 1991,
      "古": 1992,
      "只": 1993,
      "可": 1994,
      "台": 1995,
      "史": 1996,
      "叶": 1997,
      "司": 1998,
      "各": 1999,
      "合": 2000,
      "吉": 2001,
      "同": 2002,
      "名": 2003,
      "向": 2004,
      "君": 2005,
      "吠": 2006,
      "启": 2007,
      "吳": 2008,
      "吴": 2009,
      "员": 2010,
      "周": 2011,
      "和": 2012,
      "品": 2013,
      "哈": 2014,
      "哥": 2015,
      "哲": 2016,
      "商": 2017,
      "善": 2018,
      "喋": 2019,
      "喾": 2020,
      "嚴": 2021,
      "四": 2022,
      "団": 2023,
      "国": 2024,
      "國": 2025,
      "園": 2026,
      "土": 2027,
      "在": 2028,
      "地": 2029,
      "坊": 2030,
      "坎": 2031,
      "垒": 2032,
      "城": 2033,
      "執": 2034,
      "基": 2035,
      "堂": 2036,
      "堅": 2037,
      "塔": 2038,
      "塞": 2039,
      "墨": 2040,
      "壁": 2041,
      "士": 2042,
      "壬": 2043,
      "处": 2044,
      "复": 2045,
      "外": 2046,
      "夜": 2047,
      "夢": 2048,
      "大": 2049,
      "天": 2050,
      "太": 2051,
      "夫": 2052,
      "头": 2053,
      "奈": 2054,
      "女": 2055,
      "好": 2056,
      "如": 2057,
      "妹": 2058,
      "始": 2059,
      "姜": 2060,
      "威": 2061,
      "娃": 2062,
      "婉": 2063,
      "婷": 2064,
      "嫩": 2065,
      "嬴": 2066,
      "子": 2067,
      "孔": 2068,
      "字": 2069,
      "孙": 2070,
      "季": 2071,
      "学": 2072,
      "孫": 2073,
      "宁": 2074,
      "宇": 2075,
      "安": 2076,
      "宋": 2077,
      "宗": 2078,
      "官": 2079,
      "宜": 2080,
      "宝": 2081,
      "客": 2082,
      "宣": 2083,
      "宮": 2084,
      "家": 2085,
      "密": 2086,
      "富": 2087,
      "寒": 2088,
      "寧": 2089,
      "射": 2090,
      "尊": 2091,
      "小": 2092,
      "少": 2093,
      "尔": 2094,
      "尧": 2095,
      "尹": 2096,
      "尼": 2097,
      "居": 2098,
      "屋": 2099,
      "屬": 2100,
      "山": 2101,
      "岛": 2102,
      "岢": 2103,
      "峯": 2104,
      "峰": 2105,
      "島": 2106,
      "崎": 2107,
      "川": 2108,
      "州": 2109,
      "己": 2110,
      "巴": 2111,
      "市": 2112,
      "布": 2113,
      "师": 2114,
      "希": 2115,
      "帝": 2116,
      "帶": 2117,
      "常": 2118,
      "幌": 2119,
      "平": 2120,
      "年": 2121,
      "广": 2122,
      "庄": 2123,
      "庆": 2124,
      "庖": 2125,
      "庚": 2126,
      "庠": 2127,
      "度": 2128,
      "庭": 2129,
      "康": 2130,
      "廑": 2131,
      "延": 2132,
      "建": 2133,
      "弗": 2134,
      "张": 2135,
      "張": 2136,
      "強": 2137,
      "弾": 2138,
      "归": 2139,
      "彩": 2140,
      "彼": 2141,
      "徐": 2142,
      "得": 2143,
      "御": 2144,
      "復": 2145,
      "徳": 2146,
      "德": 2147,
      "徽": 2148,
      "心": 2149,
      "志": 2150,
      "念": 2151,
      "性": 2152,
      "怪": 2153,
      "总": 2154,
      "恆": 2155,
      "恨": 2156,
      "恩": 2157,
      "您": 2158,
      "情": 2159,
      "想": 2160,
      "愈": 2161,
      "意": 2162,
      "愛": 2163,
      "感": 2164,
      "憲": 2165,
      "成": 2166,
      "我": 2167,
      "戦": 2168,
      "所": 2169,
      "扃": 2170,
      "手": 2171,
      "才": 2172,
      "托": 2173,
      "批": 2174,
      "承": 2175,
      "拓": 2176,
      "拳": 2177,
      "拾": 2178,
      "指": 2179,
      "挺": 2180,
      "据": 2181,
      "探": 2182,
      "摩": 2183,
      "操": 2184,
      "改": 2185,
      "政": 2186,
      "敏": 2187,
      "教": 2188,
      "敬": 2189,
      "數": 2190,
      "文": 2191,
      "斎": 2192,
      "斬": 2193,
      "斯": 2194,
      "新": 2195,
      "方": 2196,
      "旅": 2197,
      "旗": 2198,
      "无": 2199,
      "日": 2200,
      "旧": 2201,
      "早": 2202,
      "时": 2203,
      "昆": 2204,
      "昊": 2205,
      "昌": 2206,
      "明": 2207,
      "星": 2208,
      "映": 2209,
      "春": 2210,
      "昭": 2211,
      "時": 2212,
      "晏": 2213,
      "晓": 2214,
      "景": 2215,
      "暂": 2216,
      "曜": 2217,
      "書": 2218,
      "曹": 2219,
      "替": 2220,
      "月": 2221,
      "望": 2222,
      "朝": 2223,
      "期": 2224,
      "木": 2225,
      "未": 2226,
      "本": 2227,
      "札": 2228,
      "朱": 2229,
      "朴": 2230,
      "李": 2231,
      "杜": 2232,
      "条": 2233,
      "杭": 2234,
      "東": 2235,
      "杵": 2236,
      "林": 2237,
      "柏": 2238,
      "柔": 2239,
      "查": 2240,
      "柳": 2241,
      "树": 2242,
      "校": 2243,
      "格": 2244,
      "桀": 2245,
      "桂": 2246,
      "梅": 2247,
      "检": 2248,
      "棚": 2249,
      "棠": 2250,
      "森": 2251,
      "植": 2252,
      "楊": 2253,
      "楚": 2254,
      "楠": 2255,
      "極": 2256,
      "構": 2257,
      "槐": 2258,
      "樂": 2259,
      "樊": 2260,
      "横": 2261,
      "樹": 2262,
      "橋": 2263,
      "橙": 2264,
      "機": 2265,
      "欧": 2266,
      "欽": 2267,
      "歌": 2268,
      "正": 2269,
      "武": 2270,
      "歴": 2271,
      "死": 2272,
      "殖": 2273,
      "段": 2274,
      "殺": 2275,
      "母": 2276,
      "毛": 2277,
      "民": 2278,
      "気": 2279,
      "水": 2280,
      "永": 2281,
      "汉": 2282,
      "汕": 2283,
      "江": 2284,
      "池": 2285,
      "沃": 2286,
      "沈": 2287,
      "沙": 2288,
      "沟": 2289,
      "沪": 2290,
      "河": 2291,
      "泄": 2292,
      "泉": 2293,
      "法": 2294,
      "波": 2295,
      "泥": 2296,
      "泪": 2297,
      "泰": 2298,
      "泽": 2299,
      "洋": 2300,
      "津": 2301,
      "洲": 2302,
      "流": 2303,
      "济": 2304,
      "浙": 2305,
      "浦": 2306,
      "浩": 2307,
      "海": 2308,
      "涿": 2309,
      "淄": 2310,
      "深": 2311,
      "添": 2312,
      "渡": 2313,
      "渤": 2314,
      "温": 2315,
      "港": 2316,
      "湖": 2317,
      "湘": 2318,
      "湛": 2319,
      "湯": 2320,
      "湾": 2321,
      "滑": 2322,
      "滨": 2323,
      "漢": 2324,
      "漪": 2325,
      "漳": 2326,
      "潮": 2327,
      "潽": 2328,
      "澎": 2329,
      "澤": 2330,
      "澳": 2331,
      "濠": 2332,
      "火": 2333,
      "灵": 2334,
      "炎": 2335,
      "為": 2336,
      "烟": 2337,
      "無": 2338,
      "焦": 2339,
      "然": 2340,
      "煐": 2341,
      "煞": 2342,
      "照": 2343,
      "熊": 2344,
      "熱": 2345,
      "燕": 2346,
      "爱": 2347,
      "父": 2348,
      "爾": 2349,
      "牛": 2350,
      "牟": 2351,
      "物": 2352,
      "牺": 2353,
      "犀": 2354,
      "犬": 2355,
      "独": 2356,
      "猪": 2357,
      "猫": 2358,
      "猿": 2359,
      "玉": 2360,
      "王": 2361,
      "现": 2362,
      "玲": 2363,
      "珊": 2364,
      "珍": 2365,
      "現": 2366,
      "球": 2367,
      "理": 2368,
      "琪": 2369,
      "瑟": 2370,
      "璠": 2371,
      "璧": 2372,
      "環": 2373,
      "瓔": 2374,
      "瓦": 2375,
      "甘": 2376,
      "生": 2377,
      "産": 2378,
      "用": 2379,
      "甫": 2380,
      "甬": 2381,
      "田": 2382,
      "甲": 2383,
      "男": 2384,
      "画": 2385,
      "略": 2386,
      "當": 2387,
      "疆": 2388,
      "疏": 2389,
      "登": 2390,
      "白": 2391,
      "的": 2392,
      "皇": 2393,
      "皋": 2394,
      "皖": 2395,
      "盆": 2396,
      "盛": 2397,
      "盧": 2398,
      "目": 2399,
      "直": 2400,
      "相": 2401,
      "真": 2402,
      "石": 2403,
      "磁": 2404,
      "礼": 2405,
      "祖": 2406,
      "神": 2407,
      "祥": 2408,
      "票": 2409,
      "福": 2410,
      "禦": 2411,
      "禮": 2412,
      "秀": 2413,
      "私": 2414,
      "秋": 2415,
      "科": 2416,
      "秘": 2417,
      "秦": 2418,
      "稽": 2419,
      "空": 2420,
      "立": 2421,
      "章": 2422,
      "竹": 2423,
      "笑": 2424,
      "第": 2425,
      "筆": 2426,
      "策": 2427,
      "節": 2428,
      "篇": 2429,
      "米": 2430,
      "粤": 2431,
      "粵": 2432,
      "精": 2433,
      "約": 2434,
      "素": 2435,
      "細": 2436,
      "統": 2437,
      "經": 2438,
      "綺": 2439,
      "綽": 2440,
      "総": 2441,
      "緑": 2442,
      "縞": 2443,
      "约": 2444,
      "纪": 2445,
      "纵": 2446,
      "线": 2447,
      "统": 2448,
      "罗": 2449,
      "罚": 2450,
      "罪": 2451,
      "羅": 2452,
      "羊": 2453,
      "美": 2454,
      "群": 2455,
      "義": 2456,
      "羲": 2457,
      "羽": 2458,
      "翊": 2459,
      "耀": 2460,
      "老": 2461,
      "考": 2462,
      "耆": 2463,
      "耳": 2464,
      "聿": 2465,
      "肃": 2466,
      "肉": 2467,
      "肖": 2468,
      "肥": 2469,
      "育": 2470,
      "胆": 2471,
      "胶": 2472,
      "臘": 2473,
      "自": 2474,
      "舒": 2475,
      "舜": 2476,
      "船": 2477,
      "色": 2478,
      "艸": 2479,
      "节": 2480,
      "芜": 2481,
      "芬": 2482,
      "花": 2483,
      "芳": 2484,
      "苏": 2485,
      "苓": 2486,
      "英": 2487,
      "茂": 2488,
      "茶": 2489,
      "草": 2490,
      "荣": 2491,
      "莆": 2492,
      "莱": 2493,
      "華": 2494,
      "菲": 2495,
      "营": 2496,
      "萧": 2497,
      "葛": 2498,
      "蒲": 2499,
      "蓝": 2500,
      "蓟": 2501,
      "蓮": 2502,
      "蔡": 2503,
      "蕭": 2504,
      "薇": 2505,
      "藏": 2506,
      "蘭": 2507,
      "虎": 2508,
      "虫": 2509,
      "蛇": 2510,
      "蝴": 2511,
      "蝶": 2512,
      "蠻": 2513,
      "血": 2514,
      "衆": 2515,
      "行": 2516,
      "術": 2517,
      "街": 2518,
      "表": 2519,
      "裁": 2520,
      "西": 2521,
      "覧": 2522,
      "親": 2523,
      "觀": 2524,
      "記": 2525,
      "許": 2526,
      "詩": 2527,
      "話": 2528,
      "誕": 2529,
      "語": 2530,
      "説": 2531,
      "論": 2532,
      "謎": 2533,
      "謝": 2534,
      "謹": 2535,
      "譚": 2536,
      "让": 2537,
      "议": 2538,
      "话": 2539,
      "语": 2540,
      "诸": 2541,
      "谭": 2542,
      "豚": 2543,
      "象": 2544,
      "豢": 2545,
      "豪": 2546,
      "貝": 2547,
      "貫": 2548,
      "買": 2549,
      "賈": 2550,
      "贵": 2551,
      "贾": 2552,
      "赔": 2553,
      "赣": 2554,
      "赤": 2555,
      "趙": 2556,
      "跆": 2557,
      "跡": 2558,
      "路": 2559,
      "身": 2560,
      "軍": 2561,
      "轮": 2562,
      "轼": 2563,
      "辛": 2564,
      "辣": 2565,
      "農": 2566,
      "辽": 2567,
      "达": 2568,
      "运": 2569,
      "远": 2570,
      "迦": 2571,
      "迪": 2572,
      "通": 2573,
      "連": 2574,
      "逸": 2575,
      "道": 2576,
      "達": 2577,
      "遷": 2578,
      "邦": 2579,
      "邯": 2580,
      "郎": 2581,
      "郑": 2582,
      "部": 2583,
      "郭": 2584,
      "郷": 2585,
      "都": 2586,
      "酒": 2587,
      "重": 2588,
      "野": 2589,
      "金": 2590,
      "鉉": 2591,
      "銀": 2592,
      "銘": 2593,
      "錯": 2594,
      "鏡": 2595,
      "鐵": 2596,
      "钱": 2597,
      "铁": 2598,
      "铜": 2599,
      "锦": 2600,
      "镜": 2601,
      "長": 2602,
      "长": 2603,
      "門": 2604,
      "閔": 2605,
      "门": 2606,
      "间": 2607,
      "阪": 2608,
      "阳": 2609,
      "阵": 2610,
      "阿": 2611,
      "陀": 2612,
      "陇": 2613,
      "陈": 2614,
      "降": 2615,
      "陕": 2616,
      "陛": 2617,
      "陰": 2618,
      "陸": 2619,
      "陽": 2620,
      "隆": 2621,
      "際": 2622,
      "雄": 2623,
      "雅": 2624,
      "集": 2625,
      "雍": 2626,
      "雙": 2627,
      "雨": 2628,
      "雪": 2629,
      "雯": 2630,
      "雲": 2631,
      "雷": 2632,
      "霑": 2633,
      "露": 2634,
      "青": 2635,
      "非": 2636,
      "面": 2637,
      "韓": 2638,
      "韜": 2639,
      "韦": 2640,
      "韩": 2641,
      "韶": 2642,
      "順": 2643,
      "頊": 2644,
      "領": 2645,
      "顓": 2646,
      "顺": 2647,
      "顿": 2648,
      "風": 2649,
      "食": 2650,
      "飲": 2651,
      "飾": 2652,
      "首": 2653,
      "香": 2654,
      "馬": 2655,
      "騎": 2656,
      "騏": 2657,
      "马": 2658,
      "高": 2659,
      "魂": 2660,
      "魏": 2661,
      "魚": 2662,
      "鮮": 2663,
      "鰐": 2664,
      "鱷": 2665,
      "鳥": 2666,
      "鶏": 2667,
      "鷗": 2668,
      "鹰": 2669,
      "鹿": 2670,
      "麒": 2671,
      "麟": 2672,
      "麻": 2673,
      "黃": 2674,
      "黄": 2675,
      "黎": 2676,
      "黑": 2677,
      "黒": 2678,
      "黔": 2679,
      "黙": 2680,
      "鼠": 2681,
      "齊": 2682,
      "齐": 2683,
      "龍": 2684,
      "龙": 2685,
      "龜": 2686,
      "ꜜ": 2687,
      "ꜣ": 2688,
      "Ꜹ": 2689,
      "가": 2690,
      "감": 2691,
      "강": 2692,
      "갱": 2693,
      "건": 2694,
      "게": 2695,
      "견": 2696,
      "경": 2697,
      "계": 2698,
      "고": 2699,
      "곱": 2700,
      "공": 2701,
      "과": 2702,
      "교": 2703,
      "구": 2704,
      "국": 2705,
      "군": 2706,
      "그": 2707,
      "글": 2708,
      "금": 2709,
      "기": 2710,
      "까": 2711,
      "깨": 2712,
      "꽃": 2713,
      "끼": 2714,
      "나": 2715,
      "남": 2716,
      "내": 2717,
      "너": 2718,
      "네": 2719,
      "넷": 2720,
      "녁": 2721,
      "년": 2722,
      "념": 2723,
      "녕": 2724,
      "노": 2725,
      "누": 2726,
      "눈": 2727,
      "뉴": 2728,
      "느": 2729,
      "는": 2730,
      "니": 2731,
      "님": 2732,
      "다": 2733,
      "닦": 2734,
      "달": 2735,
      "당": 2736,
      "대": 2737,
      "덟": 2738,
      "도": 2739,
      "독": 2740,
      "동": 2741,
      "되": 2742,
      "둘": 2743,
      "드": 2744,
      "든": 2745,
      "들": 2746,
      "디": 2747,
      "라": 2748,
      "람": 2749,
      "랑": 2750,
      "래": 2751,
      "러": 2752,
      "레": 2753,
      "로": 2754,
      "록": 2755,
      "룡": 2756,
      "루": 2757,
      "르": 2758,
      "륵": 2759,
      "른": 2760,
      "를": 2761,
      "리": 2762,
      "립": 2763,
      "마": 2764,
      "만": 2765,
      "말": 2766,
      "맙": 2767,
      "망": 2768,
      "매": 2769,
      "메": 2770,
      "면": 2771,
      "명": 2772,
      "모": 2773,
      "목": 2774,
      "무": 2775,
      "문": 2776,
      "물": 2777,
      "미": 2778,
      "민": 2779,
      "바": 2780,
      "박": 2781,
      "반": 2782,
      "발": 2783,
      "방": 2784,
      "백": 2785,
      "베": 2786,
      "별": 2787,
      "보": 2788,
      "본": 2789,
      "부": 2790,
      "북": 2791,
      "불": 2792,
      "비": 2793,
      "빨": 2794,
      "사": 2795,
      "삭": 2796,
      "산": 2797,
      "삼": 2798,
      "상": 2799,
      "생": 2800,
      "서": 2801,
      "석": 2802,
      "선": 2803,
      "설": 2804,
      "섯": 2805,
      "성": 2806,
      "세": 2807,
      "셋": 2808,
      "셰": 2809,
      "소": 2810,
      "송": 2811,
      "수": 2812,
      "순": 2813,
      "쉰": 2814,
      "스": 2815,
      "습": 2816,
      "시": 2817,
      "식": 2818,
      "신": 2819,
      "십": 2820,
      "쌀": 2821,
      "아": 2822,
      "안": 2823,
      "애": 2824,
      "야": 2825,
      "양": 2826,
      "어": 2827,
      "에": 2828,
      "여": 2829,
      "연": 2830,
      "열": 2831,
      "영": 2832,
      "예": 2833,
      "오": 2834,
      "온": 2835,
      "요": 2836,
      "우": 2837,
      "운": 2838,
      "울": 2839,
      "월": 2840,
      "위": 2841,
      "유": 2842,
      "육": 2843,
      "윤": 2844,
      "율": 2845,
      "은": 2846,
      "을": 2847,
      "음": 2848,
      "의": 2849,
      "이": 2850,
      "인": 2851,
      "일": 2852,
      "잉": 2853,
      "자": 2854,
      "작": 2855,
      "장": 2856,
      "재": 2857,
      "저": 2858,
      "적": 2859,
      "전": 2860,
      "점": 2861,
      "제": 2862,
      "조": 2863,
      "존": 2864,
      "죄": 2865,
      "죠": 2866,
      "주": 2867,
      "죽": 2868,
      "중": 2869,
      "즈": 2870,
      "즘": 2871,
      "지": 2872,
      "직": 2873,
      "징": 2874,
      "차": 2875,
      "참": 2876,
      "천": 2877,
      "철": 2878,
      "청": 2879,
      "체": 2880,
      "총": 2881,
      "축": 2882,
      "치": 2883,
      "친": 2884,
      "칠": 2885,
      "카": 2886,
      "칸": 2887,
      "커": 2888,
      "코": 2889,
      "쿄": 2890,
      "크": 2891,
      "키": 2892,
      "탄": 2893,
      "탕": 2894,
      "터": 2895,
      "토": 2896,
      "투": 2897,
      "트": 2898,
      "특": 2899,
      "티": 2900,
      "파": 2901,
      "팔": 2902,
      "페": 2903,
      "평": 2904,
      "폐": 2905,
      "포": 2906,
      "프": 2907,
      "피": 2908,
      "하": 2909,
      "한": 2910,
      "할": 2911,
      "합": 2912,
      "해": 2913,
      "향": 2914,
      "헌": 2915,
      "현": 2916,
      "형": 2917,
      "호": 2918,
      "혼": 2919,
      "홉": 2920,
      "화": 2921,
      "활": 2922,
      "흔": 2923,
      "희": 2924,
      "히": 2925,
      "": 2926,
      "": 2927,
      "": 2928,
      "": 2929,
      "ﷲ": 2930,
      "ﷺ": 2931,
      "︎": 2932,
      "️": 2933,
      "ﺀ": 2934,
      "ﺍ": 2935,
      "ﺎ": 2936,
      "ﺏ": 2937,
      "ﺐ": 2938,
      "ﺑ": 2939,
      "ﺞ": 2940,
      "ﺡ": 2941,
      "ﺩ": 2942,
      "ﺮ": 2943,
      "ﺯ": 2944,
      "ﺷ": 2945,
      "ﺼ": 2946,
      "ﺽ": 2947,
      "ﻄ": 2948,
      "ﻋ": 2949,
      "ﻓ": 2950,
      "ﻗ": 2951,
      "ﻟ": 2952,
      "ﻠ": 2953,
      "ﻤ": 2954,
      "ﻥ": 2955,
      "ﻧ": 2956,
      "ﻬ": 2957,
      "ﻲ": 2958,
      "ﻳ": 2959,
      "ﻴ": 2960,
      "﻿": 2961,
      "（": 2962,
      "）": 2963,
      "，": 2964,
      "／": 2965,
      "：": 2966,
      "；": 2967,
      "？": 2968,
      "Ｚ": 2969,
      "～": 2970,
      "￼": 2971,
      "�": 2972,
      "𐌌": 2973,
      "𐌐": 2974,
      "𐌑": 2975,
      "𐌚": 2976,
      "𐌠": 2977,
      "𐌡": 2978,
      "𐌢": 2979,
      "𐎢": 2980,
      "𐎤": 2981,
      "𐎽": 2982,
      "𐏁": 2983,
      "𐤀": 2984,
      "𐤁": 2985,
      "𐤃": 2986,
      "𐤊": 2987,
      "𐤋": 2988,
      "𐤌": 2989,
      "𐤍": 2990,
      "𐤏": 2991,
      "𐤔": 2992,
      "𐦡": 2993,
      "𐦲": 2994,
      "𐦴": 2995,
      "𐦷": 2996,
      "𒄀": 2997,
      "𒅗": 2998,
      "𒈾": 2999,
      "𒌷": 3000,
      "𓅓": 3001,
      "𓅖": 3002,
      "𓆎": 3003,
      "𓇌": 3004,
      "𓊖": 3005,
      "𓎡": 3006,
      "𓏏": 3007,
      "𓏛": 3008,
      "𝘢": 3009,
      "𝘦": 3010,
      "𝘪": 3011,
      "𝘭": 3012,
      "𝘰": 3013,
      "𝘱": 3014,
      "𞤢": 3015,
      "𞤣": 3016,
      "𞤤": 3017,
      "𞤦": 3018,
      "𞤪": 3019,
      "𞤫": 3020,
      "𞤭": 3021,
      "𞤳": 3022,
      "𞤴": 3023,
      "𞤵": 3024,
      "𞤷": 3025,
      "𞤼": 3026,
      "𞥅": 3027,
      "𞥆": 3028,
      "🌼": 3029,
      "🌿": 3030,
      "🍁": 3031,
      "🍃": 3032,
      "🏿": 3033,
      "💐": 3034,
      "💟": 3035,
      "💥": 3036,
      "💫": 3037,
      "📌": 3038,
      "📚": 3039,
      "📝": 3040,
      "🔸": 3041,
      "🔹": 3042,
      "😨": 3043,
      "🙏": 3044,
      "an": 3045,
      "ar": 3046,
      "in": 3047,
      "wa": 3048,
      "on": 3049,
      "er": 3050,
      "en": 3051,
      "ka": 3052,
      "ti": 3053,
      "ya": 3054,
      "da": 3055,
      "ta": 3056,
      "ma": 3057,
      "es": 3058,
      "li": 3059,
      "un": 3060,
      "la": 3061,
      "is": 3062,
      "he": 3063,
      "or": 3064,
      "le": 3065,
      "ba": 3066,
      "na": 3067,
      "ku": 3068,
      "ha": 3069,
      "de": 3070,
      "sa": 3071,
      "ur": 3072,
      "to": 3073,
      "hi": 3074,
      "si": 3075,
      "re": 3076,
      "ki": 3077,
      "te": 3078,
      "ni": 3079,
      "al": 3080,
      "19": 3081,
      "di": 3082,
      "ri": 3083,
      "ga": 3084,
      "ra": 3085,
      "the": 3086,
      "mi": 3087,
      "of": 3088,
      "us": 3089,
      "ẹ̀": 3090,
      "ci": 3091,
      "bi": 3092,
      "ce": 3093,
      "ara": 3094,
      "om": 3095,
      "za": 3096,
      "wọ": 3097,
      "20": 3098,
      "ẹ́": 3099,
      "ana": 3100,
      "gb": 3101,
      "as": 3102,
      "and": 3103,
      "ent": 3104,
      "fi": 3105,
      "ke": 3106,
      "ol": 3107,
      "th": 3108,
      "ani": 3109,
      "tion": 3110,
      "ní": 3111,
      "ing": 3112,
      "ro": 3113,
      "ch": 3114,
      "am": 3115,
      "ne": 3116,
      "ji": 3117,
      "ko": 3118,
      "el": 3119,
      "qu": 3120,
      "ari": 3121,
      "ọ́": 3122,
      "wọn": 3123,
      "et": 3124,
      "su": 3125,
      "il": 3126,
      "tu": 3127,
      "me": 3128,
      "du": 3129,
      "se": 3130,
      "Ma": 3131,
      "mu": 3132,
      "kin": 3133,
      "pa": 3134,
      "gi": 3135,
      "lo": 3136,
      "fa": 3137,
      "po": 3138,
      "እን": 3139,
      "ali": 3140,
      "tí": 3141,
      "ọ̀": 3142,
      "bu": 3143,
      "ነው": 3144,
      "eri": 3145,
      "ina": 3146,
      "au": 3147,
      "zi": 3148,
      "ún": 3149,
      "kan": 3150,
      "kar": 3151,
      "sh": 3152,
      "kwa": 3153,
      "ou": 3154,
      "tan": 3155,
      "ye": 3156,
      "mo": 3157,
      "wan": 3158,
      "are": 3159,
      "ter": 3160,
      "it": 3161,
      "gu": 3162,
      "ge": 3163,
      "she": 3164,
      "yan": 3165,
      "pe": 3166,
      "les": 3167,
      "hu": 3168,
      "ve": 3169,
      "yar": 3170,
      "ir": 3171,
      "so": 3172,
      "dan": 3173,
      "je": 3174,
      "shi": 3175,
      "san": 3176,
      "kuma": 3177,
      "ja": 3178,
      "ነው።": 3179,
      "ini": 3180,
      "go": 3181,
      "vi": 3182,
      "des": 3183,
      "yo": 3184,
      "st": 3185,
      "18": 3186,
      "be": 3187,
      "kati": 3188,
      "at": 3189,
      "ran": 3190,
      "con": 3191,
      "yi": 3192,
      "ment": 3193,
      "200": 3194,
      "rí": 3195,
      "est": 3196,
      "pi": 3197,
      "የሚ": 3198,
      "man": 3199,
      "ቸው": 3200,
      "for": 3201,
      "201": 3202,
      "bo": 3203,
      "par": 3204,
      "ré": 3205,
      "የአ": 3206,
      "do": 3207,
      "lu": 3208,
      "ል።": 3209,
      "ine": 3210,
      "ver": 3211,
      "sí": 3212,
      "ca": 3213,
      "lá": 3214,
      "fu": 3215,
      "ts": 3216,
      "ai": 3217,
      "ሳሌ": 3218,
      "que": 3219,
      "lẹ̀": 3220,
      "ምሳሌ": 3221,
      "መን": 3222,
      "we": 3223,
      "toka": 3224,
      "ly": 3225,
      "bí": 3226,
      "ban": 3227,
      "mar": 3228,
      "l'": 3229,
      "Ba": 3230,
      "ነበ": 3231,
      "ori": 3232,
      "àwọn": 3233,
      "waka": 3234,
      ").": 3235,
      "har": 3236,
      "wi": 3237,
      "àn": 3238,
      "ere": 3239,
      "um": 3240,
      "com": 3241,
      "res": 3242,
      "In": 3243,
      "cha": 3244,
      "The": 3245,
      "war": 3246,
      "dé": 3247,
      "Wa": 3248,
      "uni": 3249,
      "00": 3250,
      "kuwa": 3251,
      "የተ": 3252,
      "ad": 3253,
      "yin": 3254,
      "ru": 3255,
      "An": 3256,
      "ንድ": 3257,
      "),": 3258,
      "Na": 3259,
      "una": 3260,
      "tar": 3261,
      "co": 3262,
      "s,": 3263,
      "ዎች": 3264,
      "cikin": 3265,
      "Àwọn": 3266,
      "kara": 3267,
      "chi": 3268,
      "ati": 3269,
      "እና": 3270,
      "rin": 3271,
      "cin": 3272,
      "ላይ": 3273,
      "Ki": 3274,
      "mba": 3275,
      "ed": 3276,
      "ct": 3277,
      "ነት": 3278,
      "jẹ́": 3279,
      "daga": 3280,
      "ul": 3281,
      "Ni": 3282,
      "son": 3283,
      "zo": 3284,
      "d'": 3285,
      "እንደ": 3286,
      "Am": 3287,
      "199": 3288,
      "àti": 3289,
      "aka": 3290,
      "ho": 3291,
      "gba": 3292,
      "won": 3293,
      "wo": 3294,
      "ማር": 3295,
      "katika": 3296,
      "pro": 3297,
      "rẹ̀": 3298,
      "lé": 3299,
      "ted": 3300,
      "tsa": 3301,
      "no": 3302,
      "Al": 3303,
      "ọd": 3304,
      "fe": 3305,
      "ber": 3306,
      "jeri": 3307,
      "ist": 3308,
      "oni": 3309,
      "jeriya": 3310,
      "mwaka": 3311,
      "ty": 3312,
      "ili": 3313,
      "gh": 3314,
      "une": 3315,
      "ab": 3316,
      "wọ́": 3317,
      "ለው": 3318,
      "jo": 3319,
      "ìn": 3320,
      "Af": 3321,
      "lú": 3322,
      "ris": 3323,
      "té": 3324,
      "shekar": 3325,
      "yu": 3326,
      "ùn": 3327,
      "ከተ": 3328,
      "ju": 3329,
      "mai": 3330,
      "ll": 3331,
      "s.": 3332,
      "ap": 3333,
      "op": 3334,
      "No": 3335,
      "don": 3336,
      "sar": 3337,
      "mp": 3338,
      "wen": 3339,
      "ያን": 3340,
      "ex": 3341,
      "isi": 3342,
      "ṣe": 3343,
      "Le": 3344,
      "zu": 3345,
      "ሆን": 3346,
      "gbà": 3347,
      "198": 3348,
      "dè": 3349,
      "La": 3350,
      "fin": 3351,
      "nan": 3352,
      "hai": 3353,
      "lan": 3354,
      "በአ": 3355,
      "kun": 3356,
      "Wali": 3357,
      "ọdún": 3358,
      "a.": 3359,
      "nin": 3360,
      "እስ": 3361,
      "kọ́": 3362,
      "tun": 3363,
      "far": 3364,
      "pu": 3365,
      "ada": 3366,
      "ces": 3367,
      "197": 3368,
      "was": 3369,
      "ዚህ": 3370,
      "shekara": 3371,
      "ትዮ": 3372,
      "ማርኛ": 3373,
      "በመ": 3374,
      "ወደ": 3375,
      "ረት": 3376,
      "olo": 3377,
      "gan": 3378,
      "196": 3379,
      "ኢትዮ": 3380,
      "ለት": 3381,
      "Sa": 3382,
      "በት": 3383,
      "od": 3384,
      "by": 3385,
      "ነበር": 3386,
      "ure": 3387,
      "han": 3388,
      "ነገ": 3389,
      "Ta": 3390,
      "mọ": 3391,
      "can": 3392,
      "ኢትዮጵ": 3393,
      "ló": 3394,
      "a,": 3395,
      "Afri": 3396,
      "shekarar": 3397,
      "wọ́n": 3398,
      "17": 3399,
      "ín": 3400,
      "tokasi": 3401,
      "tó": 3402,
      "tic": 3403,
      "sì": 3404,
      "ውስ": 3405,
      "orí": 3406,
      "Najeriya": 3407,
      "Itokasi": 3408,
      "ትር": 3409,
      "ኢትዮጵያ": 3410,
      "የአማርኛ": 3411,
      "ìj": 3412,
      "che": 3413,
      "liwa": 3414,
      "èdè": 3415,
      "ten": 3416,
      "sha": 3417,
      "shin": 3418,
      "wanda": 3419,
      "gun": 3420,
      "asa": 3421,
      "kutoka": 3422,
      "bar": 3423,
      "rom": 3424,
      "tes": 3425,
      "kọ": 3426,
      "bá": 3427,
      "ac": 3428,
      "16": 3429,
      "áà": 3430,
      "15": 3431,
      "per": 3432,
      "fun": 3433,
      "fan": 3434,
      "wana": 3435,
      "pé": 3436,
      "his": 3437,
      "sun": 3438,
      "አይ": 3439,
      "Mu": 3440,
      "ene": 3441,
      "ስት": 3442,
      "ther": 3443,
      "bel": 3444,
      "fún": 3445,
      "Ro": 3446,
      "qui": 3447,
      "yana": 3448,
      "kó": 3449,
      "Se": 3450,
      "der": 3451,
      "ኛው": 3452,
      "በተ": 3453,
      "kama": 3454,
      "with": 3455,
      "tra": 3456,
      "ግን": 3457,
      "gbo": 3458,
      "Pa": 3459,
      "ck": 3460,
      "gar": 3461,
      "lọ": 3462,
      "lin": 3463,
      "ቶች": 3464,
      "nín": 3465,
      "ውስጥ": 3466,
      "ሪያ": 3467,
      "ph": 3468,
      "uri": 3469,
      "min": 3470,
      "wali": 3471,
      "ስተ": 3472,
      "Ar": 3473,
      "10": 3474,
      "'s": 3475,
      "hat": 3476,
      "ction": 3477,
      "os": 3478,
      "ወይ": 3479,
      "din": 3480,
      "jọ́": 3481,
      "ire": 3482,
      "ጊዜ": 3483,
      "En": 3484,
      "Mar": 3485,
      "up": 3486,
      "jú": 3487,
      "tin": 3488,
      "ariki": 3489,
      "አን": 3490,
      "ይህ": 3491,
      "mon": 3492,
      "195": 3493,
      "፡፡": 3494,
      "matsa": 3495,
      "gra": 3496,
      "dans": 3497,
      "እንዲ": 3498,
      "Da": 3499,
      "náà": 3500,
      "mata": 3501,
      "የመ": 3502,
      "Ra": 3503,
      "ውን": 3504,
      "ren": 3505,
      "ክል": 3506,
      "ምን": 3507,
      "fo": 3508,
      "cal": 3509,
      "14": 3510,
      "ንጉ": 3511,
      "tare": 3512,
      "ርስ": 3513,
      "ita": 3514,
      "ṣẹ́": 3515,
      "zuwa": 3516,
      "De": 3517,
      "ስለ": 3518,
      "zar": 3519,
      "men": 3520,
      "va": 3521,
      "ọmọ": 3522,
      "es,": 3523,
      "ትርጉ": 3524,
      "ቀን": 3525,
      "usu": 3526,
      "Ka": 3527,
      "kuu": 3528,
      "nínú": 3529,
      "ሆነ": 3530,
      "መንግ": 3531,
      "Uni": 3532,
      "eré": 3533,
      "e,": 3534,
      "Ne": 3535,
      "sur": 3536,
      "ዘመ": 3537,
      "yí": 3538,
      "isha": 3539,
      "y,": 3540,
      "írí": 3541,
      "dá": 3542,
      "12": 3543,
      "Jo": 3544,
      "Mi": 3545,
      "ሪክ": 3546,
      "asar": 3547,
      "'a": 3548,
      "Nobel": 3549,
      "from": 3550,
      "Tan": 3551,
      "kò": 3552,
      "amba": 3553,
      "አገ": 3554,
      "Re": 3555,
      "zaliwa": 3556,
      "tà": 3557,
      "por": 3558,
      "lar": 3559,
      "né": 3560,
      "láti": 3561,
      "lia": 3562,
      "tre": 3563,
      "Tu": 3564,
      "that": 3565,
      "wasan": 3566,
      "matsayin": 3567,
      "mb": 3568,
      "ለም": 3569,
      "wani": 3570,
      "pọ̀": 3571,
      "194": 3572,
      "gbe": 3573,
      "ድር": 3574,
      "ሲሆን": 3575,
      "wenye": 3576,
      "Ku": 3577,
      "ዓ.": 3578,
      "II": 3579,
      "ant": 3580,
      "cor": 3581,
      "sion": 3582,
      "ሰው": 3583,
      "ወይም": 3584,
      "gbé": 3585,
      "ld": 3586,
      "wà": 3587,
      "jọ": 3588,
      "ትርጉሙ": 3589,
      "Li": 3590,
      "watan": 3591,
      "hin": 3592,
      "fir": 3593,
      "mé": 3594,
      "kà": 3595,
      "mọ̀": 3596,
      "13": 3597,
      "ux": 3598,
      "lla": 3599,
      "ነበር።": 3600,
      "ኋላ": 3601,
      "ṣù": 3602,
      "tions": 3603,
      "Vi": 3604,
      "ìí": 3605,
      "Mo": 3606,
      "Nà": 3607,
      "ሳይ": 3608,
      "ong": 3609,
      "yake": 3610,
      "nchi": 3611,
      "ከተማ": 3612,
      "ድረ": 3613,
      "pour": 3614,
      "ለመ": 3615,
      "ay": 3616,
      "íríà": 3617,
      "bli": 3618,
      "Nàìj": 3619,
      "nì": 3620,
      "bin": 3621,
      "ut": 3622,
      "ደረ": 3623,
      "ዓ.ም": 3624,
      "risto": 3625,
      "lus": 3626,
      "Nàìjíríà": 3627,
      "vo": 3628,
      "gẹ́": 3629,
      "wá": 3630,
      "kani": 3631,
      "le-": 3632,
      "suka": 3633,
      "Mare": 3634,
      "bir": 3635,
      "one": 3636,
      "ታት": 3637,
      "pen": 3638,
      "sance": 3639,
      "rè": 3640,
      "ins": 3641,
      "ence": 3642,
      "isa": 3643,
      "በኋላ": 3644,
      "yàn": 3645,
      "urs": 3646,
      "kana": 3647,
      "pia": 3648,
      "mma": 3649,
      "ers": 3650,
      "ibi": 3651,
      "duni": 3652,
      "ጀመ": 3653,
      "Ji": 3654,
      "Ch": 3655,
      "ዓመ": 3656,
      "ry": 3657,
      "asi": 3658,
      "ሪካ": 3659,
      "gaba": 3660,
      "cu": 3661,
      "cho": 3662,
      "pin": 3663,
      "dis": 3664,
      "uli": 3665,
      "und": 3666,
      "Ja": 3667,
      "land": 3668,
      "ያል": 3669,
      "እስከ": 3670,
      "má": 3671,
      "1,": 3672,
      "zama": 3673,
      "ዘመን": 3674,
      "pín": 3675,
      "ania": 3676,
      "ọjọ́": 3677,
      "..": 3678,
      "ረትና": 3679,
      "ደግ": 3680,
      "ṣè": 3681,
      "awon": 3682,
      "Me": 3683,
      "ilé": 3684,
      "eni": 3685,
      "Nig": 3686,
      "ትን": 3687,
      "orílẹ̀": 3688,
      "lọ́": 3689,
      "tional": 3690,
      "Walio": 3691,
      "Mana": 3692,
      "ìlú": 3693,
      "ለማ": 3694,
      "ተረትና": 3695,
      "193": 3696,
      "gha": 3697,
      "ክፍ": 3698,
      "ƙasar": 3699,
      "ሮች": 3700,
      "lati": 3701,
      "ser": 3702,
      "Waliozaliwa": 3703,
      "Si": 3704,
      "jin": 3705,
      "sta": 3706,
      "Ya": 3707,
      "tur": 3708,
      "gwa": 3709,
      "ሥት": 3710,
      "vel": 3711,
      "sé": 3712,
      "ust": 3713,
      "ble": 3714,
      "vya": 3715,
      "Kan": 3716,
      "-èdè": 3717,
      "አንድ": 3718,
      "ise": 3719,
      "sti": 3720,
      "gin": 3721,
      "ary": 3722,
      "t,": 3723,
      "ofariki": 3724,
      "af": 3725,
      "Bo": 3726,
      "Ameri": 3727,
      "ede": 3728,
      "Waliofariki": 3729,
      "ንግ": 3730,
      "ida": 3731,
      "Tuzo": 3732,
      "ala": 3733,
      "kasance": 3734,
      "lè": 3735,
      "ton": 3736,
      "pri": 3737,
      "rẹ": 3738,
      "ደር": 3739,
      "jẹ": 3740,
      "ishi": 3741,
      "mia": 3742,
      "ዓ.ም.": 3743,
      "ques": 3744,
      "zarta": 3745,
      "bwa": 3746,
      "cent": 3747,
      "ሉ።": 3748,
      "ère": 3749,
      "jihar": 3750,
      "jì": 3751,
      "Co": 3752,
      "Afrika": 3753,
      "loka": 3754,
      "id": 3755,
      "1.": 3756,
      "በር": 3757,
      "Manazarta": 3758,
      "ele": 3759,
      "Marekani": 3760,
      "000": 3761,
      "ms": 3762,
      "shu": 3763,
      "pre": 3764,
      "መስ": 3765,
      "gaban": 3766,
      "Ha": 3767,
      "gen": 3768,
      "ingi": 3769,
      "kí": 3770,
      "tana": 3771,
      "sy": 3772,
      "ነበረ": 3773,
      "mes": 3774,
      "án": 3775,
      "hii": 3776,
      "kon": 3777,
      "mili": 3778,
      "ard": 3779,
      "He": 3780,
      "nu": 3781,
      "መል": 3782,
      "ሆኑ": 3783,
      "bab": 3784,
      "Gu": 3785,
      "Par": 3786,
      "mber": 3787,
      "አብ": 3788,
      "Nigeri": 3789,
      "Ju": 3790,
      "já": 3791,
      "kasa": 3792,
      "fara": 3793,
      "tì": 3794,
      "olu": 3795,
      "ጋር": 3796,
      "awọn": 3797,
      "kubwa": 3798,
      "wé": 3799,
      "አል": 3800,
      "ọ́n": 3801,
      "whi": 3802,
      "So": 3803,
      "husu": 3804,
      "pas": 3805,
      "mas": 3806,
      "dí": 3807,
      "ven": 3808,
      "yen": 3809,
      "jer": 3810,
      "pínlẹ̀": 3811,
      "tro": 3812,
      "ናት": 3813,
      "vu": 3814,
      "Baada": 3815,
      "ese": 3816,
      "ya.": 3817,
      "ará": 3818,
      "ልጅ": 3819,
      "Fran": 3820,
      "iṣẹ́": 3821,
      "ile": 3822,
      "ችን": 3823,
      "ታወ": 3824,
      "plus": 3825,
      "ናቸው": 3826,
      "እንግ": 3827,
      "ron": 3828,
      "shindi": 3829,
      "wn": 3830,
      "ff": 3831,
      "ደግሞ": 3832,
      "lẹ́": 3833,
      "use": 3834,
      "Ní": 3835,
      "በማ": 3836,
      "ስም": 3837,
      "ደብ": 3838,
      "wor": 3839,
      "2,": 3840,
      "farko": 3841,
      "ziki": 3842,
      "Ali": 3843,
      "iya": 3844,
      "Kar": 3845,
      "Yor": 3846,
      "Papa": 3847,
      "gé": 3848,
      "hadi": 3849,
      "ተረ": 3850,
      "ny": 3851,
      "ብዙ": 3852,
      "nom": 3853,
      "mshindi": 3854,
      "የኢትዮጵያ": 3855,
      "llon": 3856,
      "tt": 3857,
      "ታሪክ": 3858,
      "ya,": 3859,
      "pré": 3860,
      "uru": 3861,
      "omo": 3862,
      "አባ": 3863,
      "ilẹ̀": 3864,
      "suna": 3865,
      "ክልበ": 3866,
      "le,": 3867,
      "ish": 3868,
      "tawa": 3869,
      "ድረስ": 3870,
      "wò": 3871,
      "Maka": 3872,
      "ዓክልበ": 3873,
      "አስ": 3874,
      "ation": 3875,
      "rùn": 3876,
      "le.": 3877,
      "መንግሥት": 3878,
      "kio": 3879,
      "oro": 3880,
      "Di": 3881,
      "pla": 3882,
      "Mas": 3883,
      "0,": 3884,
      "sai": 3885,
      "tal": 3886,
      "25": 3887,
      "ges": 3888,
      "gbá": 3889,
      "mbo": 3890,
      "ore": 3891,
      "ranar": 3892,
      "ors": 3893,
      "Ri": 3894,
      "rò": 3895,
      "Ita": 3896,
      "hari": 3897,
      "bayan": 3898,
      "mani": 3899,
      "cri": 3900,
      "ዓክልበ.": 3901,
      "versi": 3902,
      "(200": 3903,
      "Ab": 3904,
      "haife": 3905,
      "yìn": 3906,
      "gbè": 3907,
      "mer": 3908,
      "ብር": 3909,
      "New": 3910,
      "የሚገ": 3911,
      "ƙa": 3912,
      "Con": 3913,
      "yau": 3914,
      "ራት": 3915,
      "yìí": 3916,
      "ta,": 3917,
      "pan": 3918,
      "ome": 3919,
      "ses": 3920,
      "tún": 3921,
      "giyar": 3922,
      "Ti": 3923,
      "oló": 3924,
      "masu": 3925,
      "amo": 3926,
      "To": 3927,
      "Is": 3928,
      "vec": 3929,
      "hun": 3930,
      "lement": 3931,
      "ሎች": 3932,
      "ቤት": 3933,
      "ተኛ": 3934,
      "ze": 3935,
      "him": 3936,
      "tukio": 3937,
      "ura": 3938,
      "ርት": 3939,
      "ባለ": 3940,
      "ላል።": 3941,
      "ቋን": 3942,
      "kẹ": 3943,
      "Com": 3944,
      "lokacin": 3945,
      "kasar": 3946,
      "Bi": 3947,
      "Au": 3948,
      "biyu": 3949,
      "Tanz": 3950,
      "orílẹ̀-èdè": 3951,
      "tọ́": 3952,
      "እግ": 3953,
      "dar": 3954,
      "dia": 3955,
      "aux": 3956,
      "መር": 3957,
      "ነገር": 3958,
      "2.": 3959,
      "kwai": 3960,
      "hali": 3961,
      "ɗan": 3962,
      "chini": 3963,
      "Lu": 3964,
      "ንጉሥ": 3965,
      "o,": 3966,
      "ungu": 3967,
      "አለ": 3968,
      "kọ̀": 3969,
      "ትም": 3970,
      "ast": 3971,
      "wó": 3972,
      "23": 3973,
      "ዋና": 3974,
      "eneo": 3975,
      "Ke": 3976,
      "Su": 3977,
      "kum": 3978,
      "shen": 3979,
      "Po": 3980,
      "ርያ": 3981,
      "\".": 3982,
      "ang": 3983,
      "ቤተ": 3984,
      "ቋንቋ": 3985,
      "ward": 3986,
      "Matukio": 3987,
      "Il": 3988,
      "Kwa": 3989,
      "fal": 3990,
      "which": 3991,
      "karan": 3992,
      "tta": 3993,
      "ይገ": 3994,
      "bẹ̀": 3995,
      "ory": 3996,
      "col": 3997,
      "istori": 3998,
      "avec": 3999,
      "ያልተ": 4000,
      "ዚያ": 4001,
      "ንም": 4002,
      "ራዊ": 4003,
      "Jam": 4004,
      "yawan": 4005,
      "inda": 4006,
      "mun": 4007,
      "nes": 4008,
      "kini": 4009,
      "gy": 4010,
      "ማለት": 4011,
      "Ho": 4012,
      "mji": 4013,
      "tane": 4014,
      "birnin": 4015,
      "4,": 4016,
      "alikuwa": 4017,
      "እንግሊ": 4018,
      "ée": 4019,
      "phi": 4020,
      "ste": 4021,
      "nìyàn": 4022,
      "mbali": 4023,
      "anu": 4024,
      "mna": 4025,
      "oṣù": 4026,
      "uku": 4027,
      "ላት": 4028,
      "wa,": 4029,
      "11": 4030,
      "sont": 4031,
      "ተረጎ": 4032,
      "6,": 4033,
      "Har": 4034,
      "189": 4035,
      "Les": 4036,
      "0.": 4037,
      "ሁሉ": 4038,
      "orin": 4039,
      "kú": 4040,
      "As": 4041,
      "5,": 4042,
      "yè": 4043,
      "ẹ̀kọ́": 4044,
      "ጥር": 4045,
      "ዳን": 4046,
      "ght": 4047,
      "አካ": 4048,
      "ክርስ": 4049,
      "le-ede": 4050,
      "7,": 4051,
      "ዘመነ": 4052,
      "ona": 4053,
      "tai": 4054,
      "190": 4055,
      "ans": 4056,
      "cer": 4057,
      "ባቢ": 4058,
      "hara": 4059,
      "ongo": 4060,
      "publi": 4061,
      "thi": 4062,
      "ƙwa": 4063,
      "yya": 4064,
      "dì": 4065,
      "Lo": 4066,
      "pẹ̀": 4067,
      "lle": 4068,
      "፲፱": 4069,
      "zai": 4070,
      "lugha": 4071,
      "ereza": 4072,
      "ansa": 4073,
      "ɗa": 4074,
      "wu": 4075,
      "ግብ": 4076,
      "es.": 4077,
      "mwana": 4078,
      "ጥን": 4079,
      "moja": 4080,
      "የማ": 4081,
      "ingereza": 4082,
      "hn": 4083,
      "tive": 4084,
      "የም": 4085,
      "its": 4086,
      "d,": 4087,
      "6.": 4088,
      "ድን": 4089,
      "kwenye": 4090,
      "ባል": 4091,
      "ገር": 4092,
      "Fi": 4093,
      "vyo": 4094,
      "ok": 4095,
      "enti": 4096,
      "Sta": 4097,
      "የሚያ": 4098,
      "ènìyàn": 4099,
      "--": 4100,
      "kali": 4101,
      "Fe": 4102,
      "ríkà": 4103,
      "ቱን": 4104,
      "inter": 4105,
      "ding": 4106,
      "Nijeriya": 4107,
      "4.": 4108,
      "ንያ": 4109,
      "ውያን": 4110,
      "yẹ": 4111,
      "mí": 4112,
      "ninu": 4113,
      "cul": 4114,
      "Universi": 4115,
      "uti": 4116,
      "3,": 4117,
      "dha": 4118,
      "ንስ": 4119,
      "Kristo": 4120,
      "ata": 4121,
      "ተረጎመ": 4122,
      "tò": 4123,
      "car": 4124,
      "Do": 4125,
      "አም": 4126,
      "ከል": 4127,
      "int": 4128,
      "ens": 4129,
      "ce,": 4130,
      "gine": 4131,
      "jen": 4132,
      "dà": 4133,
      "pres": 4134,
      "እንግሊዝ": 4135,
      "፲፱፻": 4136,
      "ሞች": 4137,
      "langu": 4138,
      "Makala": 4139,
      "watu": 4140,
      "er,": 4141,
      "tique": 4142,
      "ያልተተረጎመ": 4143,
      "21": 4144,
      "t.": 4145,
      "ys": 4146,
      "ìgbà": 4147,
      "aiki": 4148,
      "were": 4149,
      "ig": 4150,
      "kai": 4151,
      "yé": 4152,
      "tri": 4153,
      "bre": 4154,
      "kafa": 4155,
      "7.": 4156,
      "las": 4157,
      "laya": 4158,
      "e.": 4159,
      "28": 4160,
      "አመ": 4161,
      "Jihar": 4162,
      "Ge": 4163,
      "mis": 4164,
      "ké": 4165,
      "lai": 4166,
      "inahusu": 4167,
      "uran": 4168,
      "cewa": 4169,
      "ዛት": 4170,
      "ላል": 4171,
      "yà": 4172,
      "Go": 4173,
      "mul": 4174,
      "University": 4175,
      "Far": 4176,
      "5.": 4177,
      "ቸውን": 4178,
      "ded": 4179,
      "dom": 4180,
      "alá": 4181,
      "waki": 4182,
      "mọ́": 4183,
      "orile-ede": 4184,
      "firka": 4185,
      "Col": 4186,
      "pte": 4187,
      "ture": 4188,
      "ken": 4189,
      "3.": 4190,
      "Afirka": 4191,
      "wọ̀": 4192,
      "soci": 4193,
      "wata": 4194,
      "Ad": 4195,
      "ዋል።": 4196,
      "/ም": 4197,
      "አስተ": 4198,
      "hemu": 4199,
      "maka": 4200,
      "29": 4201,
      "ምሮ": 4202,
      "ob": 4203,
      "out": 4204,
      "wake": 4205,
      "John": 4206,
      "ree": 4207,
      "ዓ/ም": 4208,
      "Kristo).": 4209,
      "Ben": 4210,
      "በሚ": 4211,
      "ma,": 4212,
      "(Baada": 4213,
      "mw": 4214,
      "visi": 4215,
      "òṣè": 4216,
      "Tanzania": 4217,
      "በዚህ": 4218,
      "ፈረ": 4219,
      "bara": 4220,
      "ne,": 4221,
      "kwan": 4222,
      "30": 4223,
      "Be": 4224,
      "Du": 4225,
      "bà": 4226,
      "ነበሩ": 4227,
      "pel": 4228,
      "mpi": 4229,
      "እንዳ": 4230,
      "ora": 4231,
      "Man": 4232,
      "ታዊ": 4233,
      "ord": 4234,
      "low": 4235,
      "wa.": 4236,
      "Ìpínlẹ̀": 4237,
      "እር": 4238,
      "had": 4239,
      "vent": 4240,
      "arin": 4241,
      "22": 4242,
      "ወረ": 4243,
      "cre": 4244,
      "umani": 4245,
      "ƙwallon": 4246,
      "qu'": 4247,
      "led": 4248,
      "my": 4249,
      "pà": 4250,
      "ወን": 4251,
      "ሜሪካ": 4252,
      "ṣà": 4253,
      "ake": 4254,
      "cy": 4255,
      "Ko": 4256,
      "l’": 4257,
      "parti": 4258,
      "ጠር": 4259,
      "ጦር": 4260,
      "val": 4261,
      "sini": 4262,
      "ìbí": 4263,
      "amma": 4264,
      "med": 4265,
      "ves": 4266,
      "ger": 4267,
      "24": 4268,
      "ame": 4269,
      "gro": 4270,
      "uro": 4271,
      "lamu": 4272,
      "dake": 4273,
      "hili": 4274,
      "jama": 4275,
      "kì": 4276,
      "tant": 4277,
      "Kati": 4278,
      "ድም": 4279,
      "jerumani": 4280,
      "amoja": 4281,
      "(an": 4282,
      "ሰዎች": 4283,
      "den": 4284,
      "ሌላ": 4285,
      "'ar": 4286,
      "but": 4287,
      "pè": 4288,
      "መለ": 4289,
      "là": 4290,
      "poli": 4291,
      ".አ": 4292,
      "mutu": 4293,
      "mita": 4294,
      "ons": 4295,
      "katifu": 4296,
      "Bri": 4297,
      "ምና": 4298,
      "lli": 4299,
      "ity": 4300,
      "Ok": 4301,
      "ቅር": 4302,
      "ṣẹ": 4303,
      "ዝብ": 4304,
      "ria": 4305,
      "sel": 4306,
      "ta.": 4307,
      "babban": 4308,
      "ዲስ": 4309,
      "wannan": 4310,
      "cation": 4311,
      "rans": 4312,
      "Nai": 4313,
      "anzi": 4314,
      "all": 4315,
      "falme": 4316,
      "Bu": 4317,
      "1-": 4318,
      "o.": 4319,
      "Pro": 4320,
      "Th": 4321,
      "siku": 4322,
      "tọ́ka": 4323,
      "Hi": 4324,
      "ሉት": 4325,
      "ከፍ": 4326,
      "also": 4327,
      "gẹ́gẹ́": 4328,
      "BK": 4329,
      "ting": 4330,
      "gbẹ́": 4331,
      "ologi": 4332,
      "ሥራ": 4333,
      "Ọ̀": 4334,
      "hana": 4335,
      "ussi": 4336,
      "fí": 4337,
      "ràn": 4338,
      "vil": 4339,
      "jù": 4340,
      "yyar": 4341,
      "ያለ": 4342,
      "lórí": 4343,
      "5)": 4344,
      "chan": 4345,
      "mara": 4346,
      "ሰብ": 4347,
      "ጨረ": 4348,
      "is,": 4349,
      "hen": 4350,
      "samu": 4351,
      "እነ": 4352,
      "ka.": 4353,
      "kari": 4354,
      "Karne": 4355,
      "ሆኖ": 4356,
      "fer": 4357,
      "ስራ": 4358,
      "jà": 4359,
      "Jami": 4360,
      "jina": 4361,
      "lam": 4362,
      "መደብ": 4363,
      "(201": 4364,
      "gún": 4365,
      "pẹ̀lú": 4366,
      "27": 4367,
      "Chi": 4368,
      "War": 4369,
      "ka,": 4370,
      "mẹ́": 4371,
      "Asi": 4372,
      "Wil": 4373,
      "national": 4374,
      "comme": 4375,
      "yankin": 4376,
      "sana": 4377,
      "maji": 4378,
      "bili": 4379,
      "Pi": 4380,
      "ጀመሪያ": 4381,
      "lex": 4382,
      "sọ": 4383,
      "sehemu": 4384,
      "ally": 4385,
      "d.": 4386,
      "ተው": 4387,
      "zina": 4388,
      "comp": 4389,
      "not": 4390,
      "ዓመት": 4391,
      "rès": 4392,
      "mú": 4393,
      "kamar": 4394,
      "bila": 4395,
      "ብሎ": 4396,
      "Wi": 4397,
      "ká": 4398,
      "6)": 4399,
      "dda": 4400,
      "fon": 4401,
      "ፊት": 4402,
      "Abu": 4403,
      "anci": 4404,
      "pamoja": 4405,
      "ረው": 4406,
      "2019": 4407,
      "Ingi": 4408,
      "other": 4409,
      "era": 4410,
      "ምክ": 4411,
      "fani": 4412,
      "cou": 4413,
      "ዓም": 4414,
      "met": 4415,
      "tari": 4416,
      "sou": 4417,
      "ጠቀ": 4418,
      "mkuu": 4419,
      "ይወ": 4420,
      "ማሪ": 4421,
      "lakini": 4422,
      "nje": 4423,
      "rọ̀": 4424,
      "ƙafa": 4425,
      "ved": 4426,
      "ቅዱ": 4427,
      "gir": 4428,
      "bia": 4429,
      "8,": 4430,
      "ች።": 4431,
      "ọba": 4432,
      "Amẹ́": 4433,
      "Ana": 4434,
      "Janu": 4435,
      "Te": 4436,
      "bun": 4437,
      "Inter": 4438,
      "miaka": 4439,
      "Amẹ́ríkà": 4440,
      "መካ": 4441,
      "Pe": 4442,
      "ments": 4443,
      "cra": 4444,
      "Ca": 4445,
      "anan": 4446,
      "\",": 4447,
      "kuna": 4448,
      "ላቸው": 4449,
      "daya": 4450,
      "eshi": 4451,
      "m,": 4452,
      "ያስ": 4453,
      "saba": 4454,
      "On": 4455,
      "9,": 4456,
      "Ken": 4457,
      "ወር": 4458,
      "has": 4459,
      "teur": 4460,
      "usul": 4461,
      "clu": 4462,
      "on,": 4463,
      "4)": 4464,
      "Kam": 4465,
      "elle": 4466,
      "Shu": 4467,
      "mwa": 4468,
      "shugaban": 4469,
      "Ga": 4470,
      "2018": 4471,
      "wasu": 4472,
      "ዝር": 4473,
      "first": 4474,
      "ቦች": 4475,
      "lation": 4476,
      "zili": 4477,
      "She": 4478,
      "omi": 4479,
      "7)": 4480,
      "አበ": 4481,
      "3)": 4482,
      "(A": 4483,
      "26": 4484,
      "ፈር": 4485,
      "ous": 4486,
      "ilu": 4487,
      "Je": 4488,
      "chool": 4489,
      "te,": 4490,
      "lù": 4491,
      "ከዚህ": 4492,
      "indi": 4493,
      "bon": 4494,
      "bru": 4495,
      "len": 4496,
      "èyí": 4497,
      "máa": 4498,
      "òṣèré": 4499,
      "tara": 4500,
      "tàbí": 4501,
      "ilé-": 4502,
      "የሚገኝ": 4503,
      "1)": 4504,
      "Mwaka": 4505,
      "age": 4506,
      "ne.": 4507,
      "ባህ": 4508,
      "Ingila": 4509,
      "Was": 4510,
      "ምር": 4511,
      "188": 4512,
      "oní": 4513,
      "9.": 4514,
      "été": 4515,
      "tawala": 4516,
      "ተቀ": 4517,
      "bẹ̀rẹ̀": 4518,
      "ብቻ": 4519,
      "mì": 4520,
      "ክርስቲ": 4521,
      "van": 4522,
      "ወለ": 4523,
      "kea": 4524,
      "sin": 4525,
      "istan": 4526,
      "ሁለ": 4527,
      "ደቡ": 4528,
      "Nor": 4529,
      "jali": 4530,
      "ም።": 4531,
      "mutane": 4532,
      "ds": 4533,
      "istoria": 4534,
      "ኤል": 4535,
      "bur": 4536,
      "ተር": 4537,
      "Mata": 4538,
      "sig": 4539,
      "Or": 4540,
      "8.": 4541,
      "ling": 4542,
      "ባት": 4543,
      "tain": 4544,
      "baada": 4545,
      "'i": 4546,
      "hasa": 4547,
      "fici": 4548,
      "tọ́kasí": 4549,
      "tte": 4550,
      "gbogbo": 4551,
      "Bar": 4552,
      "ogra": 4553,
      "ua": 4554,
      "ሥር": 4555,
      "fẹ́": 4556,
      "Cha": 4557,
      "ww": 4558,
      "ሁም": 4559,
      "kwanza": 4560,
      "rand": 4561,
      "ክት": 4562,
      "andishi": 4563,
      "Yan": 4564,
      "ሁን": 4565,
      "አር": 4566,
      "garin": 4567,
      "Nigeria": 4568,
      "ቢያ": 4569,
      "ዘንድ": 4570,
      "Septe": 4571,
      "ላንድ": 4572,
      "bẹ́": 4573,
      "dele": 4574,
      "በብ": 4575,
      "Ala": 4576,
      "zini": 4577,
      "kawa": 4578,
      "ohun": 4579,
      "Jap": 4580,
      "ማን": 4581,
      "fina": 4582,
      "duk": 4583,
      "አገር": 4584,
      "በኢትዮጵያ": 4585,
      "BC": 4586,
      ".ኤ": 4587,
      "ọ̀n": 4588,
      "entre": 4589,
      "ral": 4590,
      "ገድ": 4591,
      "ኖች": 4592,
      "2)": 4593,
      "wakazi": 4594,
      "Hau": 4595,
      "imp": 4596,
      "y.": 4597,
      "San": 4598,
      "ታቸው": 4599,
      "mag": 4600,
      "liki": 4601,
      "እንግሊዝኛ": 4602,
      "dún": 4603,
      "oc": 4604,
      "50": 4605,
      "At": 4606,
      "produ": 4607,
      "ba,": 4608,
      "aikin": 4609,
      "Duni": 4610,
      "premi": 4611,
      "stru": 4612,
      "ሁለት": 4613,
      "Ib": 4614,
      "mù": 4615,
      "ተመ": 4616,
      "Ru": 4617,
      "ገን": 4618,
      "have": 4619,
      "Muha": 4620,
      "fil": 4621,
      "ef": 4622,
      "ወቅ": 4623,
      "kàn": 4624,
      "ጀምሮ": 4625,
      "olù": 4626,
      "'yan": 4627,
      "King": 4628,
      "dogo": 4629,
      "és": 4630,
      "ell": 4631,
      "ak": 4632,
      "karantar": 4633,
      "ayé": 4634,
      "አው": 4635,
      "dai": 4636,
      "vie": 4637,
      "For": 4638,
      "ofin": 4639,
      "sá": 4640,
      "ቅም": 4641,
      "kazini": 4642,
      "ቃል": 4643,
      "ቆጣ": 4644,
      "የር": 4645,
      ".አ.": 4646,
      "እ.ኤ": 4647,
      "dio": 4648,
      "Qu": 4649,
      "éri": 4650,
      "pò": 4651,
      "chu": 4652,
      "Kas": 4653,
      "temp": 4654,
      "dara": 4655,
      "wengi": 4656,
      "ቅዱስ": 4657,
      "mafi": 4658,
      "red": 4659,
      "bai": 4660,
      "dú": 4661,
      "s'": 4662,
      "jan": 4663,
      "yoyin": 4664,
      "ungo": 4665,
      "Dan": 4666,
      "መሰ": 4667,
      "tho": 4668,
      "የት": 4669,
      "shine": 4670,
      "jami": 4671,
      "fuata": 4672,
      "ናቸው።": 4673,
      "ìwé": 4674,
      "Car": 4675,
      "ለያ": 4676,
      "ሔር": 4677,
      "kam": 4678,
      "faransa": 4679,
      "Febru": 4680,
      "lili": 4681,
      "gli": 4682,
      "ojo": 4683,
      "Shi": 4684,
      "huri": 4685,
      "nígbà": 4686,
      "Ap": 4687,
      "ትና": 4688,
      "Nove": 4689,
      "run": 4690,
      "yasa": 4691,
      "emp": 4692,
      "ag": 4693,
      "takatifu": 4694,
      "Hu": 4695,
      "sen": 4696,
      "cen": 4697,
      "zaidi": 4698,
      "Ghana": 4699,
      "Africa": 4700,
      "tàn": 4701,
      "ear": 4702,
      "lẹ": 4703,
      "ተከ": 4704,
      "pr": 4705,
      "ንዳ": 4706,
      "ዋል": 4707,
      "ጽሐ": 4708,
      "sau": 4709,
      "ትምህ": 4710,
      "dur": 4711,
      "sed": 4712,
      "Award": 4713,
      "Ban": 4714,
      "tam": 4715,
      "በረ": 4716,
      "this": 4717,
      "bor": 4718,
      "ያለው": 4719,
      "Bir": 4720,
      "esi": 4721,
      "Ada": 4722,
      "stitu": 4723,
      "RD": 4724,
      "rou": 4725,
      "km": 4726,
      "dau": 4727,
      "ƙar": 4728,
      "ይል": 4729,
      "aribi": 4730,
      "nchini": 4731,
      "ƙasa": 4732,
      "ገብ": 4733,
      "hada": 4734,
      "zaji": 4735,
      "ont": 4736,
      "Sou": 4737,
      "dre": 4738,
      "ግራ": 4739,
      "ልጣ": 4740,
      "ቁጥር": 4741,
      "seri": 4742,
      "ገኘ": 4743,
      "Wor": 4744,
      "Yo": 4745,
      "in,": 4746,
      "Fo": 4747,
      "kanin": 4748,
      "ሌሎች": 4749,
      "non": 4750,
      "በላይ": 4751,
      "እንዲሁም": 4752,
      "isho": 4753,
      "ọdun": 4754,
      "kungiyar": 4755,
      "phy": 4756,
      "who": 4757,
      "àrùn": 4758,
      "jini": 4759,
      "ጀር": 4760,
      "pata": 4761,
      "tani": 4762,
      "wí": 4763,
      "ስን": 4764,
      "riki": 4765,
      "ደቡብ": 4766,
      "Sha": 4767,
      "Wan": 4768,
      "Wọ́n": 4769,
      "forma": 4770,
      "spe": 4771,
      "ዓለም": 4772,
      "rubu": 4773,
      "zan": 4774,
      "Okto": 4775,
      "gbò": 4776,
      "odun": 4777,
      "ንን": 4778,
      "her": 4779,
      "amfani": 4780,
      "ወጣ": 4781,
      "k.": 4782,
      "Viungo": 4783,
      "Apri": 4784,
      "gion": 4785,
      "koa": 4786,
      "us,": 4787,
      "United": 4788,
      "His": 4789,
      "ano": 4790,
      "cas": 4791,
      "d’": 4792,
      "unci": 4793,
      "ማዊ": 4794,
      "Gi": 4795,
      "Muhamma": 4796,
      "king": 4797,
      "shiga": 4798,
      "Ber": 4799,
      "fran": 4800,
      "መረ": 4801,
      "በቀ": 4802,
      "መጠ": 4803,
      "ባይ": 4804,
      "used": 4805,
      "ታል።": 4806,
      "ill": 4807,
      "rì": 4808,
      "ving": 4809,
      "trans": 4810,
      "take": 4811,
      "School": 4812,
      "mais": 4813,
      "esa": 4814,
      "gasar": 4815,
      "i,": 4816,
      "velop": 4817,
      "ከአ": 4818,
      "kọ́kọ́": 4819,
      "ለይ": 4820,
      "Are": 4821,
      "ስታ": 4822,
      "ናዊ": 4823,
      "Naiji": 4824,
      "cce": 4825,
      "ner": 4826,
      "sannan": 4827,
      "tr": 4828,
      "ùbá": 4829,
      "ሜን": 4830,
      "their": 4831,
      "Bab": 4832,
      "//": 4833,
      "Tur": 4834,
      "bíi": 4835,
      "puis": 4836,
      "የው": 4837,
      "pá": 4838,
      "dy": 4839,
      "ሲያ": 4840,
      "mor": 4841,
      "aki": 4842,
      "ìnrin": 4843,
      "በሰ": 4844,
      "kasu": 4845,
      "American": 4846,
      "jalisar": 4847,
      "ሳት": 4848,
      "Bur": 4849,
      "ró": 4850,
      "ቦታ": 4851,
      "Un": 4852,
      "ገና": 4853,
      "tarehe": 4854,
      "joba": 4855,
      "ጣል": 4856,
      "100": 4857,
      "rayu": 4858,
      "sent": 4859,
      "ባለው": 4860,
      "ben": 4861,
      "fim": 4862,
      "ọjọ́ìbí": 4863,
      "kùn": 4864,
      "duniya": 4865,
      "ande": 4866,
      "2020": 4867,
      "tokana": 4868,
      "sílẹ̀": 4869,
      "dín": 4870,
      "tation": 4871,
      "deux": 4872,
      "huku": 4873,
      "Yorùbá": 4874,
      "ፈረን": 4875,
      "al-": 4876,
      "posi": 4877,
      "xi": 4878,
      "leur": 4879,
      "part": 4880,
      "IS": 4881,
      "0)": 4882,
      "Ara": 4883,
      "Aug": 4884,
      "Bra": 4885,
      "kè": 4886,
      "te.": 4887,
      "main": 4888,
      "year": 4889,
      "ብራ": 4890,
      "wakati": 4891,
      "lima": 4892,
      "186": 4893,
      "(C": 4894,
      "9)": 4895,
      "liam": 4896,
      "በስ": 4897,
      "ዘር": 4898,
      "juu": 4899,
      "Min": 4900,
      "Kus": 4901,
      "baya": 4902,
      "L'": 4903,
      "hy": 4904,
      "187": 4905,
      "Geor": 4906,
      "ttp": 4907,
      "hiyo": 4908,
      "jam": 4909,
      "endele": 4910,
      "http": 4911,
      "ሚያ": 4912,
      "ከዚያ": 4913,
      "l'é": 4914,
      "pinle": 4915,
      "sara": 4916,
      "ge,": 4917,
      "bert": 4918,
      "cé": 4919,
      "Amur": 4920,
      "yali": 4921,
      "ሥታት": 4922,
      "መካከል": 4923,
      "ዎቹ": 4924,
      "anti": 4925,
      "ungiyar": 4926,
      "gue": 4927,
      "sis": 4928,
      "ced": 4929,
      "Mis": 4930,
      "ጠራ": 4931,
      "://": 4932,
      "cs": 4933,
      "ይታ": 4934,
      "bay": 4935,
      "እ.ኤ.አ.": 4936,
      "Ujerumani": 4937,
      "shir": 4938,
      "inclu": 4939,
      "gwamna": 4940,
      "Por": 4941,
      "ìmọ̀": 4942,
      "sa,": 4943,
      "cro": 4944,
      "wadan": 4945,
      "ba.": 4946,
      "úkọ": 4947,
      "ታላ": 4948,
      "buga": 4949,
      "ጨረሻ": 4950,
      "Kis": 4951,
      "Uingereza": 4952,
      "kristo": 4953,
      "nípa": 4954,
      "itwa": 4955,
      "Mari": 4956,
      "dent": 4957,
      "rent": 4958,
      "ከመ": 4959,
      "ከነ": 4960,
      "lie": 4961,
      "kno": 4962,
      "ሰራ": 4963,
      "shekaru": 4964,
      "pon": 4965,
      "time": 4966,
      "ce.": 4967,
      "iliyo": 4968,
      "jama'a": 4969,
      "ሴት": 4970,
      "በዘመነ": 4971,
      "Gre": 4972,
      "Euro": 4973,
      "kira": 4974,
      "daban": 4975,
      "mawa": 4976,
      "ẹ́r": 4977,
      "eno": 4978,
      "Per": 4979,
      "ople": 4980,
      "da,": 4981,
      "ሃይ": 4982,
      "8)": 4983,
      "jia": 4984,
      "jáde": 4985,
      "tres": 4986,
      "It": 4987,
      "gal": 4988,
      "ham": 4989,
      "lò": 4990,
      "Najeriya.": 4991,
      "nd": 4992,
      "ach": 4993,
      "kẹ́": 4994,
      "pẹ": 4995,
      "ìdì": 4996,
      "jir": 4997,
      "ça": 4998,
      "dro": 4999,
      "pọ": 5000,
      "boda": 5001,
      "uwa": 5002,
      "ሥነ": 5003,
      "ኖር": 5004,
      "maso": 5005,
      "lí": 5006,
      "eral": 5007,
      "kejì": 5008,
      "yanzu": 5009,
      "የቀ": 5010,
      "karatun": 5011,
      "ctor": 5012,
      "hanyar": 5013,
      "Nàìjíríà.": 5014,
      "para": 5015,
      "Fa": 5016,
      "taka": 5017,
      "zaman": 5018,
      "ires": 5019,
      "Lago": 5020,
      "core": 5021,
      "prin": 5022,
      "lori": 5023,
      "sami": 5024,
      "vita": 5025,
      "bet": 5026,
      "c.": 5027,
      "zwa": 5028,
      "u,": 5029,
      "Indi": 5030,
      "akan": 5031,
      "sama": 5032,
      "ètò": 5033,
      "ሰማ": 5034,
      "sa.": 5035,
      "(199": 5036,
      "ks": 5037,
      "ilikuwa": 5038,
      "dini": 5039,
      "kol": 5040,
      "cour": 5041,
      "rá": 5042,
      "ስና": 5043,
      "ትል": 5044,
      "upande": 5045,
      "Kusini": 5046,
      "m.": 5047,
      "እግዚ": 5048,
      "diff": 5049,
      "tis": 5050,
      "Katika": 5051,
      "vers": 5052,
      "40": 5053,
      "gre": 5054,
      "abin": 5055,
      "Hai": 5056,
      "gari": 5057,
      "dhi": 5058,
      "ክፍለ": 5059,
      "fà": 5060,
      "tement": 5061,
      "port": 5062,
      "S.": 5063,
      "cep": 5064,
      "ìdí": 5065,
      "ẹgbẹ́": 5066,
      "la,": 5067,
      "2-": 5068,
      "usi": 5069,
      "yawa": 5070,
      "Bayan": 5071,
      "ìjọba": 5072,
      "walio": 5073,
      "ምክንያ": 5074,
      "kazi": 5075,
      "Jami'ar": 5076,
      "pli": 5077,
      "éta": 5078,
      "ደን": 5079,
      "than": 5080,
      "num": 5081,
      "gbọ́n": 5082,
      "ቆጣጠር": 5083,
      "some": 5084,
      "yun": 5085,
      "wato": 5086,
      "dire": 5087,
      "ishwa": 5088,
      "African": 5089,
      "ግዛት": 5090,
      "most": 5091,
      "ስብ": 5092,
      "ታይ": 5093,
      "lah": 5094,
      "d'un": 5095,
      "hon": 5096,
      "Ger": 5097,
      "ፍራ": 5098,
      "nyingi": 5099,
      "Oro": 5100,
      "huru": 5101,
      "fami": 5102,
      "Char": 5103,
      "ምዕ": 5104,
      "ይና": 5105,
      "ያው": 5106,
      "እግዚአብ": 5107,
      "bri": 5108,
      "baki": 5109,
      "karne": 5110,
      "fé": 5111,
      "ምድር": 5112,
      "ot": 5113,
      "pos": 5114,
      "ራሱ": 5115,
      "cur": 5116,
      "አት": 5117,
      "እጅ": 5118,
      "ደት": 5119,
      "World": 5120,
      "Oktoba": 5121,
      "been": 5122,
      "ወሰ": 5123,
      "ይባ": 5124,
      "አካባቢ": 5125,
      "game": 5126,
      "nor": 5127,
      "ጆች": 5128,
      "aro": 5129,
      "wacce": 5130,
      "dun": 5131,
      "Europe": 5132,
      "ሽን": 5133,
      "kafin": 5134,
      "tsakanin": 5135,
      "ከፍተኛ": 5136,
      "Bel": 5137,
      "n.": 5138,
      "ስር": 5139,
      "ኞች": 5140,
      "sub": 5141,
      "sunan": 5142,
      "Alex": 5143,
      "sàn": 5144,
      "ሆነው": 5145,
      "de,": 5146,
      "alif": 5147,
      "sor": 5148,
      "gina": 5149,
      "Lon": 5150,
      "ሊያ": 5151,
      "ገለ": 5152,
      "ጎር": 5153,
      "gor": 5154,
      "omin": 5155,
      "isiwa": 5156,
      "im": 5157,
      "መሠ": 5158,
      "ገደ": 5159,
      "ṣẹ̀": 5160,
      "anza": 5161,
      "ler": 5162,
      "kula": 5163,
      "gas": 5164,
      "gharibi": 5165,
      "vari": 5166,
      "ግር": 5167,
      "digi": 5168,
      "kópa": 5169,
      "William": 5170,
      "በል": 5171,
      "ls": 5172,
      "ême": 5173,
      "Pau": 5174,
      "ime": 5175,
      "gbó": 5176,
      "A.": 5177,
      "tor": 5178,
      "tẹ́": 5179,
      "ክር": 5180,
      "ክርስቲያን": 5181,
      "Pres": 5182,
      "utili": 5183,
      "ይገኛ": 5184,
      "ité": 5185,
      "ib": 5186,
      "ras": 5187,
      "fanin": 5188,
      "ojú": 5189,
      "ገባ": 5190,
      "እግዚአብሔር": 5191,
      "mto": 5192,
      "ወንድ": 5193,
      "ዶች": 5194,
      "አንዱ": 5195,
      "k,": 5196,
      "tion,": 5197,
      "i.": 5198,
      "ማስ": 5199,
      "rie": 5200,
      "cti": 5201,
      "III": 5202,
      "uta": 5203,
      "yá": 5204,
      "pati": 5205,
      "Ade": 5206,
      "iki": 5207,
      "yọ": 5208,
      "ክፍል": 5209,
      "Rom": 5210,
      "ጠቅ": 5211,
      "ጦርነት": 5212,
      "ሩት": 5213,
      "ግል": 5214,
      "ẹlẹ́": 5215,
      "danar": 5216,
      "ts,": 5217,
      "ple": 5218,
      "al'": 5219,
      "mwandishi": 5220,
      "kas": 5221,
      "gida": 5222,
      "sauran": 5223,
      "biyar": 5224,
      "new": 5225,
      "እግር": 5226,
      "Oba": 5227,
      "tso": 5228,
      "erre": 5229,
      "ይስ": 5230,
      "vol": 5231,
      "ɗin": 5232,
      "እንደሚ": 5233,
      "asili": 5234,
      "ìpínlẹ̀": 5235,
      "muziki": 5236,
      "mbalimbali": 5237,
      "ትምህርት": 5238,
      "የነበረ": 5239,
      "toire": 5240,
      "jùlọ": 5241,
      "vis": 5242,
      "||": 5243,
      "ሞት": 5244,
      "ይች": 5245,
      "kék": 5246,
      "kili": 5247,
      "lui": 5248,
      "d'une": 5249,
      "aika": 5250,
      "kékeré": 5251,
      "vin": 5252,
      "lán": 5253,
      "sui": 5254,
      "ኒያ": 5255,
      "rú": 5256,
      "'est": 5257,
      "Ci": 5258,
      "dari": 5259,
      "ባር": 5260,
      "saboda": 5261,
      "መድ": 5262,
      "matai": 5263,
      "መጣ": 5264,
      "ingine": 5265,
      "gbègbè": 5266,
      "Amerika": 5267,
      "vir": 5268,
      "girma": 5269,
      "የስ": 5270,
      "rika": 5271,
      "àà": 5272,
      "lára": 5273,
      "pha": 5274,
      "Mon": 5275,
      "ቀር": 5276,
      "ፍት": 5277,
      "Babban": 5278,
      "samar": 5279,
      "ለን": 5280,
      "ደም": 5281,
      "ọ̀rọ̀": 5282,
      "w.": 5283,
      "ልክ": 5284,
      "gidan": 5285,
      "ደረገ": 5286,
      "Tara": 5287,
      "mman": 5288,
      "aru": 5289,
      "Ag": 5290,
      "tabi": 5291,
      "መጽሐ": 5292,
      "gbegbe": 5293,
      "Cor": 5294,
      "nà": 5295,
      "Ilé": 5296,
      "ተራ": 5297,
      "ቱም": 5298,
      "አረ": 5299,
      "haifi": 5300,
      "ẹni": 5301,
      "tele.": 5302,
      "kumbu": 5303,
      "አዲስ": 5304,
      "into": 5305,
      "National": 5306,
      "unt": 5307,
      "kwamba": 5308,
      "ቀት": 5309,
      "Sun": 5310,
      "Ex": 5311,
      "ato": 5312,
      "more": 5313,
      "ዕለ": 5314,
      "Ẹ̀": 5315,
      "ful": 5316,
      "Orodha": 5317,
      "sous": 5318,
      "ony": 5319,
      "ma.": 5320,
      "ዮን": 5321,
      "የመጀመሪያ": 5322,
      "We": 5323,
      "nuna": 5324,
      "ipa": 5325,
      "ራል": 5326,
      "አቆጣጠር": 5327,
      "በተለይ": 5328,
      "koloni": 5329,
      "line": 5330,
      "mwi": 5331,
      "que,": 5332,
      "cle": 5333,
      "http://": 5334,
      "ዋን": 5335,
      "vant": 5336,
      "አፍ": 5337,
      "oly": 5338,
      "láà": 5339,
      "centur": 5340,
      "ታል": 5341,
      "ṣi": 5342,
      "ከተሞች": 5343,
      "Ah": 5344,
      "domin": 5345,
      "óò": 5346,
      "kyau": 5347,
      "ክስ": 5348,
      "ters": 5349,
      "Ste": 5350,
      "በላ": 5351,
      "an,": 5352,
      "guda": 5353,
      "insi": 5354,
      "haka": 5355,
      "after": 5356,
      "mala": 5357,
      "ጥንታዊ": 5358,
      "sababu": 5359,
      "frança": 5360,
      "sẹ̀": 5361,
      "sìn": 5362,
      "mal": 5363,
      "Colle": 5364,
      "cond": 5365,
      "ሕዝብ": 5366,
      "ጠቃ": 5367,
      "ግብጽ": 5368,
      "aussi": 5369,
      "August": 5370,
      "London": 5371,
      "በጣ": 5372,
      "kusini": 5373,
      "old": 5374,
      "bisa": 5375,
      "fito": 5376,
      "kokin": 5377,
      "wood": 5378,
      "ology": 5379,
      "ድሞ": 5380,
      "eria": 5381,
      "Daga": 5382,
      "Aust": 5383,
      "mulkin": 5384,
      "ምዕራ": 5385,
      "ኩል": 5386,
      "International": 5387,
      "su.": 5388,
      "tangu": 5389,
      "ቀው": 5390,
      "ዳር": 5391,
      "ship": 5392,
      "Musul": 5393,
      "ani.": 5394,
      "tanen": 5395,
      "ራስ": 5396,
      "ክለ": 5397,
      "Kenya": 5398,
      "two": 5399,
      "በው": 5400,
      "anz": 5401,
      "urin": 5402,
      "gon": 5403,
      "ọ́ìdì": 5404,
      "fanya": 5405,
      "ẹ́rọ́ìdì": 5406,
      "ást": 5407,
      "under": 5408,
      "አበባ": 5409,
      "Arewa": 5410,
      "ander": 5411,
      "abu": 5412,
      "here": 5413,
      "ástẹ́rọ́ìdì": 5414,
      "ማኖ": 5415,
      "Pet": 5416,
      "ልዩ": 5417,
      "የሱ": 5418,
      "makarantar": 5419,
      "such": 5420,
      "kia": 5421,
      "(S": 5422,
      "Kara": 5423,
      "fait": 5424,
      "Hausa": 5425,
      "gí": 5426,
      "ogun": 5427,
      "በፊት": 5428,
      "ከሚ": 5429,
      "yenye": 5430,
      "Her": 5431,
      "bùn": 5432,
      "ème": 5433,
      "cré": 5434,
      "ጥቅም": 5435,
      "tern": 5436,
      "usa": 5437,
      "This": 5438,
      "rìn": 5439,
      "Lá": 5440,
      "arabu": 5441,
      "pal": 5442,
      "tour": 5443,
      "ለያዩ": 5444,
      "tumi": 5445,
      "anzia": 5446,
      "Us": 5447,
      "vid": 5448,
      "ልድ": 5449,
      "samun": 5450,
      "60": 5451,
      "ላም": 5452,
      "siasa": 5453,
      "ታው": 5454,
      "rọ": 5455,
      "hivyo": 5456,
      "Jamhuri": 5457,
      "gùn": 5458,
      "Èkó": 5459,
      "ki,": 5460,
      "fá": 5461,
      "ካል": 5462,
      "tech": 5463,
      "filamu": 5464,
      "Ago": 5465,
      "anné": 5466,
      "toliki": 5467,
      "sic": 5468,
      "ined": 5469,
      "known": 5470,
      "ako": 5471,
      "yayin": 5472,
      "እነዚህ": 5473,
      "être": 5474,
      "over": 5475,
      "sina": 5476,
      "l,": 5477,
      "yon": 5478,
      "ዓመታት": 5479,
      ",000": 5480,
      "ọ̀kan": 5481,
      "ue": 5482,
      "ille": 5483,
      "ህል": 5484,
      "የሰ": 5485,
      "wer": 5486,
      "ተኛው": 5487,
      "tumia": 5488,
      "ወቅት": 5489,
      "wasa": 5490,
      "tish": 5491,
      "sup": 5492,
      "ሱም": 5493,
      "popu": 5494,
      "ነገሥታት": 5495,
      "méjì": 5496,
      "gano": 5497,
      "መጥ": 5498,
      "ቀጥ": 5499,
      "warar": 5500,
      "3-": 5501,
      "wajen": 5502,
      "person": 5503,
      "paka": 5504,
      "nombre": 5505,
      "South": 5506,
      "Bro": 5507,
      "ዮሐ": 5508,
      "manyan": 5509,
      "Tari": 5510,
      "rán": 5511,
      "cted": 5512,
      "plan": 5513,
      "ሮፓ": 5514,
      "Aus": 5515,
      "Ipinle": 5516,
      "Ufaransa": 5517,
      "185": 5518,
      "ma'": 5519,
      "ገኝ": 5520,
      "ፈል": 5521,
      "inf": 5522,
      "sanya": 5523,
      "Nijeriya.": 5524,
      "dition": 5525,
      "ተወ": 5526,
      "ይህም": 5527,
      "semb": 5528,
      "glish": 5529,
      "CO": 5530,
      "Fil": 5531,
      "rà": 5532,
      "tẹ": 5533,
      "ሪካዊ": 5534,
      "même": 5535,
      "gaji": 5536,
      "Italia": 5537,
      "clas": 5538,
      "sci": 5539,
      "inayo": 5540,
      "tatta": 5541,
      "lake": 5542,
      "tou": 5543,
      "níbi": 5544,
      "አይነት": 5545,
      "80": 5546,
      "በግ": 5547,
      "St": 5548,
      "ines": 5549,
      "Oṣù": 5550,
      "ረተ": 5551,
      "lect": 5552,
      "Of": 5553,
      "irin": 5554,
      "Gwa": 5555,
      "lis": 5556,
      "ley": 5557,
      "ojoibi": 5558,
      "Oc": 5559,
      "set": 5560,
      "weza": 5561,
      "English": 5562,
      "Ili": 5563,
      "plu": 5564,
      "en,": 5565,
      "Bor": 5566,
      "day": 5567,
      "lánẹ́": 5568,
      "ንና": 5569,
      "ነበረ።": 5570,
      "ጀርመን": 5571,
      "May": 5572,
      "ሬት": 5573,
      "Shugaban": 5574,
      "lor": 5575,
      "ures": 5576,
      "ማዕ": 5577,
      "ኳስ": 5578,
      "bayyana": 5579,
      "cette": 5580,
      "Allah": 5581,
      "koma": 5582,
      "184": 5583,
      "risti": 5584,
      "ባቸው": 5585,
      "ዮሐንስ": 5586,
      "ches": 5587,
      "huo": 5588,
      "dont": 5589,
      "Awọn": 5590,
      "ambayo": 5591,
      "lánẹ́tì": 5592,
      "uis": 5593,
      "they": 5594,
      "ስፋ": 5595,
      "ዕለት": 5596,
      "ìgbàjá": 5597,
      "Sy": 5598,
      "ከለ": 5599,
      "ጠረ": 5600,
      "ẹ̀yẹ": 5601,
      "yukan": 5602,
      "FA": 5603,
      "way": 5604,
      "enne": 5605,
      "géné": 5606,
      "Ce": 5607,
      "wri": 5608,
      "tical": 5609,
      "...": 5610,
      "gne": 5611,
      "yadda": 5612,
      "Januari": 5613,
      "sù": 5614,
      "የግ": 5615,
      "lau": 5616,
      "wadanda": 5617,
      "ning": 5618,
      "bas": 5619,
      "name": 5620,
      "ያም": 5621,
      "reli": 5622,
      "ጀመርያ": 5623,
      "China": 5624,
      "Nigerian": 5625,
      "tle": 5626,
      "Mal": 5627,
      "iko": 5628,
      "jari": 5629,
      "plánẹ́tì": 5630,
      "tẹ̀": 5631,
      "አድር": 5632,
      "kudu": 5633,
      "prof": 5634,
      "ties": 5635,
      "aliye": 5636,
      "Kad": 5637,
      "Wana": 5638,
      "Agosti": 5639,
      "bali": 5640,
      "voir": 5641,
      "wara": 5642,
      "ያዘ": 5643,
      "ashara": 5644,
      "language": 5645,
      "ሙሉ": 5646,
      "comm": 5647,
      "AN": 5648,
      "ሠራ": 5649,
      "ግድም": 5650,
      "wahili": 5651,
      "Ingila.": 5652,
      "kaskazini": 5653,
      "ft": 5654,
      "ተን": 5655,
      "ፕሬ": 5656,
      "bẹ́ẹ̀": 5657,
      "Duniya": 5658,
      "ères": 5659,
      "sho": 5660,
      "aṣ": 5661,
      "bro": 5662,
      "35": 5663,
      "aji": 5664,
      "31": 5665,
      "andi": 5666,
      "inu": 5667,
      "ብት": 5668,
      "orúkọ": 5669,
      "chagu": 5670,
      "serikali": 5671,
      "ástẹ́rọ́ìdì.": 5672,
      "Yuni": 5673,
      "jeshi": 5674,
      "ውድ": 5675,
      "ይን": 5676,
      "iso": 5677,
      "Lagos": 5678,
      "Zi": 5679,
      "ሪዎች": 5680,
      "Sar": 5681,
      "amp": 5682,
      "ገበ": 5683,
      "dist": 5684,
      "Lugha": 5685,
      "akwai": 5686,
      "islamu": 5687,
      "zikia": 5688,
      "አስተዳ": 5689,
      "Pri": 5690,
      "gani": 5691,
      "ዓት": 5692,
      "የሆነ": 5693,
      "ይለ": 5694,
      "end": 5695,
      "taba": 5696,
      "àmì": 5697,
      "fasi": 5698,
      "Historia": 5699,
      "ናል።": 5700,
      "ደው": 5701,
      "lat": 5702,
      "esti": 5703,
      "ብሔ": 5704,
      "ቴዎ": 5705,
      "ፈው": 5706,
      "Julai": 5707,
      "kand": 5708,
      "እም": 5709,
      "sie": 5710,
      "ፈረንሳይ": 5711,
      "endelea": 5712,
      "cher": 5713,
      "kh": 5714,
      "ሰን": 5715,
      "maeneo": 5716,
      "pita": 5717,
      "Ogun": 5718,
      "siyasa": 5719,
      "Mash": 5720,
      "Yar": 5721,
      "ker": 5722,
      "mbe": 5723,
      "ምንም": 5724,
      "Nchi": 5725,
      "akọ": 5726,
      "refu": 5727,
      "tele": 5728,
      "Roma": 5729,
      "ላክ": 5730,
      "gudanar": 5731,
      "public": 5732,
      "Dis": 5733,
      "Kat": 5734,
      "እው": 5735,
      "del": 5736,
      "city": 5737,
      "Saint": 5738,
      "Han": 5739,
      "jar": 5740,
      "ህዝብ": 5741,
      "መት": 5742,
      "ታሪካዊ": 5743,
      "ጨማሪ": 5744,
      "ned": 5745,
      "lógún": 5746,
      "bé": 5747,
      "bò": 5748,
      "ign": 5749,
      "Za": 5750,
      "ia": 5751,
      "pti": 5752,
      "ቲካ": 5753,
      "ences": 5754,
      "vern": 5755,
      "70": 5756,
      "die": 5757,
      "zer": 5758,
      "አቀ": 5759,
      "ki.": 5760,
      "ration": 5761,
      "ናል": 5762,
      "ገኙ": 5763,
      "suke": 5764,
      "gbajú": 5765,
      "istory": 5766,
      "Juni": 5767,
      "dó": 5768,
      "r.": 5769,
      "Mtakatifu": 5770,
      "princi": 5771,
      "kiya": 5772,
      "Machi": 5773,
      "El": 5774,
      "ough": 5775,
      "ልም": 5776,
      "Gra": 5777,
      "well": 5778,
      "tokea": 5779,
      "ርክ": 5780,
      "Mashariki": 5781,
      "gel": 5782,
      "dama": 5783,
      "lon": 5784,
      "ላለ": 5785,
      "ኢን": 5786,
      "ጥናት": 5787,
      "Bal": 5788,
      "kilo": 5789,
      "upe": 5790,
      "ìtọ́kasí": 5791,
      "ላዊ": 5792,
      "ይታወ": 5793,
      "Mai": 5794,
      "mbi": 5795,
      "consi": 5796,
      "ween": 5797,
      "ctions": 5798,
      "came": 5799,
      "አሜሪካ": 5800,
      "peke": 5801,
      "በጣም": 5802,
      "Ser": 5803,
      "TV": 5804,
      "rín": 5805,
      "ath": 5806,
      "tuna": 5807,
      "ould": 5808,
      "vile": 5809,
      "form": 5810,
      "ምክንያት": 5811,
      "Anna": 5812,
      "አማ": 5813,
      "gizaji": 5814,
      "ራቸው": 5815,
      "ይት": 5816,
      "Najeriya,": 5817,
      "cts": 5818,
      "wípé": 5819,
      "Kaduna": 5820,
      "tafi": 5821,
      "ered": 5822,
      "abo": 5823,
      "yayi": 5824,
      "Wakristo": 5825,
      "cade": 5826,
      "Aare": 5827,
      "ህን": 5828,
      "Mala": 5829,
      "kina": 5830,
      "BN": 5831,
      "ሰር": 5832,
      "autres": 5833,
      "vement": 5834,
      "York": 5835,
      "Orí": 5836,
      "ባሕ": 5837,
      "tak": 5838,
      "ዎችን": 5839,
      "ደረጃ": 5840,
      "Abdu": 5841,
      "State": 5842,
      "partic": 5843,
      "cess": 5844,
      "mfalme": 5845,
      "ልማ": 5846,
      "tat": 5847,
      "Mei": 5848,
      "ated": 5849,
      "cus": 5850,
      "Awon": 5851,
      "jour": 5852,
      "gabatar": 5853,
      "ሳብ": 5854,
      "መነ": 5855,
      "Tazama": 5856,
      "ance": 5857,
      "የኤ": 5858,
      "fuat": 5859,
      "2011": 5860,
      "bú": 5861,
      "ደል": 5862,
      "ዓመቱ": 5863,
      "act": 5864,
      "vé": 5865,
      "90": 5866,
      "መንገድ": 5867,
      "West": 5868,
      "contin": 5869,
      "Party": 5870,
      "agba": 5871,
      "ሮማ": 5872,
      "many": 5873,
      "Ibi": 5874,
      "tex": 5875,
      "lack": 5876,
      "biashara": 5877,
      "uba": 5878,
      "ዮች": 5879,
      "cember": 5880,
      "ganda": 5881,
      "dára": 5882,
      "karibu": 5883,
      "January": 5884,
      "àkọ́kọ́": 5885,
      "wanci": 5886,
      "yao": 5887,
      "Dar": 5888,
      "Ed": 5889,
      "aye": 5890,
      "mò": 5891,
      "teurs": 5892,
      "arewa": 5893,
      "ወንዝ": 5894,
      "bra": 5895,
      "ልጆች": 5896,
      "Muhammad": 5897,
      "yer": 5898,
      "maza": 5899,
      "pendan": 5900,
      "alo": 5901,
      "fen": 5902,
      "tọ̀": 5903,
      "ምህ": 5904,
      "ዛሬ": 5905,
      "waje": 5906,
      "vision": 5907,
      "RD1-": 5908,
      "AS": 5909,
      "impor": 5910,
      "só": 5911,
      "Hen": 5912,
      "mat": 5913,
      "September": 5914,
      "'an": 5915,
      "የካ": 5916,
      "volu": 5917,
      "yamma": 5918,
      "ይወት": 5919,
      "Dese": 5920,
      "Pu": 5921,
      "Itali": 5922,
      "ነጻ": 5923,
      "kamma": 5924,
      "(198": 5925,
      "ino": 5926,
      "2015": 5927,
      "nis": 5928,
      "zungu": 5929,
      "ውም": 5930,
      "kuli": 5931,
      "sè": 5932,
      "ምስ": 5933,
      "may": 5934,
      "ung": 5935,
      "የበ": 5936,
      "kir": 5937,
      "lọ́wọ́": 5938,
      "zon": 5939,
      "ress": 5940,
      "37": 5941,
      "àgbà": 5942,
      "ሙዚ": 5943,
      "ofu": 5944,
      "December": 5945,
      "clo": 5946,
      "rais": 5947,
      "mìn": 5948,
      "ቶስ": 5949,
      "huko": 5950,
      "2007": 5951,
      "ɗaya": 5952,
      "ሃይማኖ": 5953,
      "Desemba": 5954,
      "www.": 5955,
      "ከት": 5956,
      "birni": 5957,
      "score": 5958,
      "bari": 5959,
      "utar": 5960,
      "ሳዊ": 5961,
      "unda": 5962,
      "thio": 5963,
      "kammala": 5964,
      "Es": 5965,
      "ይህን": 5966,
      "taifa": 5967,
      "nou": 5968,
      "dépar": 5969,
      "Ulaya": 5970,
      "agbègbè": 5971,
      "kù": 5972,
      "tori": 5973,
      "vre": 5974,
      "kuanzia": 5975,
      "እንዲህ": 5976,
      "jirgin": 5977,
      "jé": 5978,
      "agbá": 5979,
      "padà": 5980,
      "Rayu": 5981,
      "Aprili": 5982,
      "sake": 5983,
      "tofa": 5984,
      "2010": 5985,
      "pt": 5986,
      "ልብ": 5987,
      "ኛ፦": 5988,
      "leo": 5989,
      "Rais": 5990,
      "'in": 5991,
      "thé": 5992,
      "ani,": 5993,
      "pele": 5994,
      "masa": 5995,
      "dili": 5996,
      "kumomin": 5997,
      "Septemba": 5998,
      "Zam": 5999,
      "aga": 6000,
      "36": 6001,
      "uko": 6002,
      "ም፣": 6003,
      "Naijiria": 6004,
      "Ori": 6005,
      "peut": 6006,
      "grand": 6007,
      "ርድ": 6008,
      "orun": 6009,
      "wọ̀n": 6010,
      "between": 6011,
      "quel": 6012,
      "rough": 6013,
      "hàn": 6014,
      "ተብሎ": 6015,
      "commun": 6016,
      "hukumar": 6017,
      "8-": 6018,
      "Air": 6019,
      "ንቲ": 6020,
      "አፈ": 6021,
      "iru": 6022,
      "መልክ": 6023,
      "Abi": 6024,
      "Wal": 6025,
      "àgbé": 6026,
      "መው": 6027,
      "ጎን": 6028,
      "Mji": 6029,
      "bìnrin": 6030,
      "በቅ": 6031,
      "ብረት": 6032,
      "als": 6033,
      "chake": 6034,
      "(19": 6035,
      "alth": 6036,
      "''": 6037,
      "ሉቃ": 6038,
      "የአሜሪካ": 6039,
      "Ay": 6040,
      "mama": 6041,
      "2012": 6042,
      "kundi": 6043,
      "ሆነ።": 6044,
      "kwaikwa": 6045,
      "ቋንቋዎች": 6046,
      "long": 6047,
      "pra": 6048,
      "éga": 6049,
      "Atlan": 6050,
      "jum": 6051,
      "ṣu": 6052,
      "James": 6053,
      "Amurka": 6054,
      "US": 6055,
      "Áf": 6056,
      "ፓር": 6057,
      "ind": 6058,
      "visiwa": 6059,
      "ila": 6060,
      "jus": 6061,
      "mic": 6062,
      "Mto": 6063,
      "Sh": 6064,
      "waɗan": 6065,
      "pris": 6066,
      "where": 6067,
      "ል፣": 6068,
      "anar": 6069,
      "kuta": 6070,
      "yara": 6071,
      "መንግስት": 6072,
      "iye": 6073,
      "ሚኒ": 6074,
      "እየ": 6075,
      "mi,": 6076,
      "tia": 6077,
      "(ከ": 6078,
      "ይቀ": 6079,
      "ልጣን": 6080,
      "180": 6081,
      "2014": 6082,
      "British": 6083,
      "suc": 6084,
      "2006": 6085,
      "ked": 6086,
      "Pla": 6087,
      "Ìtọ́kasí": 6088,
      "ular": 6089,
      "ስለዚህ": 6090,
      "ṣèlú": 6091,
      "fol": 6092,
      "when": 6093,
      "di,": 6094,
      "Jose": 6095,
      "igba": 6096,
      "ሊክ": 6097,
      "ደጋ": 6098,
      "historia": 6099,
      "ለምሳሌ": 6100,
      "art": 6101,
      "samman": 6102,
      "ISBN": 6103,
      "Ac": 6104,
      "eli": 6105,
      "iste": 6106,
      "C.": 6107,
      "ሀገ": 6108,
      "very": 6109,
      "kọ̀ọ́": 6110,
      "ወረዳ": 6111,
      "ìmù": 6112,
      "ልግ": 6113,
      "እያ": 6114,
      "tala": 6115,
      "እንጂ": 6116,
      "mwigizaji": 6117,
      "uhuru": 6118,
      "àì": 6119,
      "ፖለ": 6120,
      "Februari": 6121,
      "ss": 6122,
      "nal": 6123,
      "Àà": 6124,
      "kutokana": 6125,
      "ọ̀pọ̀": 6126,
      "br": 6127,
      "ረብ": 6128,
      "ጉዳ": 6129,
      "ፈለ": 6130,
      "mash": 6131,
      "fannin": 6132,
      "Lan": 6133,
      "mati": 6134,
      "halar": 6135,
      "off": 6136,
      "tofauti": 6137,
      "tsi": 6138,
      "les,": 6139,
      "Iba": 6140,
      "ሉቃስ": 6141,
      "FI": 6142,
      "Ethio": 6143,
      "አዳ": 6144,
      "mutanen": 6145,
      "sani": 6146,
      "tab": 6147,
      "VI": 6148,
      "òrùn": 6149,
      "ብለው": 6150,
      "ጽሑ": 6151,
      "kila": 6152,
      "Watu": 6153,
      "Novemba": 6154,
      "ndani": 6155,
      "(P": 6156,
      "maru": 6157,
      "Austra": 6158,
      "dra": 6159,
      "George": 6160,
      "ṣí": 6161,
      "ine,": 6162,
      "በሽ": 6163,
      "ዋቂ": 6164,
      "kiyar": 6165,
      "náà.": 6166,
      "ነበሩ።": 6167,
      "Lou": 6168,
      "ombe": 6169,
      "ìtàn": 6170,
      "45": 6171,
      "work": 6172,
      "Des": 6173,
      "mur": 6174,
      "àwon": 6175,
      "only": 6176,
      "cture": 6177,
      "States": 6178,
      "ኖሩ": 6179,
      "trou": 6180,
      "ainsi": 6181,
      "exp": 6182,
      "ስሙ": 6183,
      "baba": 6184,
      "Tun": 6185,
      "ይዘ": 6186,
      "አለቃ": 6187,
      "minist": 6188,
      "gram": 6189,
      "Mil": 6190,
      "atta": 6191,
      "ከተማው": 6192,
      "kilomita": 6193,
      "yay": 6194,
      "fore": 6195,
      "pelu": 6196,
      "Agba": 6197,
      "ኖስ": 6198,
      "omini": 6199,
      "zamani": 6200,
      "offici": 6201,
      "France": 6202,
      "hol": 6203,
      "sing": 6204,
      "Majalisar": 6205,
      "karamar": 6206,
      "4-": 6207,
      "gawa": 6208,
      "jet": 6209,
      "yóò": 6210,
      "ተፈ": 6211,
      "film": 6212,
      "Bahari": 6213,
      "mission": 6214,
      "አሁን": 6215,
      "cis": 6216,
      "fini": 6217,
      "Kẹ": 6218,
      "naa": 6219,
      "2000": 6220,
      "City": 6221,
      "jí": 6222,
      "jeo": 6223,
      "number": 6224,
      "ተና": 6225,
      "ጥሩ": 6226,
      "katoliki": 6227,
      "ይባላል።": 6228,
      "ṣeré": 6229,
      "kashin": 6230,
      "juli": 6231,
      "Jina": 6232,
      "Tana": 6233,
      "g,": 6234,
      "የእስ": 6235,
      "Lat": 6236,
      "bus": 6237,
      "ቻይና": 6238,
      "ጮች": 6239,
      "ነገሮች": 6240,
      "jọba": 6241,
      "then": 6242,
      "gent": 6243,
      "መዝ": 6244,
      "ኔታ": 6245,
      "tsarin": 6246,
      "ola": 6247,
      "wilaya": 6248,
      "መጨረሻ": 6249,
      "about": 6250,
      "utawala": 6251,
      "ላማ": 6252,
      "ወች": 6253,
      "site": 6254,
      "(N": 6255,
      "ver,": 6256,
      "tés": 6257,
      "position": 6258,
      "Gir": 6259,
      "November": 6260,
      "dou": 6261,
      "Bas": 6262,
      "Cent": 6263,
      "dù": 6264,
      "histori": 6265,
      "àkó": 6266,
      "ረዳ": 6267,
      "ሮስ": 6268,
      "nation": 6269,
      "mataifa": 6270,
      "Octo": 6271,
      "mocra": 6272,
      "2003": 6273,
      "Charles": 6274,
      "tá": 6275,
      "usta": 6276,
      "እንስ": 6277,
      "group": 6278,
      "ፖለቲካ": 6279,
      "በም": 6280,
      "ፍል": 6281,
      "hala": 6282,
      "የሚለው": 6283,
      "ps": 6284,
      "omen": 6285,
      "de.": 6286,
      "sia": 6287,
      "97": 6288,
      "Tare": 6289,
      "(M": 6290,
      "ero": 6291,
      "syste": 6292,
      "6-": 6293,
      "Che": 6294,
      "Den": 6295,
      "ሶች": 6296,
      "ድል": 6297,
      "ws": 6298,
      "lafi": 6299,
      "tics": 6300,
      "February": 6301,
      "idi": 6302,
      "gbon": 6303,
      "during": 6304,
      "Pre": 6305,
      "Sal": 6306,
      "ate": 6307,
      "stu": 6308,
      "òun": 6309,
      "net": 6310,
      "terri": 6311,
      "century": 6312,
      "(ojoibi": 6313,
      "ዋቢ": 6314,
      "ዝርዝር": 6315,
      "dali": 6316,
      "habi": 6317,
      "2005": 6318,
      "se,": 6319,
      "karni": 6320,
      "Katsina": 6321,
      "cial": 6322,
      "ette": 6323,
      "Sam": 6324,
      "ci,": 6325,
      "ድርጅ": 6326,
      "to,": 6327,
      "musul": 6328,
      "መጀመርያ": 6329,
      "nement": 6330,
      "qu'il": 6331,
      "ilé-ẹ̀kọ́": 6332,
      "lina": 6333,
      "où": 6334,
      "fois": 6335,
      "ologie": 6336,
      "c,": 6337,
      "የኢ": 6338,
      "ደራ": 6339,
      "maa": 6340,
      "aláì": 6341,
      "digiri": 6342,
      "ti,": 6343,
      "esha": 6344,
      "Kano": 6345,
      "mpire": 6346,
      "'Yan": 6347,
      "hukumomin": 6348,
      "u.": 6349,
      "March": 6350,
      "Cam": 6351,
      "ረም": 6352,
      "ይሆ": 6353,
      "1960": 6354,
      "également": 6355,
      "October": 6356,
      "ት፣": 6357,
      "lashe": 6358,
      "koso": 6359,
      "nínu": 6360,
      "darí": 6361,
      "1892": 6362,
      "መጽሐፍ": 6363,
      "vernment": 6364,
      "Ver": 6365,
      "nel": 6366,
      "fano": 6367,
      "ሕዝ": 6368,
      "milli": 6369,
      "ክሉ": 6370,
      "conomi": 6371,
      "rasmi": 6372,
      "faf": 6373,
      "manin": 6374,
      "ami": 6375,
      "lejin": 6376,
      "olly": 6377,
      "ነው፡፡": 6378,
      "Sara": 6379,
      "2013": 6380,
      "ን፡": 6381,
      "ẹ̀ẹ́": 6382,
      "ter,": 6383,
      "wezi": 6384,
      "ክርስቶስ": 6385,
      "alors": 6386,
      "ነሳ": 6387,
      "musamman": 6388,
      "አንዳ": 6389,
      "Dola": 6390,
      "Faransa": 6391,
      "kw": 6392,
      "UN": 6393,
      "mkubwa": 6394,
      "binci": 6395,
      "ሎት": 6396,
      "iwe": 6397,
      "litta": 6398,
      "Del": 6399,
      "-o": 6400,
      "ts.": 6401,
      "34": 6402,
      "arti": 6403,
      "loso": 6404,
      "Jean": 6405,
      "ነቱ": 6406,
      "rẹ̀.": 6407,
      "Siku": 6408,
      "partie": 6409,
      "Tra": 6410,
      "tú": 6411,
      "ume": 6412,
      "እኔ": 6413,
      "esta": 6414,
      "is.": 6415,
      "there": 6416,
      "mutum": 6417,
      "nau": 6418,
      "pes": 6419,
      "ከሰ": 6420,
      "Kiingereza": 6421,
      "julo": 6422,
      "anga": 6423,
      "Gree": 6424,
      "Tai": 6425,
      "mwan": 6426,
      "ẹlẹ́bùn": 6427,
      "Chan": 6428,
      "kuji": 6429,
      "College": 6430,
      "ለች": 6431,
      "bahari": 6432,
      "Ibadan": 6433,
      "Ele": 6434,
      "dri": 6435,
      "pania": 6436,
      "ሁኔታ": 6437,
      "in.": 6438,
      "let": 6439,
      "sinimá": 6440,
      "pẹlu": 6441,
      "ال": 6442,
      "miji": 6443,
      "Adé": 6444,
      "ròyìn": 6445,
      "hom": 6446,
      "char": 6447,
      "ቢሆን": 6448,
      "yal": 6449,
      "fíìmù": 6450,
      "North": 6451,
      "kwaikwayo": 6452,
      "Kir": 6453,
      "arab": 6454,
      "population": 6455,
      "ሁኑ": 6456,
      "ካር": 6457,
      "ጠው": 6458,
      "Ààrẹ": 6459,
      "Fasi": 6460,
      "Stu": 6461,
      "sas": 6462,
      "Sala": 6463,
      "Kuna": 6464,
      "ées": 6465,
      "ሀገር": 6466,
      "magharibi": 6467,
      "would": 6468,
      "July": 6469,
      "Oló": 6470,
      "ከር": 6471,
      "ṣiṣẹ́": 6472,
      "yoyi": 6473,
      "wón": 6474,
      "zed": 6475,
      "ፈን": 6476,
      "ፋት": 6477,
      "jagor": 6478,
      "አመት": 6479,
      "Japan": 6480,
      "kamfanin": 6481,
      "ዲያ": 6482,
      "መንፈ": 6483,
      "on.": 6484,
      "Asia": 6485,
      "ነጋ": 6486,
      "mace": 6487,
      "Al-": 6488,
      "Fizikia": 6489,
      "gbajúmọ̀": 6490,
      "1999": 6491,
      "ቅድ": 6492,
      "mali": 6493,
      "Mutane": 6494,
      "wájú": 6495,
      "Fasihi": 6496,
      "ijoba": 6497,
      "llo": 6498,
      "organ": 6499,
      "tout": 6500,
      "idadi": 6501,
      "yote": 6502,
      "tto": 6503,
      "አይደ": 6504,
      "thern": 6505,
      "ko,": 6506,
      "ville": 6507,
      "ስ፣": 6508,
      "ፍጥ": 6509,
      "gbọ̀n": 6510,
      "wiki": 6511,
      "pàá": 6512,
      "ተሰ": 6513,
      "ane": 6514,
      "መራ": 6515,
      "መሆኑ": 6516,
      "ruwa": 6517,
      "asalin": 6518,
      "moder": 6519,
      "2016": 6520,
      "አለው": 6521,
      "ያህል": 6522,
      "malla": 6523,
      "karkashin": 6524,
      "haifin": 6525,
      "ayyukan": 6526,
      "lambar": 6527,
      "rayuwa": 6528,
      "Kiswahili": 6529,
      "inú": 6530,
      "kiri": 6531,
      "constitu": 6532,
      "stan": 6533,
      "አያ": 6534,
      "maj": 6535,
      "ing,": 6536,
      "ሙዚቃ": 6537,
      "IV": 6538,
      "da.": 6539,
      "graphi": 6540,
      "ቀበ": 6541,
      "ቁር": 6542,
      "tion.": 6543,
      "hukuma": 6544,
      "ማርቆ": 6545,
      "shirye": 6546,
      "techni": 6547,
      "Cro": 6548,
      "iṣẹ": 6549,
      "torí": 6550,
      "ራን": 6551,
      "ቻቸው": 6552,
      "péri": 6553,
      "julikana": 6554,
      "Ak": 6555,
      "appel": 6556,
      "Don": 6557,
      "Mkoa": 6558,
      "Prin": 6559,
      "kayan": 6560,
      "ẹ̀yà": 6561,
      "ase": 6562,
      "()": 6563,
      "91": 6564,
      "ga,": 6565,
      "Lẹ́": 6566,
      "ፈላ": 6567,
      "able": 6568,
      "በአንድ": 6569,
      "Kananan": 6570,
      "lẹ́yìn": 6571,
      "ይስጥ": 6572,
      "diyo": 6573,
      "gbẹ": 6574,
      "keo": 6575,
      "Marejeo": 6576,
      "patikana": 6577,
      "Aba": 6578,
      "Olu": 6579,
      "Mungu": 6580,
      "gur": 6581,
      "n,": 6582,
      "ዘጋ": 6583,
      "yabo": 6584,
      "ምንጮች": 6585,
      "Kongo": 6586,
      "gran": 6587,
      "tif": 6588,
      "musi": 6589,
      "fur": 6590,
      "ገዛ": 6591,
      "ጌታ": 6592,
      "yansi": 6593,
      "rench": 6594,
      "Tiba": 6595,
      "ራዊት": 6596,
      "Haifaf": 6597,
      "ይገኛል።": 6598,
      "tsohon": 6599,
      "sà": 6600,
      "pays": 6601,
      "|-": 6602,
      "ም፡": 6603,
      "ስላ": 6604,
      "ታዋቂ": 6605,
      "ንጉስ": 6606,
      "département": 6607,
      "Joseph": 6608,
      "mashariki": 6609,
      "Acade": 6610,
      "arch": 6611,
      "hesa": 6612,
      "òfin": 6613,
      "fai": 6614,
      "2009": 6615,
      "forme": 6616,
      "em": 6617,
      "nada": 6618,
      "sive": 6619,
      "Kuma": 6620,
      "B.": 6621,
      "kifo": 6622,
      "sul": 6623,
      "kwallon": 6624,
      "shirin": 6625,
      "compo": 6626,
      "የላ": 6627,
      "dévelop": 6628,
      "ምዕራብ": 6629,
      "Gen": 6630,
      "mand": 6631,
      "via": 6632,
      "June": 6633,
      "ቷል።": 6634,
      "fia": 6635,
      "situ": 6636,
      "ged": 6637,
      "zin": 6638,
      "ጋራ": 6639,
      "son,": 6640,
      "ongozi": 6641,
      "selu": 6642,
      "ሥርወ": 6643,
      "Uru": 6644,
      "mare": 6645,
      "adar": 6646,
      "ማረ": 6647,
      "Roma,": 6648,
      "lọpọ̀": 6649,
      "Haifaffun": 6650,
      "lì": 6651,
      "’ar": 6652,
      "high": 6653,
      "tena": 6654,
      "était": 6655,
      "fẹ̀": 6656,
      "p.": 6657,
      "ወል": 6658,
      "inst": 6659,
      "shed": 6660,
      "የተሰ": 6661,
      "Kudu": 6662,
      "Christi": 6663,
      "tus": 6664,
      "huwa": 6665,
      "2008": 6666,
      "Bí": 6667,
      "መሪ": 6668,
      "መሳ": 6669,
      "ፕሮ": 6670,
      "kusa": 6671,
      "AD": 6672,
      "French": 6673,
      "Jac": 6674,
      "Val": 6675,
      "(T": 6676,
      "pili": 6677,
      "http://www.": 6678,
      "ወገን": 6679,
      "hudu": 6680,
      "became": 6681,
      "Miji": 6682,
      "Gar": 6683,
      "h,": 6684,
      "hata": 6685,
      "viron": 6686,
      "(I": 6687,
      "win": 6688,
      "kuhusu": 6689,
      "fasa": 6690,
      "called": 6691,
      "nyingine": 6692,
      "kis": 6693,
      "goma": 6694,
      "taire": 6695,
      "ፈርዖ": 6696,
      "ባህር": 6697,
      "kùnrin": 6698,
      "ng": 6699,
      "ambao": 6700,
      "አሸ": 6701,
      "ይመስ": 6702,
      "gbọ́": 6703,
      "ብርሃ": 6704,
      "kata": 6705,
      "re,": 6706,
      "yika": 6707,
      "Paul": 6708,
      "gori": 6709,
      "ƙi": 6710,
      "ችው": 6711,
      "ንት": 6712,
      "huwar": 6713,
      "que.": 6714,
      "permet": 6715,
      "'yar": 6716,
      "talla": 6717,
      "karatu": 6718,
      "binrin": 6719,
      "eniyan": 6720,
      "’a": 6721,
      "unge": 6722,
      "sour": 6723,
      "place": 6724,
      "ስቴ": 6725,
      "ክፍላ": 6726,
      "ria.": 6727,
      "premier": 6728,
      "ጋል": 6729,
      "ፓን": 6730,
      "ents": 6731,
      "lẹ̀-èdè": 6732,
      "በተጨማሪ": 6733,
      "Kanisa": 6734,
      "cè": 6735,
      "yari": 6736,
      "vili": 6737,
      "ale": 6738,
      "njia": 6739,
      "ልት": 6740,
      "ፎች": 6741,
      "BBC": 6742,
      "mnan": 6743,
      "culture": 6744,
      "Roman": 6745,
      "\")": 6746,
      "Dans": 6747,
      "très": 6748,
      "እየተ": 6749,
      "après": 6750,
      "አገልግ": 6751,
      "ታላቅ": 6752,
      "Musulunci": 6753,
      "2004": 6754,
      "ilimi": 6755,
      "yayyun": 6756,
      "gn": 6757,
      "later": 6758,
      "bes": 6759,
      "ọn": 6760,
      "ento": 6761,
      "himu": 6762,
      "tano": 6763,
      "région": 6764,
      "kunan": 6765,
      "jerin": 6766,
      "2017": 6767,
      "apa": 6768,
      "በዚያ": 6769,
      "ወታ": 6770,
      "riwa": 6771,
      "cause": 6772,
      "Sin": 6773,
      "mil": 6774,
      "zake": 6775,
      "through": 6776,
      "Anti": 6777,
      "Yamma": 6778,
      "mbili": 6779,
      "ሩን": 6780,
      "ety": 6781,
      "mìnà": 6782,
      "kra": 6783,
      "second": 6784,
      "ographi": 6785,
      "Ebun": 6786,
      "Fin": 6787,
      "bọ́": 6788,
      "pwani": 6789,
      "majalisar": 6790,
      "ashi": 6791,
      "wote": 6792,
      "Alexander": 6793,
      "Musa": 6794,
      "ollywood": 6795,
      "Kasa": 6796,
      "»,": 6797,
      "ly,": 6798,
      "mari": 6799,
      "kab": 6800,
      "urch": 6801,
      "constru": 6802,
      "sieurs": 6803,
      "eyi": 6804,
      "ጣት": 6805,
      "takar": 6806,
      "Wannan": 6807,
      "v.": 6808,
      "lead": 6809,
      "Lam": 6810,
      "hùn": 6811,
      "ሳን": 6812,
      "ብሪ": 6813,
      "አላ": 6814,
      "archi": 6815,
      "respon": 6816,
      "1980": 6817,
      "Kemia": 6818,
      "39": 6819,
      "kuku": 6820,
      "ብላ": 6821,
      "ዚሁ": 6822,
      "የታ": 6823,
      "ጋይ": 6824,
      "bakar": 6825,
      "elles": 6826,
      "origin": 6827,
      "ቶችን": 6828,
      "Rayayyun": 6829,
      "ይታወቃ": 6830,
      "75": 6831,
      "Kai": 6832,
      "fina-": 6833,
      "(በ": 6834,
      "ባን": 6835,
      "state": 6836,
      "masana": 6837,
      "gá": 6838,
      "oko": 6839,
      "rap": 6840,
      "ዘመናዊ": 6841,
      "kawaida": 6842,
      "Kaskazini": 6843,
      "መሠረት": 6844,
      "années": 6845,
      "Pr": 6846,
      "ጥሮ": 6847,
      "peu": 6848,
      "people": 6849,
      "opé": 6850,
      "air": 6851,
      "uses": 6852,
      "-ì": 6853,
      "Pen": 6854,
      "mìí": 6855,
      "ሜትር": 6856,
      "table": 6857,
      "tẹ́lẹ̀": 6858,
      "ule": 6859,
      "cifi": 6860,
      "Ai": 6861,
      "bẹ": 6862,
      "jẹ̀": 6863,
      "ማቴዎ": 6864,
      "ሳቸው": 6865,
      "ፍሬ": 6866,
      "ጣልያን": 6867,
      "e-": 6868,
      "onge": 6869,
      "ómìnà": 6870,
      "ሲን": 6871,
      "ግባ": 6872,
      "Tanzani": 6873,
      "term": 6874,
      "zil": 6875,
      "ce-": 6876,
      "muhimu": 6877,
      "écri": 6878,
      "ball": 6879,
      "rik": 6880,
      "tanga": 6881,
      "People": 6882,
      "Iṣẹ́": 6883,
      "Omo": 6884,
      "ገል": 6885,
      "badili": 6886,
      "gene": 6887,
      "informa": 6888,
      "us.": 6889,
      "Open": 6890,
      "cla": 6891,
      "rest": 6892,
      "wenyewe": 6893,
      "Wilaya": 6894,
      "Tangu": 6895,
      "Mor": 6896,
      "ሳል": 6897,
      "ናን": 6898,
      "lokaci": 6899,
      "waɗanda": 6900,
      "Pas": 6901,
      "Island": 6902,
      "ለች።": 6903,
      "ኮች": 6904,
      "1990": 6905,
      "léwò": 6906,
      "ilimin": 6907,
      "n.k.": 6908,
      "al'um": 6909,
      "(\"": 6910,
      "ሎን": 6911,
      "ራሉ።": 6912,
      "yuka": 6913,
      "AC": 6914,
      "anta": 6915,
      "ንጉሠ": 6916,
      "olórin": 6917,
      "Mer": 6918,
      "tel": 6919,
      "wed": 6920,
      "Kiarabu": 6921,
      "1970": 6922,
      "magana": 6923,
      "tent": 6924,
      "Ibra": 6925,
      "Empire": 6926,
      "d-": 6927,
      "ማህ": 6928,
      "life": 6929,
      "français": 6930,
      "Tho": 6931,
      "gẹ": 6932,
      "oloselu": 6933,
      "mwanamuziki": 6934,
      "ሆኖም": 6935,
      "ወለደ": 6936,
      "Kin": 6937,
      "».": 6938,
      "mfu": 6939,
      "nigba": 6940,
      "ject": 6941,
      "ፓርቲ": 6942,
      "depen": 6943,
      "My": 6944,
      "Vol": 6945,
      "«የ": 6946,
      "kabi": 6947,
      "olú": 6948,
      "farkon": 6949,
      "ref": 6950,
      "ተነ": 6951,
      "ዙሪያ": 6952,
      "ዝም": 6953,
      "urar": 6954,
      "stand": 6955,
      "elect": 6956,
      "chumi": 6957,
      "Ré": 6958,
      "star": 6959,
      "if": 6960,
      "ena": 6961,
      "yaani": 6962,
      "500": 6963,
      "Institu": 6964,
      "All": 6965,
      "rus": 6966,
      "መቀ": 6967,
      "like": 6968,
      "Baba": 6969,
      "ነገሠ": 6970,
      "bata": 6971,
      "(E": 6972,
      "bó": 6973,
      "en.": 6974,
      "kal": 6975,
      "entifi": 6976,
      "Black": 6977,
      "Gro": 6978,
      "dàn": 6979,
      "kya": 6980,
      "ዩኒ": 6981,
      "titu": 6982,
      "la.": 6983,
      "harshen": 6984,
      "/)": 6985,
      "di.": 6986,
      "የነበሩ": 6987,
      "ይሰ": 6988,
      "àgbéléwò": 6989,
      "siya": 6990,
      "33": 6991,
      "FM": 6992,
      "German": 6993,
      "Lit": 6994,
      "ቀረ": 6995,
      "made": 6996,
      "jimbo": 6997,
      "ድረግ": 6998,
      "Kwalejin": 6999,
      "finai": 7000,
      "ዕለታት": 7001,
      "ky": 7002,
      "sol": 7003,
      "olog": 7004,
      "four": 7005,
      "ዮር": 7006,
      "ji,": 7007,
      "ped": 7008,
      "dhaa": 7009,
      "diffé": 7010,
      "mìíràn": 7011,
      "Dur": 7012,
      "Eli": 7013,
      "eur": 7014,
      "ፈት": 7015,
      "Love": 7016,
      "obìnrin": 7017,
      "አንዳንድ": 7018,
      "natur": 7019,
      "sasa": 7020,
      "Wakati": 7021,
      "Awards": 7022,
      "influ": 7023,
      "halarci": 7024,
      "Tarehe": 7025,
      "BA": 7026,
      "DP": 7027,
      "Ibrahim": 7028,
      "Alá": 7029,
      "Vo": 7030,
      "ሩ።": 7031,
      "ባዊ": 7032,
      "three": 7033,
      "tamment": 7034,
      "lors": 7035,
      "sans": 7036,
      "2002": 7037,
      "hoto": 7038,
      "rún": 7039,
      "ከበ": 7040,
      "Soci": 7041,
      "gwamnatin": 7042,
      "ዘን": 7043,
      "ይጠ": 7044,
      "ገዳ": 7045,
      "damu": 7046,
      "kusan": 7047,
      "lọ́dún": 7048,
      "ገኘው": 7049,
      "Ahma": 7050,
      "5-": 7051,
      "ode": 7052,
      "zabe": 7053,
      "being": 7054,
      ")፣": 7055,
      "Kyau": 7056,
      "Pat": 7057,
      "roni": 7058,
      "በየ": 7059,
      "ከራ": 7060,
      "notamment": 7061,
      "Alakoso": 7062,
      "rubuta": 7063,
      "April": 7064,
      "agbegbe": 7065,
      "kisiwa": 7066,
      "ቀናት": 7067,
      "ባሉ": 7068,
      "ግጥ": 7069,
      "er.": 7070,
      "sifi": 7071,
      "zaben": 7072,
      "sosai": 7073,
      "cutar": 7074,
      "Abubakar": 7075,
      "tarihi": 7076,
      "gíga": 7077,
      "t-": 7078,
      "tains": 7079,
      "And": 7080,
      "ክራ": 7081,
      "lic": 7082,
      "J.": 7083,
      "neman": 7084,
      "ford": 7085,
      "7-": 7086,
      "ሥላ": 7087,
      "አጥ": 7088,
      "kiran": 7089,
      "ric": 7090,
      "sociation": 7091,
      "Can": 7092,
      "Academy": 7093,
      "Huku": 7094,
      "Yana": 7095,
      "kún": 7096,
      "husi": 7097,
      "veau": 7098,
      "book": 7099,
      "አካል": 7100,
      "(197": 7101,
      "band": 7102,
      "David": 7103,
      "ipò": 7104,
      "ጠና": 7105,
      "gali": 7106,
      "face": 7107,
      "ክልል": 7108,
      "zinazo": 7109,
      "ààyè": 7110,
      "ባሕር": 7111,
      "AM": 7112,
      "tats": 7113,
      "including": 7114,
      "rẹ́": 7115,
      "ልደት": 7116,
      "ስያ": 7117,
      "enta": 7118,
      "ciki": 7119,
      "kasuwanci": 7120,
      "kistan": 7121,
      "mbu": 7122,
      "radi": 7123,
      "coun": 7124,
      "(የ": 7125,
      "Sch": 7126,
      "ቀል": 7127,
      "ọwọ́": 7128,
      "male": 7129,
      "bal": 7130,
      "abubu": 7131,
      "pekee": 7132,
      "ጽሑፍ": 7133,
      "tha": 7134,
      "amin": 7135,
      "bour": 7136,
      "hairi": 7137,
      "velopment": 7138,
      "uwan": 7139,
      "መጻ": 7140,
      "ሦስት": 7141,
      "ቀዳ": 7142,
      "ያሉ": 7143,
      "ገው": 7144,
      "any": 7145,
      "sation": 7146,
      "zilizo": 7147,
      "You": 7148,
      "years": 7149,
      "Lab": 7150,
      "Os": 7151,
      "dọ́": 7152,
      "owo": 7153,
      "ìgbé": 7154,
      "lewa": 7155,
      "mie": 7156,
      "exemp": 7157,
      "Annabi": 7158,
      "Uganda": 7159,
      "ile-": 7160,
      "an.": 7161,
      "ra,": 7162,
      "sìkò": 7163,
      "présent": 7164,
      "première": 7165,
      "plusieurs": 7166,
      "East": 7167,
      "early": 7168,
      "Umoja": 7169,
      "iṣ": 7170,
      "ón": 7171,
      "ዕል": 7172,
      "Ọjọ́": 7173,
      "dancin": 7174,
      "vuti": 7175,
      "ደብረ": 7176,
      "philoso": 7177,
      "ከብ": 7178,
      "ወዳ": 7179,
      "ወጥ": 7180,
      "Ọdún": 7181,
      "nifi": 7182,
      "taima": 7183,
      "burg": 7184,
      "የሱስ": 7185,
      "Tarihi": 7186,
      "Kal": 7187,
      "gement": 7188,
      "መቶ": 7189,
      "ማይ": 7190,
      "ቨር": 7191,
      "Nijar": 7192,
      "ማርያም": 7193,
      "ሁሉም": 7194,
      "Guine": 7195,
      "oun": 7196,
      "environ": 7197,
      "makaran": 7198,
      "የተለያዩ": 7199,
      "zote": 7200,
      "ምናል": 7201,
      "Abuja": 7202,
      "ፕሬዚ": 7203,
      "Hun": 7204,
      "bina": 7205,
      "cours": 7206,
      "99": 7207,
      "Jer": 7208,
      "bles": 7209,
      "ctive": 7210,
      "ሻዎች": 7211,
      "በእ": 7212,
      "ጥረ": 7213,
      "rashin": 7214,
      "dinin": 7215,
      "si.": 7216,
      "0,000": 7217,
      "pande": 7218,
      "ƙin": 7219,
      "ማች": 7220,
      "የህ": 7221,
      "ẹyẹ": 7222,
      "org": 7223,
      "si,": 7224,
      "Robert": 7225,
      "PC": 7226,
      "ika": 7227,
      "idan": 7228,
      "ugu": 7229,
      "dubu": 7230,
      "Medi": 7231,
      "(እንግሊዝኛ": 7232,
      "vit": 7233,
      "ቲን": 7234,
      "አራ": 7235,
      "riban": 7236,
      "crip": 7237,
      "ክርስቲያ": 7238,
      "z,": 7239,
      "hawa": 7240,
      "ton,": 7241,
      "-I": 7242,
      "ተዋ": 7243,
      "ism": 7244,
      "web": 7245,
      "tary": 7246,
      "Martin": 7247,
      "sée": 7248,
      "àkọ́": 7249,
      "ማጣ": 7250,
      "ካም": 7251,
      "ውሮፓ": 7252,
      "saka": 7253,
      "ge.": 7254,
      "itace": 7255,
      "dhidi": 7256,
      "aláìsí": 7257,
      "Jana": 7258,
      "ƙungiyar": 7259,
      "Ọba": 7260,
      "til": 7261,
      "የሚል": 7262,
      "tàkì": 7263,
      "የምት": 7264,
      "Lin": 7265,
      "Ola": 7266,
      "Pol": 7267,
      "48": 7268,
      "uel": 7269,
      "እርሱ": 7270,
      "የነበረው": 7271,
      "ሥላሴ": 7272,
      "38": 7273,
      "Fir": 7274,
      "M.": 7275,
      "Mara": 7276,
      "maduni": 7277,
      "pou": 7278,
      "peti": 7279,
      "masara": 7280,
      "kọ̀wé": 7281,
      "Vita": 7282,
      "mam": 7283,
      "unga": 7284,
      "By": 7285,
      "Ye": 7286,
      "ሄድ": 7287,
      "የሰው": 7288,
      "light": 7289,
      "cel": 7290,
      "ṣùgbọ́n": 7291,
      "cara": 7292,
      "biwa": 7293,
      "ji.": 7294,
      "point": 7295,
      "Isa": 7296,
      "Olú": 7297,
      "Ras": 7298,
      "mist": 7299,
      "bawa": 7300,
      "bihi": 7301,
      "bijin": 7302,
      "dunia": 7303,
      "Áfríkà": 7304,
      "Ile": 7305,
      "kwe": 7306,
      "appe": 7307,
      "Best": 7308,
      "Sci": 7309,
      "Whi": 7310,
      "hor": 7311,
      "ttu": 7312,
      "ìdá": 7313,
      "ላን": 7314,
      "bayar": 7315,
      "ried": 7316,
      "go,": 7317,
      "wever,": 7318,
      "አምላክ": 7319,
      "ማስታወ": 7320,
      "(d.": 7321,
      "ታቸውን": 7322,
      "እድ": 7323,
      "dif": 7324,
      "ገንዘ": 7325,
      "ጠቃላይ": 7326,
      "score0": 7327,
      "Sikukuu": 7328,
      "jó": 7329,
      "zari": 7330,
      "zation": 7331,
      "type": 7332,
      "Rich": 7333,
      "possi": 7334,
      "nun": 7335,
      "ሌክት": 7336,
      "osere": 7337,
      "እጅግ": 7338,
      "Gwamna": 7339,
      "Ina": 7340,
      "vient": 7341,
      "contr": 7342,
      "lowing": 7343,
      "mjini": 7344,
      "wù": 7345,
      "ስቱ": 7346,
      "ጠን": 7347,
      "zaɓ": 7348,
      "mulki": 7349,
      "found": 7350,
      "Que": 7351,
      "ti.": 7352,
      "list": 7353,
      "tum": 7354,
      "Amerika.": 7355,
      "bàdàn": 7356,
      "th,": 7357,
      "tribu": 7358,
      "pù": 7359,
      "òṣeré": 7360,
      "bada": 7361,
      "these": 7362,
      "differ": 7363,
      "fiel": 7364,
      "peri": 7365,
      "Tanbihi": 7366,
      "milioni": 7367,
      "anzibar": 7368,
      "Ful": 7369,
      "Fed": 7370,
      "History": 7371,
      "Spa": 7372,
      "mfuata": 7373,
      "ware": 7374,
      "ላው": 7375,
      "ይቻ": 7376,
      "ግ.": 7377,
      "እንቅ": 7378,
      "common": 7379,
      "miliyan": 7380,
      "ጠቀም": 7381,
      "ሃይማኖት": 7382,
      "TA": 7383,
      "pren": 7384,
      "Ear": 7385,
      "Zanzibar": 7386,
      "fẹ": 7387,
      "jira": 7388,
      "2015,": 7389,
      "Democra": 7390,
      "shirya": 7391,
      "-19": 7392,
      "mou": 7393,
      "li,": 7394,
      "same": 7395,
      "Agbegbe": 7396,
      "Cibi": 7397,
      "Nuwa": 7398,
      "jò": 7399,
      "Òun": 7400,
      "ላሉ።": 7401,
      "በእንግሊዝኛ": 7402,
      "tayi": 7403,
      "kan.": 7404,
      "ሳይሆን": 7405,
      "mwanasiasa": 7406,
      "tarihin": 7407,
      "dúgbò": 7408,
      "gbara": 7409,
      "buil": 7410,
      "Ter": 7411,
      "ሴቶች": 7412,
      "በደቡብ": 7413,
      "ዓይ": 7414,
      "የሩ": 7415,
      "ዳግ": 7416,
      "ገነ": 7417,
      "muda": 7418,
      "tsawon": 7419,
      "pàtàkì": 7420,
      "chaguzi": 7421,
      "yama": 7422,
      "tatu": 7423,
      "mea": 7424,
      "úsù": 7425,
      "ቀድሞ": 7426,
      "ደስ": 7427,
      "bakwai": 7428,
      "gabar": 7429,
      "fice": 7430,
      "giriki": 7431,
      "wari": 7432,
      "inte": 7433,
      "leurs": 7434,
      "world": 7435,
      "Sai": 7436,
      "kwen": 7437,
      "nord": 7438,
      "kiwa": 7439,
      "babbar": 7440,
      "depuis": 7441,
      "1998": 7442,
      "Ama": 7443,
      "Sau": 7444,
      "labara": 7445,
      "refer": 7446,
      "jimi": 7447,
      "náà,": 7448,
      "ìbílẹ̀": 7449,
      "Naijiria.": 7450,
      "ክርስት": 7451,
      "tattalin": 7452,
      "momi": 7453,
      "dọ̀": 7454,
      "ባብ": 7455,
      "አሳ": 7456,
      "ዮስ": 7457,
      "maana": 7458,
      "nítorí": 7459,
      "kom": 7460,
      "kere": 7461,
      "s)": 7462,
      "uf": 7463,
      "chama": 7464,
      "Bat": 7465,
      "በታ": 7466,
      "በኩል": 7467,
      "hel": 7468,
      "alààyè": 7469,
      "me,": 7470,
      "kare": 7471,
      "gbáyé": 7472,
      "langue": 7473,
      "ወርቅ": 7474,
      "Rayuwar": 7475,
      "marubu": 7476,
      "Micha": 7477,
      "Greek": 7478,
      "ፖሊ": 7479,
      "syst": 7480,
      "አባል": 7481,
      "yàwó": 7482,
      "laire": 7483,
      "volution": 7484,
      "64": 7485,
      "aina": 7486,
      "owó": 7487,
      "ፍና": 7488,
      "gbẹ̀": 7489,
      "ሲሆን፣": 7490,
      "ሁለተኛው": 7491,
      "born": 7492,
      "Karamar": 7493,
      "ep": 7494,
      "auto": 7495,
      "version": 7496,
      "River": 7497,
      "Portu": 7498,
      "Fer": 7499,
      "ክብ": 7500,
      "የነ": 7501,
      "su,": 7502,
      "papa": 7503,
      "ነትን": 7504,
      "ጀመረ": 7505,
      "kasashen": 7506,
      "68": 7507,
      "Wo": 7508,
      "team": 7509,
      "nia": 7510,
      "O.": 7511,
      "P.": 7512,
      "gọ́": 7513,
      "vy": 7514,
      "ተቋ": 7515,
      "ዋት": 7516,
      "tiques": 7517,
      "mada": 7518,
      "sili": 7519,
      "የተባለው": 7520,
      "መረጃ": 7521,
      "anzishwa": 7522,
      "Cas": 7523,
      "kta": 7524,
      "uka": 7525,
      "wurin": 7526,
      "አቶ": 7527,
      "ṣì": 7528,
      "hilo": 7529,
      "ወለዱ": 7530,
      "የመጀመሪያው": 7531,
      "400": 7532,
      "damar": 7533,
      "mtu": 7534,
      "አድ": 7535,
      "ondo": 7536,
      "haki": 7537,
      "biya": 7538,
      "ils": 7539,
      "2014,": 7540,
      "hankali": 7541,
      "Paris": 7542,
      "Hukumar": 7543,
      "Elle": 7544,
      "Ijoba": 7545,
      "ተዋል።": 7546,
      "ኮን": 7547,
      "times": 7548,
      "unin": 7549,
      "ilẹ": 7550,
      "servi": 7551,
      "gres": 7552,
      "ዕዝ": 7553,
      "death": 7554,
      "»)": 7555,
      "ሕግ": 7556,
      "ትው": 7557,
      "ያዊ": 7558,
      "mitin": 7559,
      "ing.": 7560,
      "Mayu": 7561,
      "2017,": 7562,
      "1994": 7563,
      "ingia": 7564,
      "Turai": 7565,
      "ES": 7566,
      "féren": 7567,
      "-ẹ̀yẹ": 7568,
      "Juli": 7569,
      "mm": 7570,
      "rù": 7571,
      "ላሉ": 7572,
      "መዋ": 7573,
      "ይሄ": 7574,
      "ግሪክ": 7575,
      "tali": 7576,
      "kimanin": 7577,
      "teau": 7578,
      "2011,": 7579,
      "2016,": 7580,
      "የተክሉ": 7581,
      "signifi": 7582,
      "takriban": 7583,
      "gg": 7584,
      "jou": 7585,
      "bien": 7586,
      "gie": 7587,
      "Gómìnà": 7588,
      "ሪቱ": 7589,
      "ጠፋ": 7590,
      "dawo": 7591,
      "keji": 7592,
      "stra": 7593,
      "appli": 7594,
      "exi": 7595,
      "በመሆኑ": 7596,
      "olojia": 7597,
      "olóṣèlú": 7598,
      "ọ̀pọ̀lọpọ̀": 7599,
      "Seri": 7600,
      "ite": 7601,
      "pur": 7602,
      "moins": 7603,
      "2012,": 7604,
      "cultur": 7605,
      "ሚካ": 7606,
      "ቲክ": 7607,
      "ቶቹ": 7608,
      "የኦ": 7609,
      "ጥያ": 7610,
      "nasara": 7611,
      "sant": 7612,
      "Lakini": 7613,
      "mwisho": 7614,
      "dò": 7615,
      "gou": 7616,
      "els": 7617,
      "Peter": 7618,
      "Louis": 7619,
      "ሦር": 7620,
      "አየር": 7621,
      "ገኛ": 7622,
      "sil": 7623,
      "papọ̀": 7624,
      "rẹ̀,": 7625,
      "Isra": 7626,
      "wakil": 7627,
      "elf": 7628,
      "cations": 7629,
      "major": 7630,
      "Nas": 7631,
      "pẹ́": 7632,
      "የን": 7633,
      "እንኳ": 7634,
      "ምንጭ": 7635,
      "Union": 7636,
      "yn": 7637,
      "lea": 7638,
      "fut": 7639,
      "appro": 7640,
      "Lib": 7641,
      "ስማ": 7642,
      "ቢት": 7643,
      "ካሌ": 7644,
      "ግለ": 7645,
      "onimo": 7646,
      "apá": 7647,
      "Legas": 7648,
      "himman": 7649,
      "መጠን": 7650,
      "ትልቅ": 7651,
      "2001": 7652,
      "2019,": 7653,
      "ide": 7654,
      "ዲህ": 7655,
      "ፊደል": 7656,
      "wadda": 7657,
      "kiti": 7658,
      "ያንዳን": 7659,
      "dínlógún": 7660,
      "ይችላል።": 7661,
      "Michael": 7662,
      "32": 7663,
      "ziri": 7664,
      "contre": 7665,
      "ine.": 7666,
      "rd": 7667,
      "ባል።": 7668,
      "ፖር": 7669,
      "mapo": 7670,
      "sayansi": 7671,
      "Magharibi": 7672,
      "sanin": 7673,
      "kungi": 7674,
      "ident": 7675,
      "Yohan": 7676,
      "Fas": 7677,
      "Mul": 7678,
      "et,": 7679,
      "pital": 7680,
      "menti": 7681,
      "km²": 7682,
      "Oly": 7683,
      "Pop": 7684,
      "Ƴan": 7685,
      "ኃይል": 7686,
      "ኘው": 7687,
      "ጡት": 7688,
      "chuku": 7689,
      "contra": 7690,
      "do,": 7691,
      "adhim": 7692,
      "ይታወቃል።": 7693,
      "ምናልባት": 7694,
      "Hali": 7695,
      "pani": 7696,
      "Book": 7697,
      "(196": 7698,
      "0-": 7699,
      "egbe": 7700,
      "ታን": 7701,
      "የሆኑ": 7702,
      "ስለሆነ": 7703,
      "angla": 7704,
      "አይደለም": 7705,
      "ister": 7706,
      "-daban": 7707,
      "ዜና": 7708,
      "ይዩ": 7709,
      "ግዛ": 7710,
      "hau": 7711,
      "በትን": 7712,
      "mana": 7713,
      "sune": 7714,
      "limi": 7715,
      "safi": 7716,
      "trois": 7717,
      "Sul": 7718,
      "toni": 7719,
      "ዝና": 7720,
      "estern": 7721,
      "cika": 7722,
      "1987": 7723,
      "አባት": 7724,
      "Japani": 7725,
      "jam'i": 7726,
      "Cette": 7727,
      "now": 7728,
      "acti": 7729,
      "Maria": 7730,
      "=\"": 7731,
      "Moro": 7732,
      "ima": 7733,
      "ር-": 7734,
      "ብሊክ": 7735,
      "ከማ": 7736,
      "ganin": 7737,
      "kumbukumbu": 7738,
      "(;": 7739,
      "ሐይ": 7740,
      "FIFA": 7741,
      "ይር": 7742,
      "ፓንያ": 7743,
      "nafasi": 7744,
      "እንደሆነ": 7745,
      "Royal": 7746,
      "Lẹ́yìn": 7747,
      "mapokeo": 7748,
      "9-": 7749,
      "tabu": 7750,
      "ista": 7751,
      "Bank": 7752,
      "58": 7753,
      "በሌላ": 7754,
      "kabila": 7755,
      "town": 7756,
      "alle": 7757,
      "raba": 7758,
      "kanta": 7759,
      "ature": 7760,
      "lilikuwa": 7761,
      "physi": 7762,
      "suite": 7763,
      "Tarayyar": 7764,
      "fuatana": 7765,
      "inté": 7766,
      "....": 7767,
      "(kwa": 7768,
      "አለም": 7769,
      "both": 7770,
      "umba": 7771,
      "1993": 7772,
      "onekana": 7773,
      "kẹrin": 7774,
      "certain": 7775,
      "daban-daban": 7776,
      "ajili": 7777,
      "entomon": 7778,
      "Kana": 7779,
      "gege": 7780,
      "Andre": 7781,
      "178": 7782,
      "-ún": 7783,
      "Akin": 7784,
      "Glo": 7785,
      "በቃ": 7786,
      "ይጠቀ": 7787,
      "ገቡ": 7788,
      "mahaifin": 7789,
      "lations": 7790,
      "hizi": 7791,
      "alu": 7792,
      "mirefu": 7793,
      "member": 7794,
      "com/": 7795,
      "1997": 7796,
      "mengine": 7797,
      "hindi": 7798,
      "milima": 7799,
      "prési": 7800,
      "Thomas": 7801,
      "Cibiyar": 7802,
      "St.": 7803,
      "lit": 7804,
      "Son": 7805,
      "Ìbàdàn": 7806,
      "ƙida": 7807,
      "ሊዮን": 7808,
      "ምል": 7809,
      "በዓ": 7810,
      "kale": 7811,
      "hal": 7812,
      "እንደገና": 7813,
      "Nigeria.": 7814,
      "míràn": 7815,
      "Bau": 7816,
      "Russi": 7817,
      "neo": 7818,
      "1991": 7819,
      "150": 7820,
      "Muhammadu": 7821,
      "Tri": 7822,
      "dd": 7823,
      "mwen": 7824,
      "sp": 7825,
      "haɗa": 7826,
      "shida": 7827,
      "baadaye": 7828,
      "dian": 7829,
      "Mac": 7830,
      "cated": 7831,
      "imu": 7832,
      "mkoa": 7833,
      "ራል።": 7834,
      "ውጤ": 7835,
      "ዛኛው": 7836,
      "የእ": 7837,
      "ዳዊ": 7838,
      "mahali": 7839,
      "dies": 7840,
      "cell": 7841,
      "walikuwa": 7842,
      "rayuwar": 7843,
      "ado": 7844,
      "opo": 7845,
      "anda": 7846,
      "ch,": 7847,
      "ques,": 7848,
      "tsar": 7849,
      "against": 7850,
      "wú": 7851,
      "wun": 7852,
      "ɗau": 7853,
      "ነቶች": 7854,
      "sile": 7855,
      "fika": 7856,
      "Makarantar": 7857,
      "before": 7858,
      "wengine": 7859,
      "Enugu": 7860,
      "ደረጉ": 7861,
      "ọ̀nà": 7862,
      "ጎርጎር": 7863,
      "ṣẹ̀lẹ̀": 7864,
      "Richard": 7865,
      "ages": 7866,
      "Bre": 7867,
      "pol": 7868,
      "በነ": 7869,
      "ብን": 7870,
      "ጠል": 7871,
      "’i": 7872,
      "isari": 7873,
      "babu": 7874,
      "jiji": 7875,
      "Mutu": 7876,
      "Eng": 7877,
      "ማርቆስ": 7878,
      "kwenda": 7879,
      "Cal": 7880,
      "Women": 7881,
      "while": 7882,
      "estival": 7883,
      "-à": 7884,
      "Kol": 7885,
      "Phili": 7886,
      "gbi": 7887,
      "wao": 7888,
      "taken": 7889,
      "lated": 7890,
      "omina": 7891,
      "count": 7892,
      "Benin": 7893,
      "Ethiopia": 7894,
      "sítì": 7895,
      "በብዛት": 7896,
      "Hispania": 7897,
      "በሽታ": 7898,
      "eu": 7899,
      "étu": 7900,
      "ko.": 7901,
      "Film": 7902,
      "aje": 7903,
      "kofu": 7904,
      "tran": 7905,
      "ṣò": 7906,
      "tes,": 7907,
      "gni": 7908,
      "moni": 7909,
      "yahu": 7910,
      "ess": 7911,
      "muka": 7912,
      "47": 7913,
      "bọ̀": 7914,
      "መቅ": 7915,
      "፲፰": 7916,
      "ṣir": 7917,
      "re.": 7918,
      "yi,": 7919,
      "2016.": 7920,
      "ሳይን": 7921,
      "Bello": 7922,
      "መንፈስ": 7923,
      "jeni": 7924,
      "n'": 7925,
      "bi,": 7926,
      "fili": 7927,
      "berg": 7928,
      "généra": 7929,
      "pú": 7930,
      "Ìlú": 7931,
      "ìgb": 7932,
      "ሲል": 7933,
      "ብዛት": 7934,
      "nipa": 7935,
      "wọn.": 7936,
      "less": 7937,
      "Angel": 7938,
      "እስያ": 7939,
      "First": 7940,
      "D.": 7941,
      "2018,": 7942,
      "Kingdom": 7943,
      "Mus": 7944,
      "Sco": 7945,
      "kofin": 7946,
      "mó": 7947,
      "መም": 7948,
      "መና": 7949,
      "በጥ": 7950,
      "ውቅ": 7951,
      "man,": 7952,
      "ማጣቀ": 7953,
      "Ur": 7954,
      "ars": 7955,
      "base": 7956,
      "Cana": 7957,
      "Fab": 7958,
      "Kò": 7959,
      "ረግ": 7960,
      "ችል": 7961,
      "Hotuna": 7962,
      "Tech": 7963,
      "300": 7964,
      "kimi": 7965,
      "sty": 7966,
      "pindi": 7967,
      "U.": 7968,
      "sẹ́": 7969,
      "ኒው": 7970,
      "ciyar": 7971,
      "autre": 7972,
      "dangan": 7973,
      "ከተለው": 7974,
      "effe": 7975,
      "ንዳር": 7976,
      "55": 7977,
      "God": 7978,
      "late": 7979,
      "Mkuu": 7980,
      "ìl": 7981,
      "ɗu": 7982,
      "issance": 7983,
      "ort": 7984,
      "sal": 7985,
      "logi": 7986,
      "ilé-iṣẹ́": 7987,
      "ƙidayar": 7988,
      "Dé": 7989,
      "zuri": 7990,
      "anal": 7991,
      "toa": 7992,
      "meji": 7993,
      "Pope": 7994,
      "Visiwa": 7995,
      "ሚስት": 7996,
      "ኃይለ": 7997,
      "ከታ": 7998,
      "ዕብራ": 7999,
      "የሞ": 8000,
      "wili": 8001,
      "በአሁኑ": 8002,
      "indust": 8003,
      "Has": 8004,
      "elé": 8005,
      "kan,": 8006,
      "Mary": 8007,
      "(«": 8008,
      "Ká": 8009,
      "ሥቱ": 8010,
      "ግድ": 8011,
      "land,": 8012,
      "Nígbà": 8013,
      "ጥንት": 8014,
      "dua": 8015,
      "NA": 8016,
      "oju": 8017,
      "w,": 8018,
      "በኛ": 8019,
      "ገዥ": 8020,
      "ፊል": 8021,
      "alipo": 8022,
      "play": 8023,
      "---": 8024,
      "አፍሪካ": 8025,
      "ẹ̀ẹ́sì": 8026,
      "Cali": 8027,
      "Grand": 8028,
      "mini": 8029,
      "ennes": 8030,
      "vait": 8031,
      "Duk": 8032,
      "High": 8033,
      "Cong": 8034,
      "úúsù": 8035,
      "ውጭ": 8036,
      "ያደር": 8037,
      "kupi": 8038,
      "sakand": 8039,
      "haifiyar": 8040,
      "Ibile": 8041,
      "shirye-": 8042,
      "(O": 8043,
      "Egy": 8044,
      "Hel": 8045,
      "Tsar": 8046,
      "phe": 8047,
      "Republic": 8048,
      "Brazil": 8049,
      "éle": 8050,
      "ƙara": 8051,
      "ማል": 8052,
      "ሪት": 8053,
      "በሙሉ": 8054,
      "አሉ": 8055,
      "ክን": 8056,
      "see": 8057,
      "ye,": 8058,
      "cons": 8059,
      "1995": 8060,
      "hannu": 8061,
      "ambako": 8062,
      "née": 8063,
      "trodu": 8064,
      "mnamo": 8065,
      "እምነት": 8066,
      "R.": 8067,
      "wit": 8068,
      "mall": 8069,
      "Olympi": 8070,
      "Dau": 8071,
      "ሕይወት": 8072,
      "ይፋ": 8073,
      "ገጽ": 8074,
      "temps": 8075,
      "akoko": 8076,
      "pendant": 8077,
      "rana": 8078,
      "tage": 8079,
      "based": 8080,
      "cir": 8081,
      "1996": 8082,
      "voi": 8083,
      "und)": 8084,
      "Association": 8085,
      "Guinea": 8086,
      "Sir": 8087,
      "ቡድን": 8088,
      "ብል": 8089,
      "ቱርክ": 8090,
      "አህ": 8091,
      "ካታ": 8092,
      "enye": 8093,
      "bangar": 8094,
      "mpya": 8095,
      "gboyè": 8096,
      "ስተኛ": 8097,
      "Yoruba": 8098,
      "anzisha": 8099,
      "ወታደ": 8100,
      "caract": 8101,
      "Yohane": 8102,
      "K.": 8103,
      "py": 8104,
      "titi": 8105,
      "Latin": 8106,
      "establi": 8107,
      "Ze": 8108,
      "ring": 8109,
      "ሕንድ": 8110,
      "ሳሰ": 8111,
      "ኝነት": 8112,
      "አና": 8113,
      "የዓለም": 8114,
      "፡በ": 8115,
      "maisha": 8116,
      "order": 8117,
      "bikin": 8118,
      "títí": 8119,
      "lábẹ́": 8120,
      "ስራቅ": 8121,
      "nú": 8122,
      "vina": 8123,
      "back": 8124,
      "ci.": 8125,
      "(a": 8126,
      "Kun": 8127,
      "fus": 8128,
      "ndi": 8129,
      "ን፣": 8130,
      "ዝማች": 8131,
      "ብሔራዊ": 8132,
      "hesabiwa": 8133,
      "Arabi": 8134,
      "uishe": 8135,
      "Mpaka": 8136,
      "bis": 8137,
      "ሙት": 8138,
      "ኑስ": 8139,
      "ውሃ": 8140,
      "ዘዴ": 8141,
      "ጥበብ": 8142,
      "ፍቅር": 8143,
      "huadhim": 8144,
      "come": 8145,
      "gargaji": 8146,
      "wengi,": 8147,
      "የውጭ": 8148,
      "ፍልስ": 8149,
      "masana'an": 8150,
      "our": 8151,
      "von": 8152,
      "tu.": 8153,
      "réali": 8154,
      "ative": 8155,
      ");": 8156,
      "Mur": 8157,
      "Ìgbé": 8158,
      "ማት": 8159,
      "pewa": 8160,
      "፲፱፻፶": 8161,
      "continu": 8162,
      "ei": 8163,
      "pose": 8164,
      "prote": 8165,
      "cording": 8166,
      "tura": 8167,
      "ስል": 8168,
      "ስቶ": 8169,
      "ያሳ": 8170,
      "ይዞ": 8171,
      "Ọmọ": 8172,
      "kadhaa": 8173,
      "haɗin": 8174,
      "did": 8175,
      "rama": 8176,
      "ket": 8177,
      "177": 8178,
      "lọ.": 8179,
      "kálẹ̀": 8180,
      "Borno": 8181,
      "àkọ́lé": 8182,
      "Nuwamba": 8183,
      "ካሌንዳር": 8184,
      "ጎርጎርያን": 8185,
      "dina": 8186,
      "prom": 8187,
      "semble": 8188,
      "ሥልጣን": 8189,
      "ራኤል": 8190,
      "በኦ": 8191,
      "ọ̀lù": 8192,
      "zarin": 8193,
      "ọjọ́aláìsí": 8194,
      "dàgbà": 8195,
      "bility": 8196,
      "ሁለተኛ": 8197,
      "fásítì": 8198,
      "ድርጅት": 8199,
      "ወልደ": 8200,
      "ሳይንሳዊ": 8201,
      "%)": 8202,
      "hwa": 8203,
      "thor": 8204,
      "actu": 8205,
      "Second": 8206,
      "cord": 8207,
      "fas": 8208,
      "hé": 8209,
      "imani": 8210,
      "lun": 8211,
      "ችሁ": 8212,
      "የቆ": 8213,
      "masha": 8214,
      "ment,": 8215,
      "ዳንት": 8216,
      "Tsa": 8217,
      "to.": 8218,
      "ducation": 8219,
      "ouest": 8220,
      "oyè": 8221,
      "òkè": 8222,
      "መሬት": 8223,
      "ስድ": 8224,
      "ከላ": 8225,
      "የቀን": 8226,
      "kadi": 8227,
      "sever": 8228,
      "ቸው።": 8229,
      "wáyé": 8230,
      "bou": 8231,
      "cat": 8232,
      "could": 8233,
      "nde": 8234,
      "tè": 8235,
      "ሥጋ": 8236,
      "anen": 8237,
      "ke,": 8238,
      "conne": 8239,
      "Pakistan": 8240,
      "Ilimi": 8241,
      "avant": 8242,
      "mwezi": 8243,
      "tsu": 8244,
      "shari": 8245,
      "2015.": 8246,
      "Henry": 8247,
      "gè": 8248,
      "h.": 8249,
      "ìròyìn": 8250,
      "ረጋ": 8251,
      "ርቶ": 8252,
      "ጊዮር": 8253,
      "esse": 8254,
      "due": 8255,
      "atre": 8256,
      "asali": 8257,
      "groupe": 8258,
      "ከዚያም": 8259,
      "ከነዓ": 8260,
      "importan": 8261,
      "ጊዮርጊ": 8262,
      "-O": 8263,
      "56": 8264,
      "1975": 8265,
      "pany": 8266,
      "አቅ": 8267,
      "ዴት": 8268,
      "kawo": 8269,
      "lafa": 8270,
      "nam": 8271,
      "dola": 8272,
      "አገራት": 8273,
      "Poli": 8274,
      "የማይ": 8275,
      "sára": 8276,
      "jamii": 8277,
      "ቀጥሎ": 8278,
      "rich": 8279,
      "souvent": 8280,
      "spa": 8281,
      "ƙir": 8282,
      "ለሁ": 8283,
      "ሰጥ": 8284,
      "ስቃ": 8285,
      "ቦት": 8286,
      "ያያ": 8287,
      "ጽሕ": 8288,
      "kalẹ̀": 8289,
      "(1": 8290,
      "Phi": 8291,
      "Pal": 8292,
      "Sil": 8293,
      "rai": 8294,
      "shar": 8295,
      "1989": 8296,
      "derni": 8297,
      "Argent": 8298,
      "Adam": 8299,
      "ተቃ": 8300,
      "ጠብ": 8301,
      "sayen": 8302,
      "2091": 8303,
      "Life": 8304,
      "ibile": 8305,
      "taimaka": 8306,
      "jusqu'": 8307,
      "Vir": 8308,
      "rian": 8309,
      "mir": 8310,
      "Church": 8311,
      "hìn": 8312,
      "ipo": 8313,
      "yẹ̀": 8314,
      "ኪያ": 8315,
      "ካን": 8316,
      "ዛዝ": 8317,
      "ደጃ": 8318,
      "safa": 8319,
      "addinin": 8320,
      "ምንት": 8321,
      "፲፱፻፷": 8322,
      "ሥራቅ": 8323,
      "ri.": 8324,
      "ngu": 8325,
      "ል፡፡": 8326,
      "በጎርጎርያን": 8327,
      "ዝርያ": 8328,
      "የለ": 8329,
      "የኮ": 8330,
      "de-": 8331,
      "simp": 8332,
      "thro": 8333,
      "chungu": 8334,
      "fafa": 8335,
      "Kijerumani": 8336,
      "Albert": 8337,
      "ጊዜም": 8338,
      "ስለሚ": 8339,
      "mbre": 8340,
      "ደረሰ": 8341,
      "ደራሲ": 8342,
      "Philip": 8343,
      "fron": 8344,
      "father": 8345,
      "érica": 8346,
      "lara": 8347,
      "pam": 8348,
      "ሏል።": 8349,
      "የሆነው": 8350,
      "ድሮ": 8351,
      "ጠላ": 8352,
      "‎‎": 8353,
      "ancin": 8354,
      "202": 8355,
      "ትርጉም": 8356,
      "large": 8357,
      "kẹ́kọ̀ọ́": 8358,
      "communi": 8359,
      "hing": 8360,
      "oma": 8361,
      "former": 8362,
      "partir": 8363,
      "Act": 8364,
      "tọ": 8365,
      "የለው": 8366,
      "yota": 8367,
      "Soko": 8368,
      "ድረስ)": 8369,
      "የሚያስ": 8370,
      "production": 8371,
      "ተከታ": 8372,
      "Birnin": 8373,
      "ማስታወሻዎች": 8374,
      "ገንዘብ": 8375,
      "Gam": 8376,
      "aure": 8377,
      "dge": 8378,
      "haya": 8379,
      "langues": 8380,
      "mus": 8381,
      "osu": 8382,
      "በኢ": 8383,
      "ጋሪ": 8384,
      "2014.": 8385,
      "bunge": 8386,
      "Ibn": 8387,
      "rar": 8388,
      "tiki": 8389,
      "lian": 8390,
      "rawar": 8391,
      "1982": 8392,
      "cheo": 8393,
      "America": 8394,
      "46": 8395,
      "Bá": 8396,
      "CM": 8397,
      "eto": 8398,
      "ነቱን": 8399,
      "ገሩ": 8400,
      "until": 8401,
      "kimataifa": 8402,
      "Francis": 8403,
      "kẹta": 8404,
      "watakatifu": 8405,
      "Orílẹ̀-èdè": 8406,
      "መጻሕ": 8407,
      "ያንዳንዱ": 8408,
      "49": 8409,
      "ná": 8410,
      "rangi": 8411,
      "compu": 8412,
      "1950": 8413,
      "ሙን": 8414,
      "ሱን": 8415,
      "ቤቱ": 8416,
      "ዋጋ": 8417,
      "ገት": 8418,
      "ጠሩ": 8419,
      "ጥቅ": 8420,
      "kaya": 8421,
      "huu": 8422,
      "llar": 8423,
      "Afrika.": 8424,
      "Kur": 8425,
      "fre": 8426,
      "kuru": 8427,
      "fira": 8428,
      "présen": 8429,
      "familia": 8430,
      "Cy": 8431,
      "mmoja": 8432,
      "ለ።": 8433,
      "nasar": 8434,
      "tege": 8435,
      "OL": 8436,
      "élé": 8437,
      "ared": 8438,
      "isation": 8439,
      "Nollywood": 8440,
      "ƙun": 8441,
      "ናይት": 8442,
      "ክሲ": 8443,
      "dec": 8444,
      "area": 8445,
      "conna": 8446,
      "2010,": 8447,
      "síwájú": 8448,
      "commer": 8449,
      "òṣèlú": 8450,
      "Kamusi": 8451,
      "ማቴዎስ": 8452,
      "labarai": 8453,
      "57": 8454,
      "kashi": 8455,
      "shi.": 8456,
      "A)": 8457,
      "Mc": 8458,
      "rer": 8459,
      "በራ": 8460,
      "ዲዮ": 8461,
      "les.": 8462,
      "ed.": 8463,
      "olowo": 8464,
      "Day": 8465,
      "gwamnan": 8466,
      "Saint-": 8467,
      "lafiya": 8468,
      "Bara": 8469,
      "Spe": 8470,
      "albu": 8471,
      "Johan": 8472,
      "taniya": 8473,
      "AR": 8474,
      "ውል": 8475,
      "arri": 8476,
      "ings": 8477,
      "irun": 8478,
      "2013,": 8479,
      "India": 8480,
      "1976": 8481,
      "1966": 8482,
      "kọkàn": 8483,
      "present": 8484,
      "አውሮፓ": 8485,
      "system": 8486,
      "Salaam": 8487,
      "bwe": 8488,
      "tru": 8489,
      "fix": 8490,
      "Kimi": 8491,
      "multi": 8492,
      "Publi": 8493,
      "ace": 8494,
      "c'est": 8495,
      "ksi": 8496,
      "uchumi": 8497,
      "ለጠ": 8498,
      "ነፍ": 8499,
      "mary": 8500,
      "Kaisari": 8501,
      "tàgé": 8502,
      "Yes": 8503,
      "États": 8504,
      "Lea": 8505,
      "Frank": 8506,
      "Land": 8507,
      "ቀይ": 8508,
      "ẹrẹ": 8509,
      "taji": 8510,
      "የሚታወ": 8511,
      "um,": 8512,
      "1992": 8513,
      "Lega": 8514,
      "ወይንም": 8515,
      "ayẹyẹ": 8516,
      "duniya.": 8517,
      "ulio": 8518,
      "Gaba": 8519,
      "ዕለተ": 8520,
      "(ከ1892": 8521,
      "grande": 8522,
      "near": 8523,
      "nouvel": 8524,
      "Mexi": 8525,
      "hand": 8526,
      "ip": 8527,
      "àá": 8528,
      "ዘው": 8529,
      "sakama": 8530,
      "tu,": 8531,
      "ambapo": 8532,
      "ማጣቀሻ": 8533,
      "Mos": 8534,
      "quent": 8535,
      "soit": 8536,
      "family": 8537,
      "Pra": 8538,
      "kes": 8539,
      "sto": 8540,
      "àgbáyé": 8541,
      "ልጁ": 8542,
      "ማሽ": 8543,
      "hak": 8544,
      "kowa": 8545,
      "ellement": 8546,
      "gia": 8547,
      "lọ́gbọ̀n": 8548,
      "Farkon": 8549,
      "ography": 8550,
      "ሌክትሪክ": 8551,
      "67": 8552,
      "associ": 8553,
      "resul": 8554,
      "Eneo": 8555,
      "ሜዳ": 8556,
      "አሉ።": 8557,
      "daida": 8558,
      "rage": 8559,
      "የአፍ": 8560,
      "Kale": 8561,
      "ፈርዖን": 8562,
      "rikisho": 8563,
      "</": 8564,
      "Gab": 8565,
      "mambo": 8566,
      "simi": 8567,
      "Leo": 8568,
      "Ol": 8569,
      "bs": 8570,
      "og": 8571,
      "ሊን": 8572,
      "ሥፍራ": 8573,
      "በስተ": 8574,
      "ቴሌ": 8575,
      "1920": 8576,
      "1918": 8577,
      "dida": 8578,
      "karin": 8579,
      "የተፈ": 8580,
      "በማለት": 8581,
      "Sudan": 8582,
      "Biranen": 8583,
      "yaliyo": 8584,
      "ራሱን": 8585,
      "développe": 8586,
      "Bus": 8587,
      "Er": 8588,
      "One": 8589,
      "siri": 8590,
      "1988": 8591,
      "ological": 8592,
      "(tí": 8593,
      "::": 8594,
      "Ham": 8595,
      "kwu": 8596,
      "መላ": 8597,
      "waye": 8598,
      "kabisa": 8599,
      "samo": 8600,
      "hiyar": 8601,
      "pop": 8602,
      "jẹsára": 8603,
      "différent": 8604,
      "cam": 8605,
      "mate": 8606,
      "pay": 8607,
      "program": 8608,
      "sions": 8609,
      "politique": 8610,
      "Christian": 8611,
      "98": 8612,
      "fari": 8613,
      "mẹ": 8614,
      "ውሀ": 8615,
      "askofu": 8616,
      "መሰረት": 8617,
      "kyautar": 8618,
      "yammacin": 8619,
      "Ath": 8620,
      "jwa": 8621,
      "rist": 8622,
      "waju": 8623,
      "hakan": 8624,
      "died": 8625,
      "ghu": 8626,
      "mwenye": 8627,
      "ሆይ": 8628,
      "ድና": 8629,
      "koyar": 8630,
      "አገሮች": 8631,
      "Jami’ar": 8632,
      "Arewacin": 8633,
      "Disamba": 8634,
      "(ya": 8635,
      "(18": 8636,
      "Tal": 8637,
      "ctur": 8638,
      "After": 8639,
      "Tanzania.": 8640,
      "kka": 8641,
      "mfano": 8642,
      "ሜት": 8643,
      "ከም": 8644,
      "kashe": 8645,
      "ma'a": 8646,
      "labar": 8647,
      "ison": 8648,
      "them": 8649,
      "kowan": 8650,
      "l'a": 8651,
      "cover": 8652,
      "ክፍሎች": 8653,
      "በርካታ": 8654,
      "Alimfuata": 8655,
      "bọ́ọ̀lù": 8656,
      "ht": 8657,
      "l.": 8658,
      "ra.": 8659,
      "shi,": 8660,
      "Alha": 8661,
      "Akwai": 8662,
      "Oṣu": 8663,
      "ዶሮ": 8664,
      "ፈራ": 8665,
      "ziwa": 8666,
      "ትንሽ": 8667,
      "wakifuata": 8668,
      "RD2-": 8669,
      "Abdulla": 8670,
      "መልክዓ": 8671,
      "àìsàn": 8672,
      "kabla": 8673,
      "bani": 8674,
      "eth": 8675,
      "1984": 8676,
      "1967": 8677,
      "colle": 8678,
      "Asa": 8679,
      "gare": 8680,
      "ቴክ": 8681,
      "ጸሐ": 8682,
      "arziki": 8683,
      "Ang": 8684,
      "donc": 8685,
      "yanayin": 8686,
      "duniani": 8687,
      "ma'aika": 8688,
      "huadhimisha": 8689,
      "ney": 8690,
      "exist": 8691,
      "Washing": 8692,
      "(The": 8693,
      "Eu": 8694,
      "clai": 8695,
      "kisi": 8696,
      "ለቀ": 8697,
      "አራት": 8698,
      "ጉል": 8699,
      "makuu": 8700,
      "hamia": 8701,
      "olf": 8702,
      "though": 8703,
      "1979": 8704,
      "babisha": 8705,
      "Edward": 8706,
      "mirefu).": 8707,
      "Hasa": 8708,
      "Swe": 8709,
      "hus": 8710,
      "head": 8711,
      "cei": 8712,
      "gua": 8713,
      "government": 8714,
      "cole": 8715,
      "1945": 8716,
      "Ale": 8717,
      "àjọ": 8718,
      "ቡር": 8719,
      "ካባቢ": 8720,
      "ኮት": 8721,
      "ወራ": 8722,
      "wala": 8723,
      "cewar": 8724,
      "administ": 8725,
      "ghts": 8726,
      "1986": 8727,
      "1974": 8728,
      "1977": 8729,
      "zinabaki": 8730,
      "ografia": 8731,
      "ደረገው": 8732,
      "tabba": 8733,
      "million": 8734,
      "Fabra": 8735,
      "Wat": 8736,
      "ît": 8737,
      "américa": 8738,
      "mean": 8739,
      "1983": 8740,
      "syn": 8741,
      "96": 8742,
      "Fun": 8743,
      "Sol": 8744,
      "ndogo": 8745,
      "ጥብ": 8746,
      "ision": 8747,
      "ባቢሎን": 8748,
      "Usman": 8749,
      "ጉዳይ": 8750,
      "modern": 8751,
      "Bauchi": 8752,
      "sayensi": 8753,
      "neno": 8754,
      "demo": 8755,
      "poin": 8756,
      "té,": 8757,
      "Music": 8758,
      "around": 8759,
      "ለሚ": 8760,
      "ታችን": 8761,
      "ክብር": 8762,
      "simu": 8763,
      "wanao": 8764,
      "1=": 8765,
      "cteur": 8766,
      "anin": 8767,
      "mach": 8768,
      "often": 8769,
      "connu": 8770,
      "2011.": 8771,
      "ctori": 8772,
      "menta": 8773,
      "Oyo": 8774,
      "jọ̀": 8775,
      "àṣà": 8776,
      "ƙo": 8777,
      "ሞን": 8778,
      "ዕድ": 8779,
      "ፍን": 8780,
      "takwa": 8781,
      "dia.": 8782,
      "memba": 8783,
      "ston": 8784,
      "ግንኙ": 8785,
      "Nàìjíríà,": 8786,
      "jumla": 8787,
      "Ani": 8788,
      "Dani": 8789,
      "zara": 8790,
      "ço": 8791,
      "oper": 8792,
      "nées": 8793,
      "CN": 8794,
      "E.": 8795,
      "mpaka": 8796,
      "nent": 8797,
      "x,": 8798,
      "ቅርስ": 8799,
      "ት።": 8800,
      "አጋ": 8801,
      "jinsi": 8802,
      "wòrán": 8803,
      "ሁለቱ": 8804,
      "ትምህር": 8805,
      "ተራራ": 8806,
      "አቀፍ": 8807,
      "principa": 8808,
      "Democratic": 8809,
      "aba": 8810,
      "blo": 8811,
      "geni": 8812,
      "mito": 8813,
      "(193": 8814,
      "Une": 8815,
      "መደ": 8816,
      "ቁጥ": 8817,
      "ተት": 8818,
      "cian": 8819,
      "ríwá": 8820,
      "ck,": 8821,
      "ውንት": 8822,
      "ሳይንስ": 8823,
      "kúrò": 8824,
      "dúró": 8825,
      "talabijin": 8826,
      "ምልክት": 8827,
      "Ire": 8828,
      "ungan": 8829,
      "or,": 8830,
      "futa": 8831,
      "AL": 8832,
      "Gasar": 8833,
      "Ira": 8834,
      "small": 8835,
      "ኑን": 8836,
      "የሌ": 8837,
      "ግባር": 8838,
      "haka,": 8839,
      "ri,": 8840,
      "ẹ̀rọ": 8841,
      "karshe": 8842,
      "yanki": 8843,
      "Waislamu": 8844,
      "child": 8845,
      "haifar": 8846,
      "ports": 8847,
      "yake.": 8848,
      "word": 8849,
      "bàbá": 8850,
      "Hanyoyin": 8851,
      "fuatwa": 8852,
      "each": 8853,
      "nye": 8854,
      "solu": 8855,
      "lika": 8856,
      "cia": 8857,
      "filin": 8858,
      "el,": 8859,
      "Hon": 8860,
      "kìí": 8861,
      "èrè": 8862,
      "ɗi": 8863,
      "ለተ": 8864,
      "introdu": 8865,
      "dam": 8866,
      "tuttu": 8867,
      "iran": 8868,
      "makabila": 8869,
      "ṣíṣe": 8870,
      "C'est": 8871,
      "zao": 8872,
      "org/": 8873,
      "Sel": 8874,
      "acikin": 8875,
      "ɗari": 8876,
      "ሚሊዮን": 8877,
      "ሲቲ": 8878,
      "ወጡ": 8879,
      "tuntun": 8880,
      "cally": 8881,
      "pindu": 8882,
      "km2": 8883,
      "(,": 8884,
      "Oli": 8885,
      "rict": 8886,
      "koki": 8887,
      "because": 8888,
      "action": 8889,
      "Faran": 8890,
      "several": 8891,
      "g.": 8892,
      "ìbá": 8893,
      "በዚሁ": 8894,
      "matu": 8895,
      "kur": 8896,
      "langa": 8897,
      "1971": 8898,
      "160": 8899,
      "Movie": 8900,
      "ናት።": 8901,
      "እንስሳ": 8902,
      "2=": 8903,
      "44": 8904,
      "Sana": 8905,
      "edi": 8906,
      "cap": 8907,
      "1978": 8908,
      "Maris": 8909,
      "otball": 8910,
      "Califor": 8911,
      "95": 8912,
      "OR": 8913,
      "ቃላት": 8914,
      "አቡ": 8915,
      "ché": 8916,
      "go.": 8917,
      "1973": 8918,
      "ድንጋይ": 8919,
      "Wasan": 8920,
      "ibn": 8921,
      "science": 8922,
      "Sarkin": 8923,
      "akọrin": 8924,
      "ṣirí": 8925,
      "Aka": 8926,
      "Bon": 8927,
      "Red": 8928,
      "gini": 8929,
      "mà": 8930,
      "mah": 8931,
      "laka": 8932,
      "capita": 8933,
      "adhi": 8934,
      "vation": 8935,
      "C)": 8936,
      "Ile-": 8937,
      "muni": 8938,
      "own": 8939,
      "ቂት": 8940,
      "ጥና": 8941,
      "ጨዋ": 8942,
      "na,": 8943,
      "hama": 8944,
      "wiwa": 8945,
      "የተባለ": 8946,
      "considé": 8947,
      "Abdul": 8948,
      "ከነዓን": 8949,
      "lafazi": 8950,
      "-i": 8951,
      "Dou": 8952,
      "Men": 8953,
      "fonction": 8954,
      "emplo": 8955,
      "utilisé": 8956,
      "Abe": 8957,
      "dẹ́": 8958,
      "ሎጂ": 8959,
      "መጫ": 8960,
      "ርን": 8961,
      "ቀስ": 8962,
      "ኘት": 8963,
      "ኮኖ": 8964,
      "ይላል።": 8965,
      "የሚገኙ": 8966,
      "ominira": 8967,
      "dani": 8968,
      "ulu": 8969,
      "wing": 8970,
      "se.": 8971,
      "astron": 8972,
      "Jos": 8973,
      "bọ": 8974,
      "pó": 8975,
      "ራም": 8976,
      "ሺህ": 8977,
      "ክሮ": 8978,
      "ዩናይት": 8979,
      "ጸባይ": 8980,
      "ṣá": 8981,
      "allo": 8982,
      "2007.": 8983,
      "Law": 8984,
      "ọ̀nù": 8985,
      "Chuo": 8986,
      "Sho": 8987,
      "Wam": 8988,
      "history": 8989,
      "quali": 8990,
      "2006.": 8991,
      "Bay": 8992,
      "lée": 8993,
      "Niger": 8994,
      "speci": 8995,
      "Chin": 8996,
      "Èyí": 8997,
      "አሰ": 8998,
      "ዩስ": 8999,
      "kaka": 9000,
      "makubwa": 9001,
      "lime": 9002,
      "gaz": 9003,
      "ንግድ": 9004,
      "mẹ́ta": 9005,
      "olùdarí": 9006,
      "Austria": 9007,
      "trouve": 9008,
      "Institute": 9009,
      "ጊዮርጊስ": 9010,
      "bì": 9011,
      "koko": 9012,
      "illa": 9013,
      "Ango": 9014,
      "(in": 9015,
      "Mili": 9016,
      "Umar": 9017,
      "av": 9018,
      "yọ́": 9019,
      "ምኒ": 9020,
      "ጭር": 9021,
      "anna": 9022,
      "parí": 9023,
      "shekarun": 9024,
      "wasannin": 9025,
      "wàá": 9026,
      "mshairi": 9027,
      "olórí": 9028,
      "Good": 9029,
      "ብርሃን": 9030,
      "abubuwan": 9031,
      "ose": 9032,
      "mu,": 9033,
      "pole": 9034,
      "selon": 9035,
      "Festival": 9036,
      "በሬ": 9037,
      "ession": 9038,
      "oruko": 9039,
      "rike": 9040,
      "astern": 9041,
      "pakana": 9042,
      "ye.": 9043,
      "be,": 9044,
      "jenga": 9045,
      "gwamnati": 9046,
      "Port": 9047,
      "የቀድሞ": 9048,
      "Tarihin": 9049,
      "period": 9050,
      "ዩናይትድ": 9051,
      "encore": 9052,
      "tous": 9053,
      "oft": 9054,
      "aient": 9055,
      "code": 9056,
      "1985": 9057,
      "Apol": 9058,
      "ira": 9059,
      "ሊቃ": 9060,
      "ሲቀ": 9061,
      "ቤቶች": 9062,
      "ታሪ": 9063,
      "አዋ": 9064,
      "ኢየሱስ": 9065,
      "ዘፋ": 9066,
      "የለም": 9067,
      "ገረ": 9068,
      "ọjọ": 9069,
      "dic": 9070,
      "chara": 9071,
      "sojo": 9072,
      "የአየር": 9073,
      "በመጨረሻ": 9074,
      "ገብረ": 9075,
      "tsohuwar": 9076,
      "mataima": 9077,
      "halafu": 9078,
      "europé": 9079,
      "Iya": 9080,
      "Tar": 9081,
      "fra": 9082,
      "enda": 9083,
      "al,": 9084,
      "mi.": 9085,
      "dera": 9086,
      "series": 9087,
      "Prof": 9088,
      "Trans": 9089,
      "mvu": 9090,
      "pya": 9091,
      "ሲሆኑ": 9092,
      "ሳተ": 9093,
      "ኞቹ": 9094,
      "የኖ": 9095,
      "ጅም": 9096,
      "ፊዎች": 9097,
      "wame": 9098,
      "watsa": 9099,
      "hizo": 9100,
      "te-": 9101,
      "1914": 9102,
      "fitar": 9103,
      "dant": 9104,
      "taron": 9105,
      "Kifaransa": 9106,
      "Marekani.": 9107,
      "(2005)": 9108,
      "ጠቅላይ": 9109,
      "Premi": 9110,
      "chukua": 9111,
      "Ash": 9112,
      "dered": 9113,
      "ambo": 9114,
      "finan": 9115,
      "since": 9116,
      "view": 9117,
      "Fasa": 9118,
      "መታ": 9119,
      "ሰነ": 9120,
      "ባታ": 9121,
      "ከስ": 9122,
      "ወድ": 9123,
      "dab": 9124,
      "ordina": 9125,
      "particuli": 9126,
      "መሆኑን": 9127,
      "ክርስትና": 9128,
      "፲፰፻": 9129,
      "sakandare": 9130,
      "Ida": 9131,
      "Para": 9132,
      "ditional": 9133,
      "bit": 9134,
      "key": 9135,
      "1969": 9136,
      "Sahara": 9137,
      "However,": 9138,
      "Star": 9139,
      "fed": 9140,
      "ብሔር": 9141,
      "ከረም": 9142,
      "ዕው": 9143,
      "ጻፈ": 9144,
      "ọpọ": 9145,
      "side": 9146,
      "ni:": 9147,
      "alpha": 9148,
      "dik": 9149,
      "celui": 9150,
      "exten": 9151,
      "House": 9152,
      "non-": 9153,
      "hydro": 9154,
      "ብሪታ": 9155,
      "nar": 9156,
      "data": 9157,
      "law": 9158,
      "vide": 9159,
      "histoire": 9160,
      "Patri": 9161,
      "(G": 9162,
      "(16": 9163,
      "Bin": 9164,
      "Dut": 9165,
      "Yu": 9166,
      "ስሞች": 9167,
      "ግም": 9168,
      "kacin": 9169,
      "Mali": 9170,
      "ja,": 9171,
      "yi.": 9172,
      "jua": 9173,
      "influence": 9174,
      "(He": 9175,
      "ga.": 9176,
      "Moham": 9177,
      "Colum": 9178,
      "occu": 9179,
      "Apple": 9180,
      "85": 9181,
      "Bene": 9182,
      "F.": 9183,
      "ìyá": 9184,
      "ሎቹ": 9185,
      "፪፻": 9186,
      "rasu": 9187,
      "elu": 9188,
      "shiry": 9189,
      "2006,": 9190,
      "lub": 9191,
      "origine": 9192,
      "hannun": 9193,
      "ነበረው": 9194,
      "Anamb": 9195,
      "ታላቁ": 9196,
      "European": 9197,
      "Aw": 9198,
      "Sur": 9199,
      "dence": 9200,
      "eux": 9201,
      "élect": 9202,
      "artic": 9203,
      "inten": 9204,
      "aire": 9205,
      "Kil": 9206,
      "mta": 9207,
      "ሊቀ": 9208,
      "ነግ": 9209,
      "ከና": 9210,
      "ጋን": 9211,
      "kutumia": 9212,
      "alum": 9213,
      "super": 9214,
      "fada": 9215,
      "irú": 9216,
      "2017.": 9217,
      "tengene": 9218,
      "ጊዜው": 9219,
      "ambazo": 9220,
      "Tovuti": 9221,
      "Isla": 9222,
      "ያለውን": 9223,
      "cô": 9224,
      "dor": 9225,
      "zani": 9226,
      "hivi": 9227,
      "yed": 9228,
      "1981": 9229,
      "1965": 9230,
      "Cour": 9231,
      "There": 9232,
      "Nu": 9233,
      "heshi": 9234,
      "መጡ": 9235,
      "wai": 9236,
      "ery": 9237,
      "espa": 9238,
      "using": 9239,
      "harkokin": 9240,
      "uniyar": 9241,
      "mbabwe": 9242,
      "ባህል": 9243,
      "tambu": 9244,
      "pataki": 9245,
      "utamaduni": 9246,
      "kuliko": 9247,
      "Australia": 9248,
      "ስቃሴ": 9249,
      "Had": 9250,
      "épo": 9251,
      "isme": 9252,
      "ty,": 9253,
      "1972": 9254,
      "1930": 9255,
      "htm": 9256,
      "(U": 9257,
      "-ẹ̀kọ́": 9258,
      "Gẹ̀ẹ́sì": 9259,
      "I,": 9260,
      "Kwan": 9261,
      "ipinle": 9262,
      "ሪስ": 9263,
      "በሳ": 9264,
      "በኮ": 9265,
      "አሉት": 9266,
      "ይቆ": 9267,
      "ፋርስ": 9268,
      "wasi": 9269,
      "date": 9270,
      "saman": 9271,
      "miwa": 9272,
      "fihàn": 9273,
      "loma": 9274,
      "Hivyo": 9275,
      "Shehu": 9276,
      "tumiwa": 9277,
      "tumika": 9278,
      "Central": 9279,
      "ቢሆንም": 9280,
      "U.S.": 9281,
      "Fá": 9282,
      "zz": 9283,
      "bado": 9284,
      "jade": 9285,
      "référen": 9286,
      "mark": 9287,
      "10,": 9288,
      "2018.": 9289,
      "important": 9290,
      "Dara": 9291,
      "twa": 9292,
      "ማግ": 9293,
      "ከረ": 9294,
      "ዓላማ": 9295,
      "kudancin": 9296,
      "hayo": 9297,
      "faire": 9298,
      "Wakazi": 9299,
      "trava": 9300,
      "nufin": 9301,
      "Common": 9302,
      "አምባ": 9303,
      "Amẹ́ríkà.": 9304,
      "Zimbabwe": 9305,
      "ይሆናል።": 9306,
      "Delta": 9307,
      "42": 9308,
      "pona": 9309,
      "éra": 9310,
      "ando": 9311,
      "change": 9312,
      "66": 9313,
      "Din": 9314,
      "መጋ": 9315,
      "anisha": 9316,
      "tobi": 9317,
      "mu.": 9318,
      "power": 9319,
      "kanda": 9320,
      "doma": 9321,
      "10.": 9322,
      "following": 9323,
      "ዩኒቨር": 9324,
      "field": 9325,
      "እንቅስቃሴ": 9326,
      "(15": 9327,
      "named": 9328,
      "region": 9329,
      "dit": 9330,
      "mit": 9331,
      "seed": 9332,
      "atur": 9333,
      "1952": 9334,
      "international": 9335,
      "Pierre": 9336,
      "Jean-": 9337,
      "Poland": 9338,
      "aci": 9339,
      "eff": 9340,
      "ምፒ": 9341,
      "ቅል": 9342,
      "ቅን": 9343,
      "ተጽ": 9344,
      "ታም": 9345,
      "ጀት": 9346,
      "hazi": 9347,
      "usha": 9348,
      "keje": 9349,
      "እንዴት": 9350,
      "l'É": 9351,
      "mengi": 9352,
      "Pia": 9353,
      "court": 9354,
      "ክለብ": 9355,
      "ይቀራሉ።": 9356,
      "holanzi": 9357,
      "አገልግሎት": 9358,
      "gouver": 9359,
      "ikan": 9360,
      "ête": 9361,
      "tuo": 9362,
      "(17": 9363,
      "Res": 9364,
      "Tom": 9365,
      "dwa": 9366,
      "በኤ": 9367,
      "ፉት": 9368,
      "nahiyar": 9369,
      "fikia": 9370,
      "commen": 9371,
      "በአን": 9372,
      "ንግል": 9373,
      "languages": 9374,
      "ምርጫ": 9375,
      "arufu": 9376,
      "arabci": 9377,
      "ይመስላል።": 9378,
      "ዕብራይስጥ": 9379,
      "bat": 9380,
      "ter.": 9381,
      "désig": 9382,
      "lieu": 9383,
      "Ox": 9384,
      "oli": 9385,
      "sla": 9386,
      "spé": 9387,
      "yì": 9388,
      "ሠራዊት": 9389,
      "ሪፐ": 9390,
      "ሰባ": 9391,
      "አክ": 9392,
      "ከሆነ": 9393,
      "ጥም": 9394,
      "organi": 9395,
      "leyin": 9396,
      "sabon": 9397,
      "ghan": 9398,
      "téra": 9399,
      "1962": 9400,
      "News": 9401,
      "ከነዚህ": 9402,
      "cès": 9403,
      "système": 9404,
      "\"The": 9405,
      "(An": 9406,
      "Year": 9407,
      "mika": 9408,
      "2020,": 9409,
      "Congress": 9410,
      "(L": 9411,
      "Pó": 9412,
      "school": 9413,
      "àjẹsára": 9414,
      "በብዙ": 9415,
      "ወገ": 9416,
      "ጋት": 9417,
      "ọlọ́": 9418,
      "cibiyar": 9419,
      "jejeni": 9420,
      "descri": 9421,
      "iyaka": 9422,
      "ológun": 9423,
      "አለው።": 9424,
      "AT": 9425,
      "88": 9426,
      "Iran": 9427,
      "cli": 9428,
      "የኡ": 9429,
      "matan": 9430,
      "maarufu": 9431,
      "reg": 9432,
      "bantu": 9433,
      "Alg": 9434,
      "ቤተክርስቲያን": 9435,
      "Ziwa": 9436,
      "littafin": 9437,
      "መጻሕፍት": 9438,
      "kaa": 9439,
      "kusu": 9440,
      "1929": 9441,
      "ina,": 9442,
      "terme": 9443,
      "ating": 9444,
      "provin": 9445,
      "Group": 9446,
      "different": 9447,
      "tory": 9448,
      "walla": 9449,
      "tume": 9450,
      "kansa": 9451,
      "cate": 9452,
      "የተባ": 9453,
      "Kejì": 9454,
      "abinci": 9455,
      "እውነት": 9456,
      "púpọ̀": 9457,
      "Alhaji": 9458,
      "tabbatar": 9459,
      "(m": 9460,
      "concer": 9461,
      "publique": 9462,
      "(13": 9463,
      "ama": 9464,
      "event": 9465,
      "sch": 9466,
      "ማኅ": 9467,
      "ቀሳ": 9468,
      "1917": 9469,
      "በመሆን": 9470,
      "gundu": 9471,
      "ምንጊዜም": 9472,
      "መልኩ": 9473,
      "taient": 9474,
      "Ọ̀yọ́": 9475,
      "ተመሳ": 9476,
      "sakamakon": 9477,
      "shiryen": 9478,
      "CE": 9479,
      "ming": 9480,
      "engine": 9481,
      "biti": 9482,
      "alis": 9483,
      "Mw": 9484,
      "n'est": 9485,
      "will": 9486,
      "ሙያ": 9487,
      "ር፣": 9488,
      "በሱ": 9489,
      "ተክል": 9490,
      "ጣን": 9491,
      "bio": 9492,
      "ashin": 9493,
      "guerre": 9494,
      "1964": 9495,
      "shafi": 9496,
      "Williams": 9497,
      "possible": 9498,
      "Sene": 9499,
      "halin": 9500,
      "tumba": 9501,
      "2009,": 9502,
      "Jour": 9503,
      "Government": 9504,
      "(B": 9505,
      "(K": 9506,
      "IN": 9507,
      "Mé": 9508,
      "Western": 9509,
      "tz": 9510,
      "Ìgbà": 9511,
      "Ìdí": 9512,
      "ńlá": 9513,
      "isan": 9514,
      "zaune": 9515,
      "bíbí": 9516,
      "መንግሥታት": 9517,
      "ዘመኑ": 9518,
      "2019.": 9519,
      "Kamfanin": 9520,
      "andika": 9521,
      "Federal": 9522,
      "gargajiya": 9523,
      "gré": 9524,
      "rong": 9525,
      "began": 9526,
      "we,": 9527,
      "déc": 9528,
      "VID": 9529,
      "Domini": 9530,
      "tten": 9531,
      "ሞክራ": 9532,
      "ቂያ": 9533,
      "fadin": 9534,
      "joto": 9535,
      "joko": 9536,
      "díẹ̀": 9537,
      "makao": 9538,
      "kawai": 9539,
      "formation": 9540,
      "onyesha": 9541,
      "ልማት": 9542,
      "ተመሳሳይ": 9543,
      "77": 9544,
      "Aja": 9545,
      "ait": 9546,
      "eko": 9547,
      "œu": 9548,
      "tifi": 9549,
      "tas": 9550,
      "d'autres": 9551,
      "voire": 9552,
      "'ya": 9553,
      "PP": 9554,
      "Tele": 9555,
      "sus": 9556,
      "ìṣẹ̀lẹ̀": 9557,
      "ዝን": 9558,
      "ይሁን": 9559,
      "ግሪ": 9560,
      "ፍር": 9561,
      "ፎር": 9562,
      "1925": 9563,
      "ets": 9564,
      "dest": 9565,
      "የአር": 9566,
      "expres": 9567,
      "kóso": 9568,
      "ኛውም": 9569,
      "1959": 9570,
      "II,": 9571,
      "yawancin": 9572,
      "ìdíje": 9573,
      "በተለይም": 9574,
      "tẹli": 9575,
      "latini": 9576,
      "ይቻላል።": 9577,
      "pí": 9578,
      "test": 9579,
      "kui": 9580,
      "seu": 9581,
      "They": 9582,
      "tradition": 9583,
      "Armen": 9584,
      "afrika": 9585,
      "ficial": 9586,
      "direct": 9587,
      "Hindi": 9588,
      "Poly": 9589,
      "Zari": 9590,
      "ctu": 9591,
      "ሀብ": 9592,
      "ሉን": 9593,
      "ሩም": 9594,
      "ሰም": 9595,
      "ሳር": 9596,
      "ተካ": 9597,
      "የራ": 9598,
      "የጀርመን": 9599,
      "ዳም": 9600,
      "yakin": 9601,
      "hewa": 9602,
      "kura": 9603,
      "msingi": 9604,
      "Hadi": 9605,
      "oluilu": 9606,
      "አመታት": 9607,
      "ጥቅምት": 9608,
      "Yunifásítì": 9609,
      "ographie": 9610,
      "wùjọ": 9611,
      "yahudi": 9612,
      "Tro": 9613,
      "ni.": 9614,
      "Johnson": 9615,
      "iness": 9616,
      "Jack": 9617,
      "control": 9618,
      "avoir": 9619,
      "poly": 9620,
      "Ìbẹ̀rẹ̀": 9621,
      "በካ": 9622,
      "ተጫ": 9623,
      "ከባ": 9624,
      "የዚህ": 9625,
      "ፖርት": 9626,
      "sala": 9627,
      "nipas": 9628,
      "jiho": 9629,
      "biyu,": 9630,
      "Dunia": 9631,
      "wadannan": 9632,
      "ìdílé": 9633,
      "Bou": 9634,
      "Dist": 9635,
      "cing": 9636,
      "maye": 9637,
      "concep": 9638,
      "formed": 9639,
      "Viet": 9640,
      "center": 9641,
      "Great": 9642,
      "Fred": 9643,
      "lom": 9644,
      "àdúgbò": 9645,
      "ሶስት": 9646,
      "ደገ": 9647,
      "ፊያ": 9648,
      "mayar": 9649,
      "kufuatana": 9650,
      "sayari": 9651,
      "kiasi": 9652,
      "tanni": 9653,
      "የአውሮፓ": 9654,
      "harar": 9655,
      "chache": 9656,
      "Nairo": 9657,
      "ሕዝቡ": 9658,
      "Cup": 9659,
      "Turan": 9660,
      "coup": 9661,
      "Fu": 9662,
      "Ife": 9663,
      "Kẹ́": 9664,
      "gara": 9665,
      "መሣ": 9666,
      "ሪቃ": 9667,
      "ቆይ": 9668,
      "ቸዋል።": 9669,
      "አጠ": 9670,
      "እኩል": 9671,
      "mad": 9672,
      "peup": 9673,
      "wọ̀nyí": 9674,
      "Urusi": 9675,
      "fina-finai": 9676,
      "siyasan": 9677,
      "ሚካኤል": 9678,
      "Jari": 9679,
      "cipa": 9680,
      "open": 9681,
      "land.": 9682,
      "gener": 9683,
      "----": 9684,
      "comple": 9685,
      "School,": 9686,
      "Mohammed": 9687,
      "T.": 9688,
      "blia": 9689,
      "cum": 9690,
      "gì": 9691,
      "òbí": 9692,
      "በሩ": 9693,
      "ẹran": 9694,
      "kuzaliwa": 9695,
      "ha,": 9696,
      "fiimu": 9697,
      "japona": 9698,
      "እስካ": 9699,
      "kàwé": 9700,
      "እንግዲህ": 9701,
      "mìni": 9702,
      "linguis": 9703,
      "jul": 9704,
      "Indon": 9705,
      "COVID": 9706,
      "Imo": 9707,
      "List": 9708,
      "Sen": 9709,
      "W.": 9710,
      "mpa": 9711,
      "rum": 9712,
      "xy": 9713,
      "ájú": 9714,
      "በደ": 9715,
      "ቷን": 9716,
      "ቸዉ": 9717,
      "ነፃ": 9718,
      "ኤን": 9719,
      "የል": 9720,
      "thè": 9721,
      "wancin": 9722,
      "ደርግ": 9723,
      "የሚገኝበት": 9724,
      "lililo": 9725,
      "ዩኒቨርሲቲ": 9726,
      "54": 9727,
      "Olo": 9728,
      "Otto": 9729,
      "karu": 9730,
      "agri": 9731,
      "Aikin": 9732,
      "dare": 9733,
      "ህግ": 9734,
      "ርሱ": 9735,
      "ሸን": 9736,
      "ነሣ": 9737,
      "ወስ": 9738,
      "ዳሪ": 9739,
      "read": 9740,
      "des,": 9741,
      "forces": 9742,
      "ched": 9743,
      "jami'ar": 9744,
      "include": 9745,
      "(F": 9746,
      "Cer": 9747,
      "Ty": 9748,
      "sif": 9749,
      "ana,": 9750,
      "correspon": 9751,
      "color": 9752,
      "Ces": 9753,
      "Gau": 9754,
      "Gida": 9755,
      "Kore": 9756,
      "fú": 9757,
      "ታር": 9758,
      "ዓፄ": 9759,
      "ዞች": 9760,
      "conf": 9761,
      "Watakatifu": 9762,
      "1961": 9763,
      "ነገሥት": 9764,
      "Pour": 9765,
      "société": 9766,
      "ዘንድ፣": 9767,
      "ፈላጊ": 9768,
      "ዓይነት": 9769,
      "ፍልስፍና": 9770,
      "ጽሕፈት": 9771,
      "tegemea": 9772,
      "59": 9773,
      "gis": 9774,
      "rele": 9775,
      "1963": 9776,
      "lands": 9777,
      "complex": 9778,
      "Wanda": 9779,
      "Mwan": 9780,
      "Mlima": 9781,
      "በዛ": 9782,
      "ቦር": 9783,
      "የፈ": 9784,
      "ያስተ": 9785,
      "wase": 9786,
      "kakar": 9787,
      "relati": 9788,
      "yant": 9789,
      "yanke": 9790,
      "tsara": 9791,
      "Kilatini": 9792,
      "Art": 9793,
      "አለ።": 9794,
      "Duba": 9795,
      "Internet": 9796,
      "akiwa": 9797,
      "líà": 9798,
      "scientifi": 9799,
      "Wanasayansi": 9800,
      "bangaren": 9801,
      "ግንኙነት": 9802,
      "o-": 9803,
      "zza": 9804,
      "du,": 9805,
      "gions": 9806,
      "pher": 9807,
      "nombreux": 9808,
      "Tí": 9809,
      "ረቱ": 9810,
      "ተመል": 9811,
      "አዘ": 9812,
      "ṣo": 9813,
      "ensemble": 9814,
      "ombo": 9815,
      "thur": 9816,
      "thod": 9817,
      "Mafi": 9818,
      "sanar": 9819,
      "በመባል": 9820,
      "tes.": 9821,
      "1940": 9822,
      "መለስ": 9823,
      "ተከታይ": 9824,
      "ስብስብ": 9825,
      "nasarar": 9826,
      "Hal": 9827,
      "yaki": 9828,
      "lizi": 9829,
      "1900": 9830,
      "biri": 9831,
      "GB": 9832,
      "Kungiyar": 9833,
      "Oko": 9834,
      "Ìtu": 9835,
      "Ìjọba": 9836,
      "ሚና": 9837,
      "ምነት": 9838,
      "ሳል።": 9839,
      "ስትር": 9840,
      "ኗሪ": 9841,
      "ኪሎ": 9842,
      "የዓመቱ": 9843,
      "ደሴት": 9844,
      "ድንግል": 9845,
      "ọlá": 9846,
      "192": 9847,
      "sement": 9848,
      "mot": 9849,
      "የሚሰራ": 9850,
      "170": 9851,
      "monde": 9852,
      "velo": 9853,
      "(2004)": 9854,
      "Wasu": 9855,
      "Yankin": 9856,
      "KK": 9857,
      "gó": 9858,
      "mban": 9859,
      "pari": 9860,
      "lier": 9861,
      "ellow": 9862,
      "2007,": 9863,
      "proper": 9864,
      "General": 9865,
      "86": 9866,
      "Oni": 9867,
      "nkan": 9868,
      "Ìtàn": 9869,
      "ለዚህ": 9870,
      "በሻ": 9871,
      "kua": 9872,
      "siè": 9873,
      "birin": 9874,
      "inganta": 9875,
      "እንደተ": 9876,
      "Afrilu": 9877,
      "shinda": 9878,
      "Development": 9879,
      "médi": 9880,
      "daukar": 9881,
      "ጎንደር": 9882,
      "ክፍላገር": 9883,
      "የነበሩት": 9884,
      "album": 9885,
      "pinduzi": 9886,
      "H.": 9887,
      "2008,": 9888,
      "archite": 9889,
      "Bisa": 9890,
      "àbá": 9891,
      "መጀመሪያ": 9892,
      "ቢይ": 9893,
      "እያንዳንዱ": 9894,
      "ያላቸው": 9895,
      "ግኝ": 9896,
      "kasi": 9897,
      "ishin": 9898,
      "leta": 9899,
      "kiongozi": 9900,
      "1919": 9901,
      "lélógún": 9902,
      "appar": 9903,
      "ንጉሡ": 9904,
      "turu": 9905,
      "falsafa": 9906,
      "dukkan": 9907,
      "mò:": 9908,
      "ስያሜ": 9909,
      "chunguza": 9910,
      "nipasẹ": 9911,
      "(10": 9912,
      "erial": 9913,
      "1948": 9914,
      "mée": 9915,
      "Paulo": 9916,
      "I.": 9917,
      "ater": 9918,
      "fle": 9919,
      "ለስ": 9920,
      "ሸዋ": 9921,
      "የፊ": 9922,
      "የሙዚቃ": 9923,
      "ያዝ": 9924,
      "ጫወ": 9925,
      "matic": 9926,
      "mizi": 9927,
      "kananan": 9928,
      "tsakiyar": 9929,
      "አንደ": 9930,
      "íríkà": 9931,
      "wòsàn": 9932,
      "አውራ": 9933,
      "(),": 9934,
      "Aga": 9935,
      "Cul": 9936,
      "Ilu": 9937,
      "mel": 9938,
      "incre": 9939,
      "sex": 9940,
      "bed": 9941,
      "tée": 9942,
      "nant": 9943,
      "Paris,": 9944,
      "Bil": 9945,
      "Janar": 9946,
      "a)": 9947,
      "èrò": 9948,
      "መኖ": 9949,
      "ወዘ": 9950,
      "ዳል": 9951,
      "ጨምሮ": 9952,
      "enga": 9953,
      "mahaifiyar": 9954,
      "ẹ̀ka": 9955,
      "th.": 9956,
      "Alf": 9957,
      "1958": 9958,
      "ለማስ": 9959,
      "አስተዳደግ": 9960,
      "cikak": 9961,
      "fiye": 9962,
      "décou": 9963,
      "Apollo": 9964,
      "Aiki": 9965,
      "Py": 9966,
      "Tor": 9967,
      "iti": 9968,
      "jal": 9969,
      "sán": 9970,
      "Ìjọ": 9971,
      "ተደር": 9972,
      "ትራ": 9973,
      "የህዝብ": 9974,
      "ጠት": 9975,
      "devient": 9976,
      "pada": 9977,
      "lum": 9978,
      "fupi": 9979,
      "Waingereza": 9980,
      "ruwan": 9981,
      "ulin": 9982,
      "Archi": 9983,
      "Radio": 9984,
      "afri": 9985,
      "alamu": 9986,
      "Langu": 9987,
      "standard": 9988,
      "jam'iyyar": 9989,
      "Bunge": 9990,
      "eren": 9991,
      "ladi": 9992,
      "celle": 9993,
      "lob": 9994,
      "html": 9995,
      "Blo": 9996,
      "Jẹ́": 9997,
      "iri": 9998,
      "ƙwarar": 9999
    },
    "merges": [
      [
        "a",
        "n"
      ],
      [
        "a",
        "r"
      ],
      [
        "i",
        "n"
      ],
      [
        "w",
        "a"
      ],
      [
        "o",
        "n"
      ],
      [
        "e",
        "r"
      ],
      [
        "e",
        "n"
      ],
      [
        "k",
        "a"
      ],
      [
        "t",
        "i"
      ],
      [
        "y",
        "a"
      ],
      [
        "d",
        "a"
      ],
      [
        "t",
        "a"
      ],
      [
        "m",
        "a"
      ],
      [
        "e",
        "s"
      ],
      [
        "l",
        "i"
      ],
      [
        "u",
        "n"
      ],
      [
        "l",
        "a"
      ],
      [
        "i",
        "s"
      ],
      [
        "h",
        "e"
      ],
      [
        "o",
        "r"
      ],
      [
        "l",
        "e"
      ],
      [
        "b",
        "a"
      ],
      [
        "n",
        "a"
      ],
      [
        "k",
        "u"
      ],
      [
        "h",
        "a"
      ],
      [
        "d",
        "e"
      ],
      [
        "s",
        "a"
      ],
      [
        "u",
        "r"
      ],
      [
        "t",
        "o"
      ],
      [
        "h",
        "i"
      ],
      [
        "s",
        "i"
      ],
      [
        "r",
        "e"
      ],
      [
        "k",
        "i"
      ],
      [
        "t",
        "e"
      ],
      [
        "n",
        "i"
      ],
      [
        "a",
        "l"
      ],
      [
        "1",
        "9"
      ],
      [
        "d",
        "i"
      ],
      [
        "r",
        "i"
      ],
      [
        "g",
        "a"
      ],
      [
        "r",
        "a"
      ],
      [
        "t",
        "he"
      ],
      [
        "m",
        "i"
      ],
      [
        "o",
        "f"
      ],
      [
        "u",
        "s"
      ],
      [
        "ẹ",
        "̀"
      ],
      [
        "c",
        "i"
      ],
      [
        "b",
        "i"
      ],
      [
        "c",
        "e"
      ],
      [
        "ar",
        "a"
      ],
      [
        "o",
        "m"
      ],
      [
        "z",
        "a"
      ],
      [
        "w",
        "ọ"
      ],
      [
        "2",
        "0"
      ],
      [
        "ẹ",
        "́"
      ],
      [
        "an",
        "a"
      ],
      [
        "g",
        "b"
      ],
      [
        "a",
        "s"
      ],
      [
        "an",
        "d"
      ],
      [
        "en",
        "t"
      ],
      [
        "f",
        "i"
      ],
      [
        "k",
        "e"
      ],
      [
        "o",
        "l"
      ],
      [
        "t",
        "h"
      ],
      [
        "an",
        "i"
      ],
      [
        "ti",
        "on"
      ],
      [
        "n",
        "í"
      ],
      [
        "in",
        "g"
      ],
      [
        "r",
        "o"
      ],
      [
        "c",
        "h"
      ],
      [
        "a",
        "m"
      ],
      [
        "n",
        "e"
      ],
      [
        "j",
        "i"
      ],
      [
        "k",
        "o"
      ],
      [
        "e",
        "l"
      ],
      [
        "q",
        "u"
      ],
      [
        "ar",
        "i"
      ],
      [
        "ọ",
        "́"
      ],
      [
        "wọ",
        "n"
      ],
      [
        "e",
        "t"
      ],
      [
        "s",
        "u"
      ],
      [
        "i",
        "l"
      ],
      [
        "t",
        "u"
      ],
      [
        "m",
        "e"
      ],
      [
        "d",
        "u"
      ],
      [
        "s",
        "e"
      ],
      [
        "M",
        "a"
      ],
      [
        "m",
        "u"
      ],
      [
        "k",
        "in"
      ],
      [
        "p",
        "a"
      ],
      [
        "g",
        "i"
      ],
      [
        "l",
        "o"
      ],
      [
        "f",
        "a"
      ],
      [
        "p",
        "o"
      ],
      [
        "እ",
        "ን"
      ],
      [
        "a",
        "li"
      ],
      [
        "t",
        "í"
      ],
      [
        "ọ",
        "̀"
      ],
      [
        "b",
        "u"
      ],
      [
        "ነ",
        "ው"
      ],
      [
        "er",
        "i"
      ],
      [
        "in",
        "a"
      ],
      [
        "a",
        "u"
      ],
      [
        "z",
        "i"
      ],
      [
        "ú",
        "n"
      ],
      [
        "k",
        "an"
      ],
      [
        "k",
        "ar"
      ],
      [
        "s",
        "h"
      ],
      [
        "k",
        "wa"
      ],
      [
        "o",
        "u"
      ],
      [
        "t",
        "an"
      ],
      [
        "y",
        "e"
      ],
      [
        "m",
        "o"
      ],
      [
        "w",
        "an"
      ],
      [
        "ar",
        "e"
      ],
      [
        "t",
        "er"
      ],
      [
        "i",
        "t"
      ],
      [
        "g",
        "u"
      ],
      [
        "g",
        "e"
      ],
      [
        "s",
        "he"
      ],
      [
        "y",
        "an"
      ],
      [
        "p",
        "e"
      ],
      [
        "l",
        "es"
      ],
      [
        "h",
        "u"
      ],
      [
        "v",
        "e"
      ],
      [
        "y",
        "ar"
      ],
      [
        "i",
        "r"
      ],
      [
        "s",
        "o"
      ],
      [
        "d",
        "an"
      ],
      [
        "j",
        "e"
      ],
      [
        "s",
        "hi"
      ],
      [
        "s",
        "an"
      ],
      [
        "ku",
        "ma"
      ],
      [
        "j",
        "a"
      ],
      [
        "ነው",
        "።"
      ],
      [
        "in",
        "i"
      ],
      [
        "g",
        "o"
      ],
      [
        "v",
        "i"
      ],
      [
        "d",
        "es"
      ],
      [
        "y",
        "o"
      ],
      [
        "s",
        "t"
      ],
      [
        "1",
        "8"
      ],
      [
        "b",
        "e"
      ],
      [
        "ka",
        "ti"
      ],
      [
        "a",
        "t"
      ],
      [
        "r",
        "an"
      ],
      [
        "c",
        "on"
      ],
      [
        "y",
        "i"
      ],
      [
        "m",
        "ent"
      ],
      [
        "20",
        "0"
      ],
      [
        "r",
        "í"
      ],
      [
        "es",
        "t"
      ],
      [
        "p",
        "i"
      ],
      [
        "የ",
        "ሚ"
      ],
      [
        "m",
        "an"
      ],
      [
        "ቸ",
        "ው"
      ],
      [
        "f",
        "or"
      ],
      [
        "20",
        "1"
      ],
      [
        "b",
        "o"
      ],
      [
        "p",
        "ar"
      ],
      [
        "r",
        "é"
      ],
      [
        "የ",
        "አ"
      ],
      [
        "d",
        "o"
      ],
      [
        "l",
        "u"
      ],
      [
        "ል",
        "።"
      ],
      [
        "in",
        "e"
      ],
      [
        "v",
        "er"
      ],
      [
        "s",
        "í"
      ],
      [
        "c",
        "a"
      ],
      [
        "l",
        "á"
      ],
      [
        "f",
        "u"
      ],
      [
        "t",
        "s"
      ],
      [
        "a",
        "i"
      ],
      [
        "ሳ",
        "ሌ"
      ],
      [
        "qu",
        "e"
      ],
      [
        "l",
        "ẹ̀"
      ],
      [
        "ም",
        "ሳሌ"
      ],
      [
        "መ",
        "ን"
      ],
      [
        "w",
        "e"
      ],
      [
        "to",
        "ka"
      ],
      [
        "l",
        "y"
      ],
      [
        "b",
        "í"
      ],
      [
        "b",
        "an"
      ],
      [
        "m",
        "ar"
      ],
      [
        "l",
        "'"
      ],
      [
        "B",
        "a"
      ],
      [
        "ነ",
        "በ"
      ],
      [
        "or",
        "i"
      ],
      [
        "à",
        "wọn"
      ],
      [
        "wa",
        "ka"
      ],
      [
        ")",
        "."
      ],
      [
        "h",
        "ar"
      ],
      [
        "w",
        "i"
      ],
      [
        "à",
        "n"
      ],
      [
        "er",
        "e"
      ],
      [
        "u",
        "m"
      ],
      [
        "c",
        "om"
      ],
      [
        "r",
        "es"
      ],
      [
        "I",
        "n"
      ],
      [
        "c",
        "ha"
      ],
      [
        "T",
        "he"
      ],
      [
        "w",
        "ar"
      ],
      [
        "d",
        "é"
      ],
      [
        "W",
        "a"
      ],
      [
        "un",
        "i"
      ],
      [
        "0",
        "0"
      ],
      [
        "ku",
        "wa"
      ],
      [
        "የ",
        "ተ"
      ],
      [
        "a",
        "d"
      ],
      [
        "y",
        "in"
      ],
      [
        "r",
        "u"
      ],
      [
        "A",
        "n"
      ],
      [
        "ን",
        "ድ"
      ],
      [
        ")",
        ","
      ],
      [
        "N",
        "a"
      ],
      [
        "un",
        "a"
      ],
      [
        "t",
        "ar"
      ],
      [
        "c",
        "o"
      ],
      [
        "s",
        ","
      ],
      [
        "ዎ",
        "ች"
      ],
      [
        "ci",
        "kin"
      ],
      [
        "À",
        "wọn"
      ],
      [
        "k",
        "ara"
      ],
      [
        "c",
        "hi"
      ],
      [
        "a",
        "ti"
      ],
      [
        "እ",
        "ና"
      ],
      [
        "r",
        "in"
      ],
      [
        "c",
        "in"
      ],
      [
        "ላ",
        "ይ"
      ],
      [
        "K",
        "i"
      ],
      [
        "m",
        "ba"
      ],
      [
        "e",
        "d"
      ],
      [
        "c",
        "t"
      ],
      [
        "ነ",
        "ት"
      ],
      [
        "j",
        "ẹ́"
      ],
      [
        "da",
        "ga"
      ],
      [
        "u",
        "l"
      ],
      [
        "N",
        "i"
      ],
      [
        "s",
        "on"
      ],
      [
        "z",
        "o"
      ],
      [
        "d",
        "'"
      ],
      [
        "እን",
        "ደ"
      ],
      [
        "A",
        "m"
      ],
      [
        "19",
        "9"
      ],
      [
        "à",
        "ti"
      ],
      [
        "a",
        "ka"
      ],
      [
        "h",
        "o"
      ],
      [
        "g",
        "ba"
      ],
      [
        "w",
        "on"
      ],
      [
        "w",
        "o"
      ],
      [
        "ማ",
        "ር"
      ],
      [
        "kati",
        "ka"
      ],
      [
        "p",
        "ro"
      ],
      [
        "r",
        "ẹ̀"
      ],
      [
        "l",
        "é"
      ],
      [
        "te",
        "d"
      ],
      [
        "t",
        "sa"
      ],
      [
        "n",
        "o"
      ],
      [
        "A",
        "l"
      ],
      [
        "ọ",
        "d"
      ],
      [
        "f",
        "e"
      ],
      [
        "b",
        "er"
      ],
      [
        "j",
        "eri"
      ],
      [
        "is",
        "t"
      ],
      [
        "on",
        "i"
      ],
      [
        "jeri",
        "ya"
      ],
      [
        "m",
        "waka"
      ],
      [
        "t",
        "y"
      ],
      [
        "i",
        "li"
      ],
      [
        "g",
        "h"
      ],
      [
        "un",
        "e"
[...]
