{
  "version": "1.0",
  "truncation": null,
  "padding": null,
  "added_tokens": [
    {
      "id": 0,
      "content": "[UNK]",
      "single_word": false,
      "lstrip": false,
      "rstrip": false,
      "normalized": false,
      "special": true
    }
  ],
  "normalizer": {
    "type": "Sequence",
    "normalizers": [
      {
        "type": "NFC"
      },
      {
        "type": "Lowercase"
      }
    ]
  },
  "pre_tokenizer": {
    "type": "WhitespaceSplit"
  },
  "post_processor": null,
  "decoder": {
    "type": "ByteFallback"
  },
  "model": {
    "type": "BPE",
    "dropout": null,
    "unk_token": "[UNK]",
    "continuing_subword_prefix": null,
    "end_of_word_suffix": null,
    "fuse_unk": false,
    "byte_fallback": true,
    "ignore_merges": false,
    "vocab": {
      "[UNK]": 0,
      "<0x00>": 1,
      "<0x01>": 2,
      "<0x02>": 3,
      "<0x03>": 4,
      "<0x04>": 5,
      "<0x05>": 6,
      "<0x06>": 7,
      "<0x07>": 8,
      "<0x08>": 9,
      "<0x09>": 10,
      "<0x0A>": 11,
      "<0x0B>": 12,
      "<0x0C>": 13,
      "<0x0D>": 14,
      "<0x0E>": 15,
      "<0x0F>": 16,
      "<0x10>": 17,
      "<0x11>": 18,
      "<0x12>": 19,
      "<0x13>": 20,
      "<0x14>": 21,
      "<0x15>": 22,
      "<0x16>": 23,
      "<0x17>": 24,
      "<0x18>": 25,
      "<0x19>": 26,
      "<0x1A>": 27,
      "<0x1B>": 28,
      "<0x1C>": 29,
      "<0x1D>": 30,
      "<0x1E>": 31,
      "<0x1F>": 32,
      "<0x20>": 33,
      "<0x21>": 34,
      "<0x22>": 35,
      "<0x23>": 36,
      "<0x24>": 37,
      "<0x25>": 38,
      "<0x26>": 39,
      "<0x27>": 40,
      "<0x28>": 41,
      "<0x29>": 42,
      "<0x2A>": 43,
      "<0x2B>": 44,
      "<0x2C>": 45,
      "<0x2D>": 46,
      "<0x2E>": 47,
      "<0x2F>": 48,
      "<0x30>": 49,
      "<0x31>": 50,
      "<0x32>": 51,
      "<0x33>": 52,
      "<0x34>": 53,
      "<0x35>": 54,
      "<0x36>": 55,
      "<0x37>": 56,
      "<0x38>": 57,
      "<0x39>": 58,
      "<0x3A>": 59,
      "<0x3B>": 60,
      "<0x3C>": 61,
      "<0x3D>": 62,
      "<0x3E>": 63,
      "<0x3F>": 64,
      "<0x40>": 65,
      "<0x41>": 66,
      "<0x42>": 67,
      "<0x43>": 68,
      "<0x44>": 69,
      "<0x45>": 70,
      "<0x46>": 71,
      "<0x47>": 72,
      "<0x48>": 73,
      "<0x49>": 74,
      "<0x4A>": 75,
      "<0x4B>": 76,
      "<0x4C>": 77,
      "<0x4D>": 78,
      "<0x4E>": 79,
      "<0x4F>": 80,
      "<0x50>": 81,
      "<0x51>": 82,
      "<0x52>": 83,
      "<0x53>": 84,
      "<0x54>": 85,
      "<0x55>": 86,
      "<0x56>": 87,
      "<0x57>": 88,
      "<0x58>": 89,
      "<0x59>": 90,
      "<0x5A>": 91,
      "<0x5B>": 92,
      "<0x5C>": 93,
      "<0x5D>": 94,
      "<0x5E>": 95,
      "<0x5F>": 96,
      "<0x60>": 97,
      "<0x61>": 98,
      "<0x62>": 99,
      "<0x63>": 100,
      "<0x64>": 101,
      "<0x65>": 102,
      "<0x66>": 103,
      "<0x67>": 104,
      "<0x68>": 105,
      "<0x69>": 106,
      "<0x6A>": 107,
      "<0x6B>": 108,
      "<0x6C>": 109,
      "<0x6D>": 110,
      "<0x6E>": 111,
      "<0x6F>": 112,
      "<0x70>": 113,
      "<0x71>": 114,
      "<0x72>": 115,
      "<0x73>": 116,
      "<0x74>": 117,
      "<0x75>": 118,
      "<0x76>": 119,
      "<0x77>": 120,
      "<0x78>": 121,
      "<0x79>": 122,
      "<0x7A>": 123,
      "<0x7B>": 124,
      "<0x7C>": 125,
      "<0x7D>": 126,
      "<0x7E>": 127,
      "<0x7F>": 128,
      "<0x80>": 129,
      "<0x81>": 130,
      "<0x82>": 131,
      "<0x83>": 132,
      "<0x84>": 133,
      "<0x85>": 134,
      "<0x86>": 135,
      "<0x87>": 136,
      "<0x88>": 137,
      "<0x89>": 138,
      "<0x8A>": 139,
      "<0x8B>": 140,
      "<0x8C>": 141,
      "<0x8D>": 142,
      "<0x8E>": 143,
      "<0x8F>": 144,
      "<0x90>": 145,
      "<0x91>": 146,
      "<0x92>": 147,
      "<0x93>": 148,
      "<0x94>": 149,
      "<0x95>": 150,
      "<0x96>": 151,
      "<0x97>": 152,
      "<0x98>": 153,
      "<0x99>": 154,
      "<0x9A>": 155,
      "<0x9B>": 156,
      "<0x9C>": 157,
      "<0x9D>": 158,
      "<0x9E>": 159,
      "<0x9F>": 160,
      "<0xA0>": 161,
      "<0xA1>": 162,
      "<0xA2>": 163,
      "<0xA3>": 164,
      "<0xA4>": 165,
      "<0xA5>": 166,
      "<0xA6>": 167,
      "<0xA7>": 168,
      "<0xA8>": 169,
      "<0xA9>": 170,
      "<0xAA>": 171,
      "<0xAB>": 172,
      "<0xAC>": 173,
      "<0xAD>": 174,
      "<0xAE>": 175,
      "<0xAF>": 176,
      "<0xB0>": 177,
      "<0xB1>": 178,
      "<0xB2>": 179,
      "<0xB3>": 180,
      "<0xB4>": 181,
      "<0xB5>": 182,
      "<0xB6>": 183,
      "<0xB7>": 184,
      "<0xB8>": 185,
      "<0xB9>": 186,
      "<0xBA>": 187,
      "<0xBB>": 188,
      "<0xBC>": 189,
      "<0xBD>": 190,
      "<0xBE>": 191,
      "<0xBF>": 192,
      "<0xC0>": 193,
      "<0xC1>": 194,
      "<0xC2>": 195,
      "<0xC3>": 196,
      "<0xC4>": 197,
      "<0xC5>": 198,
      "<0xC6>": 199,
      "<0xC7>": 200,
      "<0xC8>": 201,
      "<0xC9>": 202,
      "<0xCA>": 203,
      "<0xCB>": 204,
      "<0xCC>": 205,
      "<0xCD>": 206,
      "<0xCE>": 207,
      "<0xCF>": 208,
      "<0xD0>": 209,
      "<0xD1>": 210,
      "<0xD2>": 211,
      "<0xD3>": 212,
      "<0xD4>": 213,
      "<0xD5>": 214,
      "<0xD6>": 215,
      "<0xD7>": 216,
      "<0xD8>": 217,
      "<0xD9>": 218,
      "<0xDA>": 219,
      "<0xDB>": 220,
      "<0xDC>": 221,
      "<0xDD>": 222,
      "<0xDE>": 223,
      "<0xDF>": 224,
      "<0xE0>": 225,
      "<0xE1>": 226,
      "<0xE2>": 227,
      "<0xE3>": 228,
      "<0xE4>": 229,
      "<0xE5>": 230,
      "<0xE6>": 231,
      "<0xE7>": 232,
      "<0xE8>": 233,
      "<0xE9>": 234,
      "<0xEA>": 235,
      "<0xEB>": 236,
      "<0xEC>": 237,
      "<0xED>": 238,
      "<0xEE>": 239,
      "<0xEF>": 240,
      "<0xF0>": 241,
      "<0xF1>": 242,
      "<0xF2>": 243,
      "<0xF3>": 244,
      "<0xF4>": 245,
      "<0xF5>": 246,
      "<0xF6>": 247,
      "<0xF7>": 248,
      "<0xF8>": 249,
      "<0xF9>": 250,
      "<0xFA>": 251,
      "<0xFB>": 252,
      "<0xFC>": 253,
      "<0xFD>": 254,
      "<0xFE>": 255,
      "<0xFF>": 256,
      "!": 257,
      "\"": 258,
      "#": 259,
      "$": 260,
      "%": 261,
      "&": 262,
      "'": 263,
      "(": 264,
      ")": 265,
      "*": 266,
      "+": 267,
      ",": 268,
      "-": 269,
      ".": 270,
      "/": 271,
      "0": 272,
      "1": 273,
      "2": 274,
      "3": 275,
      "4": 276,
      "5": 277,
      "6": 278,
      "7": 279,
      "8": 280,
      "9": 281,
      ":": 282,
      ";": 283,
      "<": 284,
      "=": 285,
      ">": 286,
      "?": 287,
      "@": 288,
      "[": 289,
      "\\": 290,
      "]": 291,
      "^": 292,
      "_": 293,
      "`": 294,
      "a": 295,
      "b": 296,
      "c": 297,
      "d": 298,
      "e": 299,
      "f": 300,
      "g": 301,
      "h": 302,
      "i": 303,
      "j": 304,
      "k": 305,
      "l": 306,
      "m": 307,
      "n": 308,
      "o": 309,
      "p": 310,
      "q": 311,
      "r": 312,
      "s": 313,
      "t": 314,
      "u": 315,
      "v": 316,
      "w": 317,
      "x": 318,
      "y": 319,
      "z": 320,
      "{": 321,
      "|": 322,
      "}": 323,
      "~": 324,
      "£": 325,
      "§": 326,
      "«": 327,
      "®": 328,
      "°": 329,
      "±": 330,
      "²": 331,
      "³": 332,
      "´": 333,
      "·": 334,
      "º": 335,
      "»": 336,
      "½": 337,
      "×": 338,
      "ß": 339,
      "à": 340,
      "á": 341,
      "â": 342,
      "ã": 343,
      "ä": 344,
      "å": 345,
      "æ": 346,
      "ç": 347,
      "è": 348,
      "é": 349,
      "ê": 350,
      "ë": 351,
      "ì": 352,
      "í": 353,
      "î": 354,
      "ï": 355,
      "ð": 356,
      "ñ": 357,
      "ò": 358,
      "ó": 359,
      "ô": 360,
      "õ": 361,
      "ö": 362,
      "÷": 363,
      "ø": 364,
      "ù": 365,
      "ú": 366,
      "û": 367,
      "ü": 368,
      "ý": 369,
      "þ": 370,
      "ā": 371,
      "ă": 372,
      "ą": 373,
      "ć": 374,
      "ĉ": 375,
      "č": 376,
      "đ": 377,
      "ē": 378,
      "ė": 379,
      "ę": 380,
      "ě": 381,
      "ĝ": 382,
      "ğ": 383,
      "ġ": 384,
      "ĥ": 385,
      "ħ": 386,
      "ĩ": 387,
      "ī": 388,
      "ı": 389,
      "ĵ": 390,
      "ĺ": 391,
      "ł": 392,
      "ń": 393,
      "ŋ": 394,
      "ō": 395,
      "ő": 396,
      "œ": 397,
      "ŕ": 398,
      "ř": 399,
      "ś": 400,
      "ŝ": 401,
      "ş": 402,
      "š": 403,
      "ţ": 404,
      "ũ": 405,
      "ū": 406,
      "ŭ": 407,
      "ų": 408,
      "ż": 409,
      "ž": 410,
      "ƒ": 411,
      "ƙ": 412,
      "ƣ": 413,
      "ƴ": 414,
      "ǣ": 415,
      "ǹ": 416,
      "ș": 417,
      "ɐ": 418,
      "ɑ": 419,
      "ɒ": 420,
      "ɓ": 421,
      "ɔ": 422,
      "ɗ": 423,
      "ə": 424,
      "ɛ": 425,
      "ɡ": 426,
      "ɨ": 427,
      "ɪ": 428,
      "ɾ": 429,
      "ʁ": 430,
      "ʃ": 431,
      "ʊ": 432,
      "ʒ": 433,
      "ʔ": 434,
      "ʕ": 435,
      "ʲ": 436,
      "ʻ": 437,
      "ʼ": 438,
      "ʾ": 439,
      "ʿ": 440,
      "ˈ": 441,
      "ˌ": 442,
      "ː": 443,
      "˘": 444,
      "˝": 445,
      "̀": 446,
      "́": 447,
      "̃": 448,
      "̇": 449,
      "̍": 450,
      "̡": 451,
      "̣": 452,
      "̩": 453,
      "̱": 454,
      "ͅ": 455,
      "ά": 456,
      "έ": 457,
      "ή": 458,
      "ί": 459,
      "α": 460,
      "β": 461,
      "γ": 462,
      "δ": 463,
      "ε": 464,
      "ζ": 465,
      "η": 466,
      "θ": 467,
      "ι": 468,
      "κ": 469,
      "λ": 470,
      "μ": 471,
      "ν": 472,
      "ξ": 473,
      "ο": 474,
      "π": 475,
      "ρ": 476,
      "ς": 477,
      "σ": 478,
      "τ": 479,
      "υ": 480,
      "φ": 481,
      "χ": 482,
      "ψ": 483,
      "ω": 484,
      "ό": 485,
      "ύ": 486,
      "ώ": 487,
      "ϙ": 488,
      "ϝ": 489,
      "а": 490,
      "б": 491,
      "в": 492,
      "г": 493,
      "д": 494,
      "е": 495,
      "ж": 496,
      "з": 497,
      "и": 498,
      "й": 499,
      "к": 500,
      "л": 501,
      "м": 502,
      "н": 503,
      "о": 504,
      "п": 505,
      "р": 506,
      "с": 507,
      "т": 508,
      "у": 509,
      "ф": 510,
      "х": 511,
      "ц": 512,
      "ч": 513,
      "ш": 514,
      "щ": 515,
      "ъ": 516,
      "ы": 517,
      "ь": 518,
      "э": 519,
      "ю": 520,
      "я": 521,
      "ё": 522,
      "і": 523,
      "ј": 524,
      "ў": 525,
      "ғ": 526,
      "қ": 527,
      "ә": 528,
      "ա": 529,
      "ե": 530,
      "ի": 531,
      "կ": 532,
      "հ": 533,
      "յ": 534,
      "ն": 535,
      "ո": 536,
      "ս": 537,
      "տ": 538,
      "ր": 539,
      "ւ": 540,
      "֑": 541,
      "ְ": 542,
      "ֲ": 543,
      "ִ": 544,
      "ֵ": 545,
      "ֶ": 546,
      "ַ": 547,
      "ָ": 548,
      "ֹ": 549,
      "ּ": 550,
      "ׁ": 551,
      "א": 552,
      "ב": 553,
      "ג": 554,
      "ד": 555,
      "ה": 556,
      "ו": 557,
      "ז": 558,
      "ח": 559,
      "ט": 560,
      "י": 561,
      "ך": 562,
      "כ": 563,
      "ל": 564,
      "ם": 565,
      "מ": 566,
      "ן": 567,
      "נ": 568,
      "ס": 569,
      "ע": 570,
      "ף": 571,
      "פ": 572,
      "צ": 573,
      "ק": 574,
      "ר": 575,
      "ש": 576,
      "ת": 577,
      "،": 578,
      "ء": 579,
      "آ": 580,
      "أ": 581,
      "إ": 582,
      "ئ": 583,
      "ا": 584,
      "ب": 585,
      "ة": 586,
      "ت": 587,
      "ث": 588,
      "ج": 589,
      "ح": 590,
      "خ": 591,
      "د": 592,
      "ذ": 593,
      "ر": 594,
      "ز": 595,
      "س": 596,
      "ش": 597,
      "ص": 598,
      "ض": 599,
      "ط": 600,
      "ظ": 601,
      "ع": 602,
      "غ": 603,
      "ـ": 604,
      "ف": 605,
      "ق": 606,
      "ك": 607,
      "ل": 608,
      "م": 609,
      "ن": 610,
      "ه": 611,
      "و": 612,
      "ى": 613,
      "ي": 614,
      "ً": 615,
      "ٌ": 616,
      "ٍ": 617,
      "َ": 618,
      "ُ": 619,
      "ِ": 620,
      "ّ": 621,
      "ْ": 622,
      "ٓ": 623,
      "ٰ": 624,
      "ٱ": 625,
      "پ": 626,
      "ک": 627,
      "ھ": 628,
      "ہ": 629,
      "ۇ": 630,
      "ی": 631,
      "ە": 632,
      "ۖ": 633,
      "ۚ": 634,
      "۟": 635,
      "ۡ": 636,
      "ۢ": 637,
      "ۥ": 638,
      "ۦ": 639,
      "ۭ": 640,
      "ܐ": 641,
      "ܝ": 642,
      "ް": 643,
      "अ": 644,
      "ई": 645,
      "क": 646,
      "ख": 647,
      "ग": 648,
      "घ": 649,
      "च": 650,
      "छ": 651,
      "ट": 652,
      "ड": 653,
      "ढ": 654,
      "ण": 655,
      "त": 656,
      "द": 657,
      "न": 658,
      "प": 659,
      "ब": 660,
      "भ": 661,
      "म": 662,
      "य": 663,
      "र": 664,
      "स": 665,
      "ह": 666,
      "़": 667,
      "ा": 668,
      "ि": 669,
      "ी": 670,
      "ु": 671,
      "ू": 672,
      "्": 673,
      "ট": 674,
      "দ": 675,
      "ন": 676,
      "ব": 677,
      "ম": 678,
      "র": 679,
      "ল": 680,
      "স": 681,
      "া": 682,
      "ি": 683,
      "্": 684,
      "ા": 685,
      "க": 686,
      "ட": 687,
      "த": 688,
      "ப": 689,
      "ம": 690,
      "ர": 691,
      "ல": 692,
      "ா": 693,
      "ி": 694,
      "ு": 695,
      "ை": 696,
      "்": 697,
      "ల": 698,
      "ా": 699,
      "ి": 700,
      "ക": 701,
      "ട": 702,
      "ു": 703,
      "്": 704,
      "ක": 705,
      "ර": 706,
      "්": 707,
      "ා": 708,
      "ු": 709,
      "ก": 710,
      "ค": 711,
      "ง": 712,
      "ช": 713,
      "ม": 714,
      "ย": 715,
      "ร": 716,
      "ว": 717,
      "อ": 718,
      "า": 719,
      "ี": 720,
      "เ": 721,
      "่": 722,
      "ა": 723,
      "ბ": 724,
      "ე": 725,
      "ვ": 726,
      "ი": 727,
      "ლ": 728,
      "ნ": 729,
      "ო": 730,
      "რ": 731,
      "ს": 732,
      "უ": 733,
      "ሀ": 734,
      "ሁ": 735,
      "ሂ": 736,
      "ሃ": 737,
      "ሄ": 738,
      "ህ": 739,
      "ሆ": 740,
      "ለ": 741,
      "ሉ": 742,
      "ሊ": 743,
      "ላ": 744,
      "ሌ": 745,
      "ል": 746,
      "ሎ": 747,
      "ሏ": 748,
      "ሐ": 749,
      "ሑ": 750,
      "ሒ": 751,
      "ሓ": 752,
      "ሔ": 753,
      "ሕ": 754,
      "ሖ": 755,
      "ሗ": 756,
      "መ": 757,
      "ሙ": 758,
      "ሚ": 759,
      "ማ": 760,
      "ሜ": 761,
      "ም": 762,
      "ሞ": 763,
      "ሟ": 764,
      "ሠ": 765,
      "ሡ": 766,
      "ሢ": 767,
      "ሣ": 768,
      "ሤ": 769,
      "ሥ": 770,
      "ሦ": 771,
      "ረ": 772,
      "ሩ": 773,
      "ሪ": 774,
      "ራ": 775,
      "ሬ": 776,
      "ር": 777,
      "ሮ": 778,
      "ሯ": 779,
      "ሰ": 780,
      "ሱ": 781,
      "ሲ": 782,
      "ሳ": 783,
      "ሴ": 784,
      "ስ": 785,
      "ሶ": 786,
      "ሷ": 787,
      "ሸ": 788,
      "ሹ": 789,
      "ሺ": 790,
      "ሻ": 791,
      "ሼ": 792,
      "ሽ": 793,
      "ሾ": 794,
      "ሿ": 795,
      "ቀ": 796,
      "ቁ": 797,
      "ቂ": 798,
      "ቃ": 799,
      "ቄ": 800,
      "ቅ": 801,
      "ቆ": 802,
      "ቈ": 803,
      "ቊ": 804,
      "ቋ": 805,
      "ቍ": 806,
      "ቐ": 807,
      "በ": 808,
      "ቡ": 809,
      "ቢ": 810,
      "ባ": 811,
      "ቤ": 812,
      "ብ": 813,
      "ቦ": 814,
      "ቧ": 815,
      "ቨ": 816,
      "ቩ": 817,
      "ቪ": 818,
      "ቫ": 819,
      "ቬ": 820,
      "ቭ": 821,
      "ቮ": 822,
      "ቯ": 823,
      "ተ": 824,
      "ቱ": 825,
      "ቲ": 826,
      "ታ": 827,
      "ቴ": 828,
      "ት": 829,
      "ቶ": 830,
      "ቷ": 831,
      "ቸ": 832,
      "ቹ": 833,
      "ቺ": 834,
      "ቻ": 835,
      "ቼ": 836,
      "ች": 837,
      "ቾ": 838,
      "ቿ": 839,
      "ኀ": 840,
      "ኁ": 841,
      "ኂ": 842,
      "ኃ": 843,
      "ኄ": 844,
      "ኅ": 845,
      "ኆ": 846,
      "ኊ": 847,
      "ኋ": 848,
      "ነ": 849,
      "ኑ": 850,
      "ኒ": 851,
      "ና": 852,
      "ኔ": 853,
      "ን": 854,
      "ኖ": 855,
      "ኗ": 856,
      "ኘ": 857,
      "ኙ": 858,
      "ኚ": 859,
      "ኛ": 860,
      "ኜ": 861,
      "ኝ": 862,
      "ኞ": 863,
      "ኟ": 864,
      "አ": 865,
      "ኡ": 866,
      "ኢ": 867,
      "ኣ": 868,
      "ኤ": 869,
      "እ": 870,
      "ኦ": 871,
      "ኧ": 872,
      "ከ": 873,
      "ኩ": 874,
      "ኪ": 875,
      "ካ": 876,
      "ኬ": 877,
      "ክ": 878,
      "ኮ": 879,
      "ኰ": 880,
      "ኲ": 881,
      "ኳ": 882,
      "ኴ": 883,
      "ኵ": 884,
      "ኸ": 885,
      "ኹ": 886,
      "ኺ": 887,
      "ኻ": 888,
      "ኼ": 889,
      "ኽ": 890,
      "ኾ": 891,
      "ዂ": 892,
      "ዃ": 893,
      "ዅ": 894,
      "ወ": 895,
      "ዉ": 896,
      "ዊ": 897,
      "ዋ": 898,
      "ዌ": 899,
      "ው": 900,
      "ዎ": 901,
      "ዐ": 902,
      "ዑ": 903,
      "ዒ": 904,
      "ዓ": 905,
      "ዔ": 906,
      "ዕ": 907,
      "ዖ": 908,
      "ዘ": 909,
      "ዙ": 910,
      "ዚ": 911,
      "ዛ": 912,
      "ዜ": 913,
      "ዝ": 914,
      "ዞ": 915,
      "ዟ": 916,
      "ዠ": 917,
      "ዡ": 918,
      "ዢ": 919,
      "ዣ": 920,
      "ዤ": 921,
      "ዥ": 922,
      "ዦ": 923,
      "ዧ": 924,
      "የ": 925,
      "ዩ": 926,
      "ዪ": 927,
      "ያ": 928,
      "ዬ": 929,
      "ይ": 930,
      "ዮ": 931,
      "ደ": 932,
      "ዱ": 933,
      "ዲ": 934,
      "ዳ": 935,
      "ዴ": 936,
      "ድ": 937,
      "ዶ": 938,
      "ዷ": 939,
      "ዽ": 940,
      "ጀ": 941,
      "ጁ": 942,
      "ጂ": 943,
      "ጃ": 944,
      "ጄ": 945,
      "ጅ": 946,
      "ጆ": 947,
      "ጇ": 948,
      "ገ": 949,
      "ጉ": 950,
      "ጊ": 951,
      "ጋ": 952,
      "ጌ": 953,
      "ግ": 954,
      "ጎ": 955,
      "ጐ": 956,
      "ጒ": 957,
      "ጓ": 958,
      "ጕ": 959,
      "ጘ": 960,
      "ጙ": 961,
      "ጛ": 962,
      "ጝ": 963,
      "ጠ": 964,
      "ጡ": 965,
      "ጢ": 966,
      "ጣ": 967,
      "ጤ": 968,
      "ጥ": 969,
      "ጦ": 970,
      "ጧ": 971,
      "ጨ": 972,
      "ጩ": 973,
      "ጪ": 974,
      "ጫ": 975,
      "ጬ": 976,
      "ጭ": 977,
      "ጮ": 978,
      "ጯ": 979,
      "ጰ": 980,
      "ጲ": 981,
      "ጳ": 982,
      "ጴ": 983,
      "ጵ": 984,
      "ጶ": 985,
      "ጸ": 986,
      "ጹ": 987,
      "ጺ": 988,
      "ጻ": 989,
      "ጼ": 990,
      "ጽ": 991,
      "ጾ": 992,
      "ጿ": 993,
      "ፀ": 994,
      "ፁ": 995,
      "ፂ": 996,
      "ፃ": 997,
      "ፄ": 998,
      "ፅ": 999,
      "ፆ": 1000,
      "ፈ": 1001,
      "ፉ": 1002,
      "ፊ": 1003,
      "ፋ": 1004,
      "ፌ": 1005,
      "ፍ": 1006,
      "ፎ": 1007,
      "ፏ": 1008,
      "ፐ": 1009,
      "ፑ": 1010,
      "ፒ": 1011,
      "ፓ": 1012,
      "ፔ": 1013,
      "ፕ": 1014,
      "ፖ": 1015,
      "፟": 1016,
      "፡": 1017,
      "።": 1018,
      "፣": 1019,
      "፤": 1020,
      "፥": 1021,
      "፦": 1022,
      "፧": 1023,
      "፩": 1024,
      "፪": 1025,
      "፫": 1026,
      "፬": 1027,
      "፭": 1028,
      "፮": 1029,
      "፯": 1030,
      "፰": 1031,
      "፱": 1032,
      "፲": 1033,
      "፳": 1034,
      "፴": 1035,
      "፵": 1036,
      "፶": 1037,
      "፷": 1038,
      "፸": 1039,
      "፹": 1040,
      "፺": 1041,
      "፻": 1042,
      "ḍ": 1043,
      "ḗ": 1044,
      "ḥ": 1045,
      "ḱ": 1046,
      "ḿ": 1047,
      "ṅ": 1048,
      "ṇ": 1049,
      "ṣ": 1050,
      "ṭ": 1051,
      "ṯ": 1052,
      "ẁ": 1053,
      "ẉ": 1054,
      "ạ": 1055,
      "ả": 1056,
      "ẹ": 1057,
      "ế": 1058,
      "ễ": 1059,
      "ệ": 1060,
      "ị": 1061,
      "ọ": 1062,
      "ớ": 1063,
      "ụ": 1064,
      "ỳ": 1065,
      "ἀ": 1066,
      "ἐ": 1067,
      "ἡ": 1068,
      "ἰ": 1069,
      "ὐ": 1070,
      "ῆ": 1071,
      "​": 1072,
      "‌": 1073,
      "‎": 1074,
      "–": 1075,
      "—": 1076,
      "‘": 1077,
      "’": 1078,
      "‛": 1079,
      "“": 1080,
      "”": 1081,
      "„": 1082,
      "‟": 1083,
      "†": 1084,
      "•": 1085,
      "…": 1086,
      "‬": 1087,
      "′": 1088,
      "″": 1089,
      "‹": 1090,
      "›": 1091,
      "₦": 1092,
      "€": 1093,
      "←": 1094,
      "→": 1095,
      "∈": 1096,
      "−": 1097,
      "≤": 1098,
      "≥": 1099,
      "⋅": 1100,
      "▂": 1101,
      "★": 1102,
      "♥": 1103,
      "✈": 1104,
      "✍": 1105,
      "✓": 1106,
      "✞": 1107,
      "✳": 1108,
      "ⴰ": 1109,
      "。": 1110,
      "と": 1111,
      "の": 1112,
      "は": 1113,
      "ん": 1114,
      "ア": 1115,
      "イ": 1116,
      "ウ": 1117,
      "オ": 1118,
      "カ": 1119,
      "キ": 1120,
      "ク": 1121,
      "コ": 1122,
      "ザ": 1123,
      "シ": 1124,
      "ジ": 1125,
      "ス": 1126,
      "タ": 1127,
      "ダ": 1128,
      "ッ": 1129,
      "ト": 1130,
      "ド": 1131,
      "ニ": 1132,
      "ビ": 1133,
      "フ": 1134,
      "ブ": 1135,
      "マ": 1136,
      "メ": 1137,
      "モ": 1138,
      "ヤ": 1139,
      "ラ": 1140,
      "リ": 1141,
      "ル": 1142,
      "ロ": 1143,
      "ン": 1144,
      "・": 1145,
      "ー": 1146,
      "一": 1147,
      "上": 1148,
      "东": 1149,
      "中": 1150,
      "亜": 1151,
      "京": 1152,
      "人": 1153,
      "全": 1154,
      "兰": 1155,
      "共": 1156,
      "利": 1157,
      "北": 1158,
      "南": 1159,
      "厦": 1160,
      "合": 1161,
      "和": 1162,
      "国": 1163,
      "國": 1164,
      "大": 1165,
      "天": 1166,
      "太": 1167,
      "子": 1168,
      "宁": 1169,
      "山": 1170,
      "川": 1171,
      "州": 1172,
      "广": 1173,
      "教": 1174,
      "新": 1175,
      "日": 1176,
      "曜": 1177,
      "木": 1178,
      "本": 1179,
      "林": 1180,
      "民": 1181,
      "水": 1182,
      "江": 1183,
      "沈": 1184,
      "海": 1185,
      "王": 1186,
      "皇": 1187,
      "神": 1188,
      "线": 1189,
      "美": 1190,
      "色": 1191,
      "英": 1192,
      "西": 1193,
      "語": 1194,
      "路": 1195,
      "連": 1196,
      "道": 1197,
      "郎": 1198,
      "金": 1199,
      "铁": 1200,
      "长": 1201,
      "集": 1202,
      "青": 1203,
      "馬": 1204,
      "黃": 1205,
      "가": 1206,
      "고": 1207,
      "구": 1208,
      "국": 1209,
      "기": 1210,
      "나": 1211,
      "남": 1212,
      "년": 1213,
      "녕": 1214,
      "니": 1215,
      "다": 1216,
      "대": 1217,
      "동": 1218,
      "만": 1219,
      "물": 1220,
      "미": 1221,
      "백": 1222,
      "사": 1223,
      "서": 1224,
      "성": 1225,
      "세": 1226,
      "스": 1227,
      "시": 1228,
      "십": 1229,
      "아": 1230,
      "안": 1231,
      "어": 1232,
      "여": 1233,
      "열": 1234,
      "요": 1235,
      "우": 1236,
      "육": 1237,
      "의": 1238,
      "이": 1239,
      "일": 1240,
      "재": 1241,
      "주": 1242,
      "천": 1243,
      "하": 1244,
      "한": 1245,
      "합": 1246,
      "해": 1247,
      "": 1248,
      "": 1249,
      "ﷺ": 1250,
      "﻿": 1251,
      "（": 1252,
      "）": 1253,
      "，": 1254,
      "￼": 1255,
      "🌿": 1256,
      "an": 1257,
      "ar": 1258,
      "in": 1259,
      "wa": 1260,
      "ka": 1261,
      "ma": 1262,
      "ya": 1263,
      "da": 1264,
      "ta": 1265,
      "on": 1266,
      "ti": 1267,
      "er": 1268,
      "en": 1269,
      "li": 1270,
      "un": 1271,
      "la": 1272,
      "es": 1273,
      "ba": 1274,
      "na": 1275,
      "is": 1276,
      "or": 1277,
      "ku": 1278,
      "ha": 1279,
      "he": 1280,
      "sa": 1281,
      "le": 1282,
      "ki": 1283,
      "hi": 1284,
      "to": 1285,
      "de": 1286,
      "si": 1287,
      "ur": 1288,
      "ni": 1289,
      "ga": 1290,
      "19": 1291,
      "di": 1292,
      "ra": 1293,
      "mi": 1294,
      "al": 1295,
      "re": 1296,
      "ri": 1297,
      "te": 1298,
      "bi": 1299,
      "the": 1300,
      "ẹ̀": 1301,
      "za": 1302,
      "wọ": 1303,
      "ara": 1304,
      "ci": 1305,
      "ana": 1306,
      "of": 1307,
      "ẹ́": 1308,
      "gb": 1309,
      "ce": 1310,
      "20": 1311,
      "us": 1312,
      "fi": 1313,
      "ke": 1314,
      "ní": 1315,
      "ro": 1316,
      "ko": 1317,
      "pa": 1318,
      "ji": 1319,
      "lo": 1320,
      "me": 1321,
      "mu": 1322,
      "ch": 1323,
      "ani": 1324,
      "ne": 1325,
      "and": 1326,
      "tu": 1327,
      "su": 1328,
      "se": 1329,
      "wọn": 1330,
      "th": 1331,
      "ing": 1332,
      "mo": 1333,
      "ari": 1334,
      "ọ́": 1335,
      "co": 1336,
      "fa": 1337,
      "am": 1338,
      "sh": 1339,
      "kin": 1340,
      "ent": 1341,
      "tion": 1342,
      "kan": 1343,
      "du": 1344,
      "po": 1345,
      "ọ̀": 1346,
      "gi": 1347,
      "kar": 1348,
      "bu": 1349,
      "il": 1350,
      "እን": 1351,
      "ja": 1352,
      "tí": 1353,
      "so": 1354,
      "tan": 1355,
      "kwa": 1356,
      "àwọn": 1357,
      "qu": 1358,
      "zi": 1359,
      "ነው": 1360,
      "ina": 1361,
      "be": 1362,
      "eri": 1363,
      "wan": 1364,
      "ún": 1365,
      "ye": 1366,
      "vi": 1367,
      "mar": 1368,
      "gu": 1369,
      "go": 1370,
      "she": 1371,
      "as": 1372,
      "pe": 1373,
      "yan": 1374,
      "lu": 1375,
      "do": 1376,
      "ge": 1377,
      "je": 1378,
      "yar": 1379,
      "bo": 1380,
      "shi": 1381,
      "yo": 1382,
      "no": 1383,
      "san": 1384,
      "kati": 1385,
      "kuma": 1386,
      "tar": 1387,
      "hu": 1388,
      "dan": 1389,
      "ter": 1390,
      "man": 1391,
      "ነው።": 1392,
      "ve": 1393,
      "ini": 1394,
      "ali": 1395,
      "et": 1396,
      "uni": 1397,
      "pi": 1398,
      "au": 1399,
      "201": 1400,
      "yi": 1401,
      "les": 1402,
      "ts": 1403,
      "ol": 1404,
      "ca": 1405,
      "የሚ": 1406,
      "ቸው": 1407,
      "200": 1408,
      "rí": 1409,
      "ran": 1410,
      "we": 1411,
      "st": 1412,
      "ban": 1413,
      "የአ": 1414,
      "ል።": 1415,
      "lá": 1416,
      "sí": 1417,
      "fu": 1418,
      "war": 1419,
      "con": 1420,
      "18": 1421,
      "ሳሌ": 1422,
      "bí": 1423,
      "har": 1424,
      "lẹ̀": 1425,
      "ምሳሌ": 1426,
      "cha": 1427,
      "waka": 1428,
      "wi": 1429,
      "des": 1430,
      "መን": 1431,
      "toka": 1432,
      "par": 1433,
      "jo": 1434,
      "wali": 1435,
      "for": 1436,
      "ነበ": 1437,
      "ju": 1438,
      "àn": 1439,
      "ru": 1440,
      "ori": 1441,
      "ine": 1442,
      "ll": 1443,
      "mba": 1444,
      "kara": 1445,
      "ver": 1446,
      "kuwa": 1447,
      "chi": 1448,
      "yin": 1449,
      "ho": 1450,
      "የተ": 1451,
      "una": 1452,
      "ንድ": 1453,
      "fe": 1454,
      ").": 1455,
      "af": 1456,
      "wo": 1457,
      "ad": 1458,
      "res": 1459,
      "ment": 1460,
      "00": 1461,
      "cikin": 1462,
      "ዎች": 1463,
      "daga": 1464,
      "ere": 1465,
      "ré": 1466,
      "እና": 1467,
      "rin": 1468,
      "ላይ": 1469,
      "at": 1470,
      "mb": 1471,
      "cin": 1472,
      "katika": 1473,
      "jẹ́": 1474,
      "est": 1475,
      "ai": 1476,
      "que": 1477,
      "zo": 1478,
      "mwaka": 1479,
      "com": 1480,
      "ነት": 1481,
      "ly": 1482,
      "ọd": 1483,
      "wọ́": 1484,
      "),": 1485,
      "tsa": 1486,
      "won": 1487,
      "gba": 1488,
      "እንደ": 1489,
      "àti": 1490,
      "l'": 1491,
      "yu": 1492,
      "ty": 1493,
      "rẹ̀": 1494,
      "ማር": 1495,
      "far": 1496,
      "aka": 1497,
      "199": 1498,
      "are": 1499,
      "mai": 1500,
      "sar": 1501,
      "jeri": 1502,
      "it": 1503,
      "s,": 1504,
      "ili": 1505,
      "jeriya": 1506,
      "pro": 1507,
      "hai": 1508,
      "oni": 1509,
      "gh": 1510,
      "ለው": 1511,
      "ul": 1512,
      "dé": 1513,
      "shekar": 1514,
      "lé": 1515,
      "ati": 1516,
      "min": 1517,
      "ìn": 1518,
      "son": 1519,
      "zu": 1520,
      "ùn": 1521,
      "tur": 1522,
      "ከተ": 1523,
      "kun": 1524,
      "wen": 1525,
      "tun": 1526,
      "a.": 1527,
      "his": 1528,
      "wọ́n": 1529,
      "ṣe": 1530,
      "lú": 1531,
      "ada": 1532,
      "ris": 1533,
      "sha": 1534,
      "ọdún": 1535,
      "ያን": 1536,
      "el": 1537,
      "gbà": 1538,
      "um": 1539,
      "don": 1540,
      "ሆን": 1541,
      "nan": 1542,
      "ab": 1543,
      "ìj": 1544,
      "nin": 1545,
      "dè": 1546,
      "በአ": 1547,
      "isi": 1548,
      "mata": 1549,
      "s.": 1550,
      "lan": 1551,
      "kọ́": 1552,
      "198": 1553,
      "እስ": 1554,
      "orí": 1555,
      "fin": 1556,
      "sun": 1557,
      "ted": 1558,
      "pu": 1559,
      "ct": 1560,
      "ed": 1561,
      "shekara": 1562,
      "afri": 1563,
      "indi": 1564,
      "ዚህ": 1565,
      "ትዮ": 1566,
      "ማርኛ": 1567,
      "በመ": 1568,
      "ወደ": 1569,
      "ረት": 1570,
      "ኢትዮ": 1571,
      "ለት": 1572,
      "od": 1573,
      "በት": 1574,
      "d'": 1575,
      "ነበር": 1576,
      "wana": 1577,
      "ap": 1578,
      "mp": 1579,
      "lin": 1580,
      "ነገ": 1581,
      "shekarar": 1582,
      "gan": 1583,
      "ኢትዮጵ": 1584,
      "han": 1585,
      "ita": 1586,
      "té": 1587,
      "tó": 1588,
      "197": 1589,
      "mọ": 1590,
      "èdè": 1591,
      "wanda": 1592,
      "itoka": 1593,
      "196": 1594,
      "sì": 1595,
      "itokasi": 1596,
      "ውስ": 1597,
      "bar": 1598,
      "najeriya": 1599,
      "ትር": 1600,
      "bel": 1601,
      "ኢትዮጵያ": 1602,
      "የአማርኛ": 1603,
      "bá": 1604,
      "ín": 1605,
      "a,": 1606,
      "fun": 1607,
      "can": 1608,
      "per": 1609,
      "ló": 1610,
      "kọ": 1611,
      "yana": 1612,
      "gun": 1613,
      "kutoka": 1614,
      "ene": 1615,
      "17": 1616,
      "gar": 1617,
      "une": 1618,
      "áà": 1619,
      "fan": 1620,
      "liwa": 1621,
      "gbo": 1622,
      "fún": 1623,
      "fo": 1624,
      "nà": 1625,
      "kó": 1626,
      "mon": 1627,
      "አይ": 1628,
      "che": 1629,
      "lọ": 1630,
      "ስት": 1631,
      "kama": 1632,
      "ten": 1633,
      "nín": 1634,
      "pé": 1635,
      "ex": 1636,
      "tare": 1637,
      "ኛው": 1638,
      "በተ": 1639,
      "16": 1640,
      "15": 1641,
      "tin": 1642,
      "din": 1643,
      "jihar": 1644,
      "ግን": 1645,
      "ቶች": 1646,
      "ውስጥ": 1647,
      "ሪያ": 1648,
      "ir": 1649,
      "duni": 1650,
      "by": 1651,
      "ስተ": 1652,
      "sta": 1653,
      "iṣ": 1654,
      "ber": 1655,
      "was": 1656,
      "ወይ": 1657,
      "ces": 1658,
      "jọ́": 1659,
      "matsa": 1660,
      "jú": 1661,
      "ek": 1662,
      "men": 1663,
      "ጊዜ": 1664,
      "mis": 1665,
      "der": 1666,
      "tes": 1667,
      "ariki": 1668,
      "ck": 1669,
      "አን": 1670,
      "ou": 1671,
      "ይህ": 1672,
      "tra": 1673,
      "uri": 1674,
      "10": 1675,
      "lla": 1676,
      "፡፡": 1677,
      "asa": 1678,
      "tic": 1679,
      "up": 1680,
      "shu": 1681,
      "maka": 1682,
      "እንዲ": 1683,
      "nchi": 1684,
      "náà": 1685,
      "dis": 1686,
      "kuu": 1687,
      "ingi": 1688,
      "ọmọ": 1689,
      "የመ": 1690,
      "asi": 1691,
      "ac": 1692,
      "kò": 1693,
      "ውን": 1694,
      "eré": 1695,
      "nínú": 1696,
      "ክል": 1697,
      "ምን": 1698,
      "walio": 1699,
      "bir": 1700,
      "ንጉ": 1701,
      "ርስ": 1702,
      "ay": 1703,
      "195": 1704,
      "ph": 1705,
      "zuwa": 1706,
      "zar": 1707,
      "gra": 1708,
      "wasan": 1709,
      "ስለ": 1710,
      "ትርጉ": 1711,
      "ቀን": 1712,
      "baada": 1713,
      "ሆነ": 1714,
      "መንግ": 1715,
      "ilé": 1716,
      "ala": 1717,
      "nu": 1718,
      "láti": 1719,
      "dá": 1720,
      "por": 1721,
      "ዘመ": 1722,
      "usu": 1723,
      "mma": 1724,
      "írí": 1725,
      "yí": 1726,
      "wani": 1727,
      "14": 1728,
      "bab": 1729,
      "'a": 1730,
      "gwa": 1731,
      "ሪክ": 1732,
      "kon": 1733,
      "gbe": 1734,
      "tà": 1735,
      "ther": 1736,
      "awon": 1737,
      "matsayin": 1738,
      "አገ": 1739,
      "nobel": 1740,
      "zaliwa": 1741,
      "gaba": 1742,
      "ile": 1743,
      "wenye": 1744,
      "tri": 1745,
      "pọ̀": 1746,
      "ለም": 1747,
      "'s": 1748,
      "ድር": 1749,
      "kà": 1750,
      "ሲሆን": 1751,
      "12": 1752,
      "moja": 1753,
      "cor": 1754,
      "watan": 1755,
      "ዓ.": 1756,
      "ṣù": 1757,
      "wà": 1758,
      "pia": 1759,
      "gbé": 1760,
      "amba": 1761,
      "lia": 1762,
      "ሰው": 1763,
      "ወይም": 1764,
      "vo": 1765,
      "ọjọ́": 1766,
      "mọ̀": 1767,
      "with": 1768,
      "ትርጉሙ": 1769,
      "tha": 1770,
      "ነበር።": 1771,
      "ኋላ": 1772,
      "ìí": 1773,
      "pen": 1774,
      "gẹ́": 1775,
      "yake": 1776,
      "ሳይ": 1777,
      "orílẹ̀": 1778,
      "cho": 1779,
      "ከተማ": 1780,
      "land": 1781,
      "mana": 1782,
      "ድረ": 1783,
      "ለመ": 1784,
      "fir": 1785,
      "cal": 1786,
      "ìlú": 1787,
      "íríà": 1788,
      "nì": 1789,
      "ibi": 1790,
      "ìp": 1791,
      "nàìj": 1792,
      "194": 1793,
      "awọn": 1794,
      "bin": 1795,
      "tt": 1796,
      "ደረ": 1797,
      "e,": 1798,
      "ዓ.ም": 1799,
      "ren": 1800,
      "suka": 1801,
      "dar": 1802,
      "wá": 1803,
      "nàìjíríà": 1804,
      "lle": 1805,
      "ire": 1806,
      "tana": 1807,
      "ታት": 1808,
      "13": 1809,
      "rom": 1810,
      "yàn": 1811,
      "bayan": 1812,
      "mas": 1813,
      "lọ́": 1814,
      "በኋላ": 1815,
      "má": 1816,
      "lar": 1817,
      "ጀመ": 1818,
      "jan": 1819,
      "ዓመ": 1820,
      "sur": 1821,
      "ሪካ": 1822,
      "sance": 1823,
      "kana": 1824,
      "risto": 1825,
      "ction": 1826,
      "jin": 1827,
      "ok": 1828,
      "asar": 1829,
      "gen": 1830,
      "ìt": 1831,
      "nig": 1832,
      "isa": 1833,
      "zama": 1834,
      "mé": 1835,
      "kasa": 1836,
      "qui": 1837,
      "dans": 1838,
      "isha": 1839,
      "ያል": 1840,
      "እስከ": 1841,
      "shin": 1842,
      "ዘመን": 1843,
      "ken": 1844,
      "gha": 1845,
      "ii": 1846,
      "ረትና": 1847,
      "ƙasar": 1848,
      "ደግ": 1849,
      "ṣè": 1850,
      "mbo": 1851,
      "ania": 1852,
      "afrika": 1853,
      "ትን": 1854,
      "jọ": 1855,
      "lon": 1856,
      "loka": 1857,
      "jam": 1858,
      "ለማ": 1859,
      "lẹ́": 1860,
      "ተረትና": 1861,
      "iṣẹ́": 1862,
      "den": 1863,
      "wor": 1864,
      "ክፍ": 1865,
      "ሮች": 1866,
      "waliozaliwa": 1867,
      "y,": 1868,
      "cu": 1869,
      "..": 1870,
      "fran": 1871,
      "olo": 1872,
      "lati": 1873,
      "mber": 1874,
      "vya": 1875,
      "jer": 1876,
      "ser": 1877,
      "from": 1878,
      "ሥት": 1879,
      "va": 1880,
      "ton": 1881,
      "-èdè": 1882,
      "-e": 1883,
      "nation": 1884,
      "pin": 1885,
      "sai": 1886,
      "ekani": 1887,
      "kristo": 1888,
      "waliof": 1889,
      "አንድ": 1890,
      "tuzo": 1891,
      "marekani": 1892,
      "1,": 1893,
      "ìd": 1894,
      "kí": 1895,
      "ele": 1896,
      "kasance": 1897,
      "papa": 1898,
      "new": 1899,
      "mor": 1900,
      "waliofariki": 1901,
      "iya": 1902,
      "ንግ": 1903,
      "mia": 1904,
      "193": 1905,
      "tro": 1906,
      "hii": 1907,
      "ben": 1908,
      "ìpín": 1909,
      "jẹ": 1910,
      "tr": 1911,
      "kẹ": 1912,
      "rẹ": 1913,
      "ደር": 1914,
      "oṣù": 1915,
      "ዓ.ም.": 1916,
      "yen": 1917,
      "zarta": 1918,
      "cent": 1919,
      "mutan": 1920,
      "ሉ።": 1921,
      "oló": 1922,
      "kub": 1923,
      "manazarta": 1924,
      "uru": 1925,
      "gaban": 1926,
      "ld": 1927,
      "fara": 1928,
      "በር": 1929,
      "mes": 1930,
      "jami": 1931,
      "pan": 1932,
      "tre": 1933,
      "gin": 1934,
      "መስ": 1935,
      "tta": 1936,
      "mun": 1937,
      "kis": 1938,
      "mili": 1939,
      "nigeri": 1940,
      "mji": 1941,
      "t,": 1942,
      "ida": 1943,
      "ነበረ": 1944,
      "sini": 1945,
      "lugha": 1946,
      "sti": 1947,
      "car": 1948,
      "hun": 1949,
      "inter": 1950,
      "ste": 1951,
      "መል": 1952,
      "ሆኑ": 1953,
      "ará": 1954,
      "matu": 1955,
      "bli": 1956,
      "አብ": 1957,
      "kubwa": 1958,
      "ameri": 1959,
      "yor": 1960,
      "ishi": 1961,
      "sy": 1962,
      "tori": 1963,
      "that": 1964,
      "mer": 1965,
      "wé": 1966,
      "ጋር": 1967,
      "ger": 1968,
      "1.": 1969,
      "አል": 1970,
      "000": 1971,
      "husu": 1972,
      "né": 1973,
      "ilẹ̀": 1974,
      "já": 1975,
      "lè": 1976,
      "vu": 1977,
      "farko": 1978,
      "suna": 1979,
      "e.": 1980,
      "ናት": 1981,
      "ìpínlẹ̀": 1982,
      "jì": 1983,
      "ልጅ": 1984,
      "ƙa": 1985,
      "ችን": 1986,
      "ታወ": 1987,
      "hadi": 1988,
      "ናቸው": 1989,
      "እንግ": 1990,
      "orílẹ̀-èdè": 1991,
      "shindi": 1992,
      "án": 1993,
      "ya.": 1994,
      "ib": 1995,
      "mani": 1996,
      "ደግሞ": 1997,
      "ms": 1998,
      "ven": 1999,
      "በማ": 2000,
      "ranar": 2001,
      "ስም": 2002,
      "ziki": 2003,
      "es,": 2004,
      "ደብ": 2005,
      "sion": 2006,
      "llon": 2007,
      "mus": 2008,
      "hali": 2009,
      "abu": 2010,
      "karne": 2011,
      "jen": 2012,
      "eneo": 2013,
      "watu": 2014,
      "pre": 2015,
      "pour": 2016,
      "ተረ": 2017,
      "ብዙ": 2018,
      "mshindi": 2019,
      "masu": 2020,
      "lokacin": 2021,
      "babban": 2022,
      "የኢትዮጵያ": 2023,
      "ታሪክ": 2024,
      "ant": 2025,
      "አባ": 2026,
      "ክልበ": 2027,
      "wò": 2028,
      "bur": 2029,
      "ya,": 2030,
      "ድረስ": 2031,
      "nor": 2032,
      "kio": 2033,
      "tì": 2034,
      "ዓክልበ": 2035,
      "ut": 2036,
      "አስ": 2037,
      "birnin": 2038,
      "lus": 2039,
      "fal": 2040,
      "gbá": 2041,
      "ny": 2042,
      "መንግሥት": 2043,
      "rùn": 2044,
      "pla": 2045,
      "wata": 2046,
      "sé": 2047,
      "kasar": 2048,
      "gre": 2049,
      "uta": 2050,
      "und": 2051,
      "tions": 2052,
      "os": 2053,
      "kai": 2054,
      "uli": 2055,
      "mbi": 2056,
      "rò": 2057,
      "ɗan": 2058,
      "ple": 2059,
      "ዓክልበ.": 2060,
      "bri": 2061,
      "haife": 2062,
      "tanz": 2063,
      "2,": 2064,
      "rè": 2065,
      "hin": 2066,
      "yawan": 2067,
      "shen": 2068,
      "tún": 2069,
      "yìn": 2070,
      "gbè": 2071,
      "ብር": 2072,
      "የሚገ": 2073,
      "ron": 2074,
      "(200": 2075,
      "ራት": 2076,
      "yìí": 2077,
      "giyar": 2078,
      "ary": 2079,
      "biyu": 2080,
      "25": 2081,
      "wó": 2082,
      "phi": 2083,
      "ux": 2084,
      "ሎች": 2085,
      "alá": 2086,
      "ቤት": 2087,
      "ተኛ": 2088,
      "pres": 2089,
      "ze": 2090,
      "chini": 2091,
      "tara": 2092,
      "tari": 2093,
      "ርት": 2094,
      "ባለ": 2095,
      "ላል።": 2096,
      "ቋን": 2097,
      "kwai": 2098,
      "ise": 2099,
      "-ede": 2100,
      "orile": 2101,
      "mna": 2102,
      "ọba": 2103,
      "urs": 2104,
      "o,": 2105,
      "kọ̀": 2106,
      "እግ": 2107,
      "one": 2108,
      "whi": 2109,
      "tor": 2110,
      "መር": 2111,
      "univer": 2112,
      "ነገር": 2113,
      "mbali": 2114,
      "alikuwa": 2115,
      "matukio": 2116,
      "tai": 2117,
      "huku": 2118,
      "ንጉሥ": 2119,
      "አለ": 2120,
      "shugaban": 2121,
      "ትም": 2122,
      "pas": 2123,
      "ዋና": 2124,
      "0,": 2125,
      "kini": 2126,
      "karan": 2127,
      "ርያ": 2128,
      "ቤተ": 2129,
      "ቋንቋ": 2130,
      "faran": 2131,
      "ẹ̀kọ́": 2132,
      "siku": 2133,
      "jina": 2134,
      "hari": 2135,
      "aus": 2136,
      "idi": 2137,
      "orin": 2138,
      "ይገ": 2139,
      "chu": 2140,
      "ag": 2141,
      "bor": 2142,
      "ble": 2143,
      "ìgbà": 2144,
      "ያልተ": 2145,
      "wa,": 2146,
      "ዚያ": 2147,
      "kú": 2148,
      "ንም": 2149,
      "ራዊ": 2150,
      "mw": 2151,
      "national": 2152,
      "2.": 2153,
      "ማለት": 2154,
      "aiki": 2155,
      "fer": 2156,
      "wannan": 2157,
      "23": 2158,
      "ta,": 2159,
      "king": 2160,
      "mí": 2161,
      "inda": 2162,
      "ds": 2163,
      "mwana": 2164,
      "እንግሊ": 2165,
      "omo": 2166,
      "nìyàn": 2167,
      "mul": 2168,
      "yè": 2169,
      "wn": 2170,
      "ላት": 2171,
      "bara": 2172,
      "ተረጎ": 2173,
      "usa": 2174,
      "makala": 2175,
      "sen": 2176,
      "kwenye": 2177,
      "ale": 2178,
      "vyo": 2179,
      "my": 2180,
      "mọ́": 2181,
      "pẹ̀": 2182,
      "ሁሉ": 2183,
      "wu": 2184,
      "kali": 2185,
      "gé": 2186,
      "ጥር": 2187,
      "ƙwa": 2188,
      "ዳን": 2189,
      "ninu": 2190,
      "bra": 2191,
      "አካ": 2192,
      "ክርስ": 2193,
      "kwan": 2194,
      "ɗa": 2195,
      "d,": 2196,
      "gir": 2197,
      "ዘመነ": 2198,
      "mutu": 2199,
      "orile-ede": 2200,
      "universi": 2201,
      "kya": 2202,
      "ባቢ": 2203,
      "kuna": 2204,
      "yya": 2205,
      "mara": 2206,
      "፲፱": 2207,
      "ereza": 2208,
      "\".": 2209,
      "bon": 2210,
      "ènìyàn": 2211,
      "ግብ": 2212,
      "ata": 2213,
      "ጥን": 2214,
      "o.": 2215,
      "visi": 2216,
      "የማ": 2217,
      "waki": 2218,
      "ingereza": 2219,
      "የም": 2220,
      "11": 2221,
      "bẹ̀": 2222,
      "olu": 2223,
      "ድን": 2224,
      "ባል": 2225,
      "ገር": 2226,
      "ques": 2227,
      "(an": 2228,
      "ure": 2229,
      "የሚያ": 2230,
      "4,": 2231,
      "ríkà": 2232,
      "ቱን": 2233,
      "nijeriya": 2234,
      "--": 2235,
      "sou": 2236,
      "òṣè": 2237,
      "kari": 2238,
      "ንያ": 2239,
      "ውያን": 2240,
      "kafa": 2241,
      "189": 2242,
      "jama": 2243,
      "mbu": 2244,
      "ንስ": 2245,
      "0.": 2246,
      "yẹ": 2247,
      "chan": 2248,
      "histori": 2249,
      "ké": 2250,
      "tal": 2251,
      "tò": 2252,
      "ተረጎመ": 2253,
      "ère": 2254,
      "አም": 2255,
      "ከል": 2256,
      "ation": 2257,
      "lai": 2258,
      "6,": 2259,
      "yà": 2260,
      "ce,": 2261,
      "እንግሊዝ": 2262,
      "፲፱፻": 2263,
      "len": 2264,
      "ሞች": 2265,
      "5,": 2266,
      "le.": 2267,
      "soci": 2268,
      "ses": 2269,
      "190": 2270,
      "ìbí": 2271,
      "6.": 2272,
      "pri": 2273,
      "bun": 2274,
      "ያልተተረጎመ": 2275,
      "'yan": 2276,
      "ers": 2277,
      "oc": 2278,
      "7,": 2279,
      "lakini": 2280,
      "hen": 2281,
      "mutane": 2282,
      "sis": 2283,
      "sin": 2284,
      "ká": 2285,
      "mwa": 2286,
      "አመ": 2287,
      "laya": 2288,
      "m,": 2289,
      "4.": 2290,
      "inahusu": 2291,
      "8,": 2292,
      "gine": 2293,
      "kusini": 2294,
      "bà": 2295,
      "duniya": 2296,
      "ዛት": 2297,
      "mkuu": 2298,
      "cewa": 2299,
      "ላል": 2300,
      "d.": 2301,
      "tanzania": 2302,
      "hn": 2303,
      "publi": 2304,
      "ቸውን": 2305,
      "lor": 2306,
      "sana": 2307,
      "cri": 2308,
      "ilé-": 2309,
      "sara": 2310,
      "uti": 2311,
      "afir": 2312,
      "faransa": 2313,
      "university": 2314,
      "wọ̀": 2315,
      "afirka": 2316,
      "zan": 2317,
      "21": 2318,
      "wala": 2319,
      "use": 2320,
      "ዋል።": 2321,
      "3,": 2322,
      "/ም": 2323,
      "plus": 2324,
      "አስተ": 2325,
      "7.": 2326,
      "hemu": 2327,
      "gy": 2328,
      "ምሮ": 2329,
      "yankin": 2330,
      "ṣà": 2331,
      "(baada": 2332,
      "samu": 2333,
      "rayu": 2334,
      "kristo).": 2335,
      "ዓ/ም": 2336,
      "በሚ": 2337,
      "fí": 2338,
      "àà": 2339,
      "dara": 2340,
      "val": 2341,
      "t.": 2342,
      "wake": 2343,
      "mbe": 2344,
      "ry": 2345,
      "maji": 2346,
      "5.": 2347,
      "her": 2348,
      "በዚህ": 2349,
      "ፈረ": 2350,
      "kamar": 2351,
      "lamu": 2352,
      "lli": 2353,
      "makaran": 2354,
      "sehemu": 2355,
      "ነበሩ": 2356,
      "yé": 2357,
      "nai": 2358,
      "langu": 2359,
      "እንዳ": 2360,
      "pré": 2361,
      "gẹ́gẹ́": 2362,
      "3.": 2363,
      "dà": 2364,
      "arin": 2365,
      "nje": 2366,
      "ታዊ": 2367,
      "cy": 2368,
      "wa.": 2369,
      "ƙwallon": 2370,
      "29": 2371,
      "እር": 2372,
      "ish": 2373,
      "ወረ": 2374,
      "wasu": 2375,
      "sep": 2376,
      "m.": 2377,
      "duk": 2378,
      "wil": 2379,
      "èyí": 2380,
      "ungu": 2381,
      "ìtọ́": 2382,
      "(201": 2383,
      "ma,": 2384,
      "ard": 2385,
      "gro": 2386,
      "ura": 2387,
      "ወን": 2388,
      "nes": 2389,
      "ake": 2390,
      "ሜሪካ": 2391,
      "gor": 2392,
      "30": 2393,
      "hasa": 2394,
      "xi": 2395,
      "8.": 2396,
      "ጠር": 2397,
      "ጦር": 2398,
      "cul": 2399,
      "ting": 2400,
      "dake": 2401,
      "umani": 2402,
      "22": 2403,
      "mala": 2404,
      "mfan": 2405,
      "dda": 2406,
      "tho": 2407,
      "eni": 2408,
      "mita": 2409,
      "ture": 2410,
      "ድም": 2411,
      "jerumani": 2412,
      "ob": 2413,
      "john": 2414,
      "ሰዎች": 2415,
      "ሌላ": 2416,
      "pamoja": 2417,
      "መለ": 2418,
      "him": 2419,
      "ilu": 2420,
      ".አ": 2421,
      "falme": 2422,
      "mẹ́": 2423,
      "katifu": 2424,
      "cer": 2425,
      "ska": 2426,
      "poli": 2427,
      "jami'": 2428,
      "ምና": 2429,
      "ቅር": 2430,
      "jù": 2431,
      "ዝብ": 2432,
      "ዲስ": 2433,
      "ins": 2434,
      "uran": 2435,
      "bia": 2436,
      "ges": 2437,
      "uro": 2438,
      "mto": 2439,
      "nígbà": 2440,
      "wakazi": 2441,
      "24": 2442,
      "ave": 2443,
      "bk": 2444,
      "ig": 2445,
      "là": 2446,
      "pà": 2447,
      "ሉት": 2448,
      "ከፍ": 2449,
      "gbẹ́": 2450,
      "tarehe": 2451,
      "mta": 2452,
      "pẹ̀lú": 2453,
      "ሥራ": 2454,
      "ràn": 2455,
      "al-": 2456,
      "yyar": 2457,
      "ያለ": 2458,
      "mpi": 2459,
      "this": 2460,
      "ohun": 2461,
      "zina": 2462,
      "ሰብ": 2463,
      "1-": 2464,
      "tive": 2465,
      "anci": 2466,
      "ጨረ": 2467,
      "aikin": 2468,
      "እነ": 2469,
      "oní": 2470,
      "ence": 2471,
      "wakati": 2472,
      "ሆኖ": 2473,
      "i,": 2474,
      "ስራ": 2475,
      "gbogbo": 2476,
      "minis": 2477,
      "fil": 2478,
      "ne,": 2479,
      "መደብ": 2480,
      "aux": 2481,
      "fina": 2482,
      "mú": 2483,
      "miaka": 2484,
      "sọ": 2485,
      "òṣèré": 2486,
      "gún": 2487,
      "ak": 2488,
      "bila": 2489,
      "mafi": 2490,
      "ona": 2491,
      "rd": 2492,
      "daya": 2493,
      "ጀመሪያ": 2494,
      "saba": 2495,
      "5)": 2496,
      "lórí": 2497,
      "dí": 2498,
      "ተው": 2499,
      "ዓመት": 2500,
      "ta.": 2501,
      "which": 2502,
      "olù": 2503,
      "sau": 2504,
      "seri": 2505,
      "fani": 2506,
      "med": 2507,
      "ብሎ": 2508,
      "gbọ́": 2509,
      "bru": 2510,
      "ìtọ́ka": 2511,
      "tran": 2512,
      "kwanza": 2513,
      "ፊት": 2514,
      "28": 2515,
      "c.": 2516,
      "ረው": 2517,
      "ka.": 2518,
      "cre": 2519,
      "lea": 2520,
      "ምክ": 2521,
      "kì": 2522,
      "van": 2523,
      "ዓም": 2524,
      "gwamna": 2525,
      "las": 2526,
      "le,": 2527,
      "avec": 2528,
      "pr": 2529,
      "ጠቀ": 2530,
      "rọ̀": 2531,
      "ይወ": 2532,
      "ding": 2533,
      "ማሪ": 2534,
      "jà": 2535,
      "ìwé": 2536,
      "ƙafa": 2537,
      "27": 2538,
      "ogun": 2539,
      "muha": 2540,
      "ቅዱ": 2541,
      "amẹ́": 2542,
      "ka,": 2543,
      "ች።": 2544,
      "kasu": 2545,
      "janu": 2546,
      "amẹ́ríkà": 2547,
      "2019": 2548,
      "መካ": 2549,
      "6)": 2550,
      "garin": 2551,
      "ojo": 2552,
      "ላቸው": 2553,
      "zili": 2554,
      "pè": 2555,
      "ff": 2556,
      "ght": 2557,
      "ያስ": 2558,
      "mari": 2559,
      "tte": 2560,
      "shir": 2561,
      "ወር": 2562,
      "vita": 2563,
      "gasar": 2564,
      "kungiyar": 2565,
      "sá": 2566,
      "ዝር": 2567,
      "vil": 2568,
      "bẹ́": 2569,
      "ቦች": 2570,
      "ingila": 2571,
      "ves": 2572,
      "eshi": 2573,
      "thi": 2574,
      "dia": 2575,
      "አበ": 2576,
      "arewa": 2577,
      "ayé": 2578,
      "bro": 2579,
      "maja": 2580,
      "ፈር": 2581,
      "musul": 2582,
      "lement": 2583,
      "awar": 2584,
      "k.": 2585,
      "ከዚህ": 2586,
      "nove": 2587,
      "tàbí": 2588,
      "máa": 2589,
      "ded": 2590,
      "mag": 2591,
      "hon": 2592,
      "ƙasa": 2593,
      "age": 2594,
      "abo": 2595,
      "oro": 2596,
      "mù": 2597,
      "የሚገኝ": 2598,
      "mì": 2599,
      "anan": 2600,
      "mash": 2601,
      "ባህ": 2602,
      "ምር": 2603,
      "4)": 2604,
      "kad": 2605,
      "fẹ́": 2606,
      "ተቀ": 2607,
      "siya": 2608,
      "ብቻ": 2609,
      "ክርስቲ": 2610,
      "kea": 2611,
      "ወለ": 2612,
      "hara": 2613,
      "sont": 2614,
      "ሁለ": 2615,
      "ደቡ": 2616,
      "ም።": 2617,
      "its": 2618,
      "loni": 2619,
      "scho": 2620,
      "bay": 2621,
      "ኤል": 2622,
      "tani": 2623,
      "ww": 2624,
      "3)": 2625,
      "7)": 2626,
      "jiri": 2627,
      "ተር": 2628,
      "ese": 2629,
      "liki": 2630,
      "nigeria": 2631,
      "bẹ̀rẹ̀": 2632,
      "historia": 2633,
      "were": 2634,
      "ባት": 2635,
      "ctor": 2636,
      "ang": 2637,
      "ሥር": 2638,
      "first": 2639,
      "26": 2640,
      "kawa": 2641,
      "ola": 2642,
      "ሁም": 2643,
      "ìtọ́kasí": 2644,
      "int": 2645,
      "ክት": 2646,
      "er,": 2647,
      "dani": 2648,
      "septe": 2649,
      "andishi": 2650,
      "ሁን": 2651,
      "አር": 2652,
      "sannan": 2653,
      "1)": 2654,
      "ቢያ": 2655,
      "ዘንድ": 2656,
      "kof": 2657,
      "ላንድ": 2658,
      "'i": 2659,
      "በብ": 2660,
      "omi": 2661,
      "zini": 2662,
      "ìṣ": 2663,
      "ማን": 2664,
      "matai": 2665,
      "tangu": 2666,
      "dai": 2667,
      "አገር": 2668,
      "ipin": 2669,
      "በኢትዮጵያ": 2670,
      "cro": 2671,
      "dau": 2672,
      "school": 2673,
      "aki": 2674,
      ".ኤ": 2675,
      "low": 2676,
      "9.": 2677,
      "9,": 2678,
      "biyar": 2679,
      "may": 2680,
      "lili": 2681,
      "ገድ": 2682,
      "gus": 2683,
      "ኖች": 2684,
      "ታቸው": 2685,
      "shine": 2686,
      "cra": 2687,
      "እንግሊዝኛ": 2688,
      "agba": 2689,
      "wengi": 2690,
      "dur": 2691,
      "kẹ́": 2692,
      "fasi": 2693,
      "cen": 2694,
      "ሁለት": 2695,
      "dogo": 2696,
      "has": 2697,
      "ተመ": 2698,
      "188": 2699,
      "ገን": 2700,
      "ወቅ": 2701,
      "\",": 2702,
      "char": 2703,
      "ጀምሮ": 2704,
      "upan": 2705,
      "kàn": 2706,
      "amma": 2707,
      "y.": 2708,
      "kudu": 2709,
      "l’": 2710,
      "i.": 2711,
      "majali": 2712,
      "cas": 2713,
      "tique": 2714,
      "ne.": 2715,
      "አው": 2716,
      "musi": 2717,
      "dú": 2718,
      "zaidi": 2719,
      "ìdí": 2720,
      "ቅም": 2721,
      "kaska": 2722,
      "lẹ": 2723,
      "ቃል": 2724,
      "ቆጣ": 2725,
      "የር": 2726,
      ".አ.": 2727,
      "እ.ኤ": 2728,
      "pata": 2729,
      "2)": 2730,
      "abi": 2731,
      "musa": 2732,
      "vie": 2733,
      "state": 2734,
      "pon": 2735,
      "ọdun": 2736,
      "ቅዱስ": 2737,
      "cation": 2738,
      "del": 2739,
      "yoyin": 2740,
      "kuto": 2741,
      "ah": 2742,
      "rais": 2743,
      "gida": 2744,
      "rubu": 2745,
      "መሰ": 2746,
      "uis": 2747,
      "id": 2748,
      "spe": 2749,
      "kaskazini": 2750,
      "የት": 2751,
      "jami'ar": 2752,
      "fuata": 2753,
      "ìjọba": 2754,
      "ናቸው።": 2755,
      "ለያ": 2756,
      "ሔር": 2757,
      "mashariki": 2758,
      "parti": 2759,
      "oba": 2760,
      "uku": 2761,
      "pò": 2762,
      "hada": 2763,
      "city": 2764,
      "coun": 2765,
      "akan": 2766,
      "fre": 2767,
      "yamma": 2768,
      "huri": 2769,
      "ungo": 2770,
      "riki": 2771,
      "ትና": 2772,
      "had": 2773,
      "ys": 2774,
      "run": 2775,
      "maso": 2776,
      "toba": 2777,
      "nchini": 2778,
      "mpa": 2779,
      "ƙar": 2780,
      "clu": 2781,
      "fon": 2782,
      "es.": 2783,
      "febru": 2784,
      "ghana": 2785,
      "upande": 2786,
      "hili": 2787,
      "ተከ": 2788,
      "50": 2789,
      "ንዳ": 2790,
      "ዋል": 2791,
      "ጽሐ": 2792,
      "ትምህ": 2793,
      "but": 2794,
      "other": 2795,
      "በረ": 2796,
      "ያለው": 2797,
      "op": 2798,
      "ua": 2799,
      "kuan": 2800,
      "ende": 2801,
      "makarantar": 2802,
      "àrùn": 2803,
      "ይል": 2804,
      "africa": 2805,
      "ée": 2806,
      "bla": 2807,
      "ገብ": 2808,
      "prin": 2809,
      "jama'a": 2810,
      "ade": 2811,
      "odun": 2812,
      "zaji": 2813,
      "bai": 2814,
      "ግራ": 2815,
      "amfani": 2816,
      "dio": 2817,
      "kanin": 2818,
      "wí": 2819,
      "ልጣ": 2820,
      "ቁጥር": 2821,
      "ró": 2822,
      "ገኘ": 2823,
      "jini": 2824,
      "lù": 2825,
      "lí": 2826,
      "ሌሎች": 2827,
      "apri": 2828,
      "wadan": 2829,
      "በላይ": 2830,
      "እንዲሁም": 2831,
      "leo": 2832,
      "fim": 2833,
      "viungo": 2834,
      "8)": 2835,
      "world": 2836,
      "ጀር": 2837,
      "mawa": 2838,
      "gr": 2839,
      "kejì": 2840,
      "àkọ́": 2841,
      "kula": 2842,
      "bahari": 2843,
      "ስን": 2844,
      "ደቡብ": 2845,
      "pá": 2846,
      "anti": 2847,
      "ime": 2848,
      "muhamma": 2849,
      "gbò": 2850,
      "baba": 2851,
      "also": 2852,
      "km": 2853,
      "baya": 2854,
      "utar": 2855,
      "ዓለም": 2856,
      "ls": 2857,
      "ንን": 2858,
      "shiga": 2859,
      "ler": 2860,
      "koa": 2861,
      "eng": 2862,
      "ወጣ": 2863,
      "kafin": 2864,
      "ìmọ̀": 2865,
      "tant": 2866,
      "not": 2867,
      "uko": 2868,
      "ማዊ": 2869,
      "መረ": 2870,
      "በቀ": 2871,
      "መጠ": 2872,
      "ባይ": 2873,
      "ally": 2874,
      "amur": 2875,
      "ታል።": 2876,
      "shekaru": 2877,
      "dy": 2878,
      "ùbá": 2879,
      "ètò": 2880,
      "naijiri": 2881,
      "ከአ": 2882,
      "bíi": 2883,
      "juu": 2884,
      "ለይ": 2885,
      "sunan": 2886,
      "ስታ": 2887,
      "ናዊ": 2888,
      "take": 2889,
      "hausa": 2890,
      "ear": 2891,
      "ሜን": 2892,
      "dini": 2893,
      "bre": 2894,
      "gion": 2895,
      "jir": 2896,
      "የው": 2897,
      "vol": 2898,
      "ling": 2899,
      "ሲያ": 2900,
      "ìnrin": 2901,
      "joba": 2902,
      "trans": 2903,
      "yorùbá": 2904,
      "qu'": 2905,
      "kè": 2906,
      "በሰ": 2907,
      "gidan": 2908,
      "all": 2909,
      "premi": 2910,
      "majalisar": 2911,
      "ሳት": 2912,
      "sauran": 2913,
      "oktoba": 2914,
      "ቦታ": 2915,
      "ttp": 2916,
      "//": 2917,
      "agbe": 2918,
      "ojú": 2919,
      "éta": 2920,
      "http": 2921,
      "zaman": 2922,
      "ገና": 2923,
      "kili": 2924,
      "phy": 2925,
      "ጣል": 2926,
      "gon": 2927,
      "mal": 2928,
      "ባለው": 2929,
      "ef": 2930,
      "eli": 2931,
      "sama": 2932,
      "ved": 2933,
      "kamfan": 2934,
      "ọjọ́ìbí": 2935,
      "jar": 2936,
      "hiyo": 2937,
      "sílẹ̀": 2938,
      "uh": 2939,
      "kata": 2940,
      "rì": 2941,
      "fá": 2942,
      "ayyu": 2943,
      "jari": 2944,
      "n.": 2945,
      "ogra": 2946,
      "sho": 2947,
      "bisa": 2948,
      "hivyo": 2949,
      "asili": 2950,
      "ፈረን": 2951,
      "cce": 2952,
      "kùn": 2953,
      "ẹgbẹ́": 2954,
      "nípa": 2955,
      "iliyo": 2956,
      "sed": 2957,
      "ብራ": 2958,
      "wilaya": 2959,
      "roma": 2960,
      "u,": 2961,
      "በስ": 2962,
      "ዘር": 2963,
      "ago": 2964,
      "colle": 2965,
      "miji": 2966,
      "w.": 2967,
      "stitu": 2968,
      "digi": 2969,
      "ሚያ": 2970,
      "ከዚያ": 2971,
      "comme": 2972,
      "port": 2973,
      "lago": 2974,
      "ሥታት": 2975,
      "መካከል": 2976,
      "elle": 2977,
      "year": 2978,
      "ዎቹ": 2979,
      "esi": 2980,
      "lára": 2981,
      "karatun": 2982,
      "yanzu": 2983,
      "yun": 2984,
      "ipinle": 2985,
      "ጠራ": 2986,
      "led": 2987,
      "abin": 2988,
      "vent": 2989,
      "pọ": 2990,
      "ይታ": 2991,
      "እ.ኤ.አ.": 2992,
      "ujerumani": 2993,
      "://": 2994,
      "who": 2995,
      "ako": 2996,
      "úkọ": 2997,
      "eno": 2998,
      "2020": 2999,
      "ments": 3000,
      "rọ́": 3001,
      "hukumar": 3002,
      "uingereza": 3003,
      "ታላ": 3004,
      "jia": 3005,
      "ጨረሻ": 3006,
      "oko": 3007,
      "al'": 3008,
      "fici": 3009,
      "ilikuwa": 3010,
      "hanyar": 3011,
      "tain": 3012,
      "buga": 3013,
      "produ": 3014,
      "ከመ": 3015,
      "ከነ": 3016,
      "0)": 3017,
      "100": 3018,
      "lò": 3019,
      "sig": 3020,
      "akwai": 3021,
      "pẹ": 3022,
      "ሰራ": 3023,
      "9)": 3024,
      "daban": 3025,
      "african": 3026,
      "ሴት": 3027,
      "በዘመነ": 3028,
      "kira": 3029,
      "sabo": 3030,
      "yali": 3031,
      "stru": 3032,
      "ሃይ": 3033,
      "game": 3034,
      "najeriya.": 3035,
      "jáde": 3036,
      "ingine": 3037,
      "non": 3038,
      "lation": 3039,
      "aṣ": 3040,
      "sa,": 3041,
      "ous": 3042,
      "jamhuri": 3043,
      "velo": 3044,
      "ìdì": 3045,
      "wato": 3046,
      "is,": 3047,
      "haka": 3048,
      "l,": 3049,
      "ot": 3050,
      "orod": 3051,
      "united": 3052,
      "euro": 3053,
      "ሥነ": 3054,
      "tso": 3055,
      "ኖር": 3056,
      "የቀ": 3057,
      "stu": 3058,
      "karamar": 3059,
      "nàìjíríà.": 3060,
      "tsakanin": 3061,
      "gari": 3062,
      "iba": 3063,
      "rus": 3064,
      "lima": 3065,
      "te,": 3066,
      "ss": 3067,
      "zwa": 3068,
      "r.": 3069,
      "magh": 3070,
      "sa.": 3071,
      "ipa": 3072,
      "sami": 3073,
      "visiwa": 3074,
      "itwa": 3075,
      "ሰማ": 3076,
      "kila": 3077,
      "òun": 3078,
      "geor": 3079,
      "pal": 3080,
      "imp": 3081,
      "gas": 3082,
      "aji": 3083,
      "ስና": 3084,
      "ትል": 3085,
      "እግዚ": 3086,
      "augus": 3087,
      "saboda": 3088,
      "dun": 3089,
      "ba,": 3090,
      "baki": 3091,
      "cs": 3092,
      "dhi": 3093,
      "ast": 3094,
      "juli": 3095,
      "ongo": 3096,
      "ክፍለ": 3097,
      "ople": 3098,
      "international": 3099,
      "mahai": 3100,
      "186": 3101,
      "cam": 3102,
      "187": 3103,
      "ful": 3104,
      "ምክንያ": 3105,
      "ọ̀rọ̀": 3106,
      "ደን": 3107,
      "àgbà": 3108,
      "mur": 3109,
      "ቆጣጠር": 3110,
      "dari": 3111,
      "kno": 3112,
      "alla": 3113,
      "ግዛት": 3114,
      "liam": 3115,
      "ስብ": 3116,
      "ታይ": 3117,
      "gbọ́n": 3118,
      "sàn": 3119,
      "teur": 3120,
      "cour": 3121,
      "nyingi": 3122,
      "iko": 3123,
      "(199": 3124,
      "taka": 3125,
      "ፍራ": 3126,
      "time": 3127,
      "ምዕ": 3128,
      "ይና": 3129,
      "sci": 3130,
      "ያው": 3131,
      "እግዚአብ": 3132,
      "ẹlẹ́": 3133,
      "ምድር": 3134,
      "ore": 3135,
      "d-": 3136,
      "lis": 3137,
      "girma": 3138,
      "ẹni": 3139,
      "orodha": 3140,
      "pp": 3141,
      "lori": 3142,
      "ራሱ": 3143,
      "day": 3144,
      "ner": 3145,
      "ƙun": 3146,
      "አት": 3147,
      "እጅ": 3148,
      "ደት": 3149,
      "wacce": 3150,
      "fà": 3151,
      "mini": 3152,
      "ba.": 3153,
      "kasuwan": 3154,
      "yá": 3155,
      "ወሰ": 3156,
      "ይባ": 3157,
      "muziki": 3158,
      "አካባቢ": 3159,
      "2-": 3160,
      "tabi": 3161,
      "ijoba": 3162,
      "gbó": 3163,
      "mbar": 3164,
      "ጆች": 3165,
      "anna": 3166,
      "tech": 3167,
      "zia": 3168,
      "ሽን": 3169,
      "ከፍተኛ": 3170,
      "uve": 3171,
      "ስር": 3172,
      "ኞች": 3173,
      "yayin": 3174,
      "kisi": 3175,
      "ሆነው": 3176,
      "kópa": 3177,
      "gina": 3178,
      "da,": 3179,
      "mali": 3180,
      "ilimi": 3181,
      "ሊያ": 3182,
      "ገለ": 3183,
      "ጎር": 3184,
      "dire": 3185,
      "መሠ": 3186,
      "ገደ": 3187,
      "fami": 3188,
      "wood": 3189,
      "aribi": 3190,
      "ma'": 3191,
      "eu": 3192,
      "emp": 3193,
      "alif": 3194,
      "magharibi": 3195,
      "ɗin": 3196,
      "ግር": 3197,
      "samar": 3198,
      "dola": 3199,
      "በል": 3200,
      "ce.": 3201,
      "have": 3202,
      "temp": 3203,
      "bert": 3204,
      "ክር": 3205,
      "ክርስቲያን": 3206,
      "ይገኛ": 3207,
      "mwi": 3208,
      "dì": 3209,
      "kia": 3210,
      "china": 3211,
      "gudan": 3212,
      "para": 3213,
      "ገባ": 3214,
      "እግዚአብሔር": 3215,
      "people": 3216,
      "40": 3217,
      "mfalme": 3218,
      "ወንድ": 3219,
      "ዶች": 3220,
      "አንዱ": 3221,
      "ማስ": 3222,
      "mwandishi": 3223,
      "orúkọ": 3224,
      "yawa": 3225,
      "dro": 3226,
      "dra": 3227,
      "mare": 3228,
      "ክፍል": 3229,
      "serikali": 3230,
      "ato": 3231,
      "some": 3232,
      "mkoa": 3233,
      "été": 3234,
      "ጠቅ": 3235,
      "manyan": 3236,
      "ጦርነት": 3237,
      "ሩት": 3238,
      "ግል": 3239,
      "lẹ́yìn": 3240,
      "wasa": 3241,
      "sala": 3242,
      "core": 3243,
      "gudanar": 3244,
      "ọ̀n": 3245,
      "sababu": 3246,
      "llo": 3247,
      "እግር": 3248,
      "tele": 3249,
      "sor": 3250,
      "èkó": 3251,
      "hol": 3252,
      "ይስ": 3253,
      "amerika": 3254,
      "tẹ́": 3255,
      "us,": 3256,
      "እንደሚ": 3257,
      "jùlọ": 3258,
      "tatta": 3259,
      "fiziki": 3260,
      "mbalimbali": 3261,
      "ትምህርት": 3262,
      "yọ": 3263,
      "የነበረ": 3264,
      "ath": 3265,
      "pani": 3266,
      "mman": 3267,
      "kék": 3268,
      "ሞት": 3269,
      "ይች": 3270,
      "u.": 3271,
      "tis": 3272,
      "kékeré": 3273,
      "tter": 3274,
      "olú": 3275,
      "tarihi": 3276,
      "dre": 3277,
      "ኒያ": 3278,
      "mulkin": 3279,
      "italia": 3280,
      "ker": 3281,
      "tsi": 3282,
      "ባር": 3283,
      "ham": 3284,
      "መድ": 3285,
      "መጣ": 3286,
      "gbègbè": 3287,
      "nuna": 3288,
      "ṣi": 3289,
      "የስ": 3290,
      "kumbu": 3291,
      "american": 3292,
      "s'": 3293,
      "lán": 3294,
      "secon": 3295,
      "hukumo": 3296,
      "aga": 3297,
      "air": 3298,
      "br": 3299,
      "arabu": 3300,
      "ቀር": 3301,
      "ፍት": 3302,
      "l'é": 3303,
      "ለን": 3304,
      "ደም": 3305,
      "c,": 3306,
      "ልክ": 3307,
      "gí": 3308,
      "mais": 3309,
      "ደረገ": 3310,
      "mtakatifu": 3311,
      "agbegbe": 3312,
      "ano": 3313,
      "dition": 3314,
      "william": 3315,
      "dín": 3316,
      "vis": 3317,
      "መጽሐ": 3318,
      "mina": 3319,
      "comm": 3320,
      "sẹ̀": 3321,
      "ተራ": 3322,
      "ቱም": 3323,
      "አረ": 3324,
      "kilo": 3325,
      "ìtàn": 3326,
      "tele.": 3327,
      "láà": 3328,
      "part": 3329,
      "አዲስ": 3330,
      "kwamba": 3331,
      "ቀት": 3332,
      "siasa": 3333,
      "prof": 3334,
      "ዕለ": 3335,
      "lake": 3336,
      "pati": 3337,
      "ge,": 3338,
      "ethi": 3339,
      "if": 3340,
      "yuni": 3341,
      "guda": 3342,
      "lf": 3343,
      "ዮን": 3344,
      "የመጀመሪያ": 3345,
      "||": 3346,
      "kuta": 3347,
      "anza": 3348,
      "filamu": 3349,
      "kenya": 3350,
      "aba": 3351,
      "ong": 3352,
      "ራል": 3353,
      "አቆጣጠር": 3354,
      "በተለይ": 3355,
      "lara": 3356,
      "fito": 3357,
      "ዋን": 3358,
      "in,": 3359,
      "domin": 3360,
      "sìn": 3361,
      "አፍ": 3362,
      "http://": 3363,
      "ታል": 3364,
      "ከተሞች": 3365,
      "rú": 3366,
      "በላ": 3367,
      "ክስ": 3368,
      "kir": 3369,
      "bis": 3370,
      "ans": 3371,
      "samun": 3372,
      "lish": 3373,
      "film": 3374,
      "stẹ́": 3375,
      "ጥንታዊ": 3376,
      "ras": 3377,
      "demo": 3378,
      "bari": 3379,
      "gó": 3380,
      "ሕዝብ": 3381,
      "ጠቃ": 3382,
      "ግብጽ": 3383,
      "irin": 3384,
      "l.": 3385,
      "ami": 3386,
      "በጣ": 3387,
      "maeneo": 3388,
      "kokin": 3389,
      "south": 3390,
      "aye": 3391,
      "sani": 3392,
      "ድሞ": 3393,
      "gue": 3394,
      "tala": 3395,
      "yes": 3396,
      "their": 3397,
      "su.": 3398,
      "dún": 3399,
      "shiri": 3400,
      "ምዕራ": 3401,
      "cé": 3402,
      "te.": 3403,
      "after": 3404,
      "ኩል": 3405,
      "ቀው": 3406,
      "ዳር": 3407,
      "iso": 3408,
      "hy": 3409,
      "rìn": 3410,
      "ራስ": 3411,
      "ክለ": 3412,
      "tẹ": 3413,
      "በው": 3414,
      "entre": 3415,
      "rọ́ìdì": 3416,
      "አበባ": 3417,
      "dama": 3418,
      "igba": 3419,
      "ástẹ́": 3420,
      "ástẹ́rọ́ìdì": 3421,
      "ume": 3422,
      "mwan": 3423,
      "ማኖ": 3424,
      "ọ̀kan": 3425,
      "aliye": 3426,
      "yenye": 3427,
      "ልዩ": 3428,
      "የሱ": 3429,
      "mutanen": 3430,
      "sù": 3431,
      "vin": 3432,
      "ila": 3433,
      "በፊት": 3434,
      "ከሚ": 3435,
      "fé": 3436,
      "maza": 3437,
      "bùn": 3438,
      "jeshi": 3439,
      "ጥቅም": 3440,
      "tres": 3441,
      "tazama": 3442,
      "forma": 3443,
      "rọ": 3444,
      "ለያዩ": 3445,
      "ki,": 3446,
      "popu": 3447,
      "velop": 3448,
      "mama": 3449,
      "tumia": 3450,
      "wajen": 3451,
      "kamfanin": 3452,
      "ia": 3453,
      "gùn": 3454,
      "ልድ": 3455,
      "rou": 3456,
      "than": 3457,
      "tour": 3458,
      "logi": 3459,
      "london": 3460,
      "ላም": 3461,
      "fasa": 3462,
      "yayi": 3463,
      "av": 3464,
      "ach": 3465,
      "ታው": 3466,
      "on,": 3467,
      "ẹ̀yẹ": 3468,
      "tsarin": 3469,
      "dha": 3470,
      "k,": 3471,
      "mbre": 3472,
      "gano": 3473,
      "wara": 3474,
      "ካል": 3475,
      "pra": 3476,
      "toliki": 3477,
      "d’": 3478,
      "kiya": 3479,
      "masa": 3480,
      "most": 3481,
      "እነዚህ": 3482,
      "wur": 3483,
      "unci": 3484,
      "west": 3485,
      "bẹ́ẹ̀": 3486,
      "ዓመታት": 3487,
      "(a": 3488,
      "kh": 3489,
      "ìgbé": 3490,
      "lly": 3491,
      "ks": 3492,
      "main": 3493,
      "pha": 3494,
      "shara": 3495,
      "bn": 3496,
      "óò": 3497,
      "ህል": 3498,
      "የሰ": 3499,
      "ተኛው": 3500,
      "litta": 3501,
      "níbi": 3502,
      "iṣẹ": 3503,
      "ወቅት": 3504,
      "gani": 3505,
      "sanya": 3506,
      "warar": 3507,
      "agbègbè": 3508,
      "ue": 3509,
      "ሱም": 3510,
      "inayo": 3511,
      "ነገሥታት": 3512,
      "mataifa": 3513,
      "used": 3514,
      "መጥ": 3515,
      "ቀጥ": 3516,
      "farkon": 3517,
      "zai": 3518,
      "posi": 3519,
      "rán": 3520,
      "jus": 3521,
      "win": 3522,
      "ዮሐ": 3523,
      "line": 3524,
      "ufaransa": 3525,
      "aro": 3526,
      "ሮፓ": 3527,
      "nijeriya.": 3528,
      "ens": 3529,
      "de,": 3530,
      "dó": 3531,
      "yadda": 3532,
      "tuna": 3533,
      "ገኝ": 3534,
      "ፈል": 3535,
      "ተወ": 3536,
      "ይህም": 3537,
      "bayyana": 3538,
      "language": 3539,
      "allah": 3540,
      "eria": 3541,
      "party": 3542,
      "rayuwar": 3543,
      "medi": 3544,
      "kananan": 3545,
      "ሪካዊ": 3546,
      "-o": 3547,
      "àmì": 3548,
      "deux": 3549,
      "ishwa": 3550,
      "éri": 3551,
      "wadanda": 3552,
      "tation": 3553,
      "አይነት": 3554,
      "bus": 3555,
      "im": 3556,
      "በግ": 3557,
      "ethio": 3558,
      "ረተ": 3559,
      "kuanzia": 3560,
      "rà": 3561,
      "lafi": 3562,
      "ojoibi": 3563,
      "weza": 3564,
      "koma": 3565,
      "dent": 3566,
      "vile": 3567,
      "rayuwa": 3568,
      "lánẹ́": 3569,
      "tz": 3570,
      "machi": 3571,
      "ንና": 3572,
      "ነበረ።": 3573,
      "ጀርመን": 3574,
      "ts,": 3575,
      "kand": 3576,
      "ሬት": 3577,
      "inclu": 3578,
      "cette": 3579,
      "ማዕ": 3580,
      "ኳስ": 3581,
      ",000": 3582,
      "òṣ": 3583,
      "sia": 3584,
      "kutokana": 3585,
      "60": 3586,
      "puis": 3587,
      "mad": 3588,
      "3-": 3589,
      "ባቸው": 3590,
      "ዮሐንስ": 3591,
      "vers": 3592,
      "nigerian": 3593,
      "p.": 3594,
      "ambayo": 3595,
      "ìgbàjá": 3596,
      "lánẹ́tì": 3597,
      "ስፋ": 3598,
      "ዕለት": 3599,
      "way": 3600,
      "chris": 3601,
      "kazi": 3602,
      "they": 3603,
      "ከለ": 3604,
      "ጠረ": 3605,
      "ced": 3606,
      "franç": 3607,
      "wri": 3608,
      "sub": 3609,
      "jirgin": 3610,
      "ṣẹ": 3611,
      "agosti": 3612,
      "januari": 3613,
      "የግ": 3614,
      "chagu": 3615,
      "leur": 3616,
      "ander": 3617,
      "wiki": 3618,
      "tory": 3619,
      "plánẹ́tì": 3620,
      "ያም": 3621,
      "ጀመርያ": 3622,
      "lagos": 3623,
      "ving": 3624,
      "àwon": 3625,
      "አድር": 3626,
      "ọ̀pọ̀": 3627,
      "ingila.": 3628,
      "àkó": 3629,
      "plan": 3630,
      "ያዘ": 3631,
      "akọ": 3632,
      "ሙሉ": 3633,
      "biashara": 3634,
      "ters": 3635,
      "hes": 3636,
      "ሠራ": 3637,
      "ግድም": 3638,
      "wer": 3639,
      "wahili": 3640,
      "tus": 3641,
      "gover": 3642,
      "ተን": 3643,
      "ፕሬ": 3644,
      "hata": 3645,
      "zamani": 3646,
      "fes": 3647,
      "stan": 3648,
      "mò": 3649,
      "grand": 3650,
      "mwe": 3651,
      "ṣẹ́": 3652,
      "ብት": 3653,
      "fanya": 3654,
      "kaduna": 3655,
      "ástẹ́rọ́ìdì.": 3656,
      "ውድ": 3657,
      "ይን": 3658,
      "gbajú": 3659,
      "bò": 3660,
      "agbá": 3661,
      "rá": 3662,
      "ሪዎች": 3663,
      "birni": 3664,
      "karibu": 3665,
      "aare": 3666,
      "itali": 3667,
      "pli": 3668,
      "ገበ": 3669,
      "orun": 3670,
      "uld": 3671,
      "europe": 3672,
      "jé": 3673,
      "bc": 3674,
      "yara": 3675,
      "አስተዳ": 3676,
      "g,": 3677,
      "juni": 3678,
      "-i": 3679,
      "mei": 3680,
      "ዓት": 3681,
      "የሆነ": 3682,
      "ይለ": 3683,
      "jour": 3684,
      "fizikia": 3685,
      "ndani": 3686,
      "cle": 3687,
      "la,": 3688,
      "ናል።": 3689,
      "ደው": 3690,
      "yon": 3691,
      "tak": 3692,
      "ብሔ": 3693,
      "ቴዎ": 3694,
      "ፈው": 3695,
      "julai": 3696,
      "እም": 3697,
      "ፈረንሳይ": 3698,
      "ors": 3699,
      "185": 3700,
      "ሰን": 3701,
      "méjì": 3702,
      "cur": 3703,
      "ofin": 3704,
      "iru": 3705,
      "iye": 3706,
      "ular": 3707,
      "endelea": 3708,
      "book": 3709,
      "apa": 3710,
      "ምንም": 3711,
      "80": 3712,
      "áf": 3713,
      "waɗan": 3714,
      "ላክ": 3715,
      "waje": 3716,
      "tex": 3717,
      "እው": 3718,
      "lógún": 3719,
      "b.": 3720,
      "under": 3721,
      "ህዝብ": 3722,
      "መት": 3723,
      "ታሪካዊ": 3724,
      "ጨማሪ": 3725,
      "high": 3726,
      "suke": 3727,
      "gaji": 3728,
      "musulunci": 3729,
      "emba": 3730,
      "só": 3731,
      "ቲካ": 3732,
      "huko": 3733,
      "àkọ́kọ́": 3734,
      "alex": 3735,
      "31": 3736,
      "ki.": 3737,
      "amin": 3738,
      "tou": 3739,
      "...": 3740,
      "አቀ": 3741,
      "rent": 3742,
      "bet": 3743,
      "ናል": 3744,
      "ገኙ": 3745,
      "ima": 3746,
      "ons": 3747,
      "sake": 3748,
      "cep": 3749,
      "ama": 3750,
      "kano": 3751,
      "reli": 3752,
      "ልም": 3753,
      "clas": 3754,
      "aika": 3755,
      "uhuru": 3756,
      "gabatar": 3757,
      "tarihin": 3758,
      "yao": 3759,
      "bú": 3760,
      "ርክ": 3761,
      "maru": 3762,
      "idadi": 3763,
      "tofa": 3764,
      "more": 3765,
      "ላለ": 3766,
      "ኢን": 3767,
      "ጥናት": 3768,
      "rín": 3769,
      "ላዊ": 3770,
      "ይታወ": 3771,
      "nis": 3772,
      "sul": 3773,
      "abdu": 3774,
      "አሜሪካ": 3775,
      "በጣም": 3776,
      "over": 3777,
      "kuli": 3778,
      "ès": 3779,
      "ani.": 3780,
      "gres": 3781,
      "rich": 3782,
      "tafi": 3783,
      "35": 3784,
      "jagor": 3785,
      "ምክንያት": 3786,
      "gal": 3787,
      "centur": 3788,
      "አማ": 3789,
      "gizaji": 3790,
      "najeriya,": 3791,
      "ral": 3792,
      "ራቸው": 3793,
      "ይት": 3794,
      "wakristo": 3795,
      "peke": 3796,
      "wípé": 3797,
      "dou": 3798,
      "kemia": 3799,
      "bé": 3800,
      "kimi": 3801,
      "sing": 3802,
      "kwale": 3803,
      "vari": 3804,
      "ibile": 3805,
      "184": 3806,
      "ganda": 3807,
      "ህን": 3808,
      "kale": 3809,
      "lau": 3810,
      "appe": 3811,
      "refu": 3812,
      "haifa": 3813,
      "ሰር": 3814,
      "lọ́wọ́": 3815,
      "utawala": 3816,
      "kina": 3817,
      "ባሕ": 3818,
      "ዎችን": 3819,
      "ደረጃ": 3820,
      "offici": 3821,
      "award": 3822,
      "ልማ": 3823,
      "kundi": 3824,
      "act": 3825,
      "siyasa": 3826,
      "ayyukan": 3827,
      "ሳብ": 3828,
      "august": 3829,
      "kù": 3830,
      "መነ": 3831,
      "fuat": 3832,
      "dunia": 3833,
      "gwamnatin": 3834,
      "two": 3835,
      "zari": 3836,
      "የኤ": 3837,
      "fannin": 3838,
      "muhammad": 3839,
      "ulaya": 3840,
      "ደል": 3841,
      "ዓመቱ": 3842,
      "gener": 3843,
      "tv": 3844,
      "tẹ̀": 3845,
      "መንገድ": 3846,
      "tch": 3847,
      "dif": 3848,
      "ሮማ": 3849,
      "ais": 3850,
      "pele": 3851,
      "adhi": 3852,
      "dára": 3853,
      "oṣ": 3854,
      "zin": 3855,
      "ዮች": 3856,
      "sent": 3857,
      "àgbé": 3858,
      "ɗaya": 3859,
      "jana": 3860,
      "ወንዝ": 3861,
      "been": 3862,
      "ልጆች": 3863,
      "kamma": 3864,
      "ite": 3865,
      "try": 3866,
      "plu": 3867,
      "life": 3868,
      "fasihi": 3869,
      "37": 3870,
      "ate": 3871,
      "ምህ": 3872,
      "ዛሬ": 3873,
      "dece": 3874,
      "fíì": 3875,
      "rd1-": 3876,
      "aca": 3877,
      "bba": 3878,
      "ira": 3879,
      "የካ": 3880,
      "net": 3881,
      "nom": 3882,
      "ይወት": 3883,
      "2011": 3884,
      "star": 3885,
      "zungu": 3886,
      "ነጻ": 3887,
      "kammala": 3888,
      "uba": 3889,
      "group": 3890,
      "ውም": 3891,
      "ምስ": 3892,
      "mìn": 3893,
      "የበ": 3894,
      "spa": 3895,
      "enti": 3896,
      "ሙዚ": 3897,
      "tish": 3898,
      "desemba": 3899,
      "ilé-ẹ̀kọ́": 3900,
      "hukuma": 3901,
      "tọ̀": 3902,
      "ቶስ": 3903,
      "ley": 3904,
      "ሃይማኖ": 3905,
      "ከት": 3906,
      "cus": 3907,
      "associ": 3908,
      "ሳዊ": 3909,
      "chake": 3910,
      "aprili": 3911,
      "kika": 3912,
      "alo": 3913,
      "padà": 3914,
      "ይህን": 3915,
      "www.": 3916,
      "score": 3917,
      "kiri": 3918,
      "sch": 3919,
      "march": 3920,
      "እንዲህ": 3921,
      "roman": 3922,
      "selu": 3923,
      "rès": 3924,
      "dali": 3925,
      "january": 3926,
      "ልብ": 3927,
      "ኛ፦": 3928,
      "ààrẹ": 3929,
      "koloni": 3930,
      "tumi": 3931,
      "lambar": 3932,
      "cibiyar": 3933,
      "naijiria": 3934,
      "2015": 3935,
      "well": 3936,
      "kwaikwa": 3937,
      "septemba": 3938,
      "hukumomin": 3939,
      "kats": 3940,
      "open": 3941,
      "ም፣": 3942,
      "bal": 3943,
      "ndi": 3944,
      "hàn": 3945,
      "ps": 3946,
      "ma.": 3947,
      "roya": 3948,
      "mpaka": 3949,
      "ain": 3950,
      "mla": 3951,
      "ርድ": 3952,
      "kanisa": 3953,
      "wọ̀n": 3954,
      "ተብሎ": 3955,
      "kuba": 3956,
      "tanga": 3957,
      "ንቲ": 3958,
      "አፈ": 3959,
      "asalin": 3960,
      "መልክ": 3961,
      "ero": 3962,
      "90": 3963,
      "መው": 3964,
      "ጎን": 3965,
      "here": 3966,
      "december": 3967,
      "በቅ": 3968,
      "ብረት": 3969,
      "2007": 3970,
      "gram": 3971,
      "katsina": 3972,
      "states": 3973,
      "york": 3974,
      "clo": 3975,
      "ሉቃ": 3976,
      "የአሜሪካ": 3977,
      "adé": 3978,
      "saint": 3979,
      "kuhusu": 3980,
      "ilimin": 3981,
      "ሆነ።": 3982,
      "ቋንቋዎች": 3983,
      "amurka": 3984,
      "digiri": 3985,
      "gur": 3986,
      "jí": 3987,
      "ፓር": 3988,
      "d'un": 3989,
      "english": 3990,
      "fen": 3991,
      "''": 3992,
      "ል፣": 3993,
      "bili": 3994,
      "2010": 3995,
      "(198": 3996,
      "መንግስት": 3997,
      "tofauti": 3998,
      "maa": 3999,
      "austra": 4000,
      "tá": 4001,
      "uwa": 4002,
      "september": 4003,
      "ሚኒ": 4004,
      "እየ": 4005,
      "kal": 4006,
      "kasuwanci": 4007,
      "kua": 4008,
      "(ከ": 4009,
      "rẹ́": 4010,
      "ይቀ": 4011,
      "ልጣን": 4012,
      "alth": 4013,
      "pelu": 4014,
      "fina-": 4015,
      "ait": 4016,
      "masara": 4017,
      "isbn": 4018,
      "ስለዚህ": 4019,
      "ng": 4020,
      "70": 4021,
      "iv": 4022,
      "ሊክ": 4023,
      "ደጋ": 4024,
      "8-": 4025,
      "ለምሳሌ": 4026,
      "ṣí": 4027,
      "art": 4028,
      "bas": 4029,
      "halar": 4030,
      "jerin": 4031,
      "usi": 4032,
      "òrùn": 4033,
      "ሀገ": 4034,
      "masana": 4035,
      "kọ̀ọ́": 4036,
      "ወረዳ": 4037,
      "mwigizaji": 4038,
      "ልግ": 4039,
      "እያ": 4040,
      "እንጂ": 4041,
      "musamman": 4042,
      "fíìmù": 4043,
      "hor": 4044,
      "2012": 4045,
      "zon": 4046,
      "ፖለ": 4047,
      "lui": 4048,
      "februari": 4049,
      "person": 4050,
      "an,": 4051,
      "anz": 4052,
      "kilomita": 4053,
      "uk": 4054,
      "ረብ": 4055,
      "ጉዳ": 4056,
      "ፈለ": 4057,
      "into": 4058,
      "s)": 4059,
      "(c": 4060,
      "malla": 4061,
      "mil": 4062,
      "beca": 4063,
      "ሉቃስ": 4064,
      "ning": 4065,
      "mary": 4066,
      "yóò": 4067,
      "àì": 4068,
      "አዳ": 4069,
      "mwenye": 4070,
      "ême": 4071,
      "ብለው": 4072,
      "ጽሑ": 4073,
      "binci": 4074,
      "novemba": 4075,
      "2006": 4076,
      "mtu": 4077,
      "36": 4078,
      "wón": 4079,
      "annabi": 4080,
      "2014": 4081,
      "ado": 4082,
      "utu": 4083,
      "በሽ": 4084,
      "ዋቂ": 4085,
      "kiyar": 4086,
      "sous": 4087,
      "náà.": 4088,
      "ነበሩ።": 4089,
      "when": 4090,
      "ibn": 4091,
      "pita": 4092,
      "karatu": 4093,
      "koso": 4094,
      "north": 4095,
      "ኖሩ": 4096,
      "naa": 4097,
      "gbon": 4098,
      "ስሙ": 4099,
      "tovu": 4100,
      "sie": 4101,
      "d'une": 4102,
      "mbia": 4103,
      "jeo": 4104,
      "ይዘ": 4105,
      "mace": 4106,
      "pili": 4107,
      "ologi": 4108,
      "አለቃ": 4109,
      "lina": 4110,
      "ft": 4111,
      "ከተማው": 4112,
      "there": 4113,
      "ኖስ": 4114,
      "lowo": 4115,
      "red": 4116,
      "public": 4117,
      "yay": 4118,
      "name": 4119,
      "ተፈ": 4120,
      "tokea": 4121,
      "fol": 4122,
      "sup": 4123,
      "utili": 4124,
      "አሁን": 4125,
      "james": 4126,
      "octo": 4127,
      "ont": 4128,
      "asia": 4129,
      "archi": 4130,
      "ተና": 4131,
      "ጥሩ": 4132,
      "ይባላል።": 4133,
      "em": 4134,
      "iran": 4135,
      "jose": 4136,
      "kashin": 4137,
      "gwam": 4138,
      "ƙungiyar": 4139,
      "tiba": 4140,
      "atlan": 4141,
      "የእስ": 4142,
      "gawa": 4143,
      "ṣèlú": 4144,
      "bọ́": 4145,
      "pwani": 4146,
      "ቻይና": 4147,
      "ጮች": 4148,
      "ነገሮች": 4149,
      "መዝ": 4150,
      "ኔታ": 4151,
      "karni": 4152,
      "cis": 4153,
      "rasmi": 4154,
      "መጨረሻ": 4155,
      "ላማ": 4156,
      "ወች": 4157,
      "kayan": 4158,
      "mungu": 4159,
      "rie": 4160,
      "'est": 4161,
      "upe": 4162,
      "nigba": 4163,
      "many": 4164,
      "ines": 4165,
      "princi": 4166,
      "ረዳ": 4167,
      "ሮስ": 4168,
      "tsohon": 4169,
      "kongo": 4170,
      "pes": 4171,
      "እንስ": 4172,
      "ruwa": 4173,
      "nínu": 4174,
      "ፖለቲካ": 4175,
      "ky": 4176,
      "fini": 4177,
      "በም": 4178,
      "ፍል": 4179,
      "የሚለው": 4180,
      "que,": 4181,
      "mutum": 4182,
      "mkubwa": 4183,
      "hala": 4184,
      "toire": 4185,
      "known": 4186,
      "cti": 4187,
      "such": 4188,
      "tern": 4189,
      "ሶች": 4190,
      "ድል": 4191,
      "hakan": 4192,
      "labar": 4193,
      "ined": 4194,
      "tical": 4195,
      "gis": 4196,
      "saka": 4197,
      "dri": 4198,
      "sinimá": 4199,
      "watakatifu": 4200,
      "marejeo": 4201,
      "180": 4202,
      "fore": 4203,
      "voir": 4204,
      "(ojoibi": 4205,
      "ዋቢ": 4206,
      "law": 4207,
      "shirin": 4208,
      "ዝርዝር": 4209,
      "vision": 4210,
      "45": 4211,
      "ated": 4212,
      "unda": 4213,
      "'yar": 4214,
      "ziwa": 4215,
      "hindi": 4216,
      "sà": 4217,
      "cher": 4218,
      "sil": 4219,
      "ድርጅ": 4220,
      "dus": 4221,
      "shari": 4222,
      "eyi": 4223,
      "መጀመርያ": 4224,
      "inde": 4225,
      "nau": 4226,
      "4-": 4227,
      "የኢ": 4228,
      "ደራ": 4229,
      "kiingereza": 4230,
      "tion,": 4231,
      "kwallon": 4232,
      "harshen": 4233,
      "kisiwa": 4234,
      "site": 4235,
      "george": 4236,
      "cted": 4237,
      "ti,": 4238,
      "2003": 4239,
      "ረም": 4240,
      "ይሆ": 4241,
      "gali": 4242,
      "pẹlu": 4243,
      "(19": 4244,
      "òfin": 4245,
      "ት፣": 4246,
      "isho": 4247,
      "aláì": 4248,
      "tattalin": 4249,
      "መጽሐፍ": 4250,
      "fri": 4251,
      "manin": 4252,
      "volu": 4253,
      "ሕዝ": 4254,
      "tam": 4255,
      "lokaci": 4256,
      "november": 4257,
      "fur": 4258,
      "tú": 4259,
      "aussi": 4260,
      "97": 4261,
      "lashe": 4262,
      "2000": 4263,
      "web": 4264,
      "gẹ": 4265,
      "ክሉ": 4266,
      "cré": 4267,
      "dom": 4268,
      "1892": 4269,
      "biran": 4270,
      "ẹ̀ẹ́": 4271,
      "college": 4272,
      "n,": 4273,
      "ነው፡፡": 4274,
      "kita": 4275,
      "during": 4276,
      "ule": 4277,
      "ƴan": 4278,
      "ን፡": 4279,
      "lie": 4280,
      "to,": 4281,
      "ክርስቶስ": 4282,
      "di,": 4283,
      "'in": 4284,
      "ነሳ": 4285,
      "አንዳ": 4286,
      "tement": 4287,
      "pos": 4288,
      "shirye": 4289,
      "february": 4290,
      "kwalejin": 4291,
      "g.": 4292,
      "'an": 4293,
      "ede": 4294,
      "pris": 4295,
      "ሎት": 4296,
      "ame": 4297,
      "ties": 4298,
      "say": 4299,
      "gbajúmọ̀": 4300,
      "glo": 4301,
      "6-": 4302,
      "àdú": 4303,
      "2005": 4304,
      "rẹ̀.": 4305,
      "hawa": 4306,
      "ነቱ": 4307,
      "osu": 4308,
      "ibadan": 4309,
      "gene": 4310,
      "vé": 4311,
      "inú": 4312,
      "እኔ": 4313,
      "taba": 4314,
      "haifaf": 4315,
      "kwaikwayo": 4316,
      "kuji": 4317,
      "ከሰ": 4318,
      "haihu": 4319,
      "institu": 4320,
      "mfu": 4321,
      "ani,": 4322,
      "tọ́": 4323,
      "davi": 4324,
      "baadaye": 4325,
      "ẹlẹ́bùn": 4326,
      "dili": 4327,
      "pania": 4328,
      "ለች": 4329,
      "ẹ̀yà": 4330,
      "semb": 4331,
      "ròyìn": 4332,
      "bìnrin": 4333,
      "ሁኔታ": 4334,
      "erre": 4335,
      "darí": 4336,
      "common": 4337,
      "hispania": 4338,
      "talla": 4339,
      "julo": 4340,
      "yammacin": 4341,
      "ال": 4342,
      "ቢሆን": 4343,
      "kiwa": 4344,
      "die": 4345,
      "pó": 4346,
      "nada": 4347,
      "2013": 4348,
      "shar": 4349,
      "taifa": 4350,
      "torí": 4351,
      "ሁኑ": 4352,
      "ካር": 4353,
      "ጠው": 4354,
      "ware": 4355,
      "misha": 4356,
      "obìnrin": 4357,
      "pàá": 4358,
      "arewacin": 4359,
      "acade": 4360,
      "ሀገር": 4361,
      "karkashin": 4362,
      "october": 4363,
      "gran": 4364,
      "kiswahili": 4365,
      "umoja": 4366,
      "ème": 4367,
      "ከር": 4368,
      "nasara": 4369,
      "yoyi": 4370,
      "lọ́dún": 4371,
      "anné": 4372,
      "ፈን": 4373,
      "ፋት": 4374,
      "kifo": 4375,
      "አመት": 4376,
      "fait": 4377,
      "hudu": 4378,
      "les,": 4379,
      "out": 4380,
      "island": 4381,
      "paul": 4382,
      "መንፈ": 4383,
      "kofin": 4384,
      "sco": 4385,
      "mjini": 4386,
      "ነጋ": 4387,
      "ዲያ": 4388,
      "pti": 4389,
      "pho": 4390,
      "wal": 4391,
      "njia": 4392,
      "àgbá": 4393,
      "ቅድ": 4394,
      "wájú": 4395,
      "yote": 4396,
      "ts.": 4397,
      "tés": 4398,
      "eniyan": 4399,
      "magana": 4400,
      "ship": 4401,
      "34": 4402,
      "አይደ": 4403,
      "ስ፣": 4404,
      "ፍጥ": 4405,
      "abubu": 4406,
      "al'um": 4407,
      "être": 4408,
      "tia": 4409,
      "iii": 4410,
      "oli": 4411,
      "peri": 4412,
      "ences": 4413,
      "1960": 4414,
      "ተሰ": 4415,
      "tano": 4416,
      "ned": 4417,
      "መራ": 4418,
      "መሆኑ": 4419,
      "british": 4420,
      "አያ": 4421,
      "አለው": 4422,
      "ያህል": 4423,
      "kabi": 4424,
      "town": 4425,
      "history": 4426,
      "mahaifin": 4427,
      "idan": 4428,
      "gbẹ": 4429,
      "ሙዚቃ": 4430,
      "e-": 4431,
      "même": 4432,
      "da.": 4433,
      "sal": 4434,
      "nombre": 4435,
      "syste": 4436,
      "ቀበ": 4437,
      "ቁር": 4438,
      "ማርቆ": 4439,
      "ebun": 4440,
      "ራን": 4441,
      "ቻቸው": 4442,
      "géné": 4443,
      "julikana": 4444,
      "keo": 4445,
      "goma": 4446,
      "ṣiṣẹ́": 4447,
      "lam": 4448,
      "sir": 4449,
      "bakar": 4450,
      "ፈላ": 4451,
      "list": 4452,
      "gbọ̀n": 4453,
      "በአንድ": 4454,
      "ይስጥ": 4455,
      "sas": 4456,
      "gent": 4457,
      "hwa": 4458,
      "kusa": 4459,
      "2018": 4460,
      "patikana": 4461,
      "dor": 4462,
      "ዘጋ": 4463,
      "mission": 4464,
      "ምንጮች": 4465,
      "andi": 4466,
      "japan": 4467,
      "work": 4468,
      "lead": 4469,
      "1999": 4470,
      "ገዛ": 4471,
      "ጌታ": 4472,
      "yansi": 4473,
      "ራዊት": 4474,
      "ይገኛል።": 4475,
      "roma,": 4476,
      "ም፡": 4477,
      "ስላ": 4478,
      "ታዋቂ": 4479,
      "refer": 4480,
      "ንጉስ": 4481,
      "gá": 4482,
      "muhi": 4483,
      "women": 4484,
      "uchu": 4485,
      "takar": 4486,
      "islamu": 4487,
      "kyautar": 4488,
      "govern": 4489,
      "2016": 4490,
      "flu": 4491,
      "lì": 4492,
      "az": 4493,
      "የላ": 4494,
      "llar": 4495,
      "nyingine": 4496,
      "ምዕራብ": 4497,
      "haifaffun": 4498,
      "love": 4499,
      "opo": 4500,
      "ቷል።": 4501,
      "ẹyẹ": 4502,
      "sive": 4503,
      "gú": 4504,
      "ange": 4505,
      "filin": 4506,
      "july": 4507,
      "ìdá": 4508,
      "ጋራ": 4509,
      "keji": 4510,
      "mbili": 4511,
      "mulki": 4512,
      "ሥርወ": 4513,
      "ongozi": 4514,
      "v.": 4515,
      "contin": 4516,
      "91": 4517,
      "ondo": 4518,
      "charles": 4519,
      "black": 4520,
      "tsu": 4521,
      "ማረ": 4522,
      "lọpọ̀": 4523,
      "ṣùgbọ́n": 4524,
      "oloselu": 4525,
      "ches": 4526,
      "oper": 4527,
      "owo": 4528,
      "ወል": 4529,
      "bata": 4530,
      "የተሰ": 4531,
      "adam": 4532,
      "yabo": 4533,
      "bunge": 4534,
      "blo": 4535,
      "መሪ": 4536,
      "መሳ": 4537,
      "ፕሮ": 4538,
      "ìbílẹ̀": 4539,
      "ga,": 4540,
      "se,": 4541,
      "chama": 4542,
      "premier": 4543,
      "techni": 4544,
      "sikukuu": 4545,
      "best": 4546,
      "’ar": 4547,
      "en,": 4548,
      "terri": 4549,
      "about": 4550,
      "ወገን": 4551,
      "mataima": 4552,
      "mic": 4553,
      "mito": 4554,
      "tura": 4555,
      "http://www.": 4556,
      "egbe": 4557,
      "wote": 4558,
      "ambao": 4559,
      "milima": 4560,
      "ፈርዖ": 4561,
      "ባህር": 4562,
      "kùnrin": 4563,
      "river": 4564,
      "tena": 4565,
      "አሸ": 4566,
      "ይመስ": 4567,
      "ball": 4568,
      "2009": 4569,
      "ብርሃ": 4570,
      "ìṣẹ̀": 4571,
      "òṣeré": 4572,
      "bó": 4573,
      "yika": 4574,
      "ufu": 4575,
      "ችው": 4576,
      "ንት": 4577,
      "babbar": 4578,
      "|-": 4579,
      "dont": 4580,
      "binrin": 4581,
      "waya": 4582,
      "ward": 4583,
      "ስቴ": 4584,
      "ክፍላ": 4585,
      "uchumi": 4586,
      "play": 4587,
      "band": 4588,
      "gne": 4589,
      "manu": 4590,
      "ford": 4591,
      "tribu": 4592,
      "ጋል": 4593,
      "ፓን": 4594,
      "ory": 4595,
      "በተጨማሪ": 4596,
      "rubuta": 4597,
      "radi": 4598,
      "ልት": 4599,
      "ፎች": 4600,
      "als": 4601,
      "tarayyar": 4602,
      "om": 4603,
      "òkè": 4604,
      "እየተ": 4605,
      "አገልግ": 4606,
      "speci": 4607,
      "ታላቅ": 4608,
      "mah": 4609,
      "bes": 4610,
      "june": 4611,
      "kunan": 4612,
      "yayyun": 4613,
      "re,": 4614,
      "()": 4615,
      "maj": 4616,
      "long": 4617,
      "2008": 4618,
      "በዚያ": 4619,
      "ወታ": 4620,
      "enne": 4621,
      "betwe": 4622,
      "mìnà": 4623,
      "si,": 4624,
      "zake": 4625,
      "ked": 4626,
      "ሩን": 4627,
      "feder": 4628,
      "sp": 4629,
      "ères": 4630,
      "milli": 4631,
      "kawaida": 4632,
      "between": 4633,
      "imo": 4634,
      "cou": 4635,
      "government": 4636,
      "hùn": 4637,
      "ance": 4638,
      "cutar": 4639,
      "uka": 4640,
      "ጣት": 4641,
      "waɗanda": 4642,
      "gwamnan": 4643,
      "wazi": 4644,
      "nyu": 4645,
      "bẹ": 4646,
      "ሳን": 4647,
      "ብሪ": 4648,
      "አላ": 4649,
      "ento": 4650,
      "rayayyun": 4651,
      "consi": 4652,
      "alakoso": 4653,
      "mnamo": 4654,
      "century": 4655,
      "firi": 4656,
      "communi": 4657,
      "ብላ": 4658,
      "ዚሁ": 4659,
      "የታ": 4660,
      "ጋይ": 4661,
      "met": 4662,
      "ቶችን": 4663,
      "ign": 4664,
      "ይታወቃ": 4665,
      "where": 4666,
      "és": 4667,
      "(በ": 4668,
      "tini": 4669,
      "ባን": 4670,
      "ille": 4671,
      "ዘመናዊ": 4672,
      "መሠረት": 4673,
      "tẹ́lẹ̀": 4674,
      "muhimu": 4675,
      "ctions": 4676,
      "matan": 4677,
      "ci,": 4678,
      "-ì": 4679,
      "ጥሮ": 4680,
      "fira": 4681,
      "nítorí": 4682,
      "osere": 4683,
      "awards": 4684,
      "mìí": 4685,
      "àṣà": 4686,
      "ሜትር": 4687,
      "rashin": 4688,
      "sarkin": 4689,
      "2004": 4690,
      "pendan": 4691,
      "tanzani": 4692,
      "ìbà": 4693,
      "ማቴዎ": 4694,
      "ሳቸው": 4695,
      "ፍሬ": 4696,
      "ጣልያን": 4697,
      "fasaha": 4698,
      "2017": 4699,
      "sè": 4700,
      "times": 4701,
      "iwe": 4702,
      "oju": 4703,
      "ሲን": 4704,
      "ግባ": 4705,
      "kusan": 4706,
      "sasa": 4707,
      "olórin": 4708,
      "gómìnà": 4709,
      "umar": 4710,
      "partic": 4711,
      "léwò": 4712,
      "servi": 4713,
      "nal": 4714,
      "shing": 4715,
      "kur": 4716,
      "joseph": 4717,
      "ìgb": 4718,
      "ገል": 4719,
      "ipo": 4720,
      "kẹrin": 4721,
      "very": 4722,
      "tics": 4723,
      "ሳል": 4724,
      "ናን": 4725,
      "kiarabu": 4726,
      "neman": 4727,
      "cess": 4728,
      "round": 4729,
      "april": 4730,
      "cultur": 4731,
      "ለች።": 4732,
      "ኮች": 4733,
      "thé": 4734,
      "moder": 4735,
      "autres": 4736,
      "stra": 4737,
      "n.k.": 4738,
      "eko": 4739,
      "muda": 4740,
      "cla": 4741,
      "ipò": 4742,
      "ሎን": 4743,
      "ራሉ።": 4744,
      "four": 4745,
      "second": 4746,
      "nun": 4747,
      "enu": 4748,
      "fia": 4749,
      "maisha": 4750,
      "labara": 4751,
      "alim": 4752,
      "ንጉሠ": 4753,
      "mwanamuziki": 4754,
      "ile-": 4755,
      "fai": 4756,
      "ered": 4757,
      "itace": 4758,
      "marubu": 4759,
      "spi": 4760,
      "ibra": 4761,
      "lles": 4762,
      "lib": 4763,
      "kiran": 4764,
      "huo": 4765,
      "sto": 4766,
      "ማህ": 4767,
      "mwisho": 4768,
      "ọ̀pọ̀lọpọ̀": 4769,
      "wari": 4770,
      "nouve": 4771,
      "male": 4772,
      "tsar": 4773,
      "ttle": 4774,
      "mlima": 4775,
      "son,": 4776,
      "ሆኖም": 4777,
      "ወለደ": 4778,
      "edu": 4779,
      "ough": 4780,
      "ctur": 4781,
      "yaani": 4782,
      "zabe": 4783,
      "haifi": 4784,
      "hanyoyin": 4785,
      "ፓርቲ": 4786,
      "empi": 4787,
      "ce-": 4788,
      "number": 4789,
      "impor": 4790,
      "«የ": 4791,
      "anga": 4792,
      "only": 4793,
      "japani": 4794,
      "kún": 4795,
      "ተነ": 4796,
      "ዙሪያ": 4797,
      "ዝም": 4798,
      "gíga": 4799,
      "ora": 4800,
      "commun": 4801,
      "c)": 4802,
      "addin": 4803,
      "àgbéléwò": 4804,
      "ttu": 4805,
      "mi,": 4806,
      "ògùn": 4807,
      "መቀ": 4808,
      "raba": 4809,
      "zaben": 4810,
      "thre": 4811,
      "ነገሠ": 4812,
      "kasashen": 4813,
      "union": 4814,
      "arti": 4815,
      "dàn": 4816,
      "ika": 4817,
      "j.": 4818,
      "ዩኒ": 4819,
      "’a": 4820,
      "limi": 4821,
      "finai": 4822,
      "lafiya": 4823,
      "ngu": 4824,
      "zote": 4825,
      "75": 4826,
      "ethiopia": 4827,
      "የነበሩ": 4828,
      "ይሰ": 4829,
      "apá": 4830,
      "bàbá": 4831,
      "takri": 4832,
      "kiti": 4833,
      "h.": 4834,
      "damu": 4835,
      "de.": 4836,
      "/)": 4837,
      "philo": 4838,
      "39": 4839,
      "develop": 4840,
      "owó": 4841,
      "ቀረ": 4842,
      "anta": 4843,
      "ድረግ": 4844,
      "ዕለታት": 4845,
      "m)": 4846,
      "vili": 4847,
      "région": 4848,
      "après": 4849,
      "ዮር": 4850,
      "ọwọ́": 4851,
      "mìíràn": 4852,
      "ung": 4853,
      "elect": 4854,
      "zil": 4855,
      "aina": 4856,
      "ፈት": 4857,
      "1980": 4858,
      "halarci": 4859,
      "አንዳንድ": 4860,
      "dina": 4861,
      "fili": 4862,
      "f.": 4863,
      "mand": 4864,
      "chuo": 4865,
      "dọ́": 4866,
      "ሩ።": 4867,
      "ባዊ": 4868,
      "ilẹ": 4869,
      "cali": 4870,
      "suc": 4871,
      "form": 4872,
      "jó": 4873,
      "meji": 4874,
      "ከበ": 4875,
      "bakwai": 4876,
      "era": 4877,
      "tion.": 4878,
      "constitu": 4879,
      "population": 4880,
      "east": 4881,
      "jean": 4882,
      "ዘን": 4883,
      "ይጠ": 4884,
      "ገዳ": 4885,
      "ciki": 4886,
      "sosai": 4887,
      "ገኘው": 4888,
      "ville": 4889,
      "ine,": 4890,
      "በየ": 4891,
      "ከራ": 4892,
      "ààyè": 4893,
      "poly": 4894,
      "abubakar": 4895,
      "rún": 4896,
      "ቀናት": 4897,
      "ባሉ": 4898,
      "ግጥ": 4899,
      "tayi": 4900,
      "jimbo": 4901,
      "'adu": 4902,
      "latin": 4903,
      "si.": 4904,
      "via": 4905,
      ")፣": 4906,
      "ክራ": 4907,
      "kungi": 4908,
      "austri": 4909,
      "meta": 4910,
      "guine": 4911,
      "diri": 4912,
      "wes": 4913,
      "ሥላ": 4914,
      "አጥ": 4915,
      "dangan": 4916,
      "jam'i": 4917,
      "oun": 4918,
      "uganda": 4919,
      "maana": 4920,
      "አካል": 4921,
      "kadha": 4922,
      "mak": 4923,
      "hel": 4924,
      "stand": 4925,
      "dépar": 4926,
      "1990": 4927,
      "ጠና": 4928,
      "ekana": 4929,
      "ክልል": 4930,
      "zinazo": 4931,
      "ባሕር": 4932,
      "h,": 4933,
      "sifi": 4934,
      "view": 4935,
      "ልደት": 4936,
      "ስያ": 4937,
      "informa": 4938,
      "titi": 4939,
      "zaɓ": 4940,
      "jiji": 4941,
      "bour": 4942,
      "zilizo": 4943,
      "early": 4944,
      "bbc": 4945,
      "bayar": 4946,
      "chur": 4947,
      "(የ": 4948,
      "py": 4949,
      "ቀል": 4950,
      "lewa": 4951,
      "pekee": 4952,
      "ጽሑፍ": 4953,
      "hairi": 4954,
      "(197": 4955,
      "st.": 4956,
      "መጻ": 4957,
      "ሦስት": 4958,
      "ቀዳ": 4959,
      "ያሉ": 4960,
      "ገው": 4961,
      "sayansi": 4962,
      "\")": 4963,
      "ety": 4964,
      "kudan": 4965,
      "soko": 4966,
      "ode": 4967,
      "later": 4968,
      "thern": 4969,
      "france": 4970,
      "sus": 4971,
      "teurs": 4972,
      "sìkò": 4973,
      "logy": 4974,
      "you": 4975,
      "tima": 4976,
      "2002": 4977,
      "ዕል": 4978,
      "arziki": 4979,
      "dubu": 4980,
      "ደብረ": 4981,
      "ƙin": 4982,
      "ከብ": 4983,
      "ወዳ": 4984,
      "ወጥ": 4985,
      "cika": 4986,
      "የሱስ": 4987,
      "wed": 4988,
      "paris": 4989,
      "መቶ": 4990,
      "ማይ": 4991,
      "ቨር": 4992,
      "ọlá": 4993,
      "isra": 4994,
      "nijar": 4995,
      "comple": 4996,
      "ማርያም": 4997,
      "abuja": 4998,
      "ሁሉም": 4999,
      "akoko": 5000,
      "tawa": 5001,
      "recor": 5002,
      "ghu": 5003,
      "ton,": 5004,
      "nú": 5005,
      "mea": 5006,
      "sanin": 5007,
      "የተለያዩ": 5008,
      "ምናል": 5009,
      "dhidi": 5010,
      "ፕሬዚ": 5011,
      "jira": 5012,
      "kare": 5013,
      "oly": 5014,
      "hau": 5015,
      "7-": 5016,
      "gori": 5017,
      "ƙi": 5018,
      "ሻዎች": 5019,
      "በእ": 5020,
      "ጥረ": 5021,
      "end": 5022,
      "alipo": 5023,
      "christi": 5024,
      "33": 5025,
      "eto": 5026,
      "kra": 5027,
      "kistan": 5028,
      "ማች": 5029,
      "የህ": 5030,
      "nuwa": 5031,
      "tron": 5032,
      "500": 5033,
      "benin": 5034,
      "peut": 5035,
      "(እንግሊዝኛ": 5036,
      "ቲን": 5037,
      "አራ": 5038,
      "onge": 5039,
      "bank": 5040,
      "conomi": 5041,
      "turai": 5042,
      "pàtà": 5043,
      "gwamnati": 5044,
      "ክርስቲያ": 5045,
      "democra": 5046,
      "aláìsí": 5047,
      "addinin": 5048,
      "ep": 5049,
      "profes": 5050,
      "lt": 5051,
      "husi": 5052,
      "(m": 5053,
      "ተዋ": 5054,
      "yau": 5055,
      "cts": 5056,
      "ማጣ": 5057,
      "ካም": 5058,
      "ውሮፓ": 5059,
      "takriban": 5060,
      "physi": 5061,
      "5-": 5062,
      "tru": 5063,
      "rù": 5064,
      "bihi": 5065,
      "የሚል": 5066,
      "የምት": 5067,
      "yunifá": 5068,
      "aja": 5069,
      "mó": 5070,
      "unga": 5071,
      "siri": 5072,
      "these": 5073,
      "ìyá": 5074,
      "mizi": 5075,
      "jimi": 5076,
      "እርሱ": 5077,
      "የነበረው": 5078,
      "ሥላሴ": 5079,
      "plo": 5080,
      "maduni": 5081,
      "mahali": 5082,
      "harkokin": 5083,
      "miliyan": 5084,
      "kọ̀wé": 5085,
      "áfríkà": 5086,
      "masana'an": 5087,
      "academy": 5088,
      "ik": 5089,
      "fren": 5090,
      "wù": 5091,
      "éle": 5092,
      "ሄድ": 5093,
      "የሰው": 5094,
      "gabar": 5095,
      "proje": 5096,
      "pàtàkì": 5097,
      "comp": 5098,
      "tatu": 5099,
      "tit": 5100,
      "kimataifa": 5101,
      "bijin": 5102,
      "jami’ar": 5103,
      "fus": 5104,
      "dù": 5105,
      "ላን": 5106,
      "አምላክ": 5107,
      "ማስታወ": 5108,
      "dge": 5109,
      "samo": 5110,
      "natur": 5111,
      "team": 5112,
      "chin": 5113,
      "ታቸውን": 5114,
      "እድ": 5115,
      "wengine": 5116,
      "ገንዘ": 5117,
      "ጠቃላይ": 5118,
      "score0": 5119,
      "esta": 5120,
      "zanzi": 5121,
      "nde": 5122,
      "region": 5123,
      "duba": 5124,
      "ils": 5125,
      "ሌክት": 5126,
      "mpya": 5127,
      "1970": 5128,
      "kẹta": 5129,
      "mwanasiasa": 5130,
      "እጅግ": 5131,
      "wurin": 5132,
      "hus": 5133,
      "pú": 5134,
      "ስቱ": 5135,
      "ጠን": 5136,
      "me,": 5137,
      "ibrahim": 5138,
      "mwezi": 5139,
      "royal": 5140,
      "jò": 5141,
      "ọlọ́": 5142,
      "tsawon": 5143,
      "amerika.": 5144,
      "ilé-iṣẹ́": 5145,
      "philoso": 5146,
      "kta": 5147,
      "mwen": 5148,
      "kabla": 5149,
      "viet": 5150,
      "zanzibar": 5151,
      "cture": 5152,
      "kabila": 5153,
      "alu": 5154,
      "fẹ": 5155,
      "ox": 5156,
      "pù": 5157,
      "kimanin": 5158,
      "tanbihi": 5159,
      "milioni": 5160,
      "shirya": 5161,
      "99": 5162,
      "throu": 5163,
      "exis": 5164,
      "official": 5165,
      "ላው": 5166,
      "ይቻ": 5167,
      "ግ.": 5168,
      "habi": 5169,
      "እንቅ": 5170,
      "0,000": 5171,
      "ጠቀም": 5172,
      "ሃይማኖት": 5173,
      "fifa": 5174,
      "origin": 5175,
      "iden": 5176,
      "mayu": 5177,
      "tabba": 5178,
      "makabila": 5179,
      "fred": 5180,
      "chaguzi": 5181,
      "di.": 5182,
      "place": 5183,
      "mati": 5184,
      "ላሉ።": 5185,
      "በእንግሊዝኛ": 5186,
      "wasi": 5187,
      "ሳይሆን": 5188,
      "biranen": 5189,
      "french": 5190,
      "nel": 5191,
      "sour": 5192,
      "akin": 5193,
      "pt": 5194,
      "éga": 5195,
      "ainsi": 5196,
      "ሴቶች": 5197,
      "በደቡብ": 5198,
      "ዓይ": 5199,
      "የሩ": 5200,
      "ዳግ": 5201,
      "ገነ": 5202,
      "dawo": 5203,
      "giriki": 5204,
      "abẹ́": 5205,
      "kọ́kọ́": 5206,
      "oyè": 5207,
      "zed": 5208,
      "àjọ": 5209,
      "ƙara": 5210,
      "ቀድሞ": 5211,
      "ደስ": 5212,
      "sakand": 5213,
      "micha": 5214,
      "fiyar": 5215,
      "masarautar": 5216,
      "mada": 5217,
      "français": 5218,
      "(kwa": 5219,
      "shed": 5220,
      "náà,": 5221,
      "àdúgbò": 5222,
      "(\"": 5223,
      "iwo": 5224,
      "face": 5225,
      "ll,": 5226,
      "gundu": 5227,
      "naijiria.": 5228,
      "ክርስት": 5229,
      "our": 5230,
      "tàn": 5231,
      "kwen": 5232,
      "ባብ": 5233,
      "አሳ": 5234,
      "ዮስ": 5235,
      "alààyè": 5236,
      "tovuti": 5237,
      "rana": 5238,
      "see": 5239,
      "48": 5240,
      "gọ́": 5241,
      "በታ": 5242,
      "በኩል": 5243,
      "pays": 5244,
      "vir": 5245,
      "yàwó": 5246,
      "ወርቅ": 5247,
      "organ": 5248,
      "apo": 5249,
      "38": 5250,
      "ፖሊ": 5251,
      "alors": 5252,
      "hankali": 5253,
      "graphi": 5254,
      "አባል": 5255,
      "wakil": 5256,
      "position": 5257,
      "kudancin": 5258,
      "masha": 5259,
      "fiel": 5260,
      "muka": 5261,
      "super": 5262,
      "awo": 5263,
      "fra": 5264,
      "uchaguzi": 5265,
      "ፍና": 5266,
      "haɗin": 5267,
      "ọ̀nà": 5268,
      "kọkàn": 5269,
      "ሲሆን፣": 5270,
      "ሁለተኛው": 5271,
      "ango": 5272,
      "yama": 5273,
      "damar": 5274,
      "igb": 5275,
      "imani": 5276,
      "ክብ": 5277,
      "የነ": 5278,
      "nafasi": 5279,
      "kura": 5280,
      "2015,": 5281,
      "ነትን": 5282,
      "ጀመረ": 5283,
      "olóṣèlú": 5284,
      "fulani": 5285,
      "bada": 5286,
      "c'est": 5287,
      "ተቋ": 5288,
      "ዋት": 5289,
      "mapo": 5290,
      "hizi": 5291,
      "የተባለው": 5292,
      "lors": 5293,
      "መረጃ": 5294,
      "0-": 5295,
      "onimo": 5296,
      "ìbẹ̀rẹ̀": 5297,
      "አቶ": 5298,
      "ወለዱ": 5299,
      "የመጀመሪያው": 5300,
      "oma": 5301,
      "david": 5302,
      "cana": 5303,
      "ller": 5304,
      "አድ": 5305,
      "radio": 5306,
      "kumbukumbu": 5307,
      "situ": 5308,
      "gege": 5309,
      "sune": 5310,
      "-ẹ̀yẹ": 5311,
      "dọ̀": 5312,
      "t-": 5313,
      "uwan": 5314,
      "ተዋል።": 5315,
      "ኮን": 5316,
      "inte": 5317,
      "mitin": 5318,
      "olympi": 5319,
      "menti": 5320,
      "ዕዝ": 5321,
      "en.": 5322,
      "ሕግ": 5323,
      "ትው": 5324,
      "ያዊ": 5325,
      "daular": 5326,
      "gbẹ̀": 5327,
      "mengine": 5328,
      "ìbàdàn": 5329,
      "bles": 5330,
      "fli": 5331,
      "org": 5332,
      "ingia": 5333,
      "ላሉ": 5334,
      "መዋ": 5335,
      "ይሄ": 5336,
      "ግሪክ": 5337,
      "wadda": 5338,
      "የተክሉ": 5339,
      "ganin": 5340,
      "alexander": 5341,
      "mark": 5342,
      "ሪቱ": 5343,
      "ጠፋ": 5344,
      "inu": 5345,
      "bawa": 5346,
      "nasar": 5347,
      "nipa": 5348,
      "በመሆኑ": 5349,
      "wasannin": 5350,
      "haki": 5351,
      "neno": 5352,
      "1998": 5353,
      "ሚካ": 5354,
      "ቲክ": 5355,
      "ቶቹ": 5356,
      "የኦ": 5357,
      "ጥያ": 5358,
      "aren": 5359,
      "sakama": 5360,
      "legas": 5361,
      "papọ̀": 5362,
      "kanta": 5363,
      "tary": 5364,
      "rẹ̀,": 5365,
      "asali": 5366,
      "association": 5367,
      "kuru": 5368,
      "robert": 5369,
      "compo": 5370,
      "edi": 5371,
      "lega": 5372,
      "gbara": 5373,
      "martin": 5374,
      "studi": 5375,
      "wun": 5376,
      "ሦር": 5377,
      "አየር": 5378,
      "የን": 5379,
      "ገኛ": 5380,
      "kais": 5381,
      "bikin": 5382,
      "shida": 5383,
      "taron": 5384,
      "ìjọ": 5385,
      "arch": 5386,
      "bọ̀": 5387,
      "kere": 5388,
      "ṣẹ̀": 5389,
      "sel": 5390,
      "እንኳ": 5391,
      "duniya.": 5392,
      "ምንጭ": 5393,
      "oṣu": 5394,
      "go,": 5395,
      "ctive": 5396,
      "ስማ": 5397,
      "ቢት": 5398,
      "ካሌ": 5399,
      "ግለ": 5400,
      "wao": 5401,
      "bau": 5402,
      "kufi": 5403,
      "diff": 5404,
      "mie": 5405,
      "great": 5406,
      "mfano": 5407,
      "himman": 5408,
      "መጠን": 5409,
      "ትልቅ": 5410,
      "littafin": 5411,
      "voi": 5412,
      "ing,": 5413,
      "muhammadu": 5414,
      "ዲህ": 5415,
      "ፊደል": 5416,
      "yohan": 5417,
      "hotuna": 5418,
      "ያንዳን": 5419,
      "ይችላል።": 5420,
      "general": 5421,
      "où": 5422,
      "tent": 5423,
      "like": 5424,
      "ws": 5425,
      "rangi": 5426,
      "ባል።": 5427,
      "ፖር": 5428,
      "2014,": 5429,
      "jumla": 5430,
      "km²": 5431,
      "again": 5432,
      "labarai": 5433,
      "tout": 5434,
      "ver,": 5435,
      "haji": 5436,
      "nement": 5437,
      "forme": 5438,
      "ኃይል": 5439,
      "ኘው": 5440,
      "ጡት": 5441,
      "made": 5442,
      "biya": 5443,
      "títí": 5444,
      "lilikuwa": 5445,
      "àgbáyé": 5446,
      "ይታወቃል።": 5447,
      "ምናልባት": 5448,
      "également": 5449,
      "2016,": 5450,
      "nigeria.": 5451,
      "-daban": 5452,
      "aur": 5453,
      "uki": 5454,
      "ታን": 5455,
      "የሆኑ": 5456,
      "walikuwa": 5457,
      "ስለሆነ": 5458,
      "familia": 5459,
      "shirye-": 5460,
      "አይደለም": 5461,
      "abe": 5462,
      "bs": 5463,
      "ko,": 5464,
      "2011,": 5465,
      "fois": 5466,
      "kum": 5467,
      "good": 5468,
      "ife": 5469,
      "ዜና": 5470,
      "ይዩ": 5471,
      "ግዛ": 5472,
      "haɗa": 5473,
      "member": 5474,
      "2012,": 5475,
      "በትን": 5476,
      "ìdíje": 5477,
      "mapokeo": 5478,
      "would": 5479,
      "1994": 5480,
      "68": 5481,
      "(the": 5482,
      "wú": 5483,
      "ዝና": 5484,
      "2017,": 5485,
      "አባት": 5486,
      "science": 5487,
      "400": 5488,
      "fla": 5489,
      "istan": 5490,
      "péri": 5491,
      "nar": 5492,
      "haya": 5493,
      "(la": 5494,
      "ር-": 5495,
      "ብሊክ": 5496,
      "ከማ": 5497,
      "kashi": 5498,
      "col": 5499,
      "child": 5500,
      "dd": 5501,
      "ሐይ": 5502,
      "mba,": 5503,
      "ይር": 5504,
      "ፓንያ": 5505,
      "kikuu": 5506,
      "peter": 5507,
      "እንደሆነ": 5508,
      "bene": 5509,
      "bina": 5510,
      "ide": 5511,
      "ná": 5512,
      "house": 5513,
      "mban": 5514,
      "pẹ́": 5515,
      "ƙida": 5516,
      "በሌላ": 5517,
      "fuatana": 5518,
      "dp": 5519,
      "zuri": 5520,
      "elé": 5521,
      "portu": 5522,
      "አለም": 5523,
      "mexi": 5524,
      "wili": 5525,
      "jua": 5526,
      "....": 5527,
      "daban-daban": 5528,
      "ajili": 5529,
      "entomon": 5530,
      "empire": 5531,
      "development": 5532,
      "mambo": 5533,
      "church": 5534,
      "-ún": 5535,
      "በቃ": 5536,
      "ይጠቀ": 5537,
      "ገቡ": 5538,
      "mirefu": 5539,
      "fice": 5540,
      "sojo": 5541,
      "man,": 5542,
      "míràn": 5543,
      "2019,": 5544,
      "talabijin": 5545,
      "cara": 5546,
      "hak": 5547,
      "karin": 5548,
      "com/": 5549,
      "ase": 5550,
      "imu": 5551,
      "ሊዮን": 5552,
      "ምል": 5553,
      "በዓ": 5554,
      "kamusi": 5555,
      "onekana": 5556,
      "isla": 5557,
      "እንደገና": 5558,
      "kaya": 5559,
      "shor": 5560,
      "partie": 5561,
      "pindi": 5562,
      "nia": 5563,
      "sẹ́": 5564,
      "katoliki": 5565,
      "hilo": 5566,
      "patri": 5567,
      "2001": 5568,
      "gargaji": 5569,
      "jamii": 5570,
      "music": 5571,
      "kwenda": 5572,
      "’i": 5573,
      "ራል።": 5574,
      "ውጤ": 5575,
      "ዛኛው": 5576,
      "የእ": 5577,
      "ዳዊ": 5578,
      "viron": 5579,
      "bangar": 5580,
      "los": 5581,
      "pope": 5582,
      "ane": 5583,
      "andre": 5584,
      "bantu": 5585,
      "l'in": 5586,
      "ɗau": 5587,
      "ነቶች": 5588,
      "hat": 5589,
      "ደረጉ": 5590,
      "yoruba": 5591,
      "yawancin": 5592,
      "abinci": 5593,
      "ጎርጎር": 5594,
      "enugu": 5595,
      "(n": 5596,
      "rai": 5597,
      "1987": 5598,
      "በነ": 5599,
      "ብን": 5600,
      "ጠል": 5601,
      "order": 5602,
      "gabashin": 5603,
      "ማርቆስ": 5604,
      "table": 5605,
      "=\"": 5606,
      "bio": 5607,
      "yi,": 5608,
      "constru": 5609,
      "bello": 5610,
      "land,": 5611,
      "sítì": 5612,
      "afrika.": 5613,
      "llywood": 5614,
      "9-": 5615,
      "fron": 5616,
      "hana": 5617,
      "louis": 5618,
      "foot": 5619,
      "nye": 5620,
      "argent": 5621,
      "ìròyìn": 5622,
      "በብዛት": 5623,
      "techno": 5624,
      "በሽታ": 5625,
      "ìṣẹ̀lẹ̀": 5626,
      "64": 5627,
      "ji,": 5628,
      "center": 5629,
      "multi": 5630,
      "gẹ̀ẹ́": 5631,
      "àrí": 5632,
      "bi,": 5633,
      "su,": 5634,
      "tif": 5635,
      "babu": 5636,
      "became": 5637,
      "fle": 5638,
      "መቅ": 5639,
      "፲፰": 5640,
      "artic": 5641,
      "sabon": 5642,
      "lábẹ́": 5643,
      "ሳይን": 5644,
      "called": 5645,
      "መንፈስ": 5646,
      "yer": 5647,
      "cir": 5648,
      "mbun": 5649,
      "ሲል": 5650,
      "ብዛት": 5651,
      "kupi": 5652,
      "kufuatana": 5653,
      "wọn.": 5654,
      "askof": 5655,
      "1993": 5656,
      "እስያ": 5657,
      "abubuwan": 5658,
      "la.": 5659,
      "maria": 5660,
      "ident": 5661,
      "michael": 5662,
      "መም": 5663,
      "መና": 5664,
      "በጥ": 5665,
      "ውቅ": 5666,
      "safa": 5667,
      "ciyar": 5668,
      "turanci": 5669,
      "ማጣቀ": 5670,
      "vre": 5671,
      "maga": 5672,
      "satu": 5673,
      "respon": 5674,
      "(;": 5675,
      "32": 5676,
      "mẹ": 5677,
      "ረግ": 5678,
      "ችል": 5679,
      "environ": 5680,
      "ƙidayar": 5681,
      "kan.": 5682,
      "ter,": 5683,
      "mme": 5684,
      "death": 5685,
      "ɗu": 5686,
      "ኒው": 5687,
      "ከተለው": 5688,
      "yanayin": 5689,
      "ንዳር": 5690,
      "zation": 5691,
      "atta": 5692,
      "agus": 5693,
      "2016.": 5694,
      "ọjọ": 5695,
      "keje": 5696,
      "òṣèlú": 5697,
      "court": 5698,
      "years": 5699,
      "ሚስት": 5700,
      "ኃይለ": 5701,
      "ከታ": 5702,
      "ዕብራ": 5703,
      "የሞ": 5704,
      "1991": 5705,
      "በአሁኑ": 5706,
      "hannu": 5707,
      "utamaduni": 5708,
      "anzishwa": 5709,
      "\"the": 5710,
      "lip": 5711,
      "1997": 5712,
      "culture": 5713,
      "moni": 5714,
      "three": 5715,
      "guinea": 5716,
      "vina": 5717,
      "ሥቱ": 5718,
      "ግድ": 5719,
      "large": 5720,
      "ጥንት": 5721,
      "wadannan": 5722,
      "hesabi": 5723,
      "gúú": 5724,
      "mat": 5725,
      "compan": 5726,
      "58": 5727,
      "ei": 5728,
      "በኛ": 5729,
      "ገዥ": 5730,
      "ፊል": 5731,
      "ọn": 5732,
      "leyin": 5733,
      "lọ.": 5734,
      "ambako": 5735,
      "central": 5736,
      "---": 5737,
      "ayyuka": 5738,
      "አፍሪካ": 5739,
      "département": 5740,
      "gẹ̀ẹ́sì": 5741,
      "askofu": 5742,
      "us.": 5743,
      "while": 5744,
      "biri": 5745,
      "auth": 5746,
      "german": 5747,
      "ውጭ": 5748,
      "ያደር": 5749,
      "kalen": 5750,
      "sadar": 5751,
      "covi": 5752,
      "taimaka": 5753,
      "mahaifiyar": 5754,
      "kitabu": 5755,
      "kaisari": 5756,
      "(196": 5757,
      "ibu": 5758,
      "kor": 5759,
      "peu": 5760,
      "able": 5761,
      "ማል": 5762,
      "ሪት": 5763,
      "በሙሉ": 5764,
      "አሉ": 5765,
      "ክን": 5766,
      "organi": 5767,
      "alka": 5768,
      "news": 5769,
      "borno": 5770,
      "እምነት": 5771,
      "alli": 5772,
      "cap": 5773,
      "ip": 5774,
      "»)": 5775,
      "hiri": 5776,
      "ሕይወት": 5777,
      "ይፋ": 5778,
      "ገጽ": 5779,
      "sayen": 5780,
      "gboyè": 5781,
      "gúúsù": 5782,
      "-a": 5783,
      "kemi": 5784,
      "nazar": 5785,
      "ist": 5786,
      "series": 5787,
      "family": 5788,
      "cô": 5789,
      "ቡድን": 5790,
      "ብል": 5791,
      "ቱርክ": 5792,
      "አህ": 5793,
      "ካታ": 5794,
      "ged": 5795,
      "ስተኛ": 5796,
      "àkọ́lé": 5797,
      "ወታደ": 5798,
      "yohane": 5799,
      "cheo": 5800,
      "hop": 5801,
      "a)": 5802,
      "ሕንድ": 5803,
      "ሳሰ": 5804,
      "ኝነት": 5805,
      "አና": 5806,
      "የዓለም": 5807,
      "፡በ": 5808,
      "taire": 5809,
      "sanan": 5810,
      "jọba": 5811,
      "ስራቅ": 5812,
      "eas": 5813,
      "2018,": 5814,
      "twa": 5815,
      "brazil": 5816,
      "thomas": 5817,
      "acikin": 5818,
      "ን፣": 5819,
      "ዝማች": 5820,
      "koyar": 5821,
      "ọ́n": 5822,
      "que.": 5823,
      "olórí": 5824,
      "yaliyo": 5825,
      "ብሔራዊ": 5826,
      "log": 5827,
      "150": 5828,
      "aure": 5829,
      "emi": 5830,
      "tm": 5831,
      "to.": 5832,
      "power": 5833,
      "bù": 5834,
      "mmoja": 5835,
      "ሙት": 5836,
      "ኑስ": 5837,
      "ውሃ": 5838,
      "ዘዴ": 5839,
      "ጥበብ": 5840,
      "ፍቅር": 5841,
      "masi": 5842,
      "huadhi": 5843,
      "ayẹyẹ": 5844,
      "wengi,": 5845,
      "የውጭ": 5846,
      "fina-finai": 5847,
      "ፍልስ": 5848,
      "hapo": 5849,
      "adar": 5850,
      "adminis": 5851,
      "ndogo": 5852,
      "ées": 5853,
      "ማት": 5854,
      "did": 5855,
      "memba": 5856,
      "፲፱፻፶": 5857,
      "obje": 5858,
      "sára": 5859,
      "était": 5860,
      "ma'aika": 5861,
      "salaam": 5862,
      "hesabiwa": 5863,
      "mila": 5864,
      "follow": 5865,
      "yẹ̀": 5866,
      "ስል": 5867,
      "ስቶ": 5868,
      "ያሳ": 5869,
      "ይዞ": 5870,
      "kálẹ̀": 5871,
      "kadhaa": 5872,
      "ካሌንዳር": 5873,
      "ጎርጎርያን": 5874,
      "covid-": 5875,
      "(s": 5876,
      "t)": 5877,
      "dévelop": 5878,
      "arabi": 5879,
      "kowa": 5880,
      "sans": 5881,
      "très": 5882,
      "greek": 5883,
      "ìbá": 5884,
      "ሥልጣን": 5885,
      "ራኤል": 5886,
      "በኦ": 5887,
      "off": 5888,
      "jiho": 5889,
      "ọ̀lù": 5890,
      "pewa": 5891,
      "sarki": 5892,
      "gabas": 5893,
      "ọjọ́aláìsí": 5894,
      "jinsi": 5895,
      "ሁለተኛ": 5896,
      "ድርጅት": 5897,
      "ወልደ": 5898,
      "alimfuata": 5899,
      "ሳይንሳዊ": 5900,
      "an.": 5901,
      "ችሁ": 5902,
      "የቆ": 5903,
      "kalẹ̀": 5904,
      "sile": 5905,
      "nollywood": 5906,
      "bákan": 5907,
      "ዳንት": 5908,
      "47": 5909,
      "alle": 5910,
      "tobi": 5911,
      "rama": 5912,
      "shi.": 5913,
      "pl": 5914,
      "መሬት": 5915,
      "ስድ": 5916,
      "ከላ": 5917,
      "የቀን": 5918,
      "waye": 5919,
      "kawo": 5920,
      "late": 5921,
      "ቸው።": 5922,
      "1996": 5923,
      "wáyé": 5924,
      "55": 5925,
      "kha": 5926,
      "tu.": 5927,
      "then": 5928,
      "ographi": 5929,
      "fú": 5930,
      "ሥጋ": 5931,
      "nahi": 5932,
      "kowan": 5933,
      "kwamitin": 5934,
      "shugaba": 5935,
      "born": 5936,
      "tiques": 5937,
      "belgi": 5938,
      "178": 5939,
      "okun": 5940,
      "ረጋ": 5941,
      "ርቶ": 5942,
      "ጊዮር": 5943,
      "any": 5944,
      "rawar": 5945,
      "fic": 5946,
      "ministan": 5947,
      "ከዚያም": 5948,
      "ከነዓ": 5949,
      "minira": 5950,
      "ጊዮርጊ": 5951,
      "sever": 5952,
      "1995": 5953,
      "uishe": 5954,
      "back": 5955,
      "movie": 5956,
      "bang": 5957,
      "waziri": 5958,
      "አቅ": 5959,
      "ዴት": 5960,
      "taken": 5961,
      "tawala": 5962,
      "fas": 5963,
      "huu": 5964,
      "makao": 5965,
      "አገራት": 5966,
      "የማይ": 5967,
      "lórílẹ̀": 5968,
      "ቀጥሎ": 5969,
      "kalenda": 5970,
      "lun": 5971,
      "festi": 5972,
      "mà": 5973,
      "delta": 5974,
      "odo": 5975,
      "ለሁ": 5976,
      "ሰጥ": 5977,
      "ስቃ": 5978,
      "ቦት": 5979,
      "ያያ": 5980,
      "ጽሕ": 5981,
      "fafa": 5982,
      "síwájú": 5983,
      "sakamakon": 5984,
      "nazarin": 5985,
      "media": 5986,
      "misi": 5987,
      "tradition": 5988,
      "z,": 5989,
      "ተቃ": 5990,
      "ጠብ": 5991,
      "takwa": 5992,
      "2091": 5993,
      "chungu": 5994,
      "irú": 5995,
      "bọ́ọ̀lù": 5996,
      "dik": 5997,
      "micro": 5998,
      "buil": 5999,
      "2015.": 6000,
      "(ya": 6001,
      "300": 6002,
      "sili": 6003,
      "hìn": 6004,
      "ufalme": 6005,
      "écri": 6006,
      "ƙir": 6007,
      "ኪያ": 6008,
      "ካን": 6009,
      "ዛዝ": 6010,
      "ደጃ": 6011,
      "daida": 6012,
      "oruko": 6013,
      "kijerumani": 6014,
      "yota": 6015,
      "ምንት": 6016,
      "፲፱፻፷": 6017,
      "ሥራቅ": 6018,
      "àìsàn": 6019,
      "années": 6020,
      "anth": 6021,
      "depuis": 6022,
      "%)": 6023,
      "zen": 6024,
      "ures": 6025,
      "mua": 6026,
      "ped": 6027,
      "festival": 6028,
      "ido": 6029,
      "ois": 6030,
      "ል፡፡": 6031,
      "በጎርጎርያን": 6032,
      "ዝርያ": 6033,
      "የለ": 6034,
      "የኮ": 6035,
      "fita": 6036,
      "pau": 6037,
      "ጊዜም": 6038,
      "ስለሚ": 6039,
      "ደረሰ": 6040,
      "niger": 6041,
      "ulio": 6042,
      "ደራሲ": 6043,
      "mataimakin": 6044,
      "sof": 6045,
      "àjẹ": 6046,
      "ሏል።": 6047,
      "የሆነው": 6048,
      "ድሮ": 6049,
      "ጠላ": 6050,
      "‎‎": 6051,
      "ẹ̀rọ": 6052,
      "th,": 6053,
      "being": 6054,
      "ትርጉም": 6055,
      "ológun": 6056,
      "kẹ́kọ̀ọ́": 6057,
      "shirikis": 6058,
      "round)": 6059,
      "(in": 6060,
      "ix": 6061,
      "von": 6062,
      "plusie": 6063,
      "fari": 6064,
      "»,": 6065,
      "tifi": 6066,
      "quel": 6067,
      "የለው": 6068,
      "ṣá": 6069,
      "shugabar": 6070,
      "ድረስ)": 6071,
      "የሚያስ": 6072,
      "ተከታ": 6073,
      "première": 6074,
      "ማስታወሻዎች": 6075,
      "ገንዘብ": 6076,
      "uses": 6077,
      "ment,": 6078,
      "rap": 6079,
      "mbra": 6080,
      "kk": 6081,
      "àjà": 6082,
      "በኢ": 6083,
      "ጋሪ": 6084,
      "tege": 6085,
      "moun": 6086,
      "guusu": 6087,
      "wasanni": 6088,
      "tiki": 6089,
      "li,": 6090,
      "plusieurs": 6091,
      "cup": 6092,
      "rar": 6093,
      "tè": 6094,
      "ìwò": 6095,
      "ነቱን": 6096,
      "ገሩ": 6097,
      "same": 6098,
      "key": 6099,
      "shi,": 6100,
      "tarayya": 6101,
      "መጻሕ": 6102,
      "ያንዳንዱ": 6103,
      "howe": 6104,
      "through": 6105,
      "pakistan": 6106,
      "ji.": 6107,
      "kan,": 6108,
      "vide": 6109,
      "gwar": 6110,
      "ሙን": 6111,
      "ሱን": 6112,
      "ቤቱ": 6113,
      "ዋጋ": 6114,
      "ገት": 6115,
      "ጠሩ": 6116,
      "ጥቅ": 6117,
      "president": 6118,
      "ace": 6119,
      "liter": 6120,
      "self": 6121,
      "bou": 6122,
      "we,": 6123,
      "hand": 6124,
      "home": 6125,
      "ለ።": 6126,
      "bien": 6127,
      "irun": 6128,
      "duniani": 6129,
      "yunifásítì": 6130,
      "-à": 6131,
      "maha": 6132,
      "chen": 6133,
      "ty,": 6134,
      "généra": 6135,
      "ose": 6136,
      "ናይት": 6137,
      "ክሲ": 6138,
      "tokana": 6139,
      "bul": 6140,
      "oríṣi": 6141,
      "appli": 6142,
      "action": 6143,
      "tsohu": 6144,
      "ማቴዎስ": 6145,
      "eth": 6146,
      "zara": 6147,
      "sty": 6148,
      "histoire": 6149,
      "1975": 6150,
      "taniya": 6151,
      "በራ": 6152,
      "ዲዮ": 6153,
      "yakin": 6154,
      "gomina": 6155,
      "ambapo": 6156,
      "albu": 6157,
      "kanda": 6158,
      "itan": 6159,
      "waju": 6160,
      "point": 6161,
      "gombe": 6162,
      "2014.": 6163,
      "ውል": 6164,
      "kashe": 6165,
      "tàgé": 6166,
      "አውሮፓ": 6167,
      "56": 6168,
      "roni": 6169,
      "nam": 6170,
      "tu,": 6171,
      "shan": 6172,
      "differ": 6173,
      "».": 6174,
      "ለጠ": 6175,
      "ነፍ": 6176,
      "onyes": 6177,
      "mu,": 6178,
      "ƙasashen": 6179,
      "richard": 6180,
      "congres": 6181,
      "1989": 6182,
      "free": 6183,
      "including": 6184,
      "oyo": 6185,
      "exemp": 6186,
      "abdulla": 6187,
      "(tí": 6188,
      "ቀይ": 6189,
      "beau": 6190,
      "god": 6191,
      "yanki": 6192,
      "የሚታወ": 6193,
      "mont": 6194,
      "ወይንም": 6195,
      "olùdarí": 6196,
      "qu'il": 6197,
      "ዕለተ": 6198,
      "(ከ1892": 6199,
      "maz": 6200,
      "mako": 6201,
      "sla": 6202,
      "èrè": 6203,
      "ዘው": 6204,
      "influ": 6205,
      "leon": 6206,
      "améri": 6207,
      "version": 6208,
      "tuntun": 6209,
      "shafi": 6210,
      "elles": 6211,
      "larab": 6212,
      "ማጣቀሻ": 6213,
      "gini": 6214,
      "finan": 6215,
      "iki": 6216,
      "oye": 6217,
      "wase": 6218,
      "head": 6219,
      "prote": 6220,
      "(1": 6221,
      "jẹ̀": 6222,
      "mvu": 6223,
      "ልጁ": 6224,
      "ማሽ": 6225,
      "anal": 6226,
      "habari": 6227,
      "compu": 6228,
      "disamba": 6229,
      "elezo": 6230,
      "ሌክትሪክ": 6231,
      "'ar": 6232,
      "egy": 6233,
      "gia": 6234,
      "dera": 6235,
      "(d.": 6236,
      "sc": 6237,
      "swe": 6238,
      "unti": 6239,
      "agri": 6240,
      "ሜዳ": 6241,
      "አሉ።": 6242,
      "watsa": 6243,
      "የአፍ": 6244,
      "found": 6245,
      "crip": 6246,
      "dúró": 6247,
      "ṣíṣe": 6248,
      "ፈርዖን": 6249,
      "sakandare": 6250,
      "àjẹsára": 6251,
      "shirikisho": 6252,
      "ring": 6253,
      "lic": 6254,
      "accor": 6255,
      "àá": 6256,
      "ìtu": 6257,
      "ሊን": 6258,
      "ሥፍራ": 6259,
      "በስተ": 6260,
      "ቴሌ": 6261,
      "sudan": 6262,
      "የተፈ": 6263,
      "pindu": 6264,
      "በማለት": 6265,
      "ራሱን": 6266,
      "shirika": 6267,
      "kubali": 6268,
      "sayensi": 6269,
      "set": 6270,
      "colu": 6271,
      "maris": 6272,
      "langue": 6273,
      "republic": 6274,
      "1982": 6275,
      "tanzania.": 6276,
      "gwi": 6277,
      "làn": 6278,
      "መላ": 6279,
      "kabisa": 6280,
      "jiogra": 6281,
      ");": 6282,
      "</": 6283,
      "lling": 6284,
      "type": 6285,
      "akwa": 6286,
      "kaka": 6287,
      "ke,": 6288,
      "color": 6289,
      "mande": 6290,
      "ውሀ": 6291,
      "before": 6292,
      "old": 6293,
      "progres": 6294,
      "languag": 6295,
      "መሰረት": 6296,
      "ti.": 6297,
      "2013,": 6298,
      "diffé": 6299,
      "::": 6300,
      "jwa": 6301,
      "anda": 6302,
      "tọ": 6303,
      "òwò": 6304,
      "ሆይ": 6305,
      "ድና": 6306,
      "makuu": 6307,
      "lime": 6308,
      "rasu": 6309,
      "alum": 6310,
      "2010,": 6311,
      "አገሮች": 6312,
      "púpọ̀": 6313,
      "actor": 6314,
      "kes": 6315,
      "1966": 6316,
      "46": 6317,
      "49": 6318,
      "1976": 6319,
      "western": 6320,
      "ሜት": 6321,
      "ከም": 6322,
      "177": 6323,
      "misri": 6324,
      "ክፍሎች": 6325,
      "በርካታ": 6326,
      "tsohuwar": 6327,
      "conne": 6328,
      "pop": 6329,
      "democratic": 6330,
      "ዶሮ": 6331,
      "ፈራ": 6332,
      "ẹrẹ": 6333,
      "in.": 6334,
      "fabra": 6335,
      "wenyewe": 6336,
      "ትንሽ": 6337,
      "wakifuata": 6338,
      "rd2-": 6339,
      "መልክዓ": 6340,
      "bauchi": 6341,
      "teau": 6342,
      "jeni": 6343,
      "kore": 6344,
      "mc": 6345,
      "ቴክ": 6346,
      "ጸሐ": 6347,
      "fada": 6348,
      "shehu": 6349,
      "huadhimisha": 6350,
      "nahiyar": 6351,
      "ash": 6352,
      "ksi": 6353,
      "n'": 6354,
      "obi": 6355,
      "on.": 6356,
      "57": 6357,
      "kìí": 6358,
      "ለቀ": 6359,
      "አራት": 6360,
      "ጉል": 6361,
      "arts": 6362,
      "ency": 6363,
      "hamia": 6364,
      "inganta": 6365,
      "babisha": 6366,
      "zinabaki": 6367,
      "mirefu).": 6368,
      "administra": 6369,
      "taji": 6370,
      "mu.": 6371,
      "wikipe": 6372,
      "madu": 6373,
      "1918": 6374,
      "1992": 6375,
      "kani": 6376,
      "yof": 6377,
      "ቡር": 6378,
      "ካባቢ": 6379,
      "ኮት": 6380,
      "ወራ": 6381,
      "tains": 6382,
      "sation": 6383,
      "lọ́gbọ̀n": 6384,
      "ደረገው": 6385,
      "halafu": 6386,
      "gri": 6387,
      "walla": 6388,
      "ጥብ": 6389,
      "civil": 6390,
      "karshe": 6391,
      "harsunan": 6392,
      "ባቢሎን": 6393,
      "ጉዳይ": 6394,
      "mbunge": 6395,
      "mac": 6396,
      "now": 6397,
      "ly,": 6398,
      "soma": 6399,
      "ye,": 6400,
      "jọ̀": 6401,
      "nya": 6402,
      "ለሚ": 6403,
      "ታችን": 6404,
      "ክብር": 6405,
      "dec": 6406,
      "cewar": 6407,
      "cours": 6408,
      "notam": 6409,
      "shekarun": 6410,
      "1988": 6411,
      "ìdílé": 6412,
      "(«": 6413,
      "contra": 6414,
      "indepen": 6415,
      "1=": 6416,
      "67": 6417,
      "amani": 6418,
      "1950": 6419,
      "modern": 6420,
      "ibo": 6421,
      "ሞን": 6422,
      "ዕድ": 6423,
      "ፍን": 6424,
      "indus": 6425,
      "saman": 6426,
      "wanao": 6427,
      "ግንኙ": 6428,
      "nàìjíríà,": 6429,
      "sayari": 6430,
      "francis": 6431,
      "ism": 6432,
      "simp": 6433,
      "202": 6434,
      "ed.": 6435,
      "ice": 6436,
      "ቅርስ": 6437,
      "ት።": 6438,
      "አጋ": 6439,
      "dab": 6440,
      "kitu": 6441,
      "harar": 6442,
      "mẹ́ta": 6443,
      "ሁለቱ": 6444,
      "ትምህር": 6445,
      "ተራራ": 6446,
      "አቀፍ": 6447,
      "(he": 6448,
      "pou": 6449,
      "berg": 6450,
      "hé": 6451,
      "federal": 6452,
      "ɗi": 6453,
      "ɗari": 6454,
      "መደ": 6455,
      "ቁጥ": 6456,
      "ተት": 6457,
      "waislamu": 6458,
      "odò": 6459,
      "ውንት": 6460,
      "ሳይንስ": 6461,
      "wòrán": 6462,
      "falsafa": 6463,
      "kúrò": 6464,
      "ìgbìmọ̀": 6465,
      "ምልክት": 6466,
      "jiografia": 6467,
      "tto": 6468,
      "come": 6469,
      "india": 6470,
      "1967": 6471,
      "notamment": 6472,
      "kw": 6473,
      "ƙo": 6474,
      "ኑን": 6475,
      "የሌ": 6476,
      "ግባር": 6477,
      "nifi": 6478,
      "diyo": 6479,
      "fazi": 6480,
      "tengene": 6481,
      "yake.": 6482,
      "fuatwa": 6483,
      "nd": 6484,
      "base": 6485,
      "jiha": 6486,
      "futa": 6487,
      "johan": 6488,
      "htm": 6489,
      "hudi": 6490,
      "ology": 6491,
      "present": 6492,
      "against": 6493,
      "ለተ": 6494,
      "engine": 6495,
      "kifaransa": 6496,
      "alpha": 6497,
      "tel": 6498,
      "cell": 6499,
      "exam": 6500,
      "production": 6501,
      "oke": 6502,
      "2011.": 6503,
      "1984": 6504,
      "ungan": 6505,
      "rike": 6506,
      "ሚሊዮን": 6507,
      "ሲቲ": 6508,
      "ወጡ": 6509,
      "hivi": 6510,
      "juma": 6511,
      "ruwan": 6512,
      "akọrin": 6513,
      "volution": 6514,
      "(i": 6515,
      "dwa": 6516,
      "dare": 6517,
      "re.": 6518,
      "both": 6519,
      "org/": 6520,
      "huru": 6521,
      "wis": 6522,
      "በዚሁ": 6523,
      "anzi": 6524,
      "badili": 6525,
      "haka,": 6526,
      "mi.": 6527,
      "ing.": 6528,
      "do,": 6529,
      "1979": 6530,
      "ናት።": 6531,
      "እንስሳ": 6532,
      "awa": 6533,
      "pur": 6534,
      "area": 6535,
      "america": 6536,
      "présent": 6537,
      "bali": 6538,
      "koki": 6539,
      "1983": 6540,
      "98": 6541,
      "heshi": 6542,
      "ቃላት": 6543,
      "አቡ": 6544,
      "lais": 6545,
      "matasa": 6546,
      "duniya,": 6547,
      "oluilu": 6548,
      "ድንጋይ": 6549,
      "tẹli": 6550,
      "jam'iyyar": 6551,
      "2=": 6552,
      "abdul": 6553,
      "jal": 6554,
      "devi": 6555,
      "nira": 6556,
      "1986": 6557,
      "however,": 6558,
      "òrì": 6559,
      "ቂት": 6560,
      "ጥና": 6561,
      "ጨዋ": 6562,
      "lika": 6563,
      "sashen": 6564,
      "ci.": 6565,
      "vement": 6566,
      "የተባለ": 6567,
      "janar": 6568,
      "ከነዓን": 6569,
      "vel": 6570,
      "cape": 6571,
      "sea": 6572,
      "appro": 6573,
      "1974": 6574,
      "oòrùn": 6575,
      "ሎጂ": 6576,
      "መጫ": 6577,
      "ርን": 6578,
      "ቀስ": 6579,
      "ኘት": 6580,
      "ኮኖ": 6581,
      "ይላል።": 6582,
      "makubwa": 6583,
      "program": 6584,
      "hannun": 6585,
      "የሚገኙ": 6586,
      "ọ̀nù": 6587,
      "jagoran": 6588,
      "96": 6589,
      "fitar": 6590,
      "hizo": 6591,
      "ration": 6592,
      "ney": 6593,
      "sum": 6594,
      "kansa": 6595,
      "possi": 6596,
      "system": 6597,
      "igbo": 6598,
      "yọ́": 6599,
      "ራም": 6600,
      "ሺህ": 6601,
      "ክሮ": 6602,
      "ዩናይት": 6603,
      "ጸባይ": 6604,
      "na,": 6605,
      "dian": 6606,
      "usman": 6607,
      "human": 6608,
      "akiwa": 6609,
      "pataki": 6610,
      "safi": 6611,
      "syst": 6612,
      "avi": 6613,
      "lations": 6614,
      "1977": 6615,
      "cc": 6616,
      "አሰ": 6617,
      "ዩስ": 6618,
      "maya": 6619,
      "sheria": 6620,
      "marekani.": 6621,
      "ንግድ": 6622,
      "msingi": 6623,
      "covid-19": 6624,
      "ጊዮርጊስ": 6625,
      "frank": 6626,
      "mathe": 6627,
      "ouest": 6628,
      "pín": 6629,
      "uf": 6630,
      "ምኒ": 6631,
      "ጭር": 6632,
      "er.": 6633,
      "kogin": 6634,
      "parí": 6635,
      "yanayi": 6636,
      "wàá": 6637,
      "mshairi": 6638,
      "sée": 6639,
      "ብርሃን": 6640,
      "ando": 6641,
      "austria": 6642,
      "x,": 6643,
      "kaa": 6644,
      "code": 6645,
      "ston": 6646,
      "km2": 6647,
      "ethiopi": 6648,
      "kuliko": 6649,
      "'ya": 6650,
      "bọ": 6651,
      "dẹ́": 6652,
      "በሬ": 6653,
      "ald": 6654,
      "fiimu": 6655,
      "pakana": 6656,
      "sui": 6657,
      "jenga": 6658,
      "የቀድሞ": 6659,
      "ዩናይትድ": 6660,
      "data": 6661,
      "noma": 6662,
      "henry": 6663,
      "washing": 6664,
      "rasha": 6665,
      "cations": 6666,
      "2006.": 6667,
      "dence": 6668,
      "certain": 6669,
      "christian": 6670,
      "ሊቃ": 6671,
      "ሲቀ": 6672,
      "ቤቶች": 6673,
      "ታሪ": 6674,
      "አዋ": 6675,
      "ኢየሱስ": 6676,
      "ዘፋ": 6677,
      "የለም": 6678,
      "ገረ": 6679,
      "ma’": 6680,
      "sahara": 6681,
      "mir": 6682,
      "የአየር": 6683,
      "addini": 6684,
      "በመጨረሻ": 6685,
      "ገብረ": 6686,
      "tumiwa": 6687,
      "(18": 6688,
      "sol": 6689,
      "tes,": 6690,
      "1945": 6691,
      "bì": 6692,
      "gn": 6693,
      "1920": 6694,
      "seed": 6695,
      "ሲሆኑ": 6696,
      "ሳተ": 6697,
      "ኞቹ": 6698,
      "የኖ": 6699,
      "ጅም": 6700,
      "ፊዎች": 6701,
      "wahi": 6702,
      "ẹ̀ka": 6703,
      "ariwa": 6704,
      "soja": 6705,
      "gudu": 6706,
      "chukua": 6707,
      "kejìlá": 6708,
      "ጠቅላይ": 6709,
      "tumika": 6710,
      "education": 6711,
      "gargajiya": 6712,
      "àríwá": 6713,
      "pren": 6714,
      "1978": 6715,
      "syn": 6716,
      "présen": 6717,
      "grande": 6718,
      "cli": 6719,
      "kusu": 6720,
      "2007.": 6721,
      "ative": 6722,
      "million": 6723,
      "nkan": 6724,
      "መታ": 6725,
      "ሰነ": 6726,
      "ባታ": 6727,
      "ከስ": 6728,
      "ወድ": 6729,
      "wame": 6730,
      "taur": 6731,
      "hayo": 6732,
      "kiongozi": 6733,
      "ni:": 6734,
      "dokar": 6735,
      "commer": 6736,
      "1971": 6737,
      "dínlógún": 6738,
      "ifẹ̀": 6739,
      "kimiyya": 6740,
      "kalmar": 6741,
      "መሆኑን": 6742,
      "ክርስትና": 6743,
      "፲፰፻": 6744,
      "sene": 6745,
      "letter": 6746,
      "catho": 6747,
      "acti": 6748,
      "(2005)": 6749,
      "auto": 6750,
      "establi": 6751,
      "ብሔር": 6752,
      "ከረም": 6753,
      "ዕው": 6754,
      "ጻፈ": 6755,
      "maar": 6756,
      "tas": 6757,
      "muun": 6758,
      "sanar": 6759,
      "haifar": 6760,
      "1973": 6761,
      "ብሪታ": 6762,
      "adi": 6763,
      "muni": 6764,
      "wing": 6765,
      "makon": 6766,
      "cole": 6767,
      "father": 6768,
      "actres": 6769,
      "change": 6770,
      "gs": 6771,
      "ስሞች": 6772,
      "ግም": 6773,
      "last": 6774,
      "bado": 6775,
      "tude": 6776,
      "since": 6777,
      "spishi": 6778,
      "44": 6779,
      "bwe": 6780,
      "term": 6781,
      "ine.": 6782,
      "social": 6783,
      "school,": 6784,
      "ሎቹ": 6785,
      "፪፻": 6786,
      "kam": 6787,
      "moham": 6788,
      "jack": 6789,
      "sant": 6790,
      "initi": 6791,
      "ríṣi": 6792,
      "iyaka": 6793,
      "ነበረው": 6794,
      "ታላቁ": 6795,
      "cikak": 6796,
      "òn": 6797,
      "arzi": 6798,
      "kuku": 6799,
      "selon": 6800,
      "ሊቀ": 6801,
      "ነግ": 6802,
      "ከና": 6803,
      "ጋን": 6804,
      "kutumia": 6805,
      "kiasi": 6806,
      "ጊዜው": 6807,
      "nufin": 6808,
      "ambazo": 6809,
      "trois": 6810,
      "gree": 6811,
      "díẹ̀": 6812,
      "shiryen": 6813,
      "ያለውን": 6814,
      "institute": 6815,
      "(,": 6816,
      "gana": 6817,
      "albert": 6818,
      "jade": 6819,
      "contro": 6820,
      "ikan": 6821,
      "ikú": 6822,
      "uwar": 6823,
      "èrò": 6824,
      "መጡ": 6825,
      "uniyar": 6826,
      "cated": 6827,
      "former": 6828,
      "mengi": 6829,
      "ባህል": 6830,
      "ìgbésí": 6831,
      "mfumo": 6832,
      "ስቃሴ": 6833,
      "95": 6834,
      "sán": 6835,
      "dida": 6836,
      "them": 6837,
      "num": 6838,
      "zao": 6839,
      "land.": 6840,
      "burg": 6841,
      "ìwọ̀": 6842,
      "ሪስ": 6843,
      "በሳ": 6844,
      "በኮ": 6845,
      "አሉት": 6846,
      "ይቆ": 6847,
      "ፋርስ": 6848,
      "anisha": 6849,
      "tage": 6850,
      "fihàn": 6851,
      "champi": 6852,
      "tsakiyar": 6853,
      "shawara": 6854,
      "watumwa": 6855,
      "òṣèrébìnrin": 6856,
      "ቢሆንም": 6857,
      "espa": 6858,
      "sian": 6859,
      "zimba": 6860,
      "gold": 6861,
      "huwa": 6862,
      "ck,": 6863,
      "signifi": 6864,
      "ማግ": 6865,
      "ከረ": 6866,
      "ዓላማ": 6867,
      "rage": 6868,
      "gol": 6869,
      "lled": 6870,
      "አምባ": 6871,
      "amẹ́ríkà.": 6872,
      "ይሆናል።": 6873,
      "ndege": 6874,
      "tabbatar": 6875,
      "gni": 6876,
      "iro": 6877,
      "ming": 6878,
      "ye.": 6879,
      "gbi": 6880,
      "astron": 6881,
      "2017.": 6882,
      "1985": 6883,
      "linguis": 6884,
      "መጋ": 6885,
      "kadiri": 6886,
      "ga.": 6887,
      "alhaji": 6888,
      "ዩኒቨር": 6889,
      "እንቅስቃሴ": 6890,
      "even": 6891,
      "osun": 6892,
      "simi": 6893,
      "sma": 6894,
      "zani": 6895,
      "ምፒ": 6896,
      "ቅል": 6897,
      "ቅን": 6898,
      "ተጽ": 6899,
      "ታም": 6900,
      "ጀት": 6901,
      "እንዴት": 6902,
      "kyauta": 6903,
      "dukkan": 6904,
      "ክለብ": 6905,
      "ይቀራሉ።": 6906,
      "milki": 6907,
      "አገልግሎት": 6908,
      "kwe": 6909,
      "gua": 6910,
      "tsun": 6911,
      "ography": 6912,
      "(p": 6913,
      "በኤ": 6914,
      "ፉት": 6915,
      "ẹran": 6916,
      "water": 6917,
      "miche": 6918,
      "ofis": 6919,
      "enter": 6920,
      "በአን": 6921,
      "ንግል": 6922,
      "musulmai": 6923,
      "ምርጫ": 6924,
      "bincike": 6925,
      "ይመስላል።": 6926,
      "nuwamba": 6927,
      "ዕብራይስጥ": 6928,
      "maarufu": 6929,
      "top": 6930,
      "pendant": 6931,
      "football": 6932,
      "basi": 6933,
      "ra,": 6934,
      "ሠራዊት": 6935,
      "ሪፐ": 6936,
      "ሰባ": 6937,
      "አክ": 6938,
      "ከሆነ": 6939,
      "ጥም": 6940,
      "halin": 6941,
      "1914": 6942,
      "yanar": 6943,
      "yarje": 6944,
      "joto": 6945,
      "shaharar": 6946,
      "majimbo": 6947,
      "ከነዚህ": 6948,
      "nasarar": 6949,
      "larabci": 6950,
      "koko": 6951,
      "gie": 6952,
      "2018.": 6953,
      "prési": 6954,
      "(16": 6955,
      "በብዙ": 6956,
      "ወገ": 6957,
      "ጋት": 6958,
      "dawa": 6959,
      "chanzo": 6960,
      "kawai": 6961,
      "አለው።": 6962,
      "nas": 6963,
      "2006,": 6964,
      "1969": 6965,
      "brother": 6966,
      "cn": 6967,
      "based": 6968,
      "1930": 6969,
      "care": 6970,
      "yì": 6971,
      "ńlá": 6972,
      "የኡ": 6973,
      "tashar": 6974,
      "fadin": 6975,
      "ቤተክርስቲያን": 6976,
      "ukoloni": 6977,
      "asilimia": 6978,
      "australi": 6979,
      "company": 6980,
      "መጻሕፍት": 6981,
      "kau": 6982,
      "hapa": 6983,
      "picha": 6984,
      "less": 6985,
      "ud": 6986,
      "mous": 6987,
      "ctori": 6988,
      "42": 6989,
      "ingawa": 6990,
      "baadhi": 6991,
      "miwa": 6992,
      "pay": 6993,
      "ọ̀yọ́": 6994,
      "quar": 6995,
      "joko": 6996,
      "የተባ": 6997,
      "shule": 6998,
      "ports": 6999,
      "እውነት": 7000,
      "gè": 7001,
      "dia.": 7002,
      "bib": 7003,
      "1981": 7004,
      "1965": 7005,
      "counci": 7006,
      "be,": 7007,
      "els": 7008,
      "85": 7009,
      "àpapọ̀": 7010,
      "òbí": 7011,
      "ማኅ": 7012,
      "ቀሳ": 7013,
      "mayar": 7014,
      "dam": 7015,
      "yanke": 7016,
      "ìjà": 7017,
      "በመሆን": 7018,
      "wanasayansi": 7019,
      "ምንጊዜም": 7020,
      "kẹfà": 7021,
      "መልኩ": 7022,
      "ìṣẹ́": 7023,
      "ተመሳ": 7024,
      "bangaren": 7025,
      "mapa": 7026,
      "ch,": 7027,
      "domini": 7028,
      "distri": 7029,
      "yaki": 7030,
      "taf": 7031,
      "kudi": 7032,
      "centre": 7033,
      "australia": 7034,
      "ìlà": 7035,
      "ሙያ": 7036,
      "ር፣": 7037,
      "በሱ": 7038,
      "ተክል": 7039,
      "ጣን": 7040,
      "make": 7041,
      "cia": 7042,
      "peti": 7043,
      "et,": 7044,
      "té,": 7045,
      "1952": 7046,
      "adarí": 7047,
      "eti": 7048,
      "sab": 7049,
      "usha": 7050,
      "hydro": 7051,
      "llen": 7052,
      "geni": 7053,
      "féren": 7054,
      "fofin": 7055,
      "kipindi": 7056,
      "ẹ̀sìn": 7057,
      "zaune": 7058,
      "bíbí": 7059,
      "kundin": 7060,
      "መንግሥታት": 7061,
      "ዘመኑ": 7062,
      "olóò": 7063,
      "williams": 7064,
      "moins": 7065,
      "atre": 7066,
      "1972": 7067,
      "director": 7068,
      "tzer": 7069,
      "yasa": 7070,
      "gou": 7071,
      "chief": 7072,
      "califor": 7073,
      "álí": 7074,
      "ሞክራ": 7075,
      "ቂያ": 7076,
      "በ16": 7077,
      "ẹbí": 7078,
      "anambra": 7079,
      "puli": 7080,
      "10.": 7081,
      "ልማት": 7082,
      "bandari": 7083,
      "ተመሳሳይ": 7084,
      "effe": 7085,
      "fm": 7086,
      "contre": 7087,
      "tina": 7088,
      "ƴar": 7089,
      "ዝን": 7090,
      "ይሁን": 7091,
      "ግሪ": 7092,
      "ፍር": 7093,
      "ፎር": 7094,
      "gui": 7095,
      "tsara": 7096,
      "የአር": 7097,
      "1962": 7098,
      "founda": 7099,
      "kóso": 7100,
      "ኛውም": 7101,
      "née": 7102,
      "biyu,": 7103,
      "በተለይም": 7104,
      "ይቻላል።": 7105,
      "pana": 7106,
      "unes": 7107,
      "me.": 7108,
      "co.": 7109,
      "petro": 7110,
      "dò": 7111,
      "ike": 7112,
      "liber": 7113,
      "66": 7114,
      "aso": 7115,
      "iri": 7116,
      "ሀብ": 7117,
      "ሉን": 7118,
      "ሩም": 7119,
      "ሰም": 7120,
      "ሳር": 7121,
      "ተካ": 7122,
      "የራ": 7123,
      "የጀርመን": 7124,
      "ዳም": 7125,
      "kakar": 7126,
      "hadin": 7127,
      "hewa": 7128,
      "guerre": 7129,
      "jumo": 7130,
      "provin": 7131,
      "shinda": 7132,
      "አመታት": 7133,
      "2019.": 7134,
      "siyasan": 7135,
      "ጥቅምት": 7136,
      "classi": 7137,
      "wùjọ": 7138,
      "iku": 7139,
      "html": 7140,
      "ents": 7141,
      "sanda": 7142,
      "analy": 7143,
      "khali": 7144,
      "ster": 7145,
      "ula": 7146,
      "በካ": 7147,
      "ተጫ": 7148,
      "ከባ": 7149,
      "የዚህ": 7150,
      "ፖርት": 7151,
      "kuzaliwa": 7152,
      "gizo": 7153,
      "urusi": 7154,
      "janairu": 7155,
      "d)": 7156,
      "kasi": 7157,
      "suite": 7158,
      "ghts": 7159,
      "2020,": 7160,
      "aci": 7161,
      "afi": 7162,
      "ሶስት": 7163,
      "ደገ": 7164,
      "ፊያ": 7165,
      "ọkọ̀": 7166,
      "ọpọ": 7167,
      "injini": 7168,
      "kibantu": 7169,
      "ko.": 7170,
      "suf": 7171,
      "የአውሮፓ": 7172,
      "adun": 7173,
      "ìjẹ̀": 7174,
      "cross": 7175,
      "lililo": 7176,
      "hausawa": 7177,
      "ሕዝቡ": 7178,
      "continu": 7179,
      "shirye-shiryen": 7180,
      "kro": 7181,
      "rail": 7182,
      "se.": 7183,
      "edward": 7184,
      "kingdom": 7185,
      "languages": 7186,
      "192": 7187,
      "1929": 7188,
      "go.": 7189,
      "መሣ": 7190,
      "ሪቃ": 7191,
      "ቆይ": 7192,
      "ቸዋል።": 7193,
      "አጠ": 7194,
      "እኩል": 7195,
      "nairo": 7196,
      "mwanzo": 7197,
      "wọ̀nyí": 7198,
      "ሚካኤል": 7199,
      "slo": 7200,
      "allo": 7201,
      "trodu": 7202,
      "philip": 7203,
      "wol": 7204,
      "semi": 7205,
      "tance": 7206,
      "(15": 7207,
      "pí": 7208,
      "በሩ": 7209,
      "riga": 7210,
      "sey": 7211,
      "እስካ": 7212,
      "kàwé": 7213,
      "እንግዲህ": 7214,
      "mìnira": 7215,
      "binciken": 7216,
      "stre": 7217,
      "television": 7218,
      "mit": 7219,
      "jiki": 7220,
      "near": 7221,
      "poin": 7222,
      "1964": 7223,
      "ìṣe": 7224,
      "በደ": 7225,
      "ቷን": 7226,
      "ቸዉ": 7227,
      "ነፃ": 7228,
      "ኤን": 7229,
      "የል": 7230,
      "ẹgbẹ": 7231,
      "enta": 7232,
      "hukun": 7233,
      "ደርግ": 7234,
      "pasẹ": 7235,
      "vitabu": 7236,
      "የሚገኝበት": 7237,
      "kilatini": 7238,
      "period": 7239,
      "onyesha": 7240,
      "ዩኒቨርሲቲ": 7241,
      "1917": 7242,
      "bibli": 7243,
      "society": 7244,
      "third": 7245,
      "short": 7246,
      "88": 7247,
      "amo": 7248,
      "dad": 7249,
      "tay": 7250,
      "kui": 7251,
      "10,": 7252,
      "----": 7253,
      "demokra": 7254,
      "ህግ": 7255,
      "ርሱ": 7256,
      "ሸን": 7257,
      "ነሣ": 7258,
      "ወስ": 7259,
      "ዳሪ": 7260,
      "nibi": 7261,
      "gau": 7262,
      "jumu": 7263,
      "mpuni": 7264,
      "(13": 7265,
      "2009,": 7266,
      "internet": 7267,
      "country": 7268,
      "ታር": 7269,
      "ዓፄ": 7270,
      "ዞች": 7271,
      "nitori": 7272,
      "chor": 7273,
      "ነገሥት": 7274,
      "አለ።": 7275,
      "ዘንድ፣": 7276,
      "ፈላጊ": 7277,
      "ዓይነት": 7278,
      "ፍልስፍና": 7279,
      "ጽሕፈት": 7280,
      "wasemaji": 7281,
      "aya": 7282,
      "vant": 7283,
      "armen": 7284,
      "(193": 7285,
      "ques,": 7286,
      "les.": 7287,
      "broad": 7288,
      "busines": 7289,
      "kisha": 7290,
      "zz": 7291,
      "àkọ": 7292,
      "àlà": 7293,
      "ájú": 7294,
      "በዛ": 7295,
      "ቦር": 7296,
      "የፈ": 7297,
      "ያስተ": 7298,
      "wale": 7299,
      "liste": 7300,
      "baha": 7301,
      "elimu": 7302,
      "avant": 7303,
      "masalla": 7304,
      "following": 7305,
      "tegemea": 7306,
      "ግንኙነት": 7307,
      "zimbabwe": 7308,
      "1959": 7309,
      "indon": 7310,
      "oru": 7311,
      "information": 7312,
      "until": 7313,
      "77": 7314,
      "nne": 7315,
      "ረቱ": 7316,
      "ተመል": 7317,
      "አዘ": 7318,
      "hed": 7319,
      "nipasẹ": 7320,
      "moto": 7321,
      "afrilu": 7322,
      "በመባል": 7323,
      "alamu": 7324,
      "wenyeji": 7325,
      "johnson": 7326,
      "መለስ": 7327,
      "daukar": 7328,
      "ተከታይ": 7329,
      "kilimo": 7330,
      "ስብስብ": 7331,
      "gwe": 7332,
      "date": 7333,
      "apple": 7334,
      "adu": 7335,
      "tti": 7336,
      "will": 7337,
      "congress": 7338,
      "(17": 7339,
      "each": 7340,
      "ìwá": 7341,
      "ሚና": 7342,
      "ምነት": 7343,
      "ሳል።": 7344,
      "ስትር": 7345,
      "ኗሪ": 7346,
      "ኪሎ": 7347,
      "የዓመቱ": 7348,
      "ደሴት": 7349,
      "ድንግል": 7350,
      "wapo": 7351,
      "1925": 7352,
      "autre": 7353,
      "yi.": 7354,
      "የሚሰራ": 7355,
      "lée": 7356,
      "olojia": 7357,
      "biblia": 7358,
      "sema": 7359,
      "cate": 7360,
      "senti": 7361,
      "website": 7362,
      "aris": 7363,
      "wei": 7364,
      "league": 7365,
      "gì": 7366,
      "pun": 7367,
      "èè": 7368,
      "ለዚህ": 7369,
      "በሻ": 7370,
      "mapindu": 7371,
      "leta": 7372,
      "cigaba": 7373,
      "እንደተ": 7374,
      "lélógún": 7375,
      "ulikuwa": 7376,
      "ilé-ìwé": 7377,
      "italia.": 7378,
      "ጎንደር": 7379,
      "ክፍላገር": 7380,
      "የነበሩት": 7381,
      "mapinduzi": 7382,
      "argentina": 7383,
      "karun": 7384,
      "(2004)": 7385,
      "mohammed": 7386,
      "ƙwarar": 7387,
      "መጀመሪያ": 7388,
      "ቢይ": 7389,
      "እያንዳንዱ": 7390,
      "ያላቸው": 7391,
      "ግኝ": 7392,
      "sabu": 7393,
      "yankunan": 7394,
      "pierre": 7395,
      "mò:": 7396,
      "kikatoliki": 7397,
      "ስያሜ": 7398,
      "chunguza": 7399,
      "gara": 7400,
      "uwe": 7401,
      "w,": 7402,
      "ንጉሡ": 7403,
      "caract": 7404,
      "jon": 7405,
      "kwara": 7406,
      "coup": 7407,
      "notes": 7408,
      "ለስ": 7409,
      "ሸዋ": 7410,
      "የፊ": 7411,
      "የሙዚቃ": 7412,
      "ያዝ": 7413,
      "ጫወ": 7414,
      "ẹkọ": 7415,
      "moyen": 7416,
      "matakin": 7417,
      "አንደ": 7418,
      "íríkà": 7419,
      "bendera": 7420,
      "አውራ": 7421,
      "54": 7422,
      "hab": 7423,
      "limited": 7424,
      "edo": 7425,
      "lated": 7426,
      "sec": 7427,
      "groupe": 7428,
      "paulo": 7429,
      "መኖ": 7430,
      "ወዘ": 7431,
      "ዳል": 7432,
      "ጨምሮ": 7433,
      "um,": 7434,
      "expres": 7435,
      "ለማስ": 7436,
      "kẹ́mí": 7437,
      "jamhuriyar": 7438,
      "አስተዳደግ": 7439,
      "kowane": 7440,
      "auri": 7441,
      "cover": 7442,
      "de-": 7443,
      "six": 7444,
      "section": 7445,
      "buka": 7446,
      "because": 7447,
      "leader": 7448,
      "59": 7449,
      "achi": 7450,
      "kán": 7451,
      "àyọ": 7452,
      "ተደር": 7453,
      "ትራ": 7454,
      "የህዝብ": 7455,
      "ጠት": 7456,
      "anchi": 7457,
      "introdu": 7458,
      "waingereza": 7459,
      "ortho": 7460,
      "sex": 7461,
      "karshen": 7462,
      "femi": 7463,
      "ii,": 7464,
      "dangane": 7465,
      "álíà": 7466,
      "ket": 7467,
      "pada": 7468,
      "ja,": 7469,
      "1961": 7470,
      "tle": 7471,
      "libr": 7472,
      "lazi": 7473,
      "ria": 7474,
      "could": 7475,
      "force": 7476,
      "saint-": 7477,
      "agbara": 7478,
      "ኪንግ": 7479,
      "ነው፤": 7480,
      "gement": 7481,
      "turn": 7482,
      "በአዲስ": 7483,
      "indiya": 7484,
      "ግንቦት": 7485,
      "ìtì": 7486,
      "መስከረም": 7487,
      "ቅርብ": 7488,
      "around": 7489,
      "fr": 7490,
      "nais": 7491,
      "nami": 7492,
      "ni.": 7493,
      "temps": 7494,
      "og": 7495,
      "bii": 7496,
      "1963": 7497,
      "field": 7498,
      "nyota": 7499,
      "ሀይ": 7500,
      "ልፍ": 7501,
      "ሚን": 7502,
      "kuja": 7503,
      "ray": 7504,
      "bi.": 7505,
      "kele": 7506,
      "fair": 7507,
      "due": 7508,
      "fupi": 7509,
      "ኢትዮጵያን": 7510,
      "actu": 7511,
      "military": 7512,
      "northern": 7513,
      "jaridar": 7514,
      "tangaza": 7515,
      "ሚኒስትር": 7516,
      "hip": 7517,
      "permet": 7518,
      "primary": 7519,
      "pose": 7520,
      "fut": 7521,
      "final": 7522,
      "fẹ̀": 7523,
      "ላላ": 7524,
      "መብ": 7525,
      "ኪዳን": 7526,
      "ጊያ": 7527,
      "fiye": 7528,
      "kotun": 7529,
      "lou": 7530,
      "ọ̀gá": 7531,
      "ardhi": 7532,
      "sojojin": 7533,
      "tẹlifí": 7534,
      "àyọkà": 7535,
      "hr": 7536,
      "zza": 7537,
      "2007,": 7538,
      "bonde": 7539,
      "jusqu'": 7540,
      "(e": 7541,
      "dered": 7542,
      "diction": 7543,
      "diale": 7544,
      "thur": 7545,
      "feat": 7546,
      "(10": 7547,
      "ሆድ": 7548,
      "ቤን": 7549,
      "ተል": 7550,
      "ዙፋ": 7551,
      "kida": 7552,
      "raho": 7553,
      "pasifi": 7554,
      "logun": 7555,
      "እንድ": 7556,
      "ስተር": 7557,
      "አባላት": 7558,
      "kátó": 7559,
      "ወንጌ": 7560,
      "láàrin": 7561,
      "zungum": 7562,
      "ምኒልክ": 7563,
      "toa": 7564,
      "réali": 7565,
      "voire": 7566,
      "mche": 7567,
      "sina": 7568,
      "laire": 7569,
      "kufa": 7570,
      "dic": 7571,
      "b,": 7572,
      "llow": 7573,
      "በታል።": 7574,
      "ነኛ": 7575,
      "ኔት": 7576,
      "ካሬ": 7577,
      "ጳጳ": 7578,
      "‘yan": 7579,
      "madara": 7580,
      "battle": 7581,
      "alama": 7582,
      "ዘመቻ": 7583,
      "chake.": 7584,
      "ttun": 7585,
      "lizi": 7586,
      "semble": 7587,
      "major": 7588,
      "service": 7589,
      "jara": 7590,
      "rafa": 7591,
      "amini": 7592,
      "word": 7593,
      "langues": 7594,
      "ǹkan": 7595,
      "ማራ": 7596,
      "ረጃ": 7597,
      "ርዕ": 7598,
      "የወ": 7599,
      "ይሁ": 7600,
      "ይፈ": 7601,
      "lit": 7602,
      "kufanya": 7603,
      "thing": 7604,
      "post": 7605,
      "derni": 7606,
      "አንቀ": 7607,
      "llaye": 7608,
      "mbobin": 7609,
      "elekea": 7610,
      "yìí.": 7611,
      "tẹ́nì": 7612,
      "labarin": 7613,
      "takwas": 7614,
      "flor": 7615,
      "kie": 7616,
      "bere": 7617,
      "army": 7618,
      "simu": 7619,
      "2008,": 7620,
      "d'é": 7621,
      "kirki": 7622,
      "sk": 7623,
      "ሎስ": 7624,
      "ከፈ": 7625,
      "ጥቁር": 7626,
      "waarabu": 7627,
      "alg": 7628,
      "bankin": 7629,
      "እናት": 7630,
      "fundis": 7631,
      "1958": 7632,
      "yàtọ̀": 7633,
      "kusini.": 7634,
      "ንዳንድ": 7635,
      "otto": 7636,
      "jimillar": 7637,
      "ov": 7638,
      "lob": 7639,
      "clai": 7640,
      "iti": 7641,
      "jes": 7642,
      "gala": 7643,
      "1948": 7644,
      "ikon": 7645,
      "ìler": 7646,
      "ሰቡ": 7647,
      "ቋቋ": 7648,
      "የዘ": 7649,
      "ጋዜ": 7650,
      "al'adu": 7651,
      "karùn": 7652,
      "2010.": 7653,
      "tenis": 7654,
      "የመጣ": 7655,
      "project": 7656,
      "ዳግማዊ": 7657,
      "ìwòsàn": 7658,
      "sele": 7659,
      "1940": 7660,
      "several": 7661,
      "]]": 7662,
      "fis": 7663,
      "kwu": 7664,
      "map": 7665,
      "3=": 7666,
      "kwana": 7667,
      "o-": 7668,
      "ሰሜን": 7669,
      "ቁት": 7670,
      "ቤል": 7671,
      "ọgọ́": 7672,
      "quent": 7673,
      "olori": 7674,
      "concep": 7675,
      "waliwa": 7676,
      "በአሜሪካ": 7677,
      "1968": 7678,
      "chaguliwa": 7679,
      "አድርጎ": 7680,
      "pópù": 7681,
      "lìkì": 7682,
      "ውቅያ": 7683,
      "district": 7684,
      "buni": 7685,
      "economi": 7686,
      "jim": 7687,
      "queen": 7688,
      "trou": 7689,
      "86": 7690,
      "tten": 7691,
      "mach": 7692,
      "ni,": 7693,
      "1919": 7694,
      "sound": 7695,
      "victori": 7696,
      "ty.": 7697,
      "états": 7698,
      "blu": 7699,
      "eos": 7700,
      "káà": 7701,
      "xe": 7702,
      "ywa": 7703,
      "òkú": 7704,
      "ሊያን": 7705,
      "ሐሴ": 7706,
      "ትክ": 7707,
      "ነፈ": 7708,
      "ያዙ": 7709,
      "ፕላ": 7710,
      "matic": 7711,
      "majina": 7712,
      "namba": 7713,
      "ra'a": 7714,
      "ẹ̀bùn": 7715,
      "chache": 7716,
      "undun": 7717,
      "ancient": 7718,
      "prince": 7719,
      "አማካ": 7720,
      "boy": 7721,
      "(2": 7722,
      "anne": 7723,
      "urit": 7724,
      "1900": 7725,
      "colo": 7726,
      "kanna": 7727,
      "ghan": 7728,
      "vation": 7729,
      "pande": 7730,
      "politique": 7731,
      "cine": 7732,
      "ደርስ": 7733,
      "nie": 7734,
      "asibi": 7735,
      "kẹjọ": 7736,
      "souvent": 7737,
      "lenye": 7738,
      "fíl": 7739,
      "ሥርዓት": 7740,
      "እንኳን": 7741,
      "abdullahi": 7742,
      "ሪፐብሊክ": 7743,
      "phe": 7744,
      "ena": 7745,
      "hira": 7746,
      "cian": 7747,
      "solu": 7748,
      "symbo": 7749,
      "igi": 7750,
      "what": 7751,
      "sam": 7752,
      "mean": 7753,
      "concer": 7754,
      "university,": 7755,
      "ሊሆን": 7756,
      "ሰቦች": 7757,
      "በዓለም": 7758,
      "ክምና": 7759,
      "ጽዋት": 7760,
      "kuwe": 7761,
      "origine": 7762,
      "dauke": 7763,
      "aṣojú": 7764,
      "u.s.": 7765,
      "አስተዳደር": 7766,
      "anzisha": 7767,
      "nguvu": 7768,
      "jihohin": 7769,
      "arzikin": 7770,
      "fílmù": 7771,
      "ito": 7772,
      "leurs": 7773,
      "keb": 7774,
      "giga": 7775,
      "resul": 7776,
      "1957": 7777,
      "eau": 7778,
      "yya.": 7779,
      "buhari": 7780,
      "ለየ": 7781,
      "ቆየ": 7782,
      "እሱ": 7783,
      "ገራ": 7784,
      "wafu": 7785,
      "jagun": 7786,
      "resear": 7787,
      "kundu": 7788,
      "በተለያዩ": 7789,
      "kẹtà": 7790,
      "አምስት": 7791,
      "በዚህም": 7792,
      "watoto": 7793,
      "jagoranci": 7794,
      "kimiyyar": 7795,
      "ofishin": 7796,
      "kátólìkì": 7797,
      "87": 7798,
      "bb": 7799,
      "iwa": 7800,
      "row": 7801,
      "kodi": 7802,
      "cru": 7803,
      "kiko": 7804,
      "déc": 7805,
      "170": 7806,
      "160": 7807,
      "ey": 7808,
      "ìs": 7809,
      "ምሥራቅ": 7810,
      "ሥልጣ": 7811,
      "ቅና": 7812,
      "ቅኝ": 7813,
      "ግንባታ": 7814,
      "nord": 7815,
      "yesu": 7816,
      "sókè": 7817,
      "ቅድመ": 7818,
      "dabbo": 7819,
      "ኮኖሚ": 7820,
      "ọpọlọ": 7821,
      "cial": 7822,
      "cei": 7823,
      "dary": 7824,
      "archite": 7825,
      "ater": 7826,
      "toni": 7827,
      "yọ̀": 7828,
      "ìyàn": 7829,
      "ማው": 7830,
      "ሬን": 7831,
      "ቹን": 7832,
      "ኑሮ": 7833,
      "ከፋ": 7834,
      "duwa": 7835,
      "ge.": 7836,
      "maneno": 7837,
      "መንገ": 7838,
      "akafuatwa": 7839,
      "kòkò": 7840,
      "አልፋ": 7841,
      "mallaka": 7842,
      "takarar": 7843,
      "ክፍላገ": 7844,
      "dashi": 7845,
      "quali": 7846,
      "hous": 7847,
      "(2006)": 7848,
      "américa": 7849,
      ":-": 7850,
      "1955": 7851,
      "scienti": 7852,
      "(3": 7853,
      "heri": 7854,
      "ìyàwó": 7855,
      "ረስ": 7856,
      "ራውያን": 7857,
      "ቡድ": 7858,
      "ዛፍ": 7859,
      "የባ": 7860,
      "ያት": 7861,
      "ድሀ": 7862,
      "ጥቂት": 7863,
      "hungari": 7864,
      "አባቱ": 7865,
      "ananan": 7866,
      "digirin": 7867,
      "non-": 7868,
      "ደጃዝማች": 7869,
      "43": 7870,
      "1922": 7871,
      "miti": 7872,
      "chara": 7873,
      "exten": 7874,
      "ህዝ": 7875,
      "ሕገ": 7876,
      "ሶርያ": 7877,
      "የእንግሊዝ": 7878,
      "ጥል": 7879,
      "ጻፍ": 7880,
      "ጽሁ": 7881,
      "ፊደ": 7882,
      "ọkọ": 7883,
      "ẹ̀dá": 7884,
      "ciya": 7885,
      "muhimman": 7886,
      "2013.": 7887,
      "forces": 7888,
      "unao": 7889,
      "እስራኤል": 7890,
      "pher": 7891,
      "lẹ́hìn": 7892,
      "barabara": 7893,
      "littatta": 7894,
      "ጥያቄ": 7895,
      "tẹ́nìs": 7896,
      "zir": 7897,
      "marri": 7898,
      "gg": 7899,
      "boko": 7900,
      "obinrin": 7901,
      "àpẹ": 7902,
      "ìwà": 7903,
      "አላቸው": 7904,
      "ዲሱ": 7905,
      "sit": 7906,
      "የሚኖር": 7907,
      "appar": 7908,
      "ንግሥት": 7909,
      "dauki": 7910,
      "ndiyo": 7911,
      "kọkànlá": 7912,
      "eosentomon": 7913,
      "ij": 7914,
      "span": 7915,
      "soke": 7916,
      "tangan": 7917,
      "bridge": 7918,
      "partir": 7919,
      "hazi": 7920,
      "anima": 7921,
      "12,": 7922,
      "cally": 7923,
      "sẹ": 7924,
      "wì": 7925,
      "ሳለ": 7926,
      "ቡና": 7927,
      "ተማሪ": 7928,
      "የፈረንሳይ": 7929,
      "‹‹": 7930,
      "masanin": 7931,
      "lim": 7932,
      "paci": 7933,
      "bude": 7934,
      "tarwa": 7935,
      "የሚባል": 7936,
      "protes": 7937,
      "እንዲያ": 7938,
      "ቤተሰብ": 7939,
      "kyautu": 7940,
      "jarida": 7941,
      "firamare": 7942,
      "développe": 7943,
      "(da": 7944,
      "aj": 7945,
      "n;": 7946,
      "spé": 7947,
      "matar": 7948,
      "unin": 7949,
      "doma": 7950,
      "press,": 7951,
      "ifi": 7952,
      "tán": 7953,
      "zane": 7954,
      ")።": 7955,
      "11,": 7956,
      "nusu": 7957,
      "ረፈ": 7958,
      "ሰት": 7959,
      "ታማ": 7960,
      "ከው": 7961,
      "የሐ": 7962,
      "ጻፈው": 7963,
      "››": 7964,
      "dal": 7965,
      "ony": 7966,
      "div": 7967,
      "wọlé": 7968,
      "ilè": 7969,
      "የተቀ": 7970,
      "ንድስና": 7971,
      "1956": 7972,
      "oluko": 7973,
      "igbi": 7974,
      "kasuwancin": 7975,
      "mamaye": 7976,
      "ሚኒስቴ": 7977,
      "sadarwa": 7978,
      "oríṣiríṣi": 7979,
      "ሊቃውንት": 7980,
      "hama": 7981,
      "meth": 7982,
      "sud": 7983,
      "computer": 7984,
      "gà": 7985,
      "hiki": 7986,
      "2012.": 7987,
      "kwarar": 7988,
      "pari": 7989,
      "àsìkò": 7990,
      "መብት": 7991,
      "ሞተ": 7992,
      "ስቲ": 7993,
      "ስሜን": 7994,
      "ቲት": 7995,
      "ነጭ": 7996,
      "የሙ": 7997,
      "ያል።": 7998,
      "lisha": 7999,
      "kuro": 8000,
      "gbọn": 8001,
      "pokea": 8002,
      "zi,": 8003,
      "ነበር፡፡": 8004,
      "ìdín": 8005,
      "ibujoko": 8006,
      "mvua": 8007,
      "òrìṣà": 8008,
      "ወዘተ": 8009,
      "bè": 8010,
      "lieu": 8011,
      "meli": 8012,
      "cos": 8013,
      "1946": 8014,
      "እሳት": 8015,
      "isation": 8016,
      "white": 8017,
      "space": 8018,
      "principa": 8019,
      "cry": 8020,
      "dìí": 8021,
      "ማክ": 8022,
      "ምሌ": 8023,
      "ሰላ": 8024,
      "ካራ": 8025,
      "የፖለቲካ": 8026,
      "ጣሪ": 8027,
      "ṣu": 8028,
      "yada": 8029,
      "sawa": 8030,
      "yaren": 8031,
      "ité": 8032,
      "ስተኛው": 8033,
      "biyu.": 8034,
      "kéde": 8035,
      "afirka.": 8036,
      "onímọ̀": 8037,
      "láàrín": 8038,
      "haihuwa": 8039,
      "(lafazi": 8040,
      "63": 8041,
      "jona": 8042,
      "mn": 8043,
      "mke": 8044,
      "le-": 8045,
      "al,": 8046,
      "hou": 8047,
      "15,": 8048,
      "album": 8049,
      "stron": 8050,
      "homo": 8051,
      "prus": 8052,
      "photo": 8053,
      "(ወይም": 8054,
      "65": 8055,
      "àtò": 8056,
      "ɗe": 8057,
      "ምልክ": 8058,
      "ሮን": 8059,
      "ካከለ": 8060,
      "ዋርያ": 8061,
      "ዝያ": 8062,
      "ይኖ": 8063,
      "ጃፓን": 8064,
      "ጉር": 8065,
      "ጉን": 8066,
      "ጎች": 8067,
      "ars": 8068,
      "hakuna": 8069,
      "dangin": 8070,
      "capita": 8071,
      "የአንድ": 8072,
      "ìjá": 8073,
      "በመስ": 8074,
      "zamantake": 8075,
      "tattauna": 8076,
      "ዋንጫ": 8077,
      "ገበያ": 8078,
      "ng'": 8079,
      "(as": 8080,
      "(au": 8081,
      "diver": 8082,
      "rasi": 8083,
      "wealth": 8084,
      "16,": 8085,
      "1947": 8086,
      "[[": 8087,
      "1923": 8088,
      "read": 8089,
      "celle": 8090,
      "stor": 8091,
      "sensa": 8092,
      "logie": 8093,
      "différent": 8094,
      "ሄደ": 8095,
      "መዘ": 8096,
      "በታሪክ": 8097,
      "በጥንታዊ": 8098,
      "ወላ": 8099,
      "ዚያን": 8100,
      "ፋል": 8101,
      "lee": 8102,
      "alitokea": 8103,
      "látà": 8104,
      "የተወሰ": 8105,
      "adú": 8106,
      "tsakiya": 8107,
      "zulu": 8108,
      "000.": 8109,
      "ስታን": 8110,
      "በሰሜን": 8111,
      "láàá": 8112,
      "ፖርቱ": 8113,
      "bamba": 8114,
      "langa": 8115,
      "soit": 8116,
      "2009.": 8117,
      "conser": 8118,
      "ority": 8119,
      "proper": 8120,
      "mori": 8121,
      "pto": 8122,
      "pungu": 8123,
      "ulu": 8124,
      "መምህ": 8125,
      "ሞላ": 8126,
      "ሣይ": 8127,
      "ቀለ": 8128,
      "በሉ": 8129,
      "ቶን": 8130,
      "ዝግ": 8131,
      "የ«": 8132,
      "ጨት": 8133,
      "wanyama": 8134,
      "capi": 8135,
      "የሚጠ": 8136,
      "lls": 8137,
      "lyn": 8138,
      "turuki": 8139,
      "ነበር፤": 8140,
      "kyau": 8141,
      "bran": 8142,
      "ndu": 8143,
      "own": 8144,
      "sand": 8145,
      "ón": 8146,
      "live": 8147,
      "600": 8148,
      "var": 8149,
      "amatsayin": 8150,
      "ccen": 8151,
      "dr.": 8152,
      "ome": 8153,
      "ልን": 8154,
      "የቻይና": 8155,
      "ያላ": 8156,
      "bayana": 8157,
      "lei": 8158,
      "tous": 8159,
      "gudun": 8160,
      "nomba": 8161,
      "huɗu": 8162,
      "phon": 8163,
      "1949": 8164,
      "አልፎ": 8165,
      "gudanarwa": 8166,
      "መቀመጫ": 8167,
      "demokrasia": 8168,
      "bala": 8169,
      "celui": 8170,
      "buri": 8171,
      "shai": 8172,
      "hao": 8173,
      "often": 8174,
      "mann": 8175,
      "llan": 8176,
      "référen": 8177,
      "mọd": 8178,
      "ለዋል።": 8179,
      "ሊት": 8180,
      "ምድ": 8181,
      "በክ": 8182,
      "በፍ": 8183,
      "ተወለደ": 8184,
      "ንተ": 8185,
      "የእግዚአብሔር": 8186,
      "የግብጽ": 8187,
      "ዶን": 8188,
      "birin": 8189,
      "mother": 8190,
      "kansu": 8191,
      "alizaliwa": 8192,
      "shekarar,": 8193,
      "ኢትዮጵያዊ": 8194,
      "yìí,": 8195,
      "አስተዋ": 8196,
      "መካከለ": 8197,
      "ስርዓት": 8198,
      "side": 8199,
      "2021": 8200,
      "mou": 8201,
      "birth": 8202,
      "certains": 8203,
      "92": 8204,
      "model": 8205,
      "état": 8206,
      "business": 8207,
      "sọ̀rọ̀": 8208,
      "ƙananan": 8209,
      "ተስፋ": 8210,
      "ትኩ": 8211,
      "ችሉ": 8212,
      "ኒት": 8213,
      "ፈቃ": 8214,
      "tashi": 8215,
      "wel": 8216,
      "የአለም": 8217,
      "adá": 8218,
      "ellement": 8219,
      "በአንዳንድ": 8220,
      "1951": 8221,
      "ዘመናት": 8222,
      "okùn": 8223,
      "jamus": 8224,
      "ስምምነት": 8225,
      "ምክር": 8226,
      "villa": 8227,
      "መነሻ": 8228,
      "although": 8229,
      "ino": 8230,
      "bed": 8231,
      "défini": 8232,
      "aa": 8233,
      "tibu": 8234,
      "board": 8235,
      "malawi": 8236,
      "-ò": 8237,
      "msa": 8238,
      "v,": 8239,
      "ለአ": 8240,
      "መጽ": 8241,
      "ረር": 8242,
      "ተገ": 8243,
      "አነጋ": 8244,
      "ዞን": 8245,
      "የጎ": 8246,
      "ያተ": 8247,
      "ዮት": 8248,
      "ግና": 8249,
      "kulob": 8250,
      "hidi": 8251,
      "mijin": 8252,
      "ríà": 8253,
      "ወረራ": 8254,
      "múlẹ̀": 8255,
      "olùdá": 8256,
      "uislamu": 8257,
      "ghana.": 8258,
      "sauransu.": 8259,
      "https": 8260,
      "fina-finan": 8261,
      "jean-": 8262,
      "dana": 8263,
      "guar": 8264,
      "nations": 8265,
      "club": 8266,
      "-un": 8267,
      "dùn": 8268,
      "mdogo": 8269,
      "ሠብ": 8270,
      "ሳቸውን": 8271,
      "ንጥረ": 8272,
      "እጽዋት": 8273,
      "ከላይ": 8274,
      "ከአንድ": 8275,
      "hifa": 8276,
      "lásìkò": 8277,
      "julọ": 8278,
      "በት።": 8279,
      "muse": 8280,
      "አስፈላጊ": 8281,
      "urefu": 8282,
      "political": 8283,
      "ባህላዊ": 8284,
      "ገለግ": 8285,
      "hukumomi": 8286,
      "agbábọ́ọ̀lù": 8287,
      "áfíríkà": 8288,
      "yẹ̀wò": 8289,
      "wikipedia.": 8290,
      "pona": 8291,
      "ashi": 8292,
      "connu": 8293,
      "société": 8294,
      "squ": 8295,
      "lio": 8296,
      "so,": 8297,
      "usale": 8298,
      "emplo": 8299,
      "jìdín": 8300,
      "tù": 8301,
      "ቀደም": 8302,
      "በኩ": 8303,
      "በጎ": 8304,
      "ተኞች": 8305,
      "እኛ": 8306,
      "የሥ": 8307,
      "ṣì": 8308,
      "jac": 8309,
      "kwallaye": 8310,
      "yarda": 8311,
      "shiriki": 8312,
      "የተነሳ": 8313,
      "adini": 8314,
      "donc": 8315,
      "tropi": 8316,
      "kẹrìn": 8317,
      "በርግ": 8318,
      "-oòrùn": 8319,
      "àkókò": 8320,
      "ነጻነት": 8321,
      "ቀዳማዊ": 8322,
      "jiragen": 8323,
      "masana'antar": 8324,
      "መዋዕል": 8325,
      "binadamu": 8326,
      "research": 8327,
      "látàrí": 8328,
      "kle": 8329,
      "20,": 8330,
      "down": 8331,
      "cum": 8332,
      "ez": 8333,
      "gama": 8334,
      "commen": 8335,
      "sultani": 8336,
      "yẹ́": 8337,
      "ሞቱ": 8338,
      "ስታት": 8339,
      "በድ": 8340,
      "እራ": 8341,
      "እዚህ": 8342,
      "ውና": 8343,
      "ọkan": 8344,
      "kidogo": 8345,
      "jijini": 8346,
      "wananchi": 8347,
      "yed": 8348,
      "huitwa": 8349,
      "fungu": 8350,
      "exter": 8351,
      "ambalo": 8352,
      "ambaye": 8353,
      "stein": 8354,
      "mashariki.": 8355,
      "waɗannan": 8356,
      "አሜሪካዊ": 8357,
      "tẹ́lẹ̀.": 8358,
      "council": 8359,
      "bani": 8360,
      "kada": 8361,
      "local": 8362,
      "clima": 8363,
      "undi": 8364,
      "ref": 8365,
      "rome": 8366,
      "road": 8367,
      "thes": 8368,
      "(2003)": 8369,
      "video": 8370,
      "activi": 8371,
      "llu": 8372,
      "ልጋ": 8373,
      "በባ": 8374,
      "ተሸ": 8375,
      "ና።": 8376,
      "ከን": 8377,
      "kasan": 8378,
      "mato": 8379,
      "mapapa": 8380,
      "comb": 8381,
      "gidi": 8382,
      "alichunguza": 8383,
      "sínú": 8384,
      "እንደነበር": 8385,
      "yake,": 8386,
      "ታወቀ": 8387,
      "olùkọ́": 8388,
      "ተቀም": 8389,
      "ጣልያ": 8390,
      "mwendo": 8391,
      "መሣሪያ": 8392,
      "inté": 8393,
      "page": 8394,
      "adri": 8395,
      "d'autres": 8396,
      "european": 8397,
      "(14": 8398,
      "victor": 8399,
      "fonction": 8400,
      "awali": 8401,
      "kín": 8402,
      "nga": 8403,
      "nent": 8404,
      "odi": 8405,
      "yò": 8406,
      "ላቅ": 8407,
      "ልጆ": 8408,
      "ልምና": 8409,
      "ስሊ": 8410,
      "ተባለ": 8411,
      "haɓ": 8412,
      "gbí": 8413,
      "ambi": 8414,
      "jemi": 8415,
      "hard": 8416,
      "res,": 8417,
      "አስቀድሞ": 8418,
      "ይገመ": 8419,
      "jama'": 8420,
      "dàgbà": 8421,
      "òṣèrékùnrin": 8422,
      "ahmed": 8423,
      "ግራም": 8424,
      "andika": 8425,
      "sokoto": 8426,
      "lànà": 8427,
      "jonathan": 8428,
      "fm,": 8429,
      "jur": 8430,
      "secre": 8431,
      "eastern": 8432,
      "kwar": 8433,
      "ît": 8434,
      "occu": 8435,
      "current": 8436,
      "technology": 8437,
      "furu": 8438,
      "ìṣè": 8439,
      "òní": 8440,
      "ለምን": 8441,
      "ተገኝ": 8442,
      "tabia": 8443,
      "named": 8444,
      "or,": 8445,
      "miran": 8446,
      "fika": 8447,
      "kola": 8448,
      "fawa": 8449,
      "kwatar": 8450,
      "young": 8451,
      "rukun": 8452,
      "proces": 8453,
      "shughu": 8454,
      "1953": 8455,
      "ologun": 8456,
      "girman": 8457,
      "kyawun": 8458,
      "shari'a": 8459,
      "hifadhi": 8460,
      "ambo": 8461,
      "1939": 8462,
      "gregori": 8463,
      "bit": 8464,
      "20.": 8465,
      "colon": 8466,
      "song": 8467,
      "corpor": 8468,
      "considé": 8469,
      "angola": 8470,
      "according": 8471,
      "railway": 8472,
      "ndio": 8473,
      "swi": 8474,
      "ለህ": 8475,
      "መተ": 8476,
      "መኮ": 8477,
      "ሰኔ": 8478,
      "ሰፊ": 8479,
      "ስነ": 8480,
      "እያለ": 8481,
      "ፉ።": 8482,
      "ፍላ": 8483,
      "ṣọ́": 8484,
      "living": 8485,
      "tocin": 8486,
      "sitì": 8487,
      "mikoa": 8488,
      "tunan": 8489,
      "በመቀ": 8490,
      "በመጽሐ": 8491,
      "ጀመር": 8492,
      "fransis": 8493,
      "mwamba": 8494,
      "kasuwa": 8495,
      "መሠረተ": 8496,
      "ይሆናል": 8497,
      "côte": 8498,
      "mazingi": 8499,
      "አልፋቤት": 8500,
      "cing": 8501,
      "rer": 8502,
      "bah": 8503,
      "fata": 8504,
      "champion": 8505,
      "kalu": 8506,
      "assemb": 8507,
      "fort": 8508,
      "d'i": 8509,
      "système": 8510,
      "cau": 8511,
      "ርሱም": 8512,
      "ቆብ": 8513,
      "ናገር": 8514,
      "አጼ": 8515,
      "የጥን": 8516,
      "ጨለማ": 8517,
      "anar": 8518,
      "max": 8519,
      "enga": 8520,
      "kiru": 8521,
      "kikubwa": 8522,
      "co,": 8523,
      "pokuwa": 8524,
      "ነው፣": 8525,
      "2002,": 8526,
      "kanada": 8527,
      "nationale": 8528,
      "trálíà": 8529,
      "አብዛኛው": 8530,
      "austrálíà": 8531,
      "ድምጽ": 8532,
      "àmì-ẹ̀yẹ": 8533,
      "hesabu": 8534,
      "ውድድር": 8535,
      "ስለሆነም": 8536,
      "ይርላንድ": 8537,
      "ordina": 8538,
      "mid": 8539,
      "ric": 8540,
      "kolo": 8541,
      "républi": 8542,
      "abba": 8543,
      "record": 8544,
      "nyan": 8545,
      "pages": 8546,
      "coast": 8547,
      "sanjo": 8548,
      "médi": 8549,
      "undwa": 8550,
      "-ኢ": 8551,
      "-ẹ̀kọ́": 8552,
      "vas": 8553,
      "ሃም": 8554,
      "ምሩ": 8555,
      "ቀም": 8556,
      "ትስ": 8557,
      "ትዕ": 8558,
      "ነሐሴ": 8559,
      "ና፡": 8560,
      "ዩት": 8561,
      "waandishi": 8562,
      "kute": 8563,
      "kurú": 8564,
      "seu": 8565,
      "mos": 8566,
      "karo": 8567,
      "shiyar": 8568,
      "ለውጥ": 8569,
      "dinkin": 8570,
      "matsayi": 8571,
      "asilia": 8572,
      "kòó": 8573,
      "kúkurú": 8574,
      "mẹ́rin": 8575,
      "wiki/": 8576,
      "àṣàyàn": 8577,
      "ፕሬዚዳንት": 8578,
      "ትውልድ": 8579,
      "aw": 8580,
      "health": 8581,
      "mika": 8582,
      "vien": 8583,
      "donné": 8584,
      "1954": 8585,
      "larin": 8586,
      "different": 8587,
      "orthodo": 8588,
      "(12": 8589,
      "800": 8590,
      "test": 8591,
      "mamla": 8592,
      "tasi": 8593,
      "mediter": 8594,
      "utilisé": 8595,
      "https://": 8596,
      "-ሲን": 8597,
      "ikiwa": 8598,
      "ሆኗ": 8599,
      "ላህ": 8600,
      "መሃ": 8601,
      "መሆን": 8602,
      "ምግብ": 8603,
      "ብሄ": 8604,
      "ብረተ": 8605,
      "ችሎ": 8606,
      "የጦር": 8607,
      "ዳይ": 8608,
      "kiwon": 8609,
      "በአማርኛ": 8610,
      "ከተማዋ": 8611,
      "nìkan": 8612,
      "ርትራ": 8613,
      "እንዳይ": 8614,
      "rubutu": 8615,
      "ይታመ": 8616,
      "ሰማይ": 8617,
      "hakkin": 8618,
      "org/wiki/": 8619,
      "ተጫዋ": 8620,
      "ìlera": 8621,
      "%),": 8622,
      "baka": 8623,
      "frança": 8624,
      "suppor": 8625,
      "mku": 8626,
      "poland": 8627,
      "syl": 8628,
      "ground": 8629,
      "-አ": 8630,
      "gand": 8631,
      "kware": 8632,
      "wuri": 8633,
      "ሃያ": 8634,
      "ልዑ": 8635,
      "ሣሥ": 8636,
      "ረጅም": 8637,
      "ስጋ": 8638,
      "አጠቃላይ": 8639,
      "ዳኛ": 8640,
      "፳፻": 8641,
      "bakin": 8642,
      "kano,": 8643,
      "የሚባለው": 8644,
      "yanayo": 8645,
      "sions": 8646,
      "mutuwan": 8647,
      "ahmadu": 8648,
      "ፕሬዚደን": 8649,
      "kituo": 8650,
      "yarjejeni": 8651,
      "eye": 8652,
      "coloni": 8653,
      "among": 8654,
      "obser": 8655,
      "ologie": 8656,
      "entertain": 8657,
      "oni.": 8658,
      "green": 8659,
      "important": 8660,
      "engineer": 8661,
      "69": 8662,
      "gli": 8663,
      "àṣẹ": 8664,
      "ƙe": 8665,
      "ሆናቸው": 8666,
      "ችኹ": 8667,
      "ዲት": 8668,
      "real": 8669,
      "beli": 8670,
      "tsaro": 8671,
      "የሚሰ": 8672,
      "linalo": 8673,
      "duniani.": 8674,
      "within": 8675,
      "lọ́jọ́": 8676,
      "በኋላም": 8677,
      "southern": 8678,
      "ሌላው": 8679,
      "zamanin": 8680,
      "al'adun": 8681,
      "lissafi": 8682,
      "-iwe": 8683,
      "haihuwar": 8684,
      "ìtumò:": 8685,
      "fabrairu": 8686,
      "encore": 8687,
      "koya": 8688,
      "trie": 8689,
      "daniel": 8690,
      "organization": 8691,
      "guri": 8692,
      "zone": 8693,
      "trouve": 8694,
      "(),": 8695,
      "gho": 8696,
      "ሄዱ": 8697,
      "መግ": 8698,
      "ርዝ": 8699,
      "በህ": 8700,
      "ተም": 8701,
      "ተባ": 8702,
      "ናይ": 8703,
      "ዥን": 8704,
      "ያዕ": 8705,
      "ደቅ": 8706,
      "ọna": 8707,
      "tali": 8708,
      "rain": 8709,
      "የአሦር": 8710,
      "kasashe": 8711,
      "ድረስ፣": 8712,
      "mwingine": 8713,
      "afirka,": 8714,
      "ለን።": 8715,
      "ተራሮች": 8716,
      "የኤሌክትሪክ": 8717,
      "ርቶዶ": 8718,
      "ይገመታል።": 8719,
      "-century": 8720,
      "1/": 8721,
      "osi": 8722,
      "israeli": 8723,
      "(4": 8724,
      "):": 8725,
      "52": 8726,
      "aku": 8727,
      "ctu": 8728,
      "deri": 8729,
      "equ": 8730,
      "yusu": 8731,
      "kuri": 8732,
      "brown": 8733,
      "azer": 8734,
      "(pia": 8735,
      "መቃ": 8736,
      "በለ": 8737,
      "ቡን": 8738,
      "ተዛ": 8739,
      "ቱት": 8740,
      "አደ": 8741,
      "አማርኛ": 8742,
      "kala": 8743,
      "haja": 8744,
      "karɓ": 8745,
      "የሚፈ": 8746,
      "wide": 8747,
      "aikata": 8748,
      "gbajumo": 8749,
      "márùn": 8750,
      "nigeria,": 8751,
      "idije": 8752,
      "ግብፅ": 8753,
      "wake.": 8754,
      "ይገኛሉ።": 8755,
      "wuraren": 8756,
      "ፕሬዝ": 8757,
      "journal": 8758,
      "atlantiki": 8759,
      "እንስሳት": 8760,
      "sources": 8761,
      "wakiltar": 8762,
      "àjàkálẹ̀": 8763,
      "ብሪታንያ": 8764,
      "አንቀጽ": 8765,
      "koro": 8766,
      "rwanda": 8767,
      "’s": 8768,
      "eren": 8769,
      "died": 8770,
      "uso": 8771,
      "chemis": 8772,
      "2020.": 8773,
      "jis": 8774,
      "urin": 8775,
      "aient": 8776,
      "camp": 8777,
      "washington": 8778,
      "gré": 8779,
      "mrefu": 8780,
      "nisha": 8781,
      "ራው": 8782,
      "ሰዓት": 8783,
      "ሻሻ": 8784,
      "እርስ": 8785,
      "የደ": 8786,
      "ይመ": 8787,
      "ጤና": 8788,
      "kaza": 8789,
      "orilẹ": 8790,
      "kil": 8791,
      "using": 8792,
      "faa": 8793,
      "itọ": 8794,
      "ƙashin": 8795,
      "እንግሊዝኛ:": 8796,
      "ፈረንሣይ": 8797,
      "ongoza": 8798,
      "girmamawa": 8799,
      "ƙungi": 8800,
      "የግሪክ": 8801,
      "image": 8802,
      "rd1-score": 8803,
      "978-": 8804,
      "ውቅያኖስ": 8805,
      "mazingira": 8806,
      "p)": 8807,
      "lo,": 8808,
      "chica": 8809,
      "llah": 8810,
      "s-": 8811,
      "xes": 8812,
      "sif": 8813,
      "tely": 8814,
      "bill": 8815,
      "chap": 8816,
      "17,": 8817,
      "bora": 8818,
      "angli": 8819,
      "particuli": 8820,
      "agusta": 8821,
      "gouver": 8822,
      "sọ́": 8823,
      "x.": 8824,
      "àwùjọ": 8825,
      "ምስራቅ": 8826,
      "ኅሣሥ": 8827,
      "የሁ": 8828,
      "ዳት": 8829,
      "kampuni": 8830,
      "maanisha": 8831,
      "ungiyar": 8832,
      "laarin": 8833,
      "kiwan": 8834,
      "kijeshi": 8835,
      "kiislamu": 8836,
      "rock": 8837,
      "padri": 8838,
      "yeye": 8839,
      "የአገ": 8840,
      "descri": 8841,
      "shawarar": 8842,
      "indivi": 8843,
      "garuru": 8844,
      "burtaniya": 8845,
      "ማለትም": 8846,
      "mẹ́rìn": 8847,
      "ሚያዝያ": 8848,
      "ፍጥነት": 8849,
      "እስካሁን": 8850,
      "kòkòrò": 8851,
      "étu": 8852,
      "is.": 8853,
      "1913": 8854,
      "mental": 8855,
      "ness": 8856,
      "literat": 8857,
      "odu": 8858,
      "rita": 8859,
      "momi": 8860,
      "dos": 8861,
      "183": 8862,
      "desig": 8863,
      "afghan": 8864,
      "massa": 8865,
      "(mshindi": 8866,
      "11.": 8867,
      "okan": 8868,
      "tse": 8869,
      "uzi": 8870,
      "épo": 8871,
      "ìta": 8872,
      "ìtàgé": 8873,
      "ògún": 8874,
      "ብረ": 8875,
      "አለመ": 8876,
      "ክፉ": 8877,
      "የእግር": 8878,
      "የጣልያን": 8879,
      "ፌዴ": 8880,
      "erial": 8881,
      "hispani": 8882,
      "ይህንን": 8883,
      "trava": 8884,
      "የመሬት": 8885,
      "ለመጀመሪያ": 8886,
      "olominira": 8887,
      "በሚል": 8888,
      "volken": 8889,
      "uingereza.": 8890,
      "ትልቁ": 8891,
      "ዛሬው": 8892,
      "virgini": 8893,
      "mukamin": 8894,
      "tẹlifíṣ": 8895,
      "mọdé": 8896,
      "\"a": 8897,
      "rho": 8898,
      "œu": 8899,
      "instru": 8900,
      "isti": 8901,
      "thè": 8902,
      "l'ar": 8903,
      "ija": 8904,
      "ngo": 8905,
      "tanni": 8906,
      "2019)": 8907,
      "jaru": 8908,
      "foundation": 8909,
      "mamlaka": 8910,
      "53": 8911,
      "fìdí": 8912,
      "frán": 8913,
      "mtun": 8914,
      "nǹkan": 8915,
      "smi": 8916,
      "ìf": 8917,
      "ሞስ": 8918,
      "ርቀት": 8919,
      "ስፒ": 8920,
      "ተጨማሪ": 8921,
      "ካለ": 8922,
      "ድቅ": 8923,
      "ጉዞ": 8924,
      "ፍተ": 8925,
      "sauti": 8926,
      "sababisha": 8927,
      "kitovu": 8928,
      "kitaifa": 8929,
      "fiadini": 8930,
      "mo,": 8931,
      "faire": 8932,
      "yii": 8933,
      "2008.": 8934,
      "በአፍ": 8935,
      "mtoto": 8936,
      "olùgbé": 8937,
      "musulmi": 8938,
      "hassan": 8939,
      "elizabe": 8940,
      "aṣòfin": 8941,
      "èkó.": 8942,
      "rd1-score0": 8943,
      "የካቲት": 8944,
      "የእስፓንያ": 8945,
      "al'umma": 8946,
      "standard": 8947,
      "children": 8948,
      "ውጤት": 8949,
      "example": 8950,
      "unganisha": 8951,
      "አሉት።": 8952,
      "(7": 8953,
      "magi": 8954,
      "lala": 8955,
      "nata": 8956,
      "mole": 8957,
      "terme": 8958,
      "mond": 8959,
      "toute": 8960,
      "41": 8961,
      "oi": 8962,
      "tants": 8963,
      "tée": 8964,
      "eff": 8965,
      "kìtì": 8966,
      "ufi": 8967,
      "ሕን": 8968,
      "ስፍራ": 8969,
      "በ15": 8970,
      "ቢያን": 8971,
      "ክላ": 8972,
      "inno": 8973,
      "native": 8974,
      "1928": 8975,
      "ọ̀jọ̀": 8976,
      "zime": 8977,
      "paris,": 8978,
      "sarrafa": 8979,
      "abú": 8980,
      "ድርጊ": 8981,
      "ደረግ": 8982,
      "nijeriya,": 8983,
      "amurka,": 8984,
      "ተወላ": 8985,
      "kando": 8986,
      "gẹgẹ": 8987,
      "kayayya": 8988,
      "daidai": 8989,
      "yarjejeniyar": 8990,
      "93": 8991,
      "msu": 8992,
      "lato": 8993,
      "issu": 8994,
      "ofu": 8995,
      "began": 8996,
      "guil": 8997,
      "monde": 8998,
      "le)": 8999,
      "alis": 9000,
      "ment.": 9001,
      "lands": 9002,
      "1943": 9003,
      "sciences": 9004,
      "azerbai": 9005,
      "cris": 9006,
      "لَ": 9007,
      "ሕል": 9008,
      "ቃት": 9009,
      "ተለ": 9010,
      "ጃም": 9011,
      "ግዳ": 9012,
      "19,": 9013,
      "tea": 9014,
      "የተገኘ": 9015,
      "lines": 9016,
      "shuka": 9017,
      "matsayinta": 9018,
      "ibù": 9019,
      "jengwa": 9020,
      "wakili": 9021,
      "አስተሳ": 9022,
      "mpira": 9023,
      "ይልቅ": 9024,
      "amurka.": 9025,
      "kataba": 9026,
      "ብሔረ": 9027,
      "ፍጥረት": 9028,
      "nyumba": 9029,
      "ፓርቲዎች": 9030,
      "ጀመረ።": 9031,
      "wikipedia.org/wiki/": 9032,
      "élé": 9033,
      "ête": 9034,
      "annu": 9035,
      "sier": 9036,
      "ga-": 9037,
      "peace": 9038,
      "no.": 9039,
      "bisi": 9040,
      "e)": 9041,
      "jor": 9042,
      "insta": 9043,
      "wako": 9044,
      "kadan": 9045,
      "isé": 9046,
      "ere,": 9047,
      "secondary": 9048,
      "azu": 9049,
      "mchan": 9050,
      "u-": 9051,
      "ሮሜ": 9052,
      "በእስ": 9053,
      "ነሽ": 9054,
      "የፀ": 9055,
      "ይነገ": 9056,
      "ዱን": 9057,
      "bamban": 9058,
      "dokokin": 9059,
      "ሳሌም": 9060,
      "formed": 9061,
      "አንዳን": 9062,
      "ayọ": 9063,
      "farko,": 9064,
      "vention": 9065,
      "የሚገኘው": 9066,
      "፲፱፻፵": 9067,
      "published": 9068,
      "obasanjo": 9069,
      "gurbin": 9070,
      "mahaifinta": 9071,
      "ያያዣ": 9072,
      "ክፍላገራት": 9073,
      "nk": 9074,
      "hal": 9075,
      "def": 9076,
      "japon": 9077,
      "japona": 9078,
      "ched": 9079,
      "ancien": 9080,
      "iraq": 9081,
      "possible": 9082,
      "indonesi": 9083,
      "ela": 9084,
      "relati": 9085,
      "des,": 9086,
      "désig": 9087,
      "vol.": 9088,
      "profession": 9089,
      "élect": 9090,
      "ires": 9091,
      "kẹ̀": 9092,
      "ukristo": 9093,
      "ìlànà": 9094,
      "òkun": 9095,
      "ńì": 9096,
      "ሁንም": 9097,
      "ሮሞ": 9098,
      "ተመለ": 9099,
      "ዜማ": 9100,
      "የቅ": 9101,
      "tumo": 9102,
      "guay": 9103,
      "shahara": 9104,
      "ስተዳ": 9105,
      "matumizi": 9106,
      "sanata": 9107,
      "ገኙት": 9108,
      "ሮማይስጥ": 9109,
      "በተጨማሪም": 9110,
      "ƙaramar": 9111,
      "soft": 9112,
      "ቴክኖ": 9113,
      "ሲቀሩ": 9114,
      "ndugu": 9115,
      "መኮንን": 9116,
      "fránsì": 9117,
      "-n": 9118,
      "udi": 9119,
      "sid": 9120,
      "review": 9121,
      "pole": 9122,
      "blan": 9123,
      "baban": 9124,
      "rawa": 9125,
      "along": 9126,
      "arifa": 9127,
      "correspon": 9128,
      "films": 9129,
      "religion": 9130,
      "studies": 9131,
      "afiri": 9132,
      "igbe": 9133,
      "ሉ፣": 9134,
      "መሪዎች": 9135,
      "ሰላም": 9136,
      "ሴማዊ": 9137,
      "ቅረብ": 9138,
      "በጠ": 9139,
      "ነስ": 9140,
      "የሶ": 9141,
      "maende": 9142,
      "kile": 9143,
      "zafi": 9144,
      "pimo": 9145,
      "የአን": 9146,
      "congo": 9147,
      "sha'a": 9148,
      "sunna": 9149,
      "rẹ,": 9150,
      "'yancin": 9151,
      "ƙarƙashin": 9152,
      "ምዕራፍ": 9153,
      "akọkọ": 9154,
      "scot": 9155,
      "መሳሪያ": 9156,
      "original": 9157,
      "ጨዋታ": 9158,
      "litté": 9159,
      "bayanai": 9160,
      "fransisko": 9161,
      "safari": 9162,
      "miya": 9163,
      "milan": 9164,
      "d's": 9165,
      "fano": 9166,
      "cultural": 9167,
      "”.": 9168,
      "nad": 9169,
      "peup": 9170,
      "bola": 9171,
      "afro": 9172,
      "ared": 9173,
      "14,": 9174,
      "marie": 9175,
      "b)": 9176,
      "f,": 9177,
      "gest": 9178,
      "igbá": 9179,
      "ሎችን": 9180,
      "ሠሩ": 9181,
      "ሩስ": 9182,
      "በዋና": 9183,
      "ፊው": 9184,
      "ma'a": 9185,
      "ison": 9186,
      "alƙ": 9187,
      "gio": 9188,
      "katiba": 9189,
      "tseren": 9190,
      "harkar": 9191,
      "ነገሥቱ": 9192,
      "ishaji": 9193,
      "kilicho": 9194,
      "college,": 9195,
      "ምህንድስና": 9196,
      "kungiyoyin": 9197,
      "husiano": 9198,
      "miezi": 9199,
      "sabuwar": 9200,
      "rukunin": 9201,
      "lay": 9202,
      "urban": 9203,
      "luck": 9204,
      "how": 9205,
      "show": 9206,
      "another": 9207,
      "tambu": 9208,
      "mel": 9209,
      "el-": 9210,
      "references": 9211,
      "mkon": 9212,
      "ሆና": 9213,
      "ማል።": 9214,
      "በቆ": 9215,
      "ያሉት": 9216,
      "bad": 9217,
      "santa": 9218,
      "የሚታ": 9219,
      "በአብ": 9220,
      "መንግሥ": 9221,
      "carol": 9222,
      "እርግጥ": 9223,
      "ወለድ": 9224,
      "ደረገ።": 9225,
      "ግድም)": 9226,
      "ongeze": 9227,
      "በታች": 9228,
      "ዕድሜ": 9229,
      "small": 9230,
      "káàkiri": 9231,
      "ሚኒስቴር": 9232,
      "ፕሬዚደንት": 9233,
      "ayo": 9234,
      "alba": 9235,
      "jou": 9236,
      "(2007)": 9237,
      "people's": 9238,
      "industri": 9239,
      "charac": 9240,
      "ole": 9241,
      "rand": 9242,
      "maye": 9243,
      "je,": 9244,
      "2005.": 9245,
      "structur": 9246,
      "include": 9247,
      "awu": 9248,
      "fisi": 9249,
      "sise": 9250,
      "ለሰው": 9251,
      "ረድ": 9252,
      "ኅዳር": 9253,
      "አግኝ": 9254,
      "የታሪክ": 9255,
      "wazungu": 9256,
      "madola": 9257,
      "ingili": 9258,
      "bos": 9259,
      "orílè": 9260,
      "wanasiasa": 9261,
      "jam’i": 9262,
      "አብር": 9263,
      "aikinta": 9264,
      "ጠቃሚ": 9265,
      "በግሪክ": 9266,
      "fesa": 9267,
      "dalilin": 9268,
      "መጀመርያው": 9269,
      "satumba": 9270,
      "ìjẹ̀bú": 9271,
      "àtòjọ": 9272,
      "ርቶዶክስ": 9273,
      "94": 9274,
      "begin": 9275,
      "tes.": 9276,
      "12.": 9277,
      "opera": 9278,
      "',": 9279,
      "76": 9280,
      "mko": 9281,
      "mikuu": 9282,
      "tua": 9283,
      "onia": 9284,
      "s.a.": 9285,
      "berlin": 9286,
      "encyclo": 9287,
      "n'est": 9288,
      "ሩክ": 9289,
      "ቁም": 9290,
      "ነዉ": 9291,
      "ኛ፣": 9292,
      "ọjà": 9293,
      "ense": 9294,
      "we.": 9295,
      "wakatoliki": 9296,
      "lantar": 9297,
      "odù": 9298,
      "ነበር፣": 9299,
      "iyayen": 9300,
      "minister": 9301,
      "akẹ́": 9302,
      "ተመራ": 9303,
      "መሰረ": 9304,
      "àkójọ": 9305,
      "en.wikipedia.org/wiki/": 9306,
      "article": 9307,
      "àpẹẹrẹ": 9308,
      "method": 9309,
      "abúlé": 9310,
      "alfred": 9311,
      "right": 9312,
      "soli": 9313,
      "warsa": 9314,
      "woman": 9315,
      "compa": 9316,
      "chel": 9317,
      "valent": 9318,
      "title": 9319,
      "yya,": 9320,
      "urar": 9321,
      "dole": 9322,
      "noun": 9323,
      "capital": 9324,
      "-án": 9325,
      "avoir": 9326,
      "nù": 9327,
      "àwo": 9328,
      "ìṣà": 9329,
      "ራይ": 9330,
      "ቋሚ": 9331,
      "በዘ": 9332,
      "በሩት": 9333,
      "ዛም": 9334,
      "የጠ": 9335,
      "ፐር": 9336,
      "magan": 9337,
      "kufu": 9338,
      "dit": 9339,
      "mett": 9340,
      "momin": 9341,
      "ọ̀dọ̀": 9342,
      "addition": 9343,
      "tino": 9344,
      "misali": 9345,
      "ዘመድ": 9346,
      "1937": 9347,
      "kisasa": 9348,
      "ታወቅ": 9349,
      "ibẹ̀": 9350,
      "፲፱፻፳": 9351,
      "lingana": 9352,
      "uhindi": 9353,
      "kupitia": 9354,
      "(sa": 9355,
      "vene": 9356,
      "incre": 9357,
      "rah": 9358,
      "schol": 9359,
      "gare": 9360,
      "ku,": 9361,
      "zi.": 9362,
      "denmark": 9363,
      "know": 9364,
      "profile": 9365,
      "olympics": 9366,
      "every": 9367,
      "àmọ́": 9368,
      "àwòrán": 9369,
      "ለቅ": 9370,
      "ለቆ": 9371,
      "ሚስ": 9372,
      "ሶስ": 9373,
      "ተክለ": 9374,
      "ችግር": 9375,
      "የዋ": 9376,
      "ይዛ": 9377,
      "ጎል": 9378,
      "ጣጣ": 9379,
      "kamili": 9380,
      "ensemble": 9381,
      "rivers": 9382,
      "kewa": 9383,
      "lo.": 9384,
      "wiwa": 9385,
      "lọwọ": 9386,
      "miss": 9387,
      "distribu": 9388,
      "olóyè": 9389,
      "carbon": 9390,
      "sarakunan": 9391,
      "goro": 9392,
      "oníṣ": 9393,
      "lẹhin": 9394,
      "ሥነ-": 9395,
      "governor": 9396,
      "ብሔሮች": 9397,
      "mtume": 9398,
      "(እንግሊዝኛ)": 9399,
      "ስድስት": 9400,
      "golden": 9401,
      "jumuiya": 9402,
      "ይታመናል።": 9403,
      "ae": 9404,
      "guna": 9405,
      "tail": 9406,
      "lat": 9407,
      "zauna": 9408,
      "gber": 9409,
      "solo": 9410,
      "align": 9411,
      "2005,": 9412,
      "advan": 9413,
      "respe": 9414,
      "samuel": 9415,
      "seur": 9416,
      "umbo": 9417,
      "nant": 9418,
      "télé": 9419,
      "iron": 9420,
      "plateau": 9421,
      "taient": 9422,
      "(cc": 9423,
      "magaz": 9424,
      "ikh": 9425,
      "zer": 9426,
      "ìṣèlú": 9427,
      "ሕይወ": 9428,
      "ሠረተ": 9429,
      "በራዊ": 9430,
      "ተከተ": 9431,
      "ኃይ": 9432,
      "ና፣": 9433,
      "አዊ": 9434,
      "ወዲ": 9435,
      "li.": 9436,
      "kupata": 9437,
      "kiris": 9438,
      "1910": 9439,
      "karl": 9440,
      "ador": 9441,
      "እስኪ": 9442,
      "ስትሆን": 9443,
      "በማስ": 9444,
      "፲፱፻፸": 9445,
      "፲፱፻፺": 9446,
      "èkó,": 9447,
      "ሮማውያን": 9448,
      "ቴክኖሎጂ": 9449,
      "reco": 9450,
      "mum": 9451,
      "ating": 9452,
      "those": 9453,
      "emper": 9454,
      "writing": 9455,
      "oxford": 9456,
      "ographie": 9457,
      "influence": 9458,
      "established": 9459,
      "d'ivoire": 9460,
      "psy": 9461,
      "basu": 9462,
      "alter": 9463,
      "seas": 9464,
      "fa,": 9465,
      "proto": 9466,
      "turki": 9467,
      "1944": 9468,
      "arabic": 9469,
      "ibe": 9470,
      "nọ́": 9471,
      "ogún": 9472,
      "ሌት": 9473,
      "ሜክሲ": 9474,
      "ምባ": 9475,
      "ሰል": 9476,
      "ተገኘ": 9477,
      "አደጋ": 9478,
      "ጅብ": 9479,
      "ጣጫ": 9480,
      "little": 9481,
      "recei": 9482,
      "elementi": 9483,
      "ታወቀው": 9484,
      "darakta": 9485,
      "malamin": 9486,
      "tawagar": 9487,
      "kufika": 9488,
      "andrew": 9489,
      "ẹranko": 9490,
      "አውራጃ": 9491,
      "ያዕቆብ": 9492,
      "(na": 9493,
      "pya": 9494,
      "zing": 9495,
      "na.": 9496,
      "ra.": 9497,
      "moha": 9498,
      "1942": 9499,
      "dyna": 9500,
      "independent": 9501,
      "%).": 9502,
      "(6": 9503,
      "cini": 9504,
      "ic": 9505,
      "inv": 9506,
      "ern": 9507,
      "much": 9508,
      "(ki": 9509,
      "amua": 9510,
      "boni": 9511,
      "ìkan": 9512,
      "ሐምሌ": 9513,
      "ሙር": 9514,
      "ረን": 9515,
      "ሰለ": 9516,
      "በይፋ": 9517,
      "ተግባር": 9518,
      "ዘይ": 9519,
      "የሲ": 9520,
      "ጉድ": 9521,
      "፡-": 9522,
      "፫፻": 9523,
      "yawa,": 9524,
      "issa.": 9525,
      "ina,": 9526,
      "mbaji": 9527,
      "gine-": 9528,
      "ያስፈል": 9529,
      "ሁለቱም": 9530,
      "ዋል፡፡": 9531,
      "atomu": 9532,
      "ማዕከል": 9533,
      "journa": 9534,
      "commonwealth": 9535,
      "source": 9536,
      "cikakken": 9537,
      "መጋቢት": 9538,
      "አስተሳሰብ": 9539,
      "\").": 9540,
      "fet": 9541,
      "jani": 9542,
      "duka": 9543,
      "père": 9544,
      "ubu": 9545,
      "daka": 9546,
      "yulin": 9547,
      "ii.": 9548,
      "lower": 9549,
      "nouvelle": 9550,
      "ethno": 9551,
      "78": 9552,
      "hur": 9553,
      "ም፤": 9554,
      "በጋ": 9555,
      "በሌሎች": 9556,
      "ጣል።": 9557,
      "ፊልም": 9558,
      "light": 9559,
      "al.": 9560,
      "zamo": 9561,
      "kokarin": 9562,
      "aliji": 9563,
      "rée": 9564,
      "haifu": 9565,
      "አይሁ": 9566,
      "ክልት": 9567,
      "በማድረግ": 9568,
      "daraja": 9569,
      "እ.ኤ.አ": 9570,
      "ujerumani.": 9571,
      "ቀበሌ": 9572,
      "team0": 9573,
      "legas,": 9574,
      "construction": 9575,
      "ታሪኮች": 9576,
      "nairobi": 9577,
      "(8": 9578,
      "siè": 9579,
      "19.": 9580,
      "th.": 9581,
      "conse": 9582,
      "ahmad": 9583,
      "london,": 9584,
      "arthur": 9585,
      "madaga": 9586,
      "names": 9587,
      "yant": 9588,
      "ories": 9589,
      "1936": 9590,
      "britanni": 9591,
      "1–": 9592,
      "gla": 9593,
      "sv": 9594,
      "uliwa": 9595,
      "ለካ": 9596,
      "ሠር": 9597,
      "ንጫ": 9598,
      "ከሌሎች": 9599,
      "ጉባ": 9600,
      "kwallo": 9601,
      "olanzi": 9602,
      "፲፱፻፴": 9603,
      "ወቅቱ": 9604,
      "uholanzi": 9605,
      "mbalimbali.": 9606,
      "kaduna,": 9607,
      "ttuka": 9608,
      "succes": 9609,
      "ወታደራዊ": 9610,
      "ቴሌቪ": 9611,
      "rd2-score0": 9612,
      "maendeleo": 9613,
      "meri": 9614,
      "eritre": 9615,
      "burkina": 9616,
      "johannes": 9617,
      "algeria": 9618,
      "agbo": 9619,
      "dr": 9620,
      "tizo": 9621,
      "nature": 9622,
      "centra": 9623,
      "actors": 9624,
      "ሲሉ": 9625,
      "ተዋና": 9626,
      "ድግ": 9627,
      "kupan": 9628,
      "kiki": 9629,
      "nico": 9630,
      "gawan": 9631,
      "ri,": 9632,
      "five": 9633,
      "neja": 9634,
      "mot": 9635,
      "uniya": 9636,
      "faru": 9637,
      "tóbi": 9638,
      "moro": 9639,
      "kuanz": 9640,
      "lauya": 9641,
      "nombreux": 9642,
      "መቅደስ": 9643,
      "gudumma": 9644,
      "ወንጌል": 9645,
      "glas": 9646,
      "cipa": 9647,
      "somali": 9648,
      "aire": 9649,
      "début": 9650,
      "taires": 9651,
      "girl": 9652,
      "1903": 9653,
      "période": 9654,
      "quelques": 9655,
      "sweden": 9656,
      "korea": 9657,
      "h)": 9658,
      "midd": 9659,
      "rema": 9660,
      "qué": 9661,
      "gues": 9662,
      "jeux": 9663,
      "works": 9664,
      "polytechni": 9665,
      "ልሳ": 9666,
      "በሙ": 9667,
      "ታና": 9668,
      "ዘሮ": 9669,
      "የኬ": 9670,
      "የፋ": 9671,
      "ጆሮ": 9672,
      "ገዙ": 9673,
      "ጎት": 9674,
      "ጠኝ": 9675,
      "mahimman": 9676,
      "ener": 9677,
      "labari": 9678,
      "habu": 9679,
      "sain": 9680,
      "1924": 9681,
      "teach": 9682,
      "condu": 9683,
      "walimu": 9684,
      "commission": 9685,
      "ውስት": 9686,
      "mishwa": 9687,
      "ሲሆን፤": 9688,
      "jangwa": 9689,
      "jengo": 9690,
      "mutuwa": 9691,
      "agbaye": 9692,
      "europé": 9693,
      "pp.": 9694,
      "ይዘው": 9695,
      "ological": 9696,
      "sassan": 9697,
      "ተቋም": 9698,
      "wafuasi": 9699,
      "ọ̀jọ̀gbọ́n": 9700,
      "cteur": 9701,
      "flo": 9702,
      "zy": 9703,
      "ans,": 9704,
      "1916": 9705,
      "sett": 9706,
      "movement": 9707,
      "apollo": 9708,
      "ways": 9709,
      "dies": 9710,
      "requ": 9711,
      "office": 9712,
      "pe,": 9713,
      "politi": 9714,
      "famille": 9715,
      "senegal": 9716,
      "ìrìn": 9717,
      "ሆተ": 9718,
      "ማለ": 9719,
      "ማም": 9720,
      "ሲስ": 9721,
      "በ17": 9722,
      "ኖረው": 9723,
      "እዚያ": 9724,
      "ኪ.": 9725,
      "ጀም": 9726,
      "ጠባ": 9727,
      "ጨር": 9728,
      "ọkùnrin": 9729,
      "tilẹ̀": 9730,
      "kihistoria": 9731,
      "nílé": 9732,
      "yo,": 9733,
      "el,": 9734,
      "በአለም": 9735,
      "በአውሮፓ": 9736,
      "said": 9737,
      "occi": 9738,
      "እንዳል": 9739,
      "èyí,": 9740,
      "(2016)": 9741,
      "sábà": 9742,
      "rubutun": 9743,
      "ለያየ": 9744,
      "ƙarshen": 9745,
      "ማዕረግ": 9746,
      "territoire": 9747,
      "ወዳጅ": 9748,
      "benedik": 9749,
      "lity": 9750,
      "salon": 9751,
      "depart": 9752,
      "regis": 9753,
      "viol": 9754,
      "kéré": 9755,
      "kimo": 9756,
      "zambi": 9757,
      "soviet": 9758,
      "barka": 9759,
      "mée": 9760,
      "(o": 9761,
      "eux": 9762,
      "ikawa": 9763,
      "èkìtì": 9764,
      "ረጥ": 9765,
      "ራሪ": 9766,
      "ተገደ": 9767,
      "ቻር": 9768,
      "ኩር": 9769,
      "ካቢ": 9770,
      "ካድ": 9771,
      "ውሮ": 9772,
      "የሕዝብ": 9773,
      "ይላል": 9774,
      "ዱት": 9775,
      "፲፯": 9776,
      "tamba": 9777,
      "kigiriki": 9778,
      "uswi": 9779,
      "chakula": 9780,
      "አንተ": 9781,
      "benue": 9782,
      "መልስ": 9783,
      "ናቸውም": 9784,
      "makarantun": 9785,
      "ይችላል": 9786,
      "janairun": 9787,
      "የሚለውን": 9788,
      "pasifiki": 9789,
      "volkeno": 9790,
      "pc": 9791,
      "un.": 9792,
      "poet": 9793,
      "war,": 9794,
      "abra": 9795,
      "spain": 9796,
      "support": 9797,
      "zur": 9798,
      "inji": 9799,
      "tale": 9800,
      "diplo": 9801,
      "though": 9802,
      "mouve": 9803,
      "frederi": 9804,
      "21,": 9805,
      "musu": 9806,
      "rani": 9807,
      "èwe": 9808,
      "መቱ": 9809,
      "ተወለዱ": 9810,
      "አነ": 9811,
      "ክቶ": 9812,
      "ጀራ": 9813,
      "ጋገ": 9814,
      "ጓደ": 9815,
      "ọrọ": 9816,
      "wafalme": 9817,
      "half": 9818,
      "za,": 9819,
      "seven": 9820,
      "yarin": 9821,
      "yar'adu": 9822,
      "adadin": 9823,
      "dunia.": 9824,
      "አንጻ": 9825,
      "የመስ": 9826,
      "አብዛ": 9827,
      "ባለቤት": 9828,
      "paswa": 9829,
      "mẹ́fà": 9830,
      "አውሮ": 9831,
      "ወጣት": 9832,
      "በቀር": 9833,
      "various": 9834,
      "ሀገሪቱ": 9835,
      "ile-iṣẹ": 9836,
      "ዝናብ": 9837,
      "kowace": 9838,
      "ma’aika": 9839,
      "karùn-ún": 9840,
      "spéci": 9841,
      "700": 9842,
      "khan": 9843,
      "endo": 9844,
      "esa": 9845,
      "ly.": 9846,
      "sultan": 9847,
      "considered": 9848,
      "ropo": 9849,
      "given": 9850,
      "shika": 9851,
      "kenne": 9852,
      "georgia": 9853,
      "devient": 9854,
      "protestan": 9855,
      "cun": 9856,
      "ijọba": 9857,
      "{{": 9858,
      "économi": 9859,
      "ሉ፡": 9860,
      "ስዊ": 9861,
      "ቆር": 9862,
      "ኒክ": 9863,
      "ከ1892": 9864,
      "ዚል": 9865,
      "የቋንቋ": 9866,
      "የያዘ": 9867,
      "ዳቤ": 9868,
      "ጸሓ": 9869,
      "ፋር": 9870,
      "wafanya": 9871,
      "haj": 9872,
      "division": 9873,
      "aland": 9874,
      "zabi": 9875,
      "termin": 9876,
      "2003,": 9877,
      "wọ́pọ̀": 9878,
      "farfesa": 9879,
      "ደረሱ": 9880,
      "ሮችን": 9881,
      "gidauniyar": 9882,
      "dínlọ́gbọ̀n": 9883,
      "ፈላስፋ": 9884,
      "ṣáájú": 9885,
      "mchezaji": 9886,
      "አነጋገር": 9887,
      "62": 9888,
      "73": 9889,
      "ecu": 9890,
      "ebon": 9891,
      "ushi": 9892,
      "roi": 9893,
      "propo": 9894,
      "tunisi": 9895,
      "explo": 9896,
      "13,": 9897,
      "case": 9898,
      "décou": 9899,
      "bern": 9900,
      "reno": 9901,
      "kris": 9902,
      "መሥ": 9903,
      "ምሁ": 9904,
      "የሳ": 9905,
      "ጣቢያ": 9906,
      "ፍርድ": 9907,
      "ẹnu": 9908,
      "anc": 9909,
      "madi": 9910,
      "onin": 9911,
      "tial": 9912,
      "develo": 9913,
      "al’": 9914,
      "ke.": 9915,
      "ros": 9916,
      "lopo": 9917,
      "sement": 9918,
      "የአካባቢ": 9919,
      "jos": 9920,
      "oni,": 9921,
      "kasa,": 9922,
      "አልጋ": 9923,
      "kaizari": 9924,
      "pẹ̀pẹ̀": 9925,
      "kofar": 9926,
      "ojú-": 9927,
      "http://en.wikipedia.org/wiki/": 9928,
      "ተወዳ": 9929,
      "ጠረዥ": 9930,
      "አድርገው": 9931,
      "prise": 9932,
      "የአፍሪካ": 9933,
      "economic": 9934,
      "victoria": 9935,
      "(ccm)": 9936,
      "fc": 9937,
      "nus": 9938,
      "kas": 9939,
      "yau,": 9940,
      "isele": 9941,
      "zam": 9942,
      "nelle": 9943,
      "modi": 9944,
      "qu’": 9945,
      "experi": 9946,
      "julius": 9947,
      "\">": 9948,
      "online": 9949,
      "total": 9950,
      "deven": 9951,
      "domo": 9952,
      "consis": 9953,
      "still": 9954,
      "tanganyika": 9955,
      "74": 9956,
      "gno": 9957,
      "oǹ": 9958,
      "ማቸው": 9959,
      "በሁለት": 9960,
      "ቾች": 9961,
      "ነች።": 9962,
      "አሁንም": 9963,
      "haƙ": 9964,
      "left": 9965,
      "billi": 9966,
      "oluse": 9967,
      "láyé": 9968,
      "መንበር": 9969,
      "shekarata": 9970,
      "tendo": 9971,
      "15.": 9972,
      "ንጉሱ": 9973,
      "alaba": 9974,
      "መስመር": 9975,
      "አብያተ": 9976,
      "saudi": 9977,
      "ከዚህም": 9978,
      "city,": 9979,
      "ṣẹlẹ̀": 9980,
      "zinare": 9981,
      "nigbati": 9982,
      "iwoorun": 9983,
      "láàárín": 9984,
      "haɓaka": 9985,
      "shughuli": 9986,
      "entertainment": 9987,
      "(5": 9988,
      "gga": 9989,
      "k)": 9990,
      "ley,": 9991,
      "turi": 9992,
      "25,": 9993,
      "nouveau": 9994,
      "whe": 9995,
      "tient": 9996,
      "isme": 9997,
      "ana,": 9998,
      "2004.": 9999
    },
    "merges": [
      [
        "a",
        "n"
      ],
      [
        "a",
        "r"
      ],
      [
        "i",
        "n"
      ],
      [
        "w",
        "a"
      ],
      [
        "k",
        "a"
      ],
      [
        "m",
        "a"
      ],
      [
        "y",
        "a"
      ],
      [
        "d",
        "a"
      ],
      [
        "t",
        "a"
      ],
      [
        "o",
        "n"
      ],
      [
        "t",
        "i"
      ],
      [
        "e",
        "r"
      ],
      [
        "e",
        "n"
      ],
      [
        "l",
        "i"
      ],
      [
        "u",
        "n"
      ],
      [
        "l",
        "a"
      ],
      [
        "e",
        "s"
      ],
      [
        "b",
        "a"
      ],
      [
        "n",
        "a"
      ],
      [
        "i",
        "s"
      ],
      [
        "o",
        "r"
      ],
      [
        "k",
        "u"
      ],
      [
        "h",
        "a"
      ],
      [
        "h",
        "e"
      ],
      [
        "s",
        "a"
      ],
      [
        "l",
        "e"
      ],
      [
        "k",
        "i"
      ],
      [
        "h",
        "i"
      ],
      [
        "t",
        "o"
      ],
      [
        "d",
        "e"
      ],
      [
        "s",
        "i"
      ],
      [
        "u",
        "r"
      ],
      [
        "n",
        "i"
      ],
      [
        "g",
        "a"
      ],
      [
        "1",
        "9"
      ],
      [
        "d",
        "i"
      ],
      [
        "r",
        "a"
      ],
      [
        "m",
        "i"
      ],
      [
        "a",
        "l"
      ],
      [
        "r",
        "e"
      ],
      [
        "r",
        "i"
      ],
      [
        "t",
        "e"
      ],
      [
        "b",
        "i"
      ],
      [
        "t",
        "he"
      ],
      [
        "ẹ",
        "̀"
      ],
      [
        "z",
        "a"
      ],
      [
        "w",
        "ọ"
      ],
      [
        "ar",
        "a"
      ],
      [
        "c",
        "i"
      ],
      [
        "an",
        "a"
      ],
      [
        "o",
        "f"
      ],
      [
        "ẹ",
        "́"
      ],
      [
        "g",
        "b"
      ],
      [
        "c",
        "e"
      ],
      [
        "2",
        "0"
      ],
      [
        "u",
        "s"
      ],
      [
        "f",
        "i"
      ],
      [
        "k",
        "e"
      ],
      [
        "n",
        "í"
      ],
      [
        "r",
        "o"
      ],
      [
        "k",
        "o"
      ],
      [
        "p",
        "a"
      ],
      [
        "j",
        "i"
      ],
      [
        "l",
        "o"
      ],
      [
        "m",
        "e"
      ],
      [
        "m",
        "u"
      ],
      [
        "c",
        "h"
      ],
      [
        "an",
        "i"
      ],
      [
        "n",
        "e"
      ],
      [
        "an",
        "d"
      ],
      [
        "t",
        "u"
      ],
      [
        "s",
        "u"
      ],
      [
        "s",
        "e"
      ],
      [
        "wọ",
        "n"
      ],
      [
        "t",
        "h"
[...]
