{
  "version": "1.0",
  "truncation": null,
  "padding": null,
  "added_tokens": [
    {
      "id": 0,
      "content": "[UNK]",
      "single_word": false,
      "lstrip": false,
      "rstrip": false,
      "normalized": false,
      "special": true
    }
  ],
  "normalizer": {
    "type": "Sequence",
    "normalizers": [
      {
        "type": "NFC"
      },
      {
        "type": "Lowercase"
      }
    ]
  },
  "pre_tokenizer": {
    "type": "WhitespaceSplit"
  },
  "post_processor": null,
  "decoder": {
    "type": "ByteFallback"
  },
  "model": {
    "type": "BPE",
    "dropout": null,
    "unk_token": "[UNK]",
    "continuing_subword_prefix": null,
    "end_of_word_suffix": null,
    "fuse_unk": false,
    "byte_fallback": true,
    "ignore_merges": false,
    "vocab": {
      "[UNK]": 0,
      "<0x00>": 1,
      "<0x01>": 2,
      "<0x02>": 3,
      "<0x03>": 4,
      "<0x04>": 5,
      "<0x05>": 6,
      "<0x06>": 7,
      "<0x07>": 8,
      "<0x08>": 9,
      "<0x09>": 10,
      "<0x0A>": 11,
      "<0x0B>": 12,
      "<0x0C>": 13,
      "<0x0D>": 14,
      "<0x0E>": 15,
      "<0x0F>": 16,
      "<0x10>": 17,
      "<0x11>": 18,
      "<0x12>": 19,
      "<0x13>": 20,
      "<0x14>": 21,
      "<0x15>": 22,
      "<0x16>": 23,
      "<0x17>": 24,
      "<0x18>": 25,
      "<0x19>": 26,
      "<0x1A>": 27,
      "<0x1B>": 28,
      "<0x1C>": 29,
      "<0x1D>": 30,
      "<0x1E>": 31,
      "<0x1F>": 32,
      "<0x20>": 33,
      "<0x21>": 34,
      "<0x22>": 35,
      "<0x23>": 36,
      "<0x24>": 37,
      "<0x25>": 38,
      "<0x26>": 39,
      "<0x27>": 40,
      "<0x28>": 41,
      "<0x29>": 42,
      "<0x2A>": 43,
      "<0x2B>": 44,
      "<0x2C>": 45,
      "<0x2D>": 46,
      "<0x2E>": 47,
      "<0x2F>": 48,
      "<0x30>": 49,
      "<0x31>": 50,
      "<0x32>": 51,
      "<0x33>": 52,
      "<0x34>": 53,
      "<0x35>": 54,
      "<0x36>": 55,
      "<0x37>": 56,
      "<0x38>": 57,
      "<0x39>": 58,
      "<0x3A>": 59,
      "<0x3B>": 60,
      "<0x3C>": 61,
      "<0x3D>": 62,
      "<0x3E>": 63,
      "<0x3F>": 64,
      "<0x40>": 65,
      "<0x41>": 66,
      "<0x42>": 67,
      "<0x43>": 68,
      "<0x44>": 69,
      "<0x45>": 70,
      "<0x46>": 71,
      "<0x47>": 72,
      "<0x48>": 73,
      "<0x49>": 74,
      "<0x4A>": 75,
      "<0x4B>": 76,
      "<0x4C>": 77,
      "<0x4D>": 78,
      "<0x4E>": 79,
      "<0x4F>": 80,
      "<0x50>": 81,
      "<0x51>": 82,
      "<0x52>": 83,
      "<0x53>": 84,
      "<0x54>": 85,
      "<0x55>": 86,
      "<0x56>": 87,
      "<0x57>": 88,
      "<0x58>": 89,
      "<0x59>": 90,
      "<0x5A>": 91,
      "<0x5B>": 92,
      "<0x5C>": 93,
      "<0x5D>": 94,
      "<0x5E>": 95,
      "<0x5F>": 96,
      "<0x60>": 97,
      "<0x61>": 98,
      "<0x62>": 99,
      "<0x63>": 100,
      "<0x64>": 101,
      "<0x65>": 102,
      "<0x66>": 103,
      "<0x67>": 104,
      "<0x68>": 105,
      "<0x69>": 106,
      "<0x6A>": 107,
      "<0x6B>": 108,
      "<0x6C>": 109,
      "<0x6D>": 110,
      "<0x6E>": 111,
      "<0x6F>": 112,
      "<0x70>": 113,
      "<0x71>": 114,
      "<0x72>": 115,
      "<0x73>": 116,
      "<0x74>": 117,
      "<0x75>": 118,
      "<0x76>": 119,
      "<0x77>": 120,
      "<0x78>": 121,
      "<0x79>": 122,
      "<0x7A>": 123,
      "<0x7B>": 124,
      "<0x7C>": 125,
      "<0x7D>": 126,
      "<0x7E>": 127,
      "<0x7F>": 128,
      "<0x80>": 129,
      "<0x81>": 130,
      "<0x82>": 131,
      "<0x83>": 132,
      "<0x84>": 133,
      "<0x85>": 134,
      "<0x86>": 135,
      "<0x87>": 136,
      "<0x88>": 137,
      "<0x89>": 138,
      "<0x8A>": 139,
      "<0x8B>": 140,
      "<0x8C>": 141,
      "<0x8D>": 142,
      "<0x8E>": 143,
      "<0x8F>": 144,
      "<0x90>": 145,
      "<0x91>": 146,
      "<0x92>": 147,
      "<0x93>": 148,
      "<0x94>": 149,
      "<0x95>": 150,
      "<0x96>": 151,
      "<0x97>": 152,
      "<0x98>": 153,
      "<0x99>": 154,
      "<0x9A>": 155,
      "<0x9B>": 156,
      "<0x9C>": 157,
      "<0x9D>": 158,
      "<0x9E>": 159,
      "<0x9F>": 160,
      "<0xA0>": 161,
      "<0xA1>": 162,
      "<0xA2>": 163,
      "<0xA3>": 164,
      "<0xA4>": 165,
      "<0xA5>": 166,
      "<0xA6>": 167,
      "<0xA7>": 168,
      "<0xA8>": 169,
      "<0xA9>": 170,
      "<0xAA>": 171,
      "<0xAB>": 172,
      "<0xAC>": 173,
      "<0xAD>": 174,
      "<0xAE>": 175,
      "<0xAF>": 176,
      "<0xB0>": 177,
      "<0xB1>": 178,
      "<0xB2>": 179,
      "<0xB3>": 180,
      "<0xB4>": 181,
      "<0xB5>": 182,
      "<0xB6>": 183,
      "<0xB7>": 184,
      "<0xB8>": 185,
      "<0xB9>": 186,
      "<0xBA>": 187,
      "<0xBB>": 188,
      "<0xBC>": 189,
      "<0xBD>": 190,
      "<0xBE>": 191,
      "<0xBF>": 192,
      "<0xC0>": 193,
      "<0xC1>": 194,
      "<0xC2>": 195,
      "<0xC3>": 196,
      "<0xC4>": 197,
      "<0xC5>": 198,
      "<0xC6>": 199,
      "<0xC7>": 200,
      "<0xC8>": 201,
      "<0xC9>": 202,
      "<0xCA>": 203,
      "<0xCB>": 204,
      "<0xCC>": 205,
      "<0xCD>": 206,
      "<0xCE>": 207,
      "<0xCF>": 208,
      "<0xD0>": 209,
      "<0xD1>": 210,
      "<0xD2>": 211,
      "<0xD3>": 212,
      "<0xD4>": 213,
      "<0xD5>": 214,
      "<0xD6>": 215,
      "<0xD7>": 216,
      "<0xD8>": 217,
      "<0xD9>": 218,
      "<0xDA>": 219,
      "<0xDB>": 220,
      "<0xDC>": 221,
      "<0xDD>": 222,
      "<0xDE>": 223,
      "<0xDF>": 224,
      "<0xE0>": 225,
      "<0xE1>": 226,
      "<0xE2>": 227,
      "<0xE3>": 228,
      "<0xE4>": 229,
      "<0xE5>": 230,
      "<0xE6>": 231,
      "<0xE7>": 232,
      "<0xE8>": 233,
      "<0xE9>": 234,
      "<0xEA>": 235,
      "<0xEB>": 236,
      "<0xEC>": 237,
      "<0xED>": 238,
      "<0xEE>": 239,
      "<0xEF>": 240,
      "<0xF0>": 241,
      "<0xF1>": 242,
      "<0xF2>": 243,
      "<0xF3>": 244,
      "<0xF4>": 245,
      "<0xF5>": 246,
      "<0xF6>": 247,
      "<0xF7>": 248,
      "<0xF8>": 249,
      "<0xF9>": 250,
      "<0xFA>": 251,
      "<0xFB>": 252,
      "<0xFC>": 253,
      "<0xFD>": 254,
      "<0xFE>": 255,
      "<0xFF>": 256,
      "!": 257,
      "\"": 258,
      "#": 259,
      "$": 260,
      "%": 261,
      "&": 262,
      "'": 263,
      "(": 264,
      ")": 265,
      "*": 266,
      "+": 267,
      ",": 268,
      "-": 269,
      ".": 270,
      "/": 271,
      "0": 272,
      "1": 273,
      "2": 274,
      "3": 275,
      "4": 276,
      "5": 277,
      "6": 278,
      "7": 279,
      "8": 280,
      "9": 281,
      ":": 282,
      ";": 283,
      "<": 284,
      "=": 285,
      ">": 286,
      "?": 287,
      "[": 288,
      "]": 289,
      "^": 290,
      "_": 291,
      "`": 292,
      "a": 293,
      "b": 294,
      "c": 295,
      "d": 296,
      "e": 297,
      "f": 298,
      "g": 299,
      "h": 300,
      "i": 301,
      "j": 302,
      "k": 303,
      "l": 304,
      "m": 305,
      "n": 306,
      "o": 307,
      "p": 308,
      "q": 309,
      "r": 310,
      "s": 311,
      "t": 312,
      "u": 313,
      "v": 314,
      "w": 315,
      "x": 316,
      "y": 317,
      "z": 318,
      "{": 319,
      "|": 320,
      "}": 321,
      "~": 322,
      "«": 323,
      "°": 324,
      "²": 325,
      "·": 326,
      "»": 327,
      "×": 328,
      "à": 329,
      "á": 330,
      "â": 331,
      "ã": 332,
      "ä": 333,
      "å": 334,
      "æ": 335,
      "ç": 336,
      "è": 337,
      "é": 338,
      "ê": 339,
      "ë": 340,
      "ì": 341,
      "í": 342,
      "î": 343,
      "ï": 344,
      "ñ": 345,
      "ò": 346,
      "ó": 347,
      "ô": 348,
      "ö": 349,
      "ø": 350,
      "ù": 351,
      "ú": 352,
      "û": 353,
      "ü": 354,
      "ā": 355,
      "ć": 356,
      "ē": 357,
      "ī": 358,
      "ı": 359,
      "ń": 360,
      "ō": 361,
      "œ": 362,
      "ş": 363,
      "š": 364,
      "ū": 365,
      "ƙ": 366,
      "ƴ": 367,
      "ǹ": 368,
      "ɓ": 369,
      "ɗ": 370,
      "ə": 371,
      "ɪ": 372,
      "ˈ": 373,
      "ː": 374,
      "̀": 375,
      "́": 376,
      "̣": 377,
      "̩": 378,
      "ά": 379,
      "ί": 380,
      "α": 381,
      "β": 382,
      "γ": 383,
      "δ": 384,
      "ε": 385,
      "θ": 386,
      "ι": 387,
      "κ": 388,
      "λ": 389,
      "μ": 390,
      "ν": 391,
      "ο": 392,
      "π": 393,
      "ρ": 394,
      "ς": 395,
      "σ": 396,
      "τ": 397,
      "υ": 398,
      "ό": 399,
      "а": 400,
      "б": 401,
      "в": 402,
      "г": 403,
      "д": 404,
      "е": 405,
      "з": 406,
      "и": 407,
      "к": 408,
      "л": 409,
      "м": 410,
      "н": 411,
      "о": 412,
      "п": 413,
      "р": 414,
      "с": 415,
      "т": 416,
      "у": 417,
      "ו": 418,
      "י": 419,
      "ל": 420,
      "ר": 421,
      "ת": 422,
      "أ": 423,
      "إ": 424,
      "ا": 425,
      "ب": 426,
      "ة": 427,
      "ت": 428,
      "ج": 429,
      "ح": 430,
      "خ": 431,
      "د": 432,
      "ر": 433,
      "ز": 434,
      "س": 435,
      "ش": 436,
      "ط": 437,
      "ع": 438,
      "ف": 439,
      "ق": 440,
      "ك": 441,
      "ل": 442,
      "م": 443,
      "ن": 444,
      "ه": 445,
      "و": 446,
      "ى": 447,
      "ي": 448,
      "َ": 449,
      "ُ": 450,
      "ِ": 451,
      "ّ": 452,
      "ْ": 453,
      "ٰ": 454,
      "ٱ": 455,
      "अ": 456,
      "क": 457,
      "ग": 458,
      "घ": 459,
      "च": 460,
      "ट": 461,
      "ढ": 462,
      "ण": 463,
      "ु": 464,
      "ሀ": 465,
      "ሁ": 466,
      "ሂ": 467,
      "ሃ": 468,
      "ሄ": 469,
      "ህ": 470,
      "ሆ": 471,
      "ለ": 472,
      "ሉ": 473,
      "ሊ": 474,
      "ላ": 475,
      "ሌ": 476,
      "ል": 477,
      "ሎ": 478,
      "ሏ": 479,
      "ሐ": 480,
      "ሑ": 481,
      "ሒ": 482,
      "ሓ": 483,
      "ሔ": 484,
      "ሕ": 485,
      "ሖ": 486,
      "መ": 487,
      "ሙ": 488,
      "ሚ": 489,
      "ማ": 490,
      "ሜ": 491,
      "ም": 492,
      "ሞ": 493,
      "ሟ": 494,
      "ሠ": 495,
      "ሡ": 496,
      "ሢ": 497,
      "ሣ": 498,
      "ሤ": 499,
      "ሥ": 500,
      "ሦ": 501,
      "ረ": 502,
      "ሩ": 503,
      "ሪ": 504,
      "ራ": 505,
      "ሬ": 506,
      "ር": 507,
      "ሮ": 508,
      "ሯ": 509,
      "ሰ": 510,
      "ሱ": 511,
      "ሲ": 512,
      "ሳ": 513,
      "ሴ": 514,
      "ስ": 515,
      "ሶ": 516,
      "ሷ": 517,
      "ሸ": 518,
      "ሹ": 519,
      "ሺ": 520,
      "ሻ": 521,
      "ሼ": 522,
      "ሽ": 523,
      "ሾ": 524,
      "ቀ": 525,
      "ቁ": 526,
      "ቂ": 527,
      "ቃ": 528,
      "ቄ": 529,
      "ቅ": 530,
      "ቆ": 531,
      "ቋ": 532,
      "በ": 533,
      "ቡ": 534,
      "ቢ": 535,
      "ባ": 536,
      "ቤ": 537,
      "ብ": 538,
      "ቦ": 539,
      "ቧ": 540,
      "ቨ": 541,
      "ቪ": 542,
      "ቫ": 543,
      "ቬ": 544,
      "ቭ": 545,
      "ቮ": 546,
      "ተ": 547,
      "ቱ": 548,
      "ቲ": 549,
      "ታ": 550,
      "ቴ": 551,
      "ት": 552,
      "ቶ": 553,
      "ቷ": 554,
      "ቸ": 555,
      "ቹ": 556,
      "ቺ": 557,
      "ቻ": 558,
      "ቼ": 559,
      "ች": 560,
      "ቾ": 561,
      "ቿ": 562,
      "ኀ": 563,
      "ኃ": 564,
      "ኅ": 565,
      "ኋ": 566,
      "ነ": 567,
      "ኑ": 568,
      "ኒ": 569,
      "ና": 570,
      "ኔ": 571,
      "ን": 572,
      "ኖ": 573,
      "ኗ": 574,
      "ኘ": 575,
      "ኙ": 576,
      "ኚ": 577,
      "ኛ": 578,
      "ኝ": 579,
      "ኞ": 580,
      "አ": 581,
      "ኡ": 582,
      "ኢ": 583,
      "ኣ": 584,
      "ኤ": 585,
      "እ": 586,
      "ኦ": 587,
      "ከ": 588,
      "ኩ": 589,
      "ኪ": 590,
      "ካ": 591,
      "ኬ": 592,
      "ክ": 593,
      "ኮ": 594,
      "ኰ": 595,
      "ኲ": 596,
      "ኳ": 597,
      "ኸ": 598,
      "ኹ": 599,
      "ኻ": 600,
      "ኼ": 601,
      "ኽ": 602,
      "ኾ": 603,
      "ዅ": 604,
      "ወ": 605,
      "ዉ": 606,
      "ዊ": 607,
      "ዋ": 608,
      "ዌ": 609,
      "ው": 610,
      "ዎ": 611,
      "ዐ": 612,
      "ዑ": 613,
      "ዒ": 614,
      "ዓ": 615,
      "ዔ": 616,
      "ዕ": 617,
      "ዖ": 618,
      "ዘ": 619,
      "ዙ": 620,
      "ዚ": 621,
      "ዛ": 622,
      "ዜ": 623,
      "ዝ": 624,
      "ዞ": 625,
      "ዟ": 626,
      "ዠ": 627,
      "ዢ": 628,
      "ዣ": 629,
      "ዥ": 630,
      "ዦ": 631,
      "የ": 632,
      "ዩ": 633,
      "ዪ": 634,
      "ያ": 635,
      "ዬ": 636,
      "ይ": 637,
      "ዮ": 638,
      "ደ": 639,
      "ዱ": 640,
      "ዲ": 641,
      "ዳ": 642,
      "ዴ": 643,
      "ድ": 644,
      "ዶ": 645,
      "ዷ": 646,
      "ጀ": 647,
      "ጁ": 648,
      "ጂ": 649,
      "ጃ": 650,
      "ጄ": 651,
      "ጅ": 652,
      "ጆ": 653,
      "ጇ": 654,
      "ገ": 655,
      "ጉ": 656,
      "ጊ": 657,
      "ጋ": 658,
      "ጌ": 659,
      "ግ": 660,
      "ጎ": 661,
      "ጐ": 662,
      "ጓ": 663,
      "ጝ": 664,
      "ጠ": 665,
      "ጡ": 666,
      "ጢ": 667,
      "ጣ": 668,
      "ጤ": 669,
      "ጥ": 670,
      "ጦ": 671,
      "ጧ": 672,
      "ጨ": 673,
      "ጩ": 674,
      "ጪ": 675,
      "ጫ": 676,
      "ጭ": 677,
      "ጮ": 678,
      "ጲ": 679,
      "ጳ": 680,
      "ጴ": 681,
      "ጵ": 682,
      "ጸ": 683,
      "ጹ": 684,
      "ጻ": 685,
      "ጼ": 686,
      "ጽ": 687,
      "ጾ": 688,
      "ፀ": 689,
      "ፁ": 690,
      "ፃ": 691,
      "ፄ": 692,
      "ፅ": 693,
      "ፆ": 694,
      "ፈ": 695,
      "ፉ": 696,
      "ፊ": 697,
      "ፋ": 698,
      "ፌ": 699,
      "ፍ": 700,
      "ፎ": 701,
      "ፏ": 702,
      "ፐ": 703,
      "ፑ": 704,
      "ፒ": 705,
      "ፓ": 706,
      "ፔ": 707,
      "ፕ": 708,
      "ፖ": 709,
      "፡": 710,
      "።": 711,
      "፣": 712,
      "፤": 713,
      "፥": 714,
      "፦": 715,
      "፧": 716,
      "፩": 717,
      "፪": 718,
      "፫": 719,
      "፬": 720,
      "፭": 721,
      "፮": 722,
      "፯": 723,
      "፰": 724,
      "፱": 725,
      "፲": 726,
      "፳": 727,
      "፴": 728,
      "፵": 729,
      "፶": 730,
      "፷": 731,
      "፸": 732,
      "፹": 733,
      "፺": 734,
      "፻": 735,
      "ḥ": 736,
      "ṣ": 737,
      "ẹ": 738,
      "ị": 739,
      "ọ": 740,
      "​": 741,
      "‎": 742,
      "–": 743,
      "—": 744,
      "‘": 745,
      "’": 746,
      "“": 747,
      "”": 748,
      "†": 749,
      "•": 750,
      "…": 751,
      "‹": 752,
      "›": 753,
      "−": 754,
      "路": 755,
      "￼": 756,
      "an": 757,
      "ar": 758,
      "in": 759,
      "wa": 760,
      "ka": 761,
      "ma": 762,
      "ya": 763,
      "da": 764,
      "ta": 765,
      "ti": 766,
      "on": 767,
      "er": 768,
      "li": 769,
      "en": 770,
      "un": 771,
      "la": 772,
      "ba": 773,
      "sh": 774,
      "na": 775,
      "ku": 776,
      "sa": 777,
      "le": 778,
      "or": 779,
      "ki": 780,
      "th": 781,
      "si": 782,
      "es": 783,
      "ha": 784,
      "to": 785,
      "ni": 786,
      "ri": 787,
      "de": 788,
      "di": 789,
      "ga": 790,
      "mi": 791,
      "ra": 792,
      "19": 793,
      "bi": 794,
      "re": 795,
      "ch": 796,
      "ẹ̀": 797,
      "za": 798,
      "wọ": 799,
      "al": 800,
      "ara": 801,
      "te": 802,
      "ci": 803,
      "ana": 804,
      "tu": 805,
      "su": 806,
      "ẹ́": 807,
      "mu": 808,
      "gb": 809,
      "the": 810,
      "fi": 811,
      "20": 812,
      "ke": 813,
      "ko": 814,
      "is": 815,
      "ní": 816,
      "ji": 817,
      "ce": 818,
      "ani": 819,
      "pa": 820,
      "ro": 821,
      "se": 822,
      "lo": 823,
      "of": 824,
      "me": 825,
      "wọn": 826,
      "ne": 827,
      "ari": 828,
      "ọ́": 829,
      "kin": 830,
      "gi": 831,
      "mo": 832,
      "bu": 833,
      "hi": 834,
      "fa": 835,
      "ja": 836,
      "and": 837,
      "ọ̀": 838,
      "du": 839,
      "co": 840,
      "st": 841,
      "zi": 842,
      "kan": 843,
      "kar": 844,
      "shi": 845,
      "እን": 846,
      "tí": 847,
      "vi": 848,
      "gu": 849,
      "kwa": 850,
      "lu": 851,
      "hu": 852,
      "àwọn": 853,
      "ነው": 854,
      "wan": 855,
      "so": 856,
      "po": 857,
      "ina": 858,
      "ye": 859,
      "am": 860,
      "ún": 861,
      "tion": 862,
      "eri": 863,
      "be": 864,
      "she": 865,
      "ent": 866,
      "tan": 867,
      "ur": 868,
      "mar": 869,
      "go": 870,
      "yan": 871,
      "je": 872,
      "ing": 873,
      "san": 874,
      "yar": 875,
      "il": 876,
      "yo": 877,
      "do": 878,
      "pe": 879,
      "qu": 880,
      "ge": 881,
      "bo": 882,
      "kati": 883,
      "kuma": 884,
      "au": 885,
      "ነው።": 886,
      "no": 887,
      "ini": 888,
      "tar": 889,
      "man": 890,
      "dan": 891,
      "pi": 892,
      "uni": 893,
      "ru": 894,
      "ali": 895,
      "yi": 896,
      "201": 897,
      "fu": 898,
      "የሚ": 899,
      "ቸው": 900,
      "sar": 901,
      "rí": 902,
      "ran": 903,
      "200": 904,
      "ve": 905,
      "የአ": 906,
      "lá": 907,
      "ል።": 908,
      "ca": 909,
      "sí": 910,
      "ban": 911,
      "we": 912,
      "ol": 913,
      "sha": 914,
      "ሳሌ": 915,
      "war": 916,
      "ter": 917,
      "bí": 918,
      "ju": 919,
      "he": 920,
      "lẹ̀": 921,
      "wi": 922,
      "ምሳሌ": 923,
      "waka": 924,
      "har": 925,
      "መን": 926,
      "18": 927,
      "toka": 928,
      "yin": 929,
      "wali": 930,
      "cha": 931,
      "ነበ": 932,
      "àn": 933,
      "jo": 934,
      "les": 935,
      "mba": 936,
      "ori": 937,
      "et": 938,
      "kara": 939,
      "kuwa": 940,
      "የተ": 941,
      "una": 942,
      "ንድ": 943,
      "fe": 944,
      "con": 945,
      "ine": 946,
      "ll": 947,
      "cikin": 948,
      "ዎች": 949,
      "at": 950,
      "daga": 951,
      "chi": 952,
      ").": 953,
      "wo": 954,
      "rin": 955,
      "for": 956,
      "እና": 957,
      "00": 958,
      "ts": 959,
      "ere": 960,
      "ላይ": 961,
      "ad": 962,
      "af": 963,
      "katika": 964,
      "par": 965,
      "cin": 966,
      "jẹ́": 967,
      "mwaka": 968,
      "zo": 969,
      "ነት": 970,
      "us": 971,
      "ver": 972,
      "as": 973,
      "ọd": 974,
      "wọ́": 975,
      "yu": 976,
      "tsa": 977,
      "gba": 978,
      "won": 979,
      "mai": 980,
      "እንደ": 981,
      "àti": 982,
      "des": 983,
      "rẹ̀": 984,
      "ማር": 985,
      "mb": 986,
      "far": 987,
      "ho": 988,
      "ai": 989,
      "res": 990,
      "aka": 991,
      "),": 992,
      "ré": 993,
      "ment": 994,
      "199": 995,
      "jeri": 996,
      "zu": 997,
      "jeriya": 998,
      "ili": 999,
      "ty": 1000,
      "s,": 1001,
      "com": 1002,
      "ƙa": 1003,
      "ly": 1004,
      "ለው": 1005,
      "shekar": 1006,
      "oni": 1007,
      "ìn": 1008,
      "are": 1009,
      "ati": 1010,
      "est": 1011,
      "min": 1012,
      "ùn": 1013,
      "ከተ": 1014,
      "el": 1015,
      "pro": 1016,
      "kun": 1017,
      "wen": 1018,
      "wọ́n": 1019,
      "hai": 1020,
      "lú": 1021,
      "tun": 1022,
      "ọdún": 1023,
      "gh": 1024,
      "ṣe": 1025,
      "ያን": 1026,
      "ada": 1027,
      "gbà": 1028,
      "ሆን": 1029,
      "que": 1030,
      "a.": 1031,
      "nan": 1032,
      "fin": 1033,
      "shin": 1034,
      "lé": 1035,
      "ìj": 1036,
      "nin": 1037,
      "son": 1038,
      "በአ": 1039,
      "dè": 1040,
      "mata": 1041,
      "lin": 1042,
      "kọ́": 1043,
      "sun": 1044,
      "እስ": 1045,
      "orí": 1046,
      "don": 1047,
      "l'": 1048,
      "um": 1049,
      "198": 1050,
      "shekara": 1051,
      "s.": 1052,
      "dé": 1053,
      "ዚህ": 1054,
      "ትዮ": 1055,
      "ማርኛ": 1056,
      "it": 1057,
      "በመ": 1058,
      "afri": 1059,
      "ወደ": 1060,
      "ረት": 1061,
      "ኢትዮ": 1062,
      "ለት": 1063,
      "pu": 1064,
      "በት": 1065,
      "ነበር": 1066,
      "wana": 1067,
      "ነገ": 1068,
      "shekarar": 1069,
      "ኢትዮጵ": 1070,
      "his": 1071,
      "lan": 1072,
      "ab": 1073,
      "tó": 1074,
      "mọ": 1075,
      "èdè": 1076,
      "wanda": 1077,
      "han": 1078,
      "ita": 1079,
      "itoka": 1080,
      "sì": 1081,
      "od": 1082,
      "itokasi": 1083,
      "ውስ": 1084,
      "197": 1085,
      "najeriya": 1086,
      "ትር": 1087,
      "ኢትዮጵያ": 1088,
      "የአማርኛ": 1089,
      "bá": 1090,
      "ín": 1091,
      "196": 1092,
      "cu": 1093,
      "bel": 1094,
      "ló": 1095,
      "fun": 1096,
      "kọ": 1097,
      "ene": 1098,
      "bar": 1099,
      "yana": 1100,
      "kutoka": 1101,
      "gun": 1102,
      "ct": 1103,
      "ted": 1104,
      "áà": 1105,
      "liwa": 1106,
      "ris": 1107,
      "gbo": 1108,
      "fún": 1109,
      "gan": 1110,
      "gar": 1111,
      "fan": 1112,
      "nà": 1113,
      "kó": 1114,
      "17": 1115,
      "አይ": 1116,
      "lọ": 1117,
      "ስት": 1118,
      "kama": 1119,
      "a,": 1120,
      "ap": 1121,
      "nín": 1122,
      "mp": 1123,
      "can": 1124,
      "din": 1125,
      "ኛው": 1126,
      "በተ": 1127,
      "sta": 1128,
      "tare": 1129,
      "jihar": 1130,
      "ግን": 1131,
      "fo": 1132,
      "ቶች": 1133,
      "ውስጥ": 1134,
      "ሪያ": 1135,
      "duni": 1136,
      "ስተ": 1137,
      "16": 1138,
      "15": 1139,
      "iṣ": 1140,
      "per": 1141,
      "ወይ": 1142,
      "shu": 1143,
      "jọ́": 1144,
      "d'": 1145,
      "matsa": 1146,
      "lla": 1147,
      "jú": 1148,
      "ጊዜ": 1149,
      "pé": 1150,
      "mon": 1151,
      "té": 1152,
      "ariki": 1153,
      "አን": 1154,
      "ይህ": 1155,
      "ek": 1156,
      "፡፡": 1157,
      "ir": 1158,
      "ten": 1159,
      "maka": 1160,
      "እንዲ": 1161,
      "nchi": 1162,
      "náà": 1163,
      "kuu": 1164,
      "ọmọ": 1165,
      "የመ": 1166,
      "ber": 1167,
      "10": 1168,
      "walio": 1169,
      "kò": 1170,
      "ውን": 1171,
      "eré": 1172,
      "nínú": 1173,
      "asi": 1174,
      "ክል": 1175,
      "ምን": 1176,
      "ed": 1177,
      "ንጉ": 1178,
      "ርስ": 1179,
      "bir": 1180,
      "tin": 1181,
      "zuwa": 1182,
      "une": 1183,
      "zar": 1184,
      "wasan": 1185,
      "ስለ": 1186,
      "men": 1187,
      "nu": 1188,
      "ay": 1189,
      "ትርጉ": 1190,
      "ቀን": 1191,
      "gbe": 1192,
      "195": 1193,
      "baada": 1194,
      "ሆነ": 1195,
      "መንግ": 1196,
      "láti": 1197,
      "ilé": 1198,
      "dá": 1199,
      "ዘመ": 1200,
      "írí": 1201,
      "yí": 1202,
      "wani": 1203,
      "ck": 1204,
      "'a": 1205,
      "gwa": 1206,
      "mma": 1207,
      "ሪክ": 1208,
      "der": 1209,
      "kon": 1210,
      "by": 1211,
      "tà": 1212,
      "lar": 1213,
      "awon": 1214,
      "matsayin": 1215,
      "አገ": 1216,
      "pan": 1217,
      "zaliwa": 1218,
      "ex": 1219,
      "gaba": 1220,
      "ala": 1221,
      "nobel": 1222,
      "14": 1223,
      "wenye": 1224,
      "pọ̀": 1225,
      "ለም": 1226,
      "che": 1227,
      "ድር": 1228,
      "kà": 1229,
      "ሲሆን": 1230,
      "moja": 1231,
      "watan": 1232,
      "ዓ.": 1233,
      "ou": 1234,
      "ṣù": 1235,
      "wà": 1236,
      "pia": 1237,
      "was": 1238,
      "gbé": 1239,
      "ces": 1240,
      "ሰው": 1241,
      "ወይም": 1242,
      "ibi": 1243,
      "ọjọ́": 1244,
      "mọ̀": 1245,
      "ትርጉሙ": 1246,
      "lia": 1247,
      "gra": 1248,
      "ile": 1249,
      "ph": 1250,
      "12": 1251,
      "ነበር።": 1252,
      "ኋላ": 1253,
      "ìí": 1254,
      "gẹ́": 1255,
      "yake": 1256,
      "pin": 1257,
      "ሳይ": 1258,
      "orílẹ̀": 1259,
      "ከተማ": 1260,
      "tes": 1261,
      "ድረ": 1262,
      "ለመ": 1263,
      "ry": 1264,
      "bin": 1265,
      "mana": 1266,
      "por": 1267,
      "ìlú": 1268,
      "íríà": 1269,
      "nì": 1270,
      "cal": 1271,
      "nàìj": 1272,
      "amba": 1273,
      "awọn": 1274,
      "bab": 1275,
      "ደረ": 1276,
      "ዓ.ም": 1277,
      "suka": 1278,
      "wá": 1279,
      "nàìjíríà": 1280,
      "ìp": 1281,
      "lle": 1282,
      "ac": 1283,
      "ታት": 1284,
      "tana": 1285,
      "dar": 1286,
      "yàn": 1287,
      "bayan": 1288,
      "lọ́": 1289,
      "má": 1290,
      "በኋላ": 1291,
      "cho": 1292,
      "194": 1293,
      "ጀመ": 1294,
      "land": 1295,
      "ዓመ": 1296,
      "jin": 1297,
      "13": 1298,
      "ሪካ": 1299,
      "'s": 1300,
      "kana": 1301,
      "risto": 1302,
      "fir": 1303,
      "pen": 1304,
      "ìt": 1305,
      "zama": 1306,
      "sance": 1307,
      "nig": 1308,
      "ther": 1309,
      "jan": 1310,
      "cor": 1311,
      "kasa": 1312,
      "ያል": 1313,
      "እስከ": 1314,
      "mbo": 1315,
      "gha": 1316,
      "ዘመን": 1317,
      "ረትና": 1318,
      "ደግ": 1319,
      "ƙasar": 1320,
      "ṣè": 1321,
      "ingi": 1322,
      "tt": 1323,
      "sai": 1324,
      "ania": 1325,
      "eni": 1326,
      "ትን": 1327,
      "afrika": 1328,
      "jọ": 1329,
      "loka": 1330,
      "sti": 1331,
      "ለማ": 1332,
      "lẹ́": 1333,
      "ተረትና": 1334,
      "iṣẹ́": 1335,
      "ክፍ": 1336,
      "ok": 1337,
      "ሮች": 1338,
      "waliozaliwa": 1339,
      "ken": 1340,
      "vya": 1341,
      "vo": 1342,
      "ሥት": 1343,
      "jer": 1344,
      "ld": 1345,
      "..": 1346,
      "-èdè": 1347,
      "lati": 1348,
      "-e": 1349,
      "ekani": 1350,
      "kristo": 1351,
      "አንድ": 1352,
      "tuzo": 1353,
      "marekani": 1354,
      "ii": 1355,
      "ìd": 1356,
      "with": 1357,
      "kí": 1358,
      "waliof": 1359,
      "ren": 1360,
      "tra": 1361,
      "kasance": 1362,
      "papa": 1363,
      "waliofariki": 1364,
      "ንግ": 1365,
      "sion": 1366,
      "olo": 1367,
      "hii": 1368,
      "mia": 1369,
      "ìpín": 1370,
      "mas": 1371,
      "jẹ": 1372,
      "rẹ": 1373,
      "kẹ": 1374,
      "fara": 1375,
      "ደር": 1376,
      "oṣù": 1377,
      "ዓ.ም.": 1378,
      "zarta": 1379,
      "1,": 1380,
      "mutan": 1381,
      "rom": 1382,
      "ሉ።": 1383,
      "oló": 1384,
      "mber": 1385,
      "ida": 1386,
      "manazarta": 1387,
      "ben": 1388,
      "gaban": 1389,
      "በር": 1390,
      "kub": 1391,
      "193": 1392,
      "jami": 1393,
      "matu": 1394,
      "መስ": 1395,
      "ele": 1396,
      "hadi": 1397,
      "nigeri": 1398,
      "mji": 1399,
      "va": 1400,
      "new": 1401,
      "sini": 1402,
      "tta": 1403,
      "ነበረ": 1404,
      "mé": 1405,
      "lugha": 1406,
      "mes": 1407,
      "wor": 1408,
      "iya": 1409,
      "nation": 1410,
      "lon": 1411,
      "መል": 1412,
      "ሆኑ": 1413,
      "ará": 1414,
      "አብ": 1415,
      "kubwa": 1416,
      "vu": 1417,
      "ste": 1418,
      "husu": 1419,
      "wé": 1420,
      "ጋር": 1421,
      "አል": 1422,
      "hun": 1423,
      "ction": 1424,
      "shindi": 1425,
      "ire": 1426,
      "fran": 1427,
      "ilẹ̀": 1428,
      "gin": 1429,
      "já": 1430,
      "ser": 1431,
      "yor": 1432,
      "mun": 1433,
      "mili": 1434,
      "ton": 1435,
      "farko": 1436,
      "suna": 1437,
      "ናት": 1438,
      "ìpínlẹ̀": 1439,
      "1.": 1440,
      "asa": 1441,
      "jì": 1442,
      "ልጅ": 1443,
      "000": 1444,
      "watu": 1445,
      "ችን": 1446,
      "ታወ": 1447,
      "ya.": 1448,
      "ናቸው": 1449,
      "እንግ": 1450,
      "orílẹ̀-èdè": 1451,
      "ደግሞ": 1452,
      "ziki": 1453,
      "án": 1454,
      "lè": 1455,
      "gen": 1456,
      "በማ": 1457,
      "mor": 1458,
      "ranar": 1459,
      "ስም": 1460,
      "from": 1461,
      "ameri": 1462,
      "ደብ": 1463,
      "llon": 1464,
      "karne": 1465,
      "tori": 1466,
      "wu": 1467,
      "eneo": 1468,
      "masu": 1469,
      "shen": 1470,
      "hali": 1471,
      "ተረ": 1472,
      "ብዙ": 1473,
      "mani": 1474,
      "den": 1475,
      "mshindi": 1476,
      "qui": 1477,
      "lokacin": 1478,
      "tic": 1479,
      "babban": 1480,
      "hin": 1481,
      "የኢትዮጵያ": 1482,
      "ታሪክ": 1483,
      "sho": 1484,
      "አባ": 1485,
      "yen": 1486,
      "ya,": 1487,
      "ክልበ": 1488,
      "pre": 1489,
      "wò": 1490,
      "ድረስ": 1491,
      "e,": 1492,
      "y,": 1493,
      "kio": 1494,
      "ዓክልበ": 1495,
      "tì": 1496,
      "አስ": 1497,
      "birnin": 1498,
      "haife": 1499,
      "mbi": 1500,
      "gbá": 1501,
      "መንግሥት": 1502,
      "rùn": 1503,
      "ib": 1504,
      "dans": 1505,
      "wata": 1506,
      "tara": 1507,
      "ron": 1508,
      "kasar": 1509,
      "abu": 1510,
      "car": 1511,
      "inter": 1512,
      "fal": 1513,
      "kai": 1514,
      "eu": 1515,
      "mer": 1516,
      "ger": 1517,
      "rò": 1518,
      "ɗan": 1519,
      "ዓክልበ.": 1520,
      "rè": 1521,
      "yawan": 1522,
      "anzi": 1523,
      "tún": 1524,
      "yìn": 1525,
      "tanz": 1526,
      "gbè": 1527,
      "ብር": 1528,
      "yìí": 1529,
      "የሚገ": 1530,
      "sin": 1531,
      "ራት": 1532,
      "bli": 1533,
      "tro": 1534,
      "chu": 1535,
      "(200": 1536,
      "uta": 1537,
      "giyar": 1538,
      "biyu": 1539,
      "wó": 1540,
      "ሎች": 1541,
      "alá": 1542,
      "ze": 1543,
      "ቤት": 1544,
      "ተኛ": 1545,
      "sy": 1546,
      "tari": 1547,
      "chini": 1548,
      "olu": 1549,
      "ርት": 1550,
      "ባለ": 1551,
      "ላል።": 1552,
      "ቋን": 1553,
      "2,": 1554,
      "kwai": 1555,
      "-ede": 1556,
      "orile": 1557,
      "ọba": 1558,
      "mna": 1559,
      "kọ̀": 1560,
      "እግ": 1561,
      "25": 1562,
      "መር": 1563,
      "tre": 1564,
      "ነገር": 1565,
      "ture": 1566,
      "mbali": 1567,
      "alikuwa": 1568,
      "matukio": 1569,
      "huku": 1570,
      "ንጉሥ": 1571,
      "አለ": 1572,
      "shugaban": 1573,
      "ትም": 1574,
      "ዋና": 1575,
      "kini": 1576,
      "sur": 1577,
      "karan": 1578,
      "ርያ": 1579,
      "ቤተ": 1580,
      "ቋንቋ": 1581,
      "bri": 1582,
      "ary": 1583,
      "faran": 1584,
      "orin": 1585,
      "that": 1586,
      "ẹ̀kọ́": 1587,
      "sul": 1588,
      "und": 1589,
      "siku": 1590,
      "jina": 1591,
      "t,": 1592,
      "ven": 1593,
      "ይገ": 1594,
      "mbu": 1595,
      "ìgbà": 1596,
      "ያልተ": 1597,
      "hari": 1598,
      "nor": 1599,
      "wa,": 1600,
      "ዚያ": 1601,
      "idi": 1602,
      "kú": 1603,
      "ንም": 1604,
      "ple": 1605,
      "o,": 1606,
      "tai": 1607,
      "ራዊ": 1608,
      "univer": 1609,
      "gre": 1610,
      "uli": 1611,
      "jen": 1612,
      "ማለት": 1613,
      "wannan": 1614,
      "aiki": 1615,
      "tri": 1616,
      "mí": 1617,
      "mwana": 1618,
      "inda": 1619,
      "እንግሊ": 1620,
      "one": 1621,
      "thi": 1622,
      "nìyàn": 1623,
      "0,": 1624,
      "vyo": 1625,
      "yè": 1626,
      "omo": 1627,
      "ላት": 1628,
      "os": 1629,
      "ተረጎ": 1630,
      "makala": 1631,
      "2.": 1632,
      "kwenye": 1633,
      "bara": 1634,
      "mọ́": 1635,
      "pẹ̀": 1636,
      "23": 1637,
      "ሁሉ": 1638,
      "ጥር": 1639,
      "kali": 1640,
      "pla": 1641,
      "ƙwa": 1642,
      "gir": 1643,
      "sé": 1644,
      "né": 1645,
      "ዳን": 1646,
      "ninu": 1647,
      "አካ": 1648,
      "ክርስ": 1649,
      "kwan": 1650,
      "ዘመነ": 1651,
      "yya": 1652,
      "waki": 1653,
      "orile-ede": 1654,
      "ɗa": 1655,
      "mutu": 1656,
      "kya": 1657,
      "ባቢ": 1658,
      "ta,": 1659,
      "kuna": 1660,
      "ssi": 1661,
      "፲፱": 1662,
      "tor": 1663,
      "mul": 1664,
      "ereza": 1665,
      "usa": 1666,
      "ènìyàn": 1667,
      "ግብ": 1668,
      "mara": 1669,
      "ጥን": 1670,
      "sau": 1671,
      "የማ": 1672,
      "ingereza": 1673,
      "የም": 1674,
      "bẹ̀": 1675,
      "ድን": 1676,
      "ባል": 1677,
      "ገር": 1678,
      "sou": 1679,
      "bor": 1680,
      "የሚያ": 1681,
      "es,": 1682,
      "ríkà": 1683,
      "ቱን": 1684,
      "nijeriya": 1685,
      "--": 1686,
      "(an": 1687,
      "kari": 1688,
      "òṣè": 1689,
      "ward": 1690,
      "ንያ": 1691,
      "ውያን": 1692,
      "kafa": 1693,
      "universi": 1694,
      "yà": 1695,
      "phi": 1696,
      "national": 1697,
      "ant": 1698,
      "king": 1699,
      "dia": 1700,
      "11": 1701,
      "plu": 1702,
      "ata": 1703,
      "ንስ": 1704,
      "yẹ": 1705,
      "mutane": 1706,
      "አም": 1707,
      "tò": 1708,
      "saba": 1709,
      "bra": 1710,
      "ተረጎመ": 1711,
      "ké": 1712,
      "jama": 1713,
      "dau": 1714,
      "tions": 1715,
      "ከል": 1716,
      "\".": 1717,
      "እንግሊዝ": 1718,
      "፲፱፻": 1719,
      "ሞች": 1720,
      "o.": 1721,
      "bon": 1722,
      "ss": 1723,
      "siwa": 1724,
      "pour": 1725,
      "ìbí": 1726,
      "189": 1727,
      "le.": 1728,
      "ያልተተረጎመ": 1729,
      "'yan": 1730,
      "4,": 1731,
      "ms": 1732,
      "lakini": 1733,
      "my": 1734,
      "lai": 1735,
      "len": 1736,
      "bun": 1737,
      "mwa": 1738,
      "ká": 1739,
      "bur": 1740,
      "0.": 1741,
      "አመ": 1742,
      "laya": 1743,
      "ard": 1744,
      "inahusu": 1745,
      "cen": 1746,
      "up": 1747,
      "kusini": 1748,
      "bà": 1749,
      "duniya": 1750,
      "pri": 1751,
      "ዛት": 1752,
      "mkuu": 1753,
      "6.": 1754,
      "ላል": 1755,
      "cewa": 1756,
      "tanzania": 1757,
      "6,": 1758,
      "190": 1759,
      "ቸውን": 1760,
      "sana": 1761,
      "5,": 1762,
      "ers": 1763,
      "ilé-": 1764,
      "jam": 1765,
      "histori": 1766,
      "afir": 1767,
      "wn": 1768,
      "4.": 1769,
      "faransa": 1770,
      "wọ̀": 1771,
      "afirka": 1772,
      "cent": 1773,
      "7,": 1774,
      "wala": 1775,
      "whi": 1776,
      "ut": 1777,
      "ዋል።": 1778,
      "/ም": 1779,
      "አስተ": 1780,
      "mur": 1781,
      "samu": 1782,
      "hemu": 1783,
      "ast": 1784,
      "yankin": 1785,
      "ምሮ": 1786,
      "ṣà": 1787,
      "(baada": 1788,
      "lamu": 1789,
      "rayu": 1790,
      "kristo).": 1791,
      "8,": 1792,
      "ዓ/ም": 1793,
      "university": 1794,
      "gine": 1795,
      "chan": 1796,
      "በሚ": 1797,
      "hn": 1798,
      "fí": 1799,
      "mwan": 1800,
      "àà": 1801,
      "dara": 1802,
      "e.": 1803,
      "wake": 1804,
      "21": 1805,
      "maji": 1806,
      "7.": 1807,
      "በዚህ": 1808,
      "ፈረ": 1809,
      "kamar": 1810,
      "mbe": 1811,
      "makaran": 1812,
      "sehemu": 1813,
      "ነበሩ": 1814,
      "pas": 1815,
      "እንዳ": 1816,
      "3,": 1817,
      "ce,": 1818,
      "gẹ́gẹ́": 1819,
      "fer": 1820,
      "dà": 1821,
      "nje": 1822,
      "ungu": 1823,
      "ታዊ": 1824,
      "nai": 1825,
      "ƙwallon": 1826,
      "5.": 1827,
      "yé": 1828,
      "m,": 1829,
      "እር": 1830,
      "ble": 1831,
      "sara": 1832,
      "ወረ": 1833,
      "gé": 1834,
      "wasu": 1835,
      "duk": 1836,
      "èyí": 1837,
      "ìtọ́": 1838,
      "tal": 1839,
      "3.": 1840,
      "wa.": 1841,
      "urs": 1842,
      "ska": 1843,
      "ወን": 1844,
      "(201": 1845,
      "ሜሪካ": 1846,
      "29": 1847,
      "ma,": 1848,
      "hasa": 1849,
      "ጠር": 1850,
      "ጦር": 1851,
      "ake": 1852,
      "stan": 1853,
      "oro": 1854,
      "dake": 1855,
      "mfan": 1856,
      "umani": 1857,
      "ilu": 1858,
      "soci": 1859,
      "dda": 1860,
      "tsar": 1861,
      "መለ": 1862,
      "ድም": 1863,
      "jerumani": 1864,
      "mash": 1865,
      "sen": 1866,
      "mita": 1867,
      "30": 1868,
      "ሰዎች": 1869,
      "ሌላ": 1870,
      "sed": 1871,
      "sep": 1872,
      "pamoja": 1873,
      "mala": 1874,
      ".አ": 1875,
      "8.": 1876,
      "falme": 1877,
      "22": 1878,
      "oc": 1879,
      "lli": 1880,
      "mta": 1881,
      "mẹ́": 1882,
      "katifu": 1883,
      "jami'": 1884,
      "ምና": 1885,
      "ቅር": 1886,
      "riki": 1887,
      "jù": 1888,
      "ዝብ": 1889,
      "ዲስ": 1890,
      "gy": 1891,
      "mto": 1892,
      "wil": 1893,
      "nígbà": 1894,
      "wakazi": 1895,
      "m.": 1896,
      "publi": 1897,
      "bk": 1898,
      "bia": 1899,
      "pres": 1900,
      "pà": 1901,
      "sọ": 1902,
      "ሉት": 1903,
      "ከፍ": 1904,
      "gbẹ́": 1905,
      "d,": 1906,
      "gua": 1907,
      "pẹ̀lú": 1908,
      "ሥራ": 1909,
      "zina": 1910,
      "ràn": 1911,
      "yyar": 1912,
      "ያለ": 1913,
      "tarehe": 1914,
      "mú": 1915,
      "john": 1916,
      "ohun": 1917,
      "ሰብ": 1918,
      "ጨረ": 1919,
      "ise": 1920,
      "là": 1921,
      "cy": 1922,
      "aikin": 1923,
      "ona": 1924,
      "እነ": 1925,
      "oní": 1926,
      "24": 1927,
      "wakati": 1928,
      "1-": 1929,
      "ሆኖ": 1930,
      "cri": 1931,
      "ስራ": 1932,
      "gbogbo": 1933,
      "tho": 1934,
      "xi": 1935,
      "shwa": 1936,
      "pè": 1937,
      "gún": 1938,
      "መደብ": 1939,
      "miaka": 1940,
      "òṣèré": 1941,
      "al-": 1942,
      "mafi": 1943,
      "ria": 1944,
      "bila": 1945,
      "her": 1946,
      "bru": 1947,
      "daya": 1948,
      "ጀመሪያ": 1949,
      "val": 1950,
      "fina": 1951,
      "lórí": 1952,
      "fani": 1953,
      "ተው": 1954,
      "ዓመት": 1955,
      "olù": 1956,
      "dí": 1957,
      "dis": 1958,
      "ብሎ": 1959,
      "gbọ́": 1960,
      "tur": 1961,
      "ìtọ́ka": 1962,
      "kwanza": 1963,
      "ta.": 1964,
      "ፊት": 1965,
      "ques": 1966,
      "5)": 1967,
      "ረው": 1968,
      "tura": 1969,
      "kì": 1970,
      "ምክ": 1971,
      "ges": 1972,
      "lor": 1973,
      "ka.": 1974,
      "him": 1975,
      "ዓም": 1976,
      "gwamna": 1977,
      "uru": 1978,
      "pande": 1979,
      "rọ̀": 1980,
      "ጠቀ": 1981,
      "d.": 1982,
      "t.": 1983,
      "ይወ": 1984,
      "kasu": 1985,
      "indi": 1986,
      "ማሪ": 1987,
      "kẹ́": 1988,
      "ìwé": 1989,
      "ƙafa": 1990,
      "gani": 1991,
      "ቅዱ": 1992,
      "amẹ́": 1993,
      "muha": 1994,
      "ች።": 1995,
      "lea": 1996,
      "28": 1997,
      "amẹ́ríkà": 1998,
      "seri": 1999,
      "mwi": 2000,
      "መካ": 2001,
      "jà": 2002,
      "mpi": 2003,
      "ogun": 2004,
      "garin": 2005,
      "siya": 2006,
      "ላቸው": 2007,
      "gor": 2008,
      "ያስ": 2009,
      "ka,": 2010,
      "ojo": 2011,
      "gro": 2012,
      "ne,": 2013,
      "janu": 2014,
      "2019": 2015,
      "27": 2016,
      "ation": 2017,
      "ወር": 2018,
      "gasar": 2019,
      "kungiyar": 2020,
      "i,": 2021,
      "sá": 2022,
      "uti": 2023,
      "minis": 2024,
      "6)": 2025,
      "aust": 2026,
      "ob": 2027,
      "ዝር": 2028,
      "vita": 2029,
      "ale": 2030,
      "bẹ́": 2031,
      "ቦች": 2032,
      "ingila": 2033,
      "zili": 2034,
      "mari": 2035,
      "ses": 2036,
      "poli": 2037,
      "አበ": 2038,
      "maja": 2039,
      "arewa": 2040,
      "ayé": 2041,
      "ፈር": 2042,
      "fil": 2043,
      "ከዚህ": 2044,
      "tàbí": 2045,
      "máa": 2046,
      "ƙasa": 2047,
      "anan": 2048,
      "mù": 2049,
      "የሚገኝ": 2050,
      "mì": 2051,
      "ባህ": 2052,
      "ምር": 2053,
      "hen": 2054,
      "uran": 2055,
      "liki": 2056,
      "k.": 2057,
      "kad": 2058,
      "fẹ́": 2059,
      "ተቀ": 2060,
      "ብቻ": 2061,
      "ወለ": 2062,
      "ክርስቲ": 2063,
      "kea": 2064,
      "c.": 2065,
      "dani": 2066,
      "musul": 2067,
      "ሁለ": 2068,
      "ደቡ": 2069,
      "loni": 2070,
      "aki": 2071,
      "ም።": 2072,
      "ተር": 2073,
      "dishi": 2074,
      "ƙar": 2075,
      "ኤል": 2076,
      "ww": 2077,
      "nigeria": 2078,
      "4)": 2079,
      "zan": 2080,
      "bẹ̀rẹ̀": 2081,
      "ux": 2082,
      "ባት": 2083,
      "bay": 2084,
      "historia": 2085,
      "tani": 2086,
      "hara": 2087,
      "ሥር": 2088,
      "nove": 2089,
      "kawa": 2090,
      "med": 2091,
      "ሁም": 2092,
      "ìtọ́kasí": 2093,
      "ክት": 2094,
      "3)": 2095,
      "7)": 2096,
      "ny": 2097,
      "sannan": 2098,
      "er,": 2099,
      "ende": 2100,
      "ሁን": 2101,
      "አር": 2102,
      "ቢያ": 2103,
      "ዘንድ": 2104,
      "mis": 2105,
      "ላንድ": 2106,
      "በብ": 2107,
      "ìṣ": 2108,
      "zini": 2109,
      "'i": 2110,
      "ማን": 2111,
      "matai": 2112,
      "dai": 2113,
      "አገር": 2114,
      "26": 2115,
      "ère": 2116,
      "ipin": 2117,
      "tangu": 2118,
      "በኢትዮጵያ": 2119,
      "scho": 2120,
      ".ኤ": 2121,
      "van": 2122,
      "biyar": 2123,
      "septe": 2124,
      "ገድ": 2125,
      "1)": 2126,
      "hon": 2127,
      "nes": 2128,
      "ኖች": 2129,
      "kudu": 2130,
      "lili": 2131,
      "plus": 2132,
      "shine": 2133,
      "ታቸው": 2134,
      "this": 2135,
      "cer": 2136,
      "እንግሊዝኛ": 2137,
      "ence": 2138,
      "agba": 2139,
      "abo": 2140,
      "wengi": 2141,
      "award": 2142,
      "pré": 2143,
      "fasi": 2144,
      "ሁለት": 2145,
      "dogo": 2146,
      "kàn": 2147,
      "ገን": 2148,
      "ተመ": 2149,
      "ወቅ": 2150,
      "tran": 2151,
      "ጀምሮ": 2152,
      "9.": 2153,
      "ght": 2154,
      "bro": 2155,
      "amma": 2156,
      "school": 2157,
      "majali": 2158,
      "lẹ": 2159,
      "omi": 2160,
      "rd": 2161,
      "አው": 2162,
      "tive": 2163,
      "dú": 2164,
      "zaidi": 2165,
      "ìdí": 2166,
      "ቅም": 2167,
      "kaska": 2168,
      "ቃል": 2169,
      "ቆጣ": 2170,
      "የር": 2171,
      ".አ.": 2172,
      "እ.ኤ": 2173,
      "cre": 2174,
      "musa": 2175,
      "rais": 2176,
      "pata": 2177,
      "9,": 2178,
      "ọdun": 2179,
      "ቅዱስ": 2180,
      "yoyin": 2181,
      "kuto": 2182,
      "le,": 2183,
      "rubu": 2184,
      "188": 2185,
      "መሰ": 2186,
      "ctor": 2187,
      "kaskazini": 2188,
      "gida": 2189,
      "የት": 2190,
      "fuata": 2191,
      "jami'ar": 2192,
      "ìjọba": 2193,
      "ናቸው።": 2194,
      "ul": 2195,
      "ለያ": 2196,
      "ሔር": 2197,
      "mashariki": 2198,
      "ade": 2199,
      "parti": 2200,
      "pò": 2201,
      "sa.": 2202,
      "akan": 2203,
      "yamma": 2204,
      "2)": 2205,
      "hada": 2206,
      "ungo": 2207,
      "oba": 2208,
      "ትና": 2209,
      "maso": 2210,
      "uku": 2211,
      "nchini": 2212,
      "run": 2213,
      "bai": 2214,
      "ró": 2215,
      "upande": 2216,
      "toba": 2217,
      "fre": 2218,
      "hili": 2219,
      "ak": 2220,
      "ተከ": 2221,
      "ne.": 2222,
      "ንዳ": 2223,
      "ዋል": 2224,
      "ጽሐ": 2225,
      "ትምህ": 2226,
      "ghana": 2227,
      "በረ": 2228,
      "cul": 2229,
      "ያለው": 2230,
      "mag": 2231,
      "shir": 2232,
      "ola": 2233,
      "febru": 2234,
      "\",": 2235,
      "makarantar": 2236,
      "àrùn": 2237,
      "ይል": 2238,
      "ding": 2239,
      "ገብ": 2240,
      "jama'a": 2241,
      "ime": 2242,
      "sa,": 2243,
      "odun": 2244,
      "zaji": 2245,
      "yun": 2246,
      "ግራ": 2247,
      "amfani": 2248,
      "kanin": 2249,
      "wí": 2250,
      "ልጣ": 2251,
      "ቁጥር": 2252,
      "mpa": 2253,
      "huri": 2254,
      "ገኘ": 2255,
      "ves": 2256,
      "ah": 2257,
      "jini": 2258,
      "ins": 2259,
      "which": 2260,
      "lí": 2261,
      "lù": 2262,
      "ሌሎች": 2263,
      "wadan": 2264,
      "በላይ": 2265,
      "እንዲሁም": 2266,
      "int": 2267,
      "fim": 2268,
      "viungo": 2269,
      "state": 2270,
      "ጀር": 2271,
      "i.": 2272,
      "mawa": 2273,
      "50": 2274,
      "kejì": 2275,
      "leo": 2276,
      "cro": 2277,
      "àkọ́": 2278,
      "kula": 2279,
      "ስን": 2280,
      "ave": 2281,
      "tte": 2282,
      "pá": 2283,
      "musi": 2284,
      "bahari": 2285,
      "africa": 2286,
      "ደቡብ": 2287,
      "cra": 2288,
      "bla": 2289,
      "apri": 2290,
      "del": 2291,
      "aux": 2292,
      "ንን": 2293,
      "gbò": 2294,
      "muhamma": 2295,
      "baya": 2296,
      "utar": 2297,
      "ዓለም": 2298,
      "8)": 2299,
      "sig": 2300,
      "shiga": 2301,
      "baba": 2302,
      "koa": 2303,
      "km": 2304,
      "ወጣ": 2305,
      "ìmọ̀": 2306,
      "kafin": 2307,
      "ua": 2308,
      "ማዊ": 2309,
      "መረ": 2310,
      "uko": 2311,
      "በቀ": 2312,
      "መጠ": 2313,
      "dio": 2314,
      "ባይ": 2315,
      "ታል።": 2316,
      "shekaru": 2317,
      "first": 2318,
      "ùbá": 2319,
      "naiji": 2320,
      "ètò": 2321,
      "juu": 2322,
      "ከአ": 2323,
      "bíi": 2324,
      "vie": 2325,
      "ለይ": 2326,
      "low": 2327,
      "sunan": 2328,
      "ስታ": 2329,
      "ናዊ": 2330,
      "dini": 2331,
      "hausa": 2332,
      "ሜን": 2333,
      "city": 2334,
      "የው": 2335,
      "jir": 2336,
      "cla": 2337,
      "ሲያ": 2338,
      "ìnrin": 2339,
      "joba": 2340,
      "bisa": 2341,
      "ago": 2342,
      "ff": 2343,
      "yorùbá": 2344,
      "ag": 2345,
      "kè": 2346,
      "በሰ": 2347,
      "gidan": 2348,
      "sauran": 2349,
      "majalisar": 2350,
      "ds": 2351,
      "ሳት": 2352,
      "oktoba": 2353,
      "avec": 2354,
      "has": 2355,
      "agbe": 2356,
      "ቦታ": 2357,
      "ojú": 2358,
      "ting": 2359,
      "zaman": 2360,
      "ገና": 2361,
      "kili": 2362,
      "ጣል": 2363,
      "//": 2364,
      "sama": 2365,
      "take": 2366,
      "rì": 2367,
      "ttp": 2368,
      "ባለው": 2369,
      "fá": 2370,
      "kani": 2371,
      "http": 2372,
      "jar": 2373,
      "sílẹ̀": 2374,
      "ler": 2375,
      "kamfan": 2376,
      "ọjọ́ìbí": 2377,
      "dy": 2378,
      "iliyo": 2379,
      "hiyo": 2380,
      "ayyu": 2381,
      "jari": 2382,
      "hivyo": 2383,
      "ፈረን": 2384,
      "char": 2385,
      "kata": 2386,
      "kùn": 2387,
      "ẹgbẹ́": 2388,
      "nípa": 2389,
      "were": 2390,
      "coun": 2391,
      "በስ": 2392,
      "ብራ": 2393,
      "wilaya": 2394,
      "amur": 2395,
      "ዘር": 2396,
      "asili": 2397,
      "ongo": 2398,
      "spe": 2399,
      "world": 2400,
      "ese": 2401,
      "day": 2402,
      "cce": 2403,
      "miji": 2404,
      "ሚያ": 2405,
      "ከዚያ": 2406,
      "ang": 2407,
      "its": 2408,
      "eli": 2409,
      "elle": 2410,
      "n.": 2411,
      "ሥታት": 2412,
      "መካከል": 2413,
      "ዎቹ": 2414,
      "lára": 2415,
      "karatun": 2416,
      "yanzu": 2417,
      "pọ": 2418,
      "ipinle": 2419,
      "lago": 2420,
      "sia": 2421,
      "l,": 2422,
      "ጠራ": 2423,
      "may": 2424,
      "w.": 2425,
      "clu": 2426,
      "ይታ": 2427,
      "እ.ኤ.አ.": 2428,
      "digi": 2429,
      "ujerumani": 2430,
      "ingine": 2431,
      "úkọ": 2432,
      "://": 2433,
      "lò": 2434,
      "abin": 2435,
      "rọ́": 2436,
      "ako": 2437,
      "hukumar": 2438,
      "uingereza": 2439,
      "ታላ": 2440,
      "ጨረሻ": 2441,
      "jia": 2442,
      "cation": 2443,
      "ilikuwa": 2444,
      "hanyar": 2445,
      "buga": 2446,
      "ከመ": 2447,
      "ከነ": 2448,
      "oko": 2449,
      "akwai": 2450,
      "pẹ": 2451,
      "ሰራ": 2452,
      "dhi": 2453,
      "eno": 2454,
      "daban": 2455,
      "fon": 2456,
      "ሴት": 2457,
      "በዘመነ": 2458,
      "sabo": 2459,
      "kira": 2460,
      "eng": 2461,
      "roma": 2462,
      "mbar": 2463,
      "anti": 2464,
      "ሃይ": 2465,
      "najeriya.": 2466,
      "aṣ": 2467,
      "ls": 2468,
      "2020": 2469,
      "jáde": 2470,
      "yali": 2471,
      "sont": 2472,
      "0)": 2473,
      "jamhuri": 2474,
      "pon": 2475,
      "ìdì": 2476,
      "9)": 2477,
      "wato": 2478,
      "aji": 2479,
      "siasa": 2480,
      "orod": 2481,
      "sami": 2482,
      "haka": 2483,
      "african": 2484,
      "phy": 2485,
      "ሥነ": 2486,
      "gue": 2487,
      "100": 2488,
      "rá": 2489,
      "pani": 2490,
      "ኖር": 2491,
      "dari": 2492,
      "tso": 2493,
      "s)": 2494,
      "prin": 2495,
      "colle": 2496,
      "visiwa": 2497,
      "የቀ": 2498,
      "karamar": 2499,
      "nàìjíríà.": 2500,
      "tsakanin": 2501,
      "use": 2502,
      "ma'": 2503,
      "r.": 2504,
      "game": 2505,
      "ig": 2506,
      "vol": 2507,
      "iba": 2508,
      "stu": 2509,
      "langua": 2510,
      "zwa": 2511,
      "ano": 2512,
      "ẹni": 2513,
      "ipa": 2514,
      "magh": 2515,
      "itwa": 2516,
      "op": 2517,
      "ሰማ": 2518,
      "kila": 2519,
      "òun": 2520,
      "hol": 2521,
      "ስና": 2522,
      "ትል": 2523,
      "sani": 2524,
      "baki": 2525,
      "እግዚ": 2526,
      "gari": 2527,
      "anci": 2528,
      "saboda": 2529,
      "huru": 2530,
      "dun": 2531,
      "ded": 2532,
      "ክፍለ": 2533,
      "ba,": 2534,
      "mahai": 2535,
      "all": 2536,
      "ምክንያ": 2537,
      "ọ̀rọ̀": 2538,
      "ደን": 2539,
      "àgbà": 2540,
      "l’": 2541,
      "nyin": 2542,
      "ቆጣጠር": 2543,
      "ogra": 2544,
      "u,": 2545,
      "ግዛት": 2546,
      "sàn": 2547,
      "ስብ": 2548,
      "ታይ": 2549,
      "gbọ́n": 2550,
      "al'": 2551,
      "juli": 2552,
      "nyingi": 2553,
      "kumbu": 2554,
      "but": 2555,
      "ፍራ": 2556,
      "taka": 2557,
      "ምዕ": 2558,
      "ይና": 2559,
      "bre": 2560,
      "alla": 2561,
      "ያው": 2562,
      "ham": 2563,
      "እግዚአብ": 2564,
      "ẹlẹ́": 2565,
      "ምድር": 2566,
      "girma": 2567,
      "trans": 2568,
      "lima": 2569,
      "orodha": 2570,
      "iko": 2571,
      "ራሱ": 2572,
      "ƙun": 2573,
      "አት": 2574,
      "እጅ": 2575,
      "ደት": 2576,
      "wacce": 2577,
      "pp": 2578,
      "ore": 2579,
      "fà": 2580,
      "kasuwan": 2581,
      "abi": 2582,
      "ወሰ": 2583,
      "ይባ": 2584,
      "muziki": 2585,
      "አካባቢ": 2586,
      "(199": 2587,
      "yá": 2588,
      "ijoba": 2589,
      "ba.": 2590,
      "gbó": 2591,
      "tabi": 2592,
      "lori": 2593,
      "ጆች": 2594,
      "ስር": 2595,
      "ሽን": 2596,
      "ከፍተኛ": 2597,
      "refu": 2598,
      "ot": 2599,
      "geor": 2600,
      "ኞች": 2601,
      "yayin": 2602,
      "augu": 2603,
      "cs": 2604,
      "dent": 2605,
      "ሆነው": 2606,
      "kópa": 2607,
      "ef": 2608,
      "gon": 2609,
      "ilimi": 2610,
      "ሊያ": 2611,
      "ገለ": 2612,
      "ጎር": 2613,
      "united": 2614,
      "መሠ": 2615,
      "ገደ": 2616,
      "kuanzi": 2617,
      "aribi": 2618,
      "2-": 2619,
      "ear": 2620,
      "port": 2621,
      "magharibi": 2622,
      "ɗin": 2623,
      "ግር": 2624,
      "186": 2625,
      "187": 2626,
      "samar": 2627,
      "በል": 2628,
      "dola": 2629,
      "anza": 2630,
      "stri": 2631,
      "iri": 2632,
      "alif": 2633,
      "dì": 2634,
      "offi": 2635,
      "anna": 2636,
      "mali": 2637,
      "ክር": 2638,
      "liam": 2639,
      "also": 2640,
      "ክርስቲያን": 2641,
      "sala": 2642,
      "not": 2643,
      "ይገኛ": 2644,
      "kia": 2645,
      "ful": 2646,
      "mini": 2647,
      "ገባ": 2648,
      "gudan": 2649,
      "gina": 2650,
      "serikali": 2651,
      "እግዚአብሔር": 2652,
      "mfalme": 2653,
      "ወንድ": 2654,
      "ዶች": 2655,
      "አንዱ": 2656,
      "ማስ": 2657,
      "mwandishi": 2658,
      "gas": 2659,
      "orúkọ": 2660,
      "da,": 2661,
      "yawa": 2662,
      "year": 2663,
      "sìn": 2664,
      "mal": 2665,
      "stitu": 2666,
      "ved": 2667,
      "ክፍል": 2668,
      "wasa": 2669,
      "mkoa": 2670,
      "ጠቅ": 2671,
      "manyan": 2672,
      "ጦርነት": 2673,
      "mare": 2674,
      "ሩት": 2675,
      "ግል": 2676,
      "wood": 2677,
      "lẹ́yìn": 2678,
      "way": 2679,
      "gudanar": 2680,
      "ይስ": 2681,
      "sababu": 2682,
      "china": 2683,
      "ọ̀n": 2684,
      "እግር": 2685,
      "euro": 2686,
      "èkó": 2687,
      "tain": 2688,
      "amerika": 2689,
      "fiziki": 2690,
      "tẹ́": 2691,
      "እንደሚ": 2692,
      "international": 2693,
      "jùlọ": 2694,
      "በላ": 2695,
      "tatta": 2696,
      "mbalimbali": 2697,
      "ትምህርት": 2698,
      "yọ": 2699,
      "የነበረ": 2700,
      "kék": 2701,
      "ሞት": 2702,
      "ይች": 2703,
      "kékeré": 2704,
      "tique": 2705,
      "lement": 2706,
      "olú": 2707,
      "tarihi": 2708,
      "ኒያ": 2709,
      "mulkin": 2710,
      "italia": 2711,
      "40": 2712,
      "mman": 2713,
      "ባር": 2714,
      "rand": 2715,
      "መድ": 2716,
      "መጣ": 2717,
      "ople": 2718,
      "sci": 2719,
      "የስ": 2720,
      "gbègbè": 2721,
      "cial": 2722,
      "cam": 2723,
      "win": 2724,
      "nuna": 2725,
      "shara": 2726,
      "bert": 2727,
      "lán": 2728,
      "fes": 2729,
      "hukumo": 2730,
      "su.": 2731,
      "ቀር": 2732,
      "ፍት": 2733,
      "arabu": 2734,
      "premi": 2735,
      "ለን": 2736,
      "ደም": 2737,
      "gion": 2738,
      "ge,": 2739,
      "ልክ": 2740,
      "ring": 2741,
      "dín": 2742,
      "ደረገ": 2743,
      "mtakatifu": 2744,
      "agbegbe": 2745,
      "gí": 2746,
      "ras": 2747,
      "sẹ̀": 2748,
      "መጽሐ": 2749,
      "ተራ": 2750,
      "ቱም": 2751,
      "አረ": 2752,
      "ìtàn": 2753,
      "es.": 2754,
      "tele.": 2755,
      "láà": 2756,
      "አዲስ": 2757,
      "kwamba": 2758,
      "sis": 2759,
      "tsi": 2760,
      "ቀት": 2761,
      "tele": 2762,
      "ዕለ": 2763,
      "kuta": 2764,
      "who": 2765,
      "yuni": 2766,
      "lation": 2767,
      "ዮን": 2768,
      "guda": 2769,
      "የመጀመሪያ": 2770,
      "filamu": 2771,
      "non": 2772,
      "fito": 2773,
      "ራል": 2774,
      "አቆጣጠር": 2775,
      "በተለይ": 2776,
      "kenya": 2777,
      "popu": 2778,
      "rú": 2779,
      "ዋን": 2780,
      "kilo": 2781,
      "d-": 2782,
      "l.": 2783,
      "led": 2784,
      "አፍ": 2785,
      "ker": 2786,
      "te,": 2787,
      "domin": 2788,
      "ታል": 2789,
      "ከተሞች": 2790,
      "||": 2791,
      "http://": 2792,
      "core": 2793,
      "ክስ": 2794,
      "lake": 2795,
      "samun": 2796,
      "ṣi": 2797,
      "stẹ́": 2798,
      "በጣ": 2799,
      "ጥንታዊ": 2800,
      "aliye": 2801,
      "gó": 2802,
      "ሕዝብ": 2803,
      "ጠቃ": 2804,
      "produ": 2805,
      "ግብጽ": 2806,
      "lara": 2807,
      "ous": 2808,
      "irin": 2809,
      "tala": 2810,
      "velo": 2811,
      "maeneo": 2812,
      "kokin": 2813,
      "william": 2814,
      "stru": 2815,
      "bari": 2816,
      "tech": 2817,
      "llo": 2818,
      "people": 2819,
      "ድሞ": 2820,
      "fami": 2821,
      "ato": 2822,
      "dún": 2823,
      "kno": 2824,
      "pati": 2825,
      "ምዕራ": 2826,
      "kir": 2827,
      "ኩል": 2828,
      "ቀው": 2829,
      "ዳር": 2830,
      "tẹ": 2831,
      "qu'": 2832,
      "u.": 2833,
      "rìn": 2834,
      "ራስ": 2835,
      "ክለ": 2836,
      "ée": 2837,
      "had": 2838,
      "ethi": 2839,
      "በው": 2840,
      "rọ́ìdì": 2841,
      "(a": 2842,
      "ner": 2843,
      "ce.": 2844,
      "አበባ": 2845,
      "ástẹ́": 2846,
      "kamfanin": 2847,
      "ástẹ́rọ́ìdì": 2848,
      "demo": 2849,
      "igba": 2850,
      "ማኖ": 2851,
      "ọ̀kan": 2852,
      "yenye": 2853,
      "sù": 2854,
      "ልዩ": 2855,
      "የሱ": 2856,
      "mutanen": 2857,
      "time": 2858,
      "éta": 2859,
      "other": 2860,
      "ments": 2861,
      "በፊት": 2862,
      "ከሚ": 2863,
      "maza": 2864,
      "bùn": 2865,
      "ጥቅም": 2866,
      "jeshi": 2867,
      "isi": 2868,
      "rọ": 2869,
      "tazama": 2870,
      "dire": 2871,
      "swa": 2872,
      "ለያዩ": 2873,
      "kiya": 2874,
      "mama": 2875,
      "tumia": 2876,
      "spi": 2877,
      "ila": 2878,
      "wajen": 2879,
      "ki,": 2880,
      "masa": 2881,
      "gùn": 2882,
      "ልድ": 2883,
      "fasa": 2884,
      "ታው": 2885,
      "ẹ̀yẹ": 2886,
      "tsarin": 2887,
      "para": 2888,
      "inayo": 2889,
      "sanya": 2890,
      "ami": 2891,
      "ላም": 2892,
      "ካል": 2893,
      "yayi": 2894,
      "gano": 2895,
      "toliki": 2896,
      "mad": 2897,
      "wara": 2898,
      "ath": 2899,
      "aga": 2900,
      "mina": 2901,
      "cou": 2902,
      "እነዚህ": 2903,
      "bẹ́ẹ̀": 2904,
      "comme": 2905,
      "zai": 2906,
      "ዓመታት": 2907,
      "is,": 2908,
      "ìgbé": 2909,
      "south": 2910,
      "bn": 2911,
      "warar": 2912,
      "ume": 2913,
      "óò": 2914,
      "ህል": 2915,
      "የሰ": 2916,
      "unci": 2917,
      "ተኛው": 2918,
      "litta": 2919,
      "níbi": 2920,
      "iṣẹ": 2921,
      "ወቅት": 2922,
      "cour": 2923,
      "agbègbè": 2924,
      "ong": 2925,
      "aye": 2926,
      "bba": 2927,
      "ሱም": 2928,
      "ነገሥታት": 2929,
      "mataifa": 2930,
      "rán": 2931,
      "መጥ": 2932,
      "ቀጥ": 2933,
      "farkon": 2934,
      "ach": 2935,
      "bc": 2936,
      "aba": 2937,
      "london": 2938,
      "wur": 2939,
      "air": 2940,
      "ዮሐ": 2941,
      "rà": 2942,
      "lis": 2943,
      "tter": 2944,
      "ufaransa": 2945,
      "film": 2946,
      "ሮፓ": 2947,
      "nijeriya.": 2948,
      "dha": 2949,
      "dama": 2950,
      "yadda": 2951,
      "ገኝ": 2952,
      "ፈል": 2953,
      "dó": 2954,
      "ተወ": 2955,
      "ይህም": 2956,
      "rayuwar": 2957,
      "bayyana": 2958,
      "tuna": 2959,
      "kananan": 2960,
      "ሪካዊ": 2961,
      "dro": 2962,
      "dra": 2963,
      "àmì": 2964,
      "allah": 2965,
      "lly": 2966,
      "wadanda": 2967,
      "-o": 2968,
      "አይነት": 2969,
      "በግ": 2970,
      "if": 2971,
      "ረተ": 2972,
      "kuanzia": 2973,
      "koma": 2974,
      "lafi": 2975,
      "ojoibi": 2976,
      "weza": 2977,
      "k,": 2978,
      "lib": 2979,
      "american": 2980,
      "eria": 2981,
      "rayuwa": 2982,
      "tou": 2983,
      "nigerian": 2984,
      "utu": 2985,
      "lánẹ́": 2986,
      "ንና": 2987,
      "ነበረ።": 2988,
      "ጀርመን": 2989,
      "ሬት": 2990,
      "vin": 2991,
      "kand": 2992,
      "ማዕ": 2993,
      "ኳስ": 2994,
      "machi": 2995,
      "kazi": 2996,
      "òṣ": 2997,
      "kutokana": 2998,
      "vile": 2999,
      "ባቸው": 3000,
      "ዮሐንስ": 3001,
      "ambayo": 3002,
      "ìgbàjá": 3003,
      "lánẹ́tì": 3004,
      "some": 3005,
      "ስፋ": 3006,
      "ዕለት": 3007,
      "secon": 3008,
      "y.": 3009,
      "ከለ": 3010,
      "ጠረ": 3011,
      "ethio": 3012,
      "imp": 3013,
      "rès": 3014,
      "jirgin": 3015,
      "ṣẹ": 3016,
      "agosti": 3017,
      "west": 3018,
      "januari": 3019,
      "የግ": 3020,
      "mò": 3021,
      "plánẹ́tì": 3022,
      "àwon": 3023,
      "ያም": 3024,
      "ጀመርያ": 3025,
      "august": 3026,
      "wiki": 3027,
      "sor": 3028,
      "party": 3029,
      "አድር": 3030,
      "ọ̀pọ̀": 3031,
      "ingila.": 3032,
      "àkó": 3033,
      "ያዘ": 3034,
      ",000": 3035,
      "3-": 3036,
      "akọ": 3037,
      "tz": 3038,
      "ሙሉ": 3039,
      "biashara": 3040,
      "ሠራ": 3041,
      "ግድም": 3042,
      "mei": 3043,
      "ተን": 3044,
      "ፕሬ": 3045,
      "zamani": 3046,
      "mwe": 3047,
      "hata": 3048,
      "tant": 3049,
      "have": 3050,
      "comm": 3051,
      "lagos": 3052,
      "ṣẹ́": 3053,
      "fanya": 3054,
      "p.": 3055,
      "ብት": 3056,
      "ውድ": 3057,
      "te.": 3058,
      "kaduna": 3059,
      "ástẹ́rọ́ìdì.": 3060,
      "ይን": 3061,
      "gbajú": 3062,
      "60": 3063,
      "bò": 3064,
      "agbá": 3065,
      "ሪዎች": 3066,
      "birni": 3067,
      "karibu": 3068,
      "shirin": 3069,
      "abdu": 3070,
      "dre": 3071,
      "aare": 3072,
      "ገበ": 3073,
      "orun": 3074,
      "islamu": 3075,
      "kh": 3076,
      "teur": 3077,
      "iru": 3078,
      "yara": 3079,
      "አስተዳ": 3080,
      "fizikia": 3081,
      "ዓት": 3082,
      "የሆነ": 3083,
      "ይለ": 3084,
      "emp": 3085,
      "ster": 3086,
      "ndani": 3087,
      "kiri": 3088,
      "temp": 3089,
      "juni": 3090,
      "ናል።": 3091,
      "ደው": 3092,
      "ብሔ": 3093,
      "ቴዎ": 3094,
      "ፈው": 3095,
      "julai": 3096,
      "እም": 3097,
      "ፈረንሳይ": 3098,
      "jé": 3099,
      "ሰን": 3100,
      "méjì": 3101,
      "uve": 3102,
      "yon": 3103,
      "lf": 3104,
      "ምንም": 3105,
      "endelea": 3106,
      "waɗan": 3107,
      "part": 3108,
      "ላክ": 3109,
      "waje": 3110,
      "maa": 3111,
      "suke": 3112,
      "መት": 3113,
      "እው": 3114,
      "lógún": 3115,
      "iye": 3116,
      "ህዝብ": 3117,
      "ታሪካዊ": 3118,
      "ጨማሪ": 3119,
      "dition": 3120,
      "só": 3121,
      "ofin": 3122,
      "sake": 3123,
      "gaji": 3124,
      "musulunci": 3125,
      "ቲካ": 3126,
      "huko": 3127,
      "àkọ́kọ́": 3128,
      "id": 3129,
      "pra": 3130,
      "rika": 3131,
      "አቀ": 3132,
      "lou": 3133,
      "ki.": 3134,
      "vent": 3135,
      "bú": 3136,
      "ናል": 3137,
      "ገኙ": 3138,
      "apa": 3139,
      "pal": 3140,
      "arin": 3141,
      "tak": 3142,
      "medi": 3143,
      "kano": 3144,
      "zin": 3145,
      "ልም": 3146,
      "than": 3147,
      "ks": 3148,
      "maru": 3149,
      "uhuru": 3150,
      "wer": 3151,
      "amin": 3152,
      "aika": 3153,
      "gabatar": 3154,
      "tarihin": 3155,
      "line": 3156,
      "ርክ": 3157,
      "yao": 3158,
      "idadi": 3159,
      "la,": 3160,
      "tofa": 3161,
      "ላለ": 3162,
      "ኢን": 3163,
      "ጥናት": 3164,
      "emba": 3165,
      "rín": 3166,
      "ላዊ": 3167,
      "አማ": 3168,
      "ይታወ": 3169,
      "de,": 3170,
      "አሜሪካ": 3171,
      "በጣም": 3172,
      "31": 3173,
      "shiriki": 3174,
      "uri": 3175,
      "rich": 3176,
      "jagor": 3177,
      "ምክንያት": 3178,
      "tafi": 3179,
      "kuli": 3180,
      "gizaji": 3181,
      "najeriya,": 3182,
      "kina": 3183,
      "hy": 3184,
      "ራቸው": 3185,
      "ይት": 3186,
      "wakristo": 3187,
      "kimi": 3188,
      "peke": 3189,
      "185": 3190,
      "wípé": 3191,
      "kemia": 3192,
      "ys": 3193,
      "ling": 3194,
      "ero": 3195,
      "kwale": 3196,
      "...": 3197,
      "80": 3198,
      "pha": 3199,
      "ibile": 3200,
      "ral": 3201,
      "b.": 3202,
      "ህን": 3203,
      "east": 3204,
      "haifa": 3205,
      "ሰር": 3206,
      "lọ́wọ́": 3207,
      "utawala": 3208,
      "ganda": 3209,
      "ባሕ": 3210,
      "kale": 3211,
      "ዎችን": 3212,
      "ደረጃ": 3213,
      "ally": 3214,
      "sch": 3215,
      "ልማ": 3216,
      "kundi": 3217,
      "été": 3218,
      "zungu": 3219,
      "siyasa": 3220,
      "ayyukan": 3221,
      "zari": 3222,
      "ሳብ": 3223,
      "itali": 3224,
      "kù": 3225,
      "መነ": 3226,
      "fuat": 3227,
      "dunia": 3228,
      "gwamnatin": 3229,
      "g,": 3230,
      "የኤ": 3231,
      "fannin": 3232,
      "c,": 3233,
      "s'": 3234,
      "ulaya": 3235,
      "ደል": 3236,
      "ዓመቱ": 3237,
      "-i": 3238,
      "language": 3239,
      "rou": 3240,
      "tẹ̀": 3241,
      "መንገድ": 3242,
      "muhammad": 3243,
      "ሮማ": 3244,
      "gover": 3245,
      "adhi": 3246,
      "main": 3247,
      "dára": 3248,
      "pele": 3249,
      "oṣ": 3250,
      "ዮች": 3251,
      "chagu": 3252,
      "àgbé": 3253,
      "river": 3254,
      "ɗaya": 3255,
      "velop": 3256,
      "35": 3257,
      "fé": 3258,
      "ወንዝ": 3259,
      "di,": 3260,
      "jana": 3261,
      "ልጆች": 3262,
      "kamma": 3263,
      "fasihi": 3264,
      "tv": 3265,
      "ምህ": 3266,
      "ዛሬ": 3267,
      "fíì": 3268,
      "rd1-": 3269,
      "lau": 3270,
      "aru": 3271,
      "tory": 3272,
      "የካ": 3273,
      "after": 3274,
      "forma": 3275,
      "ans": 3276,
      "ይወት": 3277,
      "dili": 3278,
      "si,": 3279,
      "ም፣": 3280,
      "ነጻ": 3281,
      "kammala": 3282,
      "im": 3283,
      "tumi": 3284,
      "dece": 3285,
      "ምስ": 3286,
      "mìn": 3287,
      "áf": 3288,
      "wọ̀n": 3289,
      "ci,": 3290,
      "l'é": 3291,
      "tọ̀": 3292,
      "ሙዚ": 3293,
      "የበ": 3294,
      "on,": 3295,
      "desemba": 3296,
      "ilé-ẹ̀kọ́": 3297,
      "gal": 3298,
      "hukuma": 3299,
      "ቶስ": 3300,
      "ሃይማኖ": 3301,
      "their": 3302,
      "book": 3303,
      "2011": 3304,
      "centu": 3305,
      "isa": 3306,
      "ሳዊ": 3307,
      "ከት": 3308,
      "chake": 3309,
      "aprili": 3310,
      "padà": 3311,
      "ይህን": 3312,
      "ima": 3313,
      "kika": 3314,
      "iso": 3315,
      "184": 3316,
      "ue": 3317,
      "መው": 3318,
      "እንዲህ": 3319,
      "ander": 3320,
      "www.": 3321,
      "kua": 3322,
      "selu": 3323,
      "av": 3324,
      "koloni": 3325,
      "37": 3326,
      "tch": 3327,
      "ልብ": 3328,
      "ኛ፦": 3329,
      "ààrẹ": 3330,
      "mais": 3331,
      "wri": 3332,
      "score": 3333,
      "lambar": 3334,
      "cibiyar": 3335,
      "naijiria": 3336,
      "si.": 3337,
      "kwaikwa": 3338,
      "septemba": 3339,
      "hukumomin": 3340,
      "most": 3341,
      "kats": 3342,
      "hàn": 3343,
      "mpaka": 3344,
      "kanisa": 3345,
      "reli": 3346,
      "mla": 3347,
      "dali": 3348,
      "ርድ": 3349,
      "kabi": 3350,
      "ira": 3351,
      "ተብሎ": 3352,
      "ma.": 3353,
      "rẹ́": 3354,
      "ንቲ": 3355,
      "አፈ": 3356,
      "tanga": 3357,
      "መልክ": 3358,
      "2015": 3359,
      "logi": 3360,
      "kuba": 3361,
      "ጎን": 3362,
      "europe": 3363,
      "katsina": 3364,
      "በቅ": 3365,
      "ብረት": 3366,
      "ሉቃ": 3367,
      "የአሜሪካ": 3368,
      "ውም": 3369,
      "kuhusu": 3370,
      "ሆነ።": 3371,
      "ቋንቋዎች": 3372,
      "mace": 3373,
      "gres": 3374,
      "in,": 3375,
      "ilimin": 3376,
      "digiri": 3377,
      "cé": 3378,
      "ndi": 3379,
      "jí": 3380,
      "adé": 3381,
      "ፓር": 3382,
      "tá": 3383,
      "ama": 3384,
      "cau": 3385,
      "sse": 3386,
      "cle": 3387,
      "ishi": 3388,
      "ል፣": 3389,
      "january": 3390,
      "amurka": 3391,
      "re,": 3392,
      "mil": 3393,
      "high": 3394,
      "መንግስት": 3395,
      "tofauti": 3396,
      "(ከ": 3397,
      "ሚኒ": 3398,
      "እየ": 3399,
      "2007": 3400,
      "''": 3401,
      "ይቀ": 3402,
      "ልጣን": 3403,
      "pelu": 3404,
      "fina-": 3405,
      "masara": 3406,
      "asalin": 3407,
      "kal": 3408,
      "aca": 3409,
      "plan": 3410,
      "ስለዚህ": 3411,
      "art": 3412,
      "ሊክ": 3413,
      "ደጋ": 3414,
      "entre": 3415,
      "uba": 3416,
      "ለምሳሌ": 3417,
      "ṣí": 3418,
      "halar": 3419,
      "isbn": 3420,
      "jerin": 3421,
      "90": 3422,
      "december": 3423,
      "òrùn": 3424,
      "ሀገ": 3425,
      "masana": 3426,
      "kọ̀ọ́": 3427,
      "ወረዳ": 3428,
      "mwigizaji": 3429,
      "2010": 3430,
      "tr": 3431,
      "ens": 3432,
      "red": 3433,
      "ልግ": 3434,
      "እያ": 3435,
      "inclu": 3436,
      "እንጂ": 3437,
      "musamman": 3438,
      "fíìmù": 3439,
      "ፖለ": 3440,
      "februari": 3441,
      "swahili": 3442,
      "yari": 3443,
      "sà": 3444,
      "posi": 3445,
      "ving": 3446,
      "kilomita": 3447,
      "dou": 3448,
      "ረብ": 3449,
      "ጉዳ": 3450,
      "ፈለ": 3451,
      "(198": 3452,
      "malla": 3453,
      "ሉቃስ": 3454,
      "net": 3455,
      "york": 3456,
      "yóò": 3457,
      "አዳ": 3458,
      "bal": 3459,
      "mwenye": 3460,
      "ብለው": 3461,
      "ጽሑ": 3462,
      "binci": 3463,
      "novemba": 3464,
      "d’": 3465,
      "hor": 3466,
      "2012": 3467,
      "wón": 3468,
      "8-": 3469,
      "ani.": 3470,
      "jour": 3471,
      "september": 3472,
      "àì": 3473,
      "annabi": 3474,
      "life": 3475,
      "march": 3476,
      "በሽ": 3477,
      "ዋቂ": 3478,
      "kiyar": 3479,
      "náà.": 3480,
      "ነበሩ።": 3481,
      "sasa": 3482,
      "ley": 3483,
      "alo": 3484,
      "tation": 3485,
      "alex": 3486,
      "karatu": 3487,
      "70": 3488,
      "act": 3489,
      "ኖሩ": 3490,
      "andi": 3491,
      "tovu": 3492,
      "ng": 3493,
      "naa": 3494,
      "koso": 3495,
      "2006": 3496,
      "gbon": 3497,
      "ስሙ": 3498,
      "rai": 3499,
      "sco": 3500,
      "tres": 3501,
      "jeo": 3502,
      "zon": 3503,
      "ይዘ": 3504,
      "አለቃ": 3505,
      "lina": 3506,
      "ከተማው": 3507,
      "tex": 3508,
      "pili": 3509,
      "spa": 3510,
      "uwa": 3511,
      "2014": 3512,
      "ኖስ": 3513,
      "they": 3514,
      "mtu": 3515,
      "grand": 3516,
      "lowo": 3517,
      "yay": 3518,
      "ተፈ": 3519,
      "tokea": 3520,
      "ibn": 3521,
      "lish": 3522,
      "james": 3523,
      "mbia": 3524,
      "አሁን": 3525,
      "bé": 3526,
      "ተና": 3527,
      "ጥሩ": 3528,
      "ይባላል።": 3529,
      "uk": 3530,
      "kashin": 3531,
      "gwam": 3532,
      "ƙungiyar": 3533,
      "tiba": 3534,
      "36": 3535,
      "የእስ": 3536,
      "ṣèlú": 3537,
      "gawa": 3538,
      "bọ́": 3539,
      "pwani": 3540,
      "ቻይና": 3541,
      "ጮች": 3542,
      "ነገሮች": 3543,
      "መዝ": 3544,
      "ኔታ": 3545,
      "karni": 3546,
      "(c": 3547,
      "dif": 3548,
      "rasmi": 3549,
      "መጨረሻ": 3550,
      "mbre": 3551,
      "ላማ": 3552,
      "ወች": 3553,
      "kayan": 3554,
      "bet": 3555,
      "mungu": 3556,
      "nigba": 3557,
      "under": 3558,
      "mary": 3559,
      "ረዳ": 3560,
      "ሮስ": 3561,
      "tsohon": 3562,
      "iran": 3563,
      "እንስ": 3564,
      "ruwa": 3565,
      "nínu": 3566,
      "ፖለቲካ": 3567,
      "kongo": 3568,
      "ts,": 3569,
      "iv": 3570,
      "በም": 3571,
      "ፍል": 3572,
      "kisiwa": 3573,
      "sub": 3574,
      "የሚለው": 3575,
      "mutum": 3576,
      "vision": 3577,
      "open": 3578,
      "mkubwa": 3579,
      "saka": 3580,
      "ሶች": 3581,
      "ድል": 3582,
      "disa": 3583,
      "gener": 3584,
      "shari": 3585,
      "hakan": 3586,
      "ship": 3587,
      "labar": 3588,
      "hala": 3589,
      "franç": 3590,
      "kwami": 3591,
      "sinimá": 3592,
      "watakatifu": 3593,
      "marejeo": 3594,
      "century": 3595,
      "austra": 3596,
      "(ojoibi": 3597,
      "ዋቢ": 3598,
      "more": 3599,
      "ዝርዝር": 3600,
      "rent": 3601,
      "'yar": 3602,
      "ziwa": 3603,
      "associ": 3604,
      "saint": 3605,
      "ድርጅ": 3606,
      "hindi": 3607,
      "eyi": 3608,
      "መጀመርያ": 3609,
      "fen": 3610,
      "over": 3611,
      "kuji": 3612,
      "የኢ": 3613,
      "ደራ": 3614,
      "kiingereza": 3615,
      "kwallon": 3616,
      "harshen": 3617,
      "octo": 3618,
      "ame": 3619,
      "asia": 3620,
      "gene": 3621,
      "nau": 3622,
      "pli": 3623,
      "ረም": 3624,
      "ይሆ": 3625,
      "pẹlu": 3626,
      "list": 3627,
      "òfin": 3628,
      "ት፣": 3629,
      "aláì": 3630,
      "tattalin": 3631,
      "መጽሐፍ": 3632,
      "osu": 3633,
      "ti,": 3634,
      "ora": 3635,
      "cette": 3636,
      "manin": 3637,
      "ede": 3638,
      "ሕዝ": 3639,
      "tú": 3640,
      "ofi": 3641,
      "gẹ": 3642,
      "ን፡": 3643,
      "ክሉ": 3644,
      "puis": 3645,
      "mfu": 3646,
      "english": 3647,
      "biran": 3648,
      "ẹ̀ẹ́": 3649,
      "'an": 3650,
      "leur": 3651,
      "lashe": 3652,
      "well": 3653,
      "ነው፡፡": 3654,
      "1892": 3655,
      "2003": 3656,
      "ƴan": 3657,
      "ነሳ": 3658,
      "ክርስቶስ": 3659,
      "kita": 3660,
      "jose": 3661,
      "agu": 3662,
      "አንዳ": 3663,
      "shirye": 3664,
      "34": 3665,
      "ሎት": 3666,
      "tia": 3667,
      "unda": 3668,
      "kwalejin": 3669,
      "states": 3670,
      "atlan": 3671,
      "kasuwanci": 3672,
      "gbajúmọ̀": 3673,
      "97": 3674,
      "alth": 3675,
      "roya": 3676,
      "sè": 3677,
      "'in": 3678,
      "tish": 3679,
      "àdú": 3680,
      "taba": 3681,
      "hesa": 3682,
      "rẹ̀.": 3683,
      "gram": 3684,
      "mus": 3685,
      "group": 3686,
      "ነቱ": 3687,
      "éri": 3688,
      "ibadan": 3689,
      "inú": 3690,
      "እኔ": 3691,
      "haifaf": 3692,
      "kwaikwayo": 3693,
      "north": 3694,
      "em": 3695,
      "ከሰ": 3696,
      "college": 3697,
      "()": 3698,
      "hawa": 3699,
      "tọ́": 3700,
      "baadaye": 3701,
      "ẹlẹ́bùn": 3702,
      "cep": 3703,
      "an,": 3704,
      "cus": 3705,
      "e-": 3706,
      "ለች": 3707,
      "ẹ̀yà": 3708,
      "ròyìn": 3709,
      "pania": 3710,
      "180": 3711,
      "bìnrin": 3712,
      "ሁኔታ": 3713,
      "ced": 3714,
      "2000": 3715,
      "ado": 3716,
      "november": 3717,
      "darí": 3718,
      "two": 3719,
      "gali": 3720,
      "hispania": 3721,
      "6-": 3722,
      "to,": 3723,
      "2005": 3724,
      "george": 3725,
      "julo": 3726,
      "yammacin": 3727,
      "vari": 3728,
      "talla": 3729,
      "site": 3730,
      "ቢሆን": 3731,
      "kiwa": 3732,
      "ال": 3733,
      "nada": 3734,
      "yau": 3735,
      "february": 3736,
      "pó": 3737,
      "sing": 3738,
      "taifa": 3739,
      "torí": 3740,
      "ሁኑ": 3741,
      "ካር": 3742,
      "ጠው": 3743,
      "pàá": 3744,
      "obìnrin": 3745,
      "arewacin": 3746,
      "tus": 3747,
      "ሀገር": 3748,
      "karkashin": 3749,
      "yoyi": 3750,
      "web": 3751,
      "ning": 3752,
      "kiswahili": 3753,
      "umoja": 3754,
      "ከር": 3755,
      "nasara": 3756,
      "lọ́dún": 3757,
      "45": 3758,
      "ቆስ": 3759,
      "ፈን": 3760,
      "ፋት": 3761,
      "kifo": 3762,
      "misha": 3763,
      "kofin": 3764,
      "haihu": 3765,
      "አመት": 3766,
      "hudu": 3767,
      "መንፈ": 3768,
      "4-": 3769,
      "ft": 3770,
      "mjini": 3771,
      "ነጋ": 3772,
      "ዲያ": 3773,
      "roman": 3774,
      "fini": 3775,
      "njia": 3776,
      "àgbá": 3777,
      "ቅድ": 3778,
      "wájú": 3779,
      "ais": 3780,
      "2013": 3781,
      "yote": 3782,
      "enti": 3783,
      "eniyan": 3784,
      "magana": 3785,
      "isla": 3786,
      "try": 3787,
      "አይደ": 3788,
      "idan": 3789,
      "cti": 3790,
      "ፍጥ": 3791,
      "abubu": 3792,
      "al'um": 3793,
      "ራን": 3794,
      "ተሰ": 3795,
      "public": 3796,
      "መሆኑ": 3797,
      "(19": 3798,
      "ite": 3799,
      "tano": 3800,
      "አያ": 3801,
      "አለው": 3802,
      "ያህል": 3803,
      "mahaifin": 3804,
      "tures": 3805,
      "gbẹ": 3806,
      "ሙዚቃ": 3807,
      "sil": 3808,
      "mea": 3809,
      "vis": 3810,
      "ቀበ": 3811,
      "ቁር": 3812,
      "tsu": 3813,
      "መራ": 3814,
      "ቻቸው": 3815,
      "julikana": 3816,
      "october": 3817,
      "ebun": 3818,
      "shar": 3819,
      "goma": 3820,
      "been": 3821,
      "keo": 3822,
      "ṣiṣẹ́": 3823,
      "ware": 3824,
      "sto": 3825,
      "ፈላ": 3826,
      "bakar": 3827,
      "gbọ̀n": 3828,
      "በአንድ": 3829,
      "ይስጥ": 3830,
      "n,": 3831,
      "uchu": 3832,
      "ንጉስ": 3833,
      "patikana": 3834,
      "ቴዎስ": 3835,
      "ዘጋ": 3836,
      "bili": 3837,
      "ምንጮች": 3838,
      "ky": 3839,
      "aro": 3840,
      "ገዛ": 3841,
      "ጌታ": 3842,
      "sir": 3843,
      "ራዊት": 3844,
      "ይገኛል።": 3845,
      "fia": 3846,
      "risti": 3847,
      "roma,": 3848,
      "sayan": 3849,
      "ም፡": 3850,
      "ስላ": 3851,
      "ታዋቂ": 3852,
      "dri": 3853,
      "cur": 3854,
      "gá": 3855,
      "usi": 3856,
      "muhi": 3857,
      "da.": 3858,
      "davi": 3859,
      "appe": 3860,
      "fri": 3861,
      "here": 3862,
      "የላ": 3863,
      "takar": 3864,
      "las": 3865,
      "kyautar": 3866,
      "lì": 3867,
      "filin": 3868,
      "acade": 3869,
      "lokaci": 3870,
      "nyingine": 3871,
      "ምዕራብ": 3872,
      "haifaffun": 3873,
      "mbili": 3874,
      "2018": 3875,
      "1960": 3876,
      "ìdá": 3877,
      "ቷል።": 3878,
      "ẹyẹ": 3879,
      "ors": 3880,
      "ered": 3881,
      "gú": 3882,
      "siri": 3883,
      "sup": 3884,
      "ጋራ": 3885,
      "sas": 3886,
      "keji": 3887,
      "mulki": 3888,
      "ሥርወ": 3889,
      "ongozi": 3890,
      "g.": 3891,
      "ters": 3892,
      "ondo": 3893,
      "1999": 3894,
      "ማረ": 3895,
      "lọpọ̀": 3896,
      "ṣùgbọ́n": 3897,
      "oloselu": 3898,
      "ወል": 3899,
      "የተሰ": 3900,
      "law": 3901,
      "yabo": 3902,
      "bunge": 3903,
      "መሪ": 3904,
      "መሳ": 3905,
      "ፕሮ": 3906,
      "deux": 3907,
      "ìbílẹ̀": 3908,
      "2016": 3909,
      "se,": 3910,
      "chama": 3911,
      "owo": 3912,
      "sikukuu": 3913,
      "pti": 3914,
      "archi": 3915,
      "ወገን": 3916,
      "’ar": 3917,
      "inde": 3918,
      "mataima": 3919,
      "91": 3920,
      "adam": 3921,
      "clo": 3922,
      "hau": 3923,
      "used": 3924,
      "http://www.": 3925,
      "egbe": 3926,
      "oju": 3927,
      "star": 3928,
      "wote": 3929,
      "ambao": 3930,
      "iii": 3931,
      "milima": 3932,
      "ፈርዖ": 3933,
      "ባህር": 3934,
      "kùnrin": 3935,
      "tour": 3936,
      "ga,": 3937,
      "oli": 3938,
      "women": 3939,
      "lt": 3940,
      "ange": 3941,
      "ville": 3942,
      "ንት": 3943,
      "አሸ": 3944,
      "ይመስ": 3945,
      "tena": 3946,
      "ብርሃ": 3947,
      "ìṣẹ̀": 3948,
      "òṣeré": 3949,
      "institu": 3950,
      "ani,": 3951,
      "love": 3952,
      "bó": 3953,
      "v.": 3954,
      "ችው": 3955,
      "nom": 3956,
      "babbar": 3957,
      "yika": 3958,
      "name": 3959,
      "dom": 3960,
      "binrin": 3961,
      "ስቴ": 3962,
      "ክፍላ": 3963,
      "uchumi": 3964,
      "kemi": 3965,
      "glo": 3966,
      "ጋል": 3967,
      "ፓን": 3968,
      "በተጨማሪ": 3969,
      "rubuta": 3970,
      "into": 3971,
      "fol": 3972,
      "opo": 3973,
      "llar": 3974,
      "ልት": 3975,
      "ፎች": 3976,
      "tarayyar": 3977,
      "les,": 3978,
      "òkè": 3979,
      "እየተ": 3980,
      "2009": 3981,
      "አገልግ": 3982,
      "ታላቅ": 3983,
      "ra,": 3984,
      "ate": 3985,
      "kunan": 3986,
      "yayyun": 3987,
      "bata": 3988,
      "july": 3989,
      "person": 3990,
      "|-": 3991,
      "በዚያ": 3992,
      "ወታ": 3993,
      "mìnà": 3994,
      "ria.": 3995,
      "zake": 3996,
      "fore": 3997,
      "ሩን": 3998,
      "mah": 3999,
      "sent": 4000,
      "when": 4001,
      "wazi": 4002,
      "kawaida": 4003,
      "hùn": 4004,
      "mw": 4005,
      "cutar": 4006,
      "nyu": 4007,
      "anga": 4008,
      "there": 4009,
      "paul": 4010,
      "ጣት": 4011,
      "mnamo": 4012,
      "waɗanda": 4013,
      "gwamnan": 4014,
      "pita": 4015,
      "bẹ": 4016,
      "ሳን": 4017,
      "ብሪ": 4018,
      "አላ": 4019,
      "rayayyun": 4020,
      "son,": 4021,
      "alakoso": 4022,
      "wal": 4023,
      "town": 4024,
      "tru": 4025,
      "ብላ": 4026,
      "ዚሁ": 4027,
      "የታ": 4028,
      "ጋይ": 4029,
      "ቶችን": 4030,
      "ይታወቃ": 4031,
      "japan": 4032,
      "tam": 4033,
      "2008": 4034,
      "best": 4035,
      "imo": 4036,
      "fika": 4037,
      "black": 4038,
      "usu": 4039,
      "fur": 4040,
      "many": 4041,
      "(በ": 4042,
      "ngu": 4043,
      "ግባ": 4044,
      "ዘመናዊ": 4045,
      "መሠረት": 4046,
      "tẹ́lẹ̀": 4047,
      "muhimu": 4048,
      "matan": 4049,
      "culture": 4050,
      "-ì": 4051,
      "mìí": 4052,
      "ጥሮ": 4053,
      "nítorí": 4054,
      "osere": 4055,
      "era": 4056,
      "àṣà": 4057,
      "ሜትር": 4058,
      "enu": 4059,
      "rashin": 4060,
      "sarkin": 4061,
      "island": 4062,
      "ìbà": 4063,
      "ሳቸው": 4064,
      "ፍሬ": 4065,
      "sie": 4066,
      "consi": 4067,
      "ologi": 4068,
      "ጣልያን": 4069,
      "fasaha": 4070,
      "ipo": 4071,
      "turan": 4072,
      "history": 4073,
      "june": 4074,
      "ሲን": 4075,
      "olórin": 4076,
      "gómìnà": 4077,
      "tanzani": 4078,
      "tion,": 4079,
      "common": 4080,
      "british": 4081,
      "kusan": 4082,
      "lui": 4083,
      "fira": 4084,
      "amu": 4085,
      "umar": 4086,
      "ìgb": 4087,
      "ገል": 4088,
      "afi": 4089,
      "us,": 4090,
      "out": 4091,
      "mati": 4092,
      "kẹrin": 4093,
      "ento": 4094,
      "ሳል": 4095,
      "ባን": 4096,
      "ናን": 4097,
      "kiarabu": 4098,
      "govern": 4099,
      "neman": 4100,
      "d'un": 4101,
      "ለች።": 4102,
      "ማቴዎስ": 4103,
      "ኮች": 4104,
      "manu": 4105,
      "alim": 4106,
      "léwò": 4107,
      "n.k.": 4108,
      "2017": 4109,
      "2004": 4110,
      "ball": 4111,
      "az": 4112,
      "band": 4113,
      "ipò": 4114,
      "ሎን": 4115,
      "ራሉ።": 4116,
      "eko": 4117,
      "log": 4118,
      "zabe": 4119,
      "ford": 4120,
      "labara": 4121,
      "maisha": 4122,
      "ንጉሠ": 4123,
      "mwanamuziki": 4124,
      "mban": 4125,
      "volu": 4126,
      "nun": 4127,
      "wari": 4128,
      "ile-": 4129,
      "itace": 4130,
      "marubu": 4131,
      "sayansi": 4132,
      "kiran": 4133,
      "raba": 4134,
      "huo": 4135,
      "ማህ": 4136,
      "muda": 4137,
      "ibra": 4138,
      "mwisho": 4139,
      "ọ̀pọ̀lọpọ̀": 4140,
      "arti": 4141,
      "uka": 4142,
      "kur": 4143,
      "ined": 4144,
      "mlima": 4145,
      "ties": 4146,
      "feder": 4147,
      "ሆኖም": 4148,
      "ወለደ": 4149,
      "pho": 4150,
      "yaani": 4151,
      "haifi": 4152,
      "hanyoyin": 4153,
      "kẹ́kọ̀ọ́": 4154,
      "ፓርቲ": 4155,
      "awards": 4156,
      "stra": 4157,
      "«የ": 4158,
      "gent": 4159,
      "japani": 4160,
      "known": 4161,
      "cted": 4162,
      "ester": 4163,
      "kún": 4164,
      "ተነ": 4165,
      "ዙሪያ": 4166,
      "ዝም": 4167,
      "gíga": 4168,
      "ttu": 4169,
      "bbc": 4170,
      "en,": 4171,
      "iwe": 4172,
      "addin": 4173,
      "àgbéléwò": 4174,
      "que,": 4175,
      "official": 4176,
      "ògùn": 4177,
      "መቀ": 4178,
      "zaben": 4179,
      "ነገሠ": 4180,
      "kasashen": 4181,
      "princi": 4182,
      "lead": 4183,
      "ory": 4184,
      "damu": 4185,
      "li,": 4186,
      "charles": 4187,
      "ps": 4188,
      "kiti": 4189,
      "dàn": 4190,
      "ዩኒ": 4191,
      "finai": 4192,
      "lafiya": 4193,
      "sla": 4194,
      "ême": 4195,
      "የነበሩ": 4196,
      "ይሰ": 4197,
      "apá": 4198,
      "bàbá": 4199,
      "takri": 4200,
      "kusa": 4201,
      "zote": 4202,
      "sal": 4203,
      "mito": 4204,
      "round": 4205,
      "/)": 4206,
      "april": 4207,
      "kra": 4208,
      "owó": 4209,
      "ቀረ": 4210,
      "ድረግ": 4211,
      "ዕለታት": 4212,
      "yer": 4213,
      "d'une": 4214,
      "ዮር": 4215,
      "ọwọ́": 4216,
      "’a": 4217,
      "die": 4218,
      "mìíràn": 4219,
      "sous": 4220,
      "ule": 4221,
      "ethiopia": 4222,
      "aina": 4223,
      "ፈት": 4224,
      "halarci": 4225,
      "አንዳንድ": 4226,
      "c)": 4227,
      "om": 4228,
      "organi": 4229,
      "mi,": 4230,
      "alipo": 4231,
      "government": 4232,
      "such": 4233,
      "chuo": 4234,
      "dọ́": 4235,
      "upe": 4236,
      "ሩ።": 4237,
      "ባዊ": 4238,
      "ይጠ": 4239,
      "ce-": 4240,
      "peri": 4241,
      "gran": 4242,
      "meji": 4243,
      "husi": 4244,
      "ከበ": 4245,
      "ences": 4246,
      "bakwai": 4247,
      "st.": 4248,
      "ilẹ": 4249,
      "ons": 4250,
      "during": 4251,
      "jó": 4252,
      "በየ": 4253,
      "ዘን": 4254,
      "ገዳ": 4255,
      "ciki": 4256,
      "sosai": 4257,
      "ገኘው": 4258,
      "utili": 4259,
      "rún": 4260,
      "ከራ": 4261,
      "ààyè": 4262,
      "zilizo": 4263,
      "ont": 4264,
      "joseph": 4265,
      "male": 4266,
      "techni": 4267,
      "f.": 4268,
      "sident": 4269,
      "oper": 4270,
      "ቀናት": 4271,
      "ባሉ": 4272,
      "ግጥ": 4273,
      "tayi": 4274,
      "jimbo": 4275,
      "'adu": 4276,
      "abubakar": 4277,
      "ain": 4278,
      "fai": 4279,
      "ክራ": 4280,
      "kungi": 4281,
      "zinazo": 4282,
      "75": 4283,
      "tini": 4284,
      "cher": 4285,
      "work": 4286,
      "sive": 4287,
      ")፣": 4288,
      "ሥላ": 4289,
      "አጥ": 4290,
      "dangan": 4291,
      "jam'i": 4292,
      "dor": 4293,
      "guine": 4294,
      "maana": 4295,
      "አካል": 4296,
      "kadha": 4297,
      "dubu": 4298,
      "uganda": 4299,
      "tawa": 4300,
      "lie": 4301,
      "mba,": 4302,
      "ጠና": 4303,
      "ekana": 4304,
      "ክልል": 4305,
      "ባሕር": 4306,
      "39": 4307,
      "m)": 4308,
      "rù": 4309,
      "ልደት": 4310,
      "ስያ": 4311,
      "re.": 4312,
      "zaɓ": 4313,
      "jiji": 4314,
      "የሱስ": 4315,
      "'est": 4316,
      "mic": 4317,
      "fili": 4318,
      "soko": 4319,
      "(የ": 4320,
      "ቀል": 4321,
      "ገው": 4322,
      "lewa": 4323,
      "pekee": 4324,
      "ጽሑፍ": 4325,
      "bayar": 4326,
      "shing": 4327,
      "mission": 4328,
      "toire": 4329,
      "rana": 4330,
      "መጻ": 4331,
      "ሦስት": 4332,
      "ቀዳ": 4333,
      "ያሉ": 4334,
      "kudan": 4335,
      "edu": 4336,
      "ghu": 4337,
      "1980": 4338,
      "sìkò": 4339,
      "ዕል": 4340,
      "arziki": 4341,
      "shed": 4342,
      "ደብረ": 4343,
      "waya": 4344,
      "via": 4345,
      "ƙin": 4346,
      "ከብ": 4347,
      "ወዳ": 4348,
      "ወጥ": 4349,
      "cika": 4350,
      "syste": 4351,
      "oun": 4352,
      "semb": 4353,
      "sation": 4354,
      "kare": 4355,
      "di.": 4356,
      "gege": 4357,
      "voir": 4358,
      "about": 4359,
      "መቶ": 4360,
      "ማይ": 4361,
      "ቨር": 4362,
      "ọlá": 4363,
      "nijar": 4364,
      "ማርያም": 4365,
      "abuja": 4366,
      "ሁሉም": 4367,
      "akoko": 4368,
      "sanin": 4369,
      "የተለያዩ": 4370,
      "ምናል": 4371,
      "dhidi": 4372,
      "ፕሬዚ": 4373,
      "nú": 4374,
      "ሻዎች": 4375,
      "በእ": 4376,
      "ጥረ": 4377,
      "j.": 4378,
      "ማች": 4379,
      "ቲን": 4380,
      "የህ": 4381,
      "nuwa": 4382,
      "milli": 4383,
      "vili": 4384,
      "benin": 4385,
      "meta": 4386,
      "house": 4387,
      "(እንግሊዝኛ": 4388,
      "ተዋ": 4389,
      "አራ": 4390,
      "pàtà": 4391,
      "gwamnati": 4392,
      "ክርስቲያ": 4393,
      "aláìsí": 4394,
      "addinin": 4395,
      "eto": 4396,
      "2002": 4397,
      "ri,": 4398,
      "mak": 4399,
      "ned": 4400,
      "vers": 4401,
      "1990": 4402,
      "gold": 4403,
      "ማጣ": 4404,
      "ካም": 4405,
      "ውሮፓ": 4406,
      "takriban": 4407,
      "(197": 4408,
      "union": 4409,
      "tatu": 4410,
      "onge": 4411,
      "mizi": 4412,
      "bihi": 4413,
      "የሚል": 4414,
      "የምት": 4415,
      "yunifá": 4416,
      "ked": 4417,
      "titi": 4418,
      "cré": 4419,
      "mó": 4420,
      "7-": 4421,
      "ìyá": 4422,
      "aussi": 4423,
      "እርሱ": 4424,
      "የነበረው": 4425,
      "ሥላሴ": 4426,
      "jimi": 4427,
      "(m": 4428,
      "maduni": 4429,
      "mahali": 4430,
      "harkokin": 4431,
      "miliyan": 4432,
      "kọ̀wé": 4433,
      "áfríkà": 4434,
      "masana'an": 4435,
      "unga": 4436,
      "kistan": 4437,
      "wù": 4438,
      "ሄድ": 4439,
      "የሰው": 4440,
      "gabar": 4441,
      "shairi": 4442,
      "pàtàkì": 4443,
      "flu": 4444,
      "bas": 4445,
      "kimataifa": 4446,
      "bijin": 4447,
      "als": 4448,
      "jami’ar": 4449,
      "situ": 4450,
      "biwa": 4451,
      "chin": 4452,
      "vé": 4453,
      "bes": 4454,
      "dù": 4455,
      "ላን": 4456,
      "አምላክ": 4457,
      "ማስታወ": 4458,
      "cture": 4459,
      "isra": 4460,
      "long": 4461,
      "samo": 4462,
      "ታቸውን": 4463,
      "እድ": 4464,
      "nal": 4465,
      "tha": 4466,
      "came": 4467,
      "wengine": 4468,
      "ገንዘ": 4469,
      "ጠቃላይ": 4470,
      "score0": 4471,
      "kta": 4472,
      "anta": 4473,
      "33": 4474,
      "5-": 4475,
      "nde": 4476,
      "tement": 4477,
      "zanzi": 4478,
      "ሌክት": 4479,
      "alu": 4480,
      "mpya": 4481,
      "kẹta": 4482,
      "mwanasiasa": 4483,
      "እጅግ": 4484,
      "wurin": 4485,
      "democra": 4486,
      "premier": 4487,
      "aja": 4488,
      "times": 4489,
      "pú": 4490,
      "ስቱ": 4491,
      "ጠን": 4492,
      "br": 4493,
      "bank": 4494,
      "blo": 4495,
      "maj": 4496,
      "mwezi": 4497,
      "ibrahim": 4498,
      "jò": 4499,
      "ọlọ́": 4500,
      "bawa": 4501,
      "tsawon": 4502,
      "amerika.": 4503,
      "ilé-iṣẹ́": 4504,
      "diri": 4505,
      "you": 4506,
      "terri": 4507,
      "mwen": 4508,
      "pù": 4509,
      "kabla": 4510,
      "shirya": 4511,
      "500": 4512,
      "ated": 4513,
      "kabila": 4514,
      "fẹ": 4515,
      "ዮስ": 4516,
      "kimanin": 4517,
      "tanbihi": 4518,
      "milioni": 4519,
      "zanzibar": 4520,
      "dina": 4521,
      "ላው": 4522,
      "ይቻ": 4523,
      "ደስ": 4524,
      "ግ.": 4525,
      "እንቅ": 4526,
      "ጠቀም": 4527,
      "ሃይማኖት": 4528,
      "ung": 4529,
      "bau": 4530,
      "\")": 4531,
      "cali": 4532,
      "ƙi": 4533,
      "mayu": 4534,
      "tabba": 4535,
      "makabila": 4536,
      "chaguzi": 4537,
      "fifa": 4538,
      "view": 4539,
      "ላሉ።": 4540,
      "በእንግሊዝኛ": 4541,
      "ሳይሆን": 4542,
      "biranen": 4543,
      "lus": 4544,
      "poly": 4545,
      "ode": 4546,
      "ème": 4547,
      "develop": 4548,
      "contin": 4549,
      "akin": 4550,
      "ሴቶች": 4551,
      "በደቡብ": 4552,
      "ዓይ": 4553,
      "የሩ": 4554,
      "ዳግ": 4555,
      "ገነ": 4556,
      "dawo": 4557,
      "giriki": 4558,
      "kọ́kọ́": 4559,
      "abẹ́": 4560,
      "communi": 4561,
      "russi": 4562,
      "ts.": 4563,
      "academy": 4564,
      "chel": 4565,
      "h.": 4566,
      "oyè": 4567,
      "àjọ": 4568,
      "ƙara": 4569,
      "ቀድሞ": 4570,
      "sakand": 4571,
      "fiyar": 4572,
      "tés": 4573,
      "masarautar": 4574,
      "anné": 4575,
      "tàn": 4576,
      "(kwa": 4577,
      "andishi": 4578,
      "oly": 4579,
      "náà,": 4580,
      "àdúgbò": 4581,
      "iwo": 4582,
      "taji": 4583,
      "limi": 4584,
      "shi.": 4585,
      "vil": 4586,
      "ui": 4587,
      "gundu": 4588,
      "naijiria.": 4589,
      "ክርስት": 4590,
      "servi": 4591,
      "second": 4592,
      "team": 4593,
      "fait": 4594,
      "kwe": 4595,
      "ttle": 4596,
      "ባብ": 4597,
      "አሳ": 4598,
      "onye": 4599,
      "kuru": 4600,
      "alààyè": 4601,
      "tovuti": 4602,
      "kwen": 4603,
      "jeni": 4604,
      "99": 4605,
      "gọ́": 4606,
      "kere": 4607,
      "በታ": 4608,
      "በኩል": 4609,
      "1970": 4610,
      "yàwó": 4611,
      "ወርቅ": 4612,
      "jira": 4613,
      "0,000": 4614,
      "shan": 4615,
      "rie": 4616,
      "fari": 4617,
      "imu": 4618,
      "être": 4619,
      "ፖሊ": 4620,
      "hel": 4621,
      "hankali": 4622,
      "አባል": 4623,
      "wakil": 4624,
      "kudancin": 4625,
      "mada": 4626,
      "tima": 4627,
      "onimo": 4628,
      "damar": 4629,
      "awo": 4630,
      "uchaguzi": 4631,
      "ፍና": 4632,
      "tical": 4633,
      "haɗin": 4634,
      "ọ̀nà": 4635,
      "kọkàn": 4636,
      "four": 4637,
      "ሲሆን፣": 4638,
      "ሁለተኛው": 4639,
      "kura": 4640,
      "imani": 4641,
      "ክብ": 4642,
      "የነ": 4643,
      "aren": 4644,
      "nafasi": 4645,
      "ነትን": 4646,
      "very": 4647,
      "ጀመረ": 4648,
      "olóṣèlú": 4649,
      "fulani": 4650,
      "alha": 4651,
      "gbara": 4652,
      "stand": 4653,
      "ia": 4654,
      "ተቋ": 4655,
      "ዋት": 4656,
      "nel": 4657,
      "hizi": 4658,
      "የተባለው": 4659,
      "géné": 4660,
      "መረጃ": 4661,
      "mapo": 4662,
      "sili": 4663,
      "bada": 4664,
      "ait": 4665,
      "(la": 4666,
      "ìbẹ̀rẹ̀": 4667,
      "አቶ": 4668,
      "ወለዱ": 4669,
      "የመጀመሪያው": 4670,
      "même": 4671,
      "logy": 4672,
      "refer": 4673,
      "አድ": 4674,
      "kumbukumbu": 4675,
      "sune": 4676,
      "betwe": 4677,
      "-ẹ̀yẹ": 4678,
      "dọ̀": 4679,
      "edi": 4680,
      "uwan": 4681,
      "ተዋል።": 4682,
      "ኮን": 4683,
      "kum": 4684,
      "gbẹ̀": 4685,
      "dge": 4686,
      "ዕዝ": 4687,
      "org": 4688,
      "nombre": 4689,
      "yes": 4690,
      "ሕግ": 4691,
      "መዋ": 4692,
      "ትው": 4693,
      "ያዊ": 4694,
      "2015,": 4695,
      "mengine": 4696,
      "daular": 4697,
      "ìbàdàn": 4698,
      "chil": 4699,
      "muka": 4700,
      "48": 4701,
      "where": 4702,
      "ላሉ": 4703,
      "የን": 4704,
      "ይሄ": 4705,
      "ግሪክ": 4706,
      "wadda": 4707,
      "nasar": 4708,
      "የተክሉ": 4709,
      "ganin": 4710,
      "between": 4711,
      "yama": 4712,
      "micha": 4713,
      "ep": 4714,
      "babu": 4715,
      "0-": 4716,
      "mand": 4717,
      "ሪቱ": 4718,
      "ጠፋ": 4719,
      "thre": 4720,
      "nipa": 4721,
      "biya": 4722,
      "በመሆኑ": 4723,
      "wasannin": 4724,
      "ሚካ": 4725,
      "ቲክ": 4726,
      "ቶቹ": 4727,
      "የኦ": 4728,
      "ጥያ": 4729,
      "sakama": 4730,
      "legas": 4731,
      "papọ̀": 4732,
      "kanta": 4733,
      "rẹ̀,": 4734,
      "thern": 4735,
      "38": 4736,
      "erre": 4737,
      "shida": 4738,
      "menti": 4739,
      "gori": 4740,
      "haki": 4741,
      "neno": 4742,
      "bantu": 4743,
      "wun": 4744,
      "ሦር": 4745,
      "አየር": 4746,
      "ገኛ": 4747,
      "wao": 4748,
      "bikin": 4749,
      "taron": 4750,
      "ìjọ": 4751,
      "ctions": 4752,
      "jean": 4753,
      "empi": 4754,
      "ṣẹ̀": 4755,
      "duba": 4756,
      "እንኳ": 4757,
      "auri": 4758,
      "ety": 4759,
      "duniya.": 4760,
      "ምንጭ": 4761,
      "ingia": 4762,
      "oṣu": 4763,
      "enne": 4764,
      "go,": 4765,
      "conomi": 4766,
      "fred": 4767,
      "bọ̀": 4768,
      "ስማ": 4769,
      "ቢት": 4770,
      "ካሌ": 4771,
      "ግለ": 4772,
      "su,": 4773,
      "mfano": 4774,
      "himman": 4775,
      "መጠን": 4776,
      "ትልቅ": 4777,
      "littafin": 4778,
      "distri": 4779,
      "rangi": 4780,
      "abe": 4781,
      "muhammadu": 4782,
      "ባል።": 4783,
      "ዲህ": 4784,
      "ፊደል": 4785,
      "yohan": 4786,
      "hotuna": 4787,
      "ያንዳን": 4788,
      "ይችላል።": 4789,
      "ife": 4790,
      "masi": 4791,
      "moder": 4792,
      "de.": 4793,
      "kais": 4794,
      "ፖር": 4795,
      "badili": 4796,
      "jumla": 4797,
      "labarai": 4798,
      "km²": 4799,
      "christi": 4800,
      "royal": 4801,
      "ኃይል": 4802,
      "ኘው": 4803,
      "ጡት": 4804,
      "títí": 4805,
      "lilikuwa": 4806,
      "àgbáyé": 4807,
      "ይታወቃል።": 4808,
      "ምናልባት": 4809,
      "tis": 4810,
      "ille": 4811,
      "1998": 4812,
      "philo": 4813,
      "recor": 4814,
      "elé": 4815,
      "-daban": 4816,
      "ታን": 4817,
      "የሆኑ": 4818,
      "haɗa": 4819,
      "walikuwa": 4820,
      "ስለሆነ": 4821,
      "nigeria.": 4822,
      "shirye-": 4823,
      "አይደለም": 4824,
      "population": 4825,
      "familia": 4826,
      "pẹ́": 4827,
      "ዜና": 4828,
      "ይዩ": 4829,
      "ግዛ": 4830,
      "በትን": 4831,
      "ìdíje": 4832,
      "mapokeo": 4833,
      "cast": 4834,
      "wed": 4835,
      "ko,": 4836,
      "number": 4837,
      "wú": 4838,
      "ɗau": 4839,
      "ር-": 4840,
      "ዝና": 4841,
      "paris": 4842,
      "አባት": 4843,
      "kashi": 4844,
      "ብሊክ": 4845,
      "ከማ": 4846,
      "2014,": 4847,
      "ango": 4848,
      "ine,": 4849,
      "dont": 4850,
      "ሐይ": 4851,
      "safi": 4852,
      "lega": 4853,
      "chur": 4854,
      "elect": 4855,
      "ይር": 4856,
      "ፓንያ": 4857,
      "informa": 4858,
      "kikuu": 4859,
      "2016,": 4860,
      "እንደሆነ": 4861,
      "ough": 4862,
      "haya": 4863,
      "viet": 4864,
      "fla": 4865,
      "ox": 4866,
      "inu": 4867,
      "met": 4868,
      "ton,": 4869,
      "ƙida": 4870,
      "በሌላ": 4871,
      "only": 4872,
      "2011,": 4873,
      "fuatana": 4874,
      "ná": 4875,
      "rar": 4876,
      "2012,": 4877,
      "david": 4878,
      "አለም": 4879,
      "jua": 4880,
      "daban-daban": 4881,
      "ajili": 4882,
      "entomon": 4883,
      "apo": 4884,
      "tit": 4885,
      "cess": 4886,
      "....": 4887,
      "pt": 4888,
      "mambo": 4889,
      "-ún": 4890,
      "sẹ́": 4891,
      "በቃ": 4892,
      "ይጠቀ": 4893,
      "ገቡ": 4894,
      "mirefu": 4895,
      "sojo": 4896,
      "1994": 4897,
      "míràn": 4898,
      "talabijin": 4899,
      "olympi": 4900,
      "ères": 4901,
      "karin": 4902,
      "gur": 4903,
      "ሊዮን": 4904,
      "ምል": 4905,
      "በዓ": 4906,
      "’i": 4907,
      "kamusi": 4908,
      "onekana": 4909,
      "2017,": 4910,
      "እንደገና": 4911,
      "ማርቆስ": 4912,
      "com/": 4913,
      "(\"": 4914,
      "gis": 4915,
      "radio": 4916,
      "gne": 4917,
      "py": 4918,
      "katoliki": 4919,
      "gargaji": 4920,
      "jamii": 4921,
      "kwenda": 4922,
      "esta": 4923,
      "hilo": 4924,
      "hak": 4925,
      "68": 4926,
      "fren": 4927,
      "bina": 4928,
      "dp": 4929,
      "ራል።": 4930,
      "ውጤ": 4931,
      "ዛኛው": 4932,
      "የእ": 4933,
      "ዳዊ": 4934,
      "rama": 4935,
      "bangar": 4936,
      "400": 4937,
      "ern": 4938,
      "mark": 4939,
      "martin": 4940,
      "bour": 4941,
      "nye": 4942,
      "ነቶች": 4943,
      "kofu": 4944,
      "ደረጉ": 4945,
      "yawancin": 4946,
      "abinci": 4947,
      "ጎርጎር": 4948,
      "enugu": 4949,
      "yoruba": 4950,
      "maria": 4951,
      "በነ": 4952,
      "ብን": 4953,
      "ጠል": 4954,
      "robert": 4955,
      "gabashin": 4956,
      "satu": 4957,
      "bi,": 4958,
      "proje": 4959,
      "2019,": 4960,
      "kaya": 4961,
      "ችል": 4962,
      "sítì": 4963,
      "afrika.": 4964,
      "sile": 4965,
      "llywood": 4966,
      "tiki": 4967,
      "ll,": 4968,
      "ji,": 4969,
      "set": 4970,
      "yi,": 4971,
      "form": 4972,
      "bello": 4973,
      "ibu": 4974,
      "ìròyìn": 4975,
      "shi,": 4976,
      "በብዛት": 4977,
      "በሽታ": 4978,
      "ìṣẹ̀lẹ̀": 4979,
      "latin": 4980,
      "region": 4981,
      "pindi": 4982,
      "gẹ̀ẹ́": 4983,
      "àrí": 4984,
      "በጥ": 4985,
      "en.": 4986,
      "asali": 4987,
      "hana": 4988,
      "2001": 4989,
      "association": 4990,
      "bene": 4991,
      "መቅ": 4992,
      "፲፰": 4993,
      "kupi": 4994,
      "sabon": 4995,
      "lábẹ́": 4996,
      "ሳይን": 4997,
      "መንፈስ": 4998,
      "thé": 4999,
      "pendan": 5000,
      "dugu": 5001,
      "1987": 5002,
      "ሲል": 5003,
      "ብዛት": 5004,
      "kufuatana": 5005,
      "wọn.": 5006,
      "askofu": 5007,
      "mbun": 5008,
      "እስያ": 5009,
      "abubuwan": 5010,
      "=\"": 5011,
      "oma": 5012,
      "nia": 5013,
      "መም": 5014,
      "መና": 5015,
      "ውቅ": 5016,
      "ance": 5017,
      "ciyar": 5018,
      "ማጣቀ": 5019,
      "quel": 5020,
      "studi": 5021,
      "see": 5022,
      "mẹ": 5023,
      "ɗu": 5024,
      "ረግ": 5025,
      "ኑስ": 5026,
      "good": 5027,
      "yanayin": 5028,
      "physi": 5029,
      "impor": 5030,
      "ƙidayar": 5031,
      "commun": 5032,
      "kan.": 5033,
      "early": 5034,
      "ኒው": 5035,
      "ከተለው": 5036,
      "ንዳር": 5037,
      "peter": 5038,
      "end": 5039,
      "nouve": 5040,
      "french": 5041,
      "9-": 5042,
      "safa": 5043,
      "mmoja": 5044,
      "ọjọ": 5045,
      "keje": 5046,
      "síwájú": 5047,
      "france": 5048,
      "òṣèlú": 5049,
      "autres": 5050,
      "kau": 5051,
      "col": 5052,
      "ሚስት": 5053,
      "ኃይለ": 5054,
      "ከታ": 5055,
      "ዕብራ": 5056,
      "የሞ": 5057,
      "kitu": 5058,
      "me,": 5059,
      "በአሁኑ": 5060,
      "hannu": 5061,
      "anzishwa": 5062,
      "utamaduni": 5063,
      "tion.": 5064,
      "1993": 5065,
      "constitu": 5066,
      "(the": 5067,
      "cana": 5068,
      "és": 5069,
      "ሥቱ": 5070,
      "ግድ": 5071,
      "suc": 5072,
      "2016.": 5073,
      "ጥንት": 5074,
      "wadannan": 5075,
      "gúú": 5076,
      "plo": 5077,
      "la.": 5078,
      "guinea": 5079,
      "vina": 5080,
      "fiel": 5081,
      "church": 5082,
      "በኛ": 5083,
      "ገዥ": 5084,
      "ፊል": 5085,
      "ọn": 5086,
      "sayen": 5087,
      "leyin": 5088,
      "man,": 5089,
      "lọ.": 5090,
      "ambako": 5091,
      "---": 5092,
      "ayyuka": 5093,
      "አፍሪካ": 5094,
      "gẹ̀ẹ́sì": 5095,
      "comp": 5096,
      "super": 5097,
      "comple": 5098,
      "ውጭ": 5099,
      "ያደር": 5100,
      "sadar": 5101,
      "vir": 5102,
      "taimaka": 5103,
      "mahaifiyar": 5104,
      "kitabu": 5105,
      "kaisari": 5106,
      "kalen": 5107,
      "(;": 5108,
      "ማል": 5109,
      "ሪት": 5110,
      "በሙሉ": 5111,
      "አሉ": 5112,
      "ክን": 5113,
      "bisha": 5114,
      "sanan": 5115,
      "wili": 5116,
      "borno": 5117,
      "እምነት": 5118,
      "(n": 5119,
      "bs": 5120,
      "ሕይወት": 5121,
      "ይፋ": 5122,
      "ገጽ": 5123,
      "face": 5124,
      "gboyè": 5125,
      "gúúsù": 5126,
      "pes": 5127,
      "indu": 5128,
      "music": 5129,
      "nazar": 5130,
      "covi": 5131,
      "foot": 5132,
      "ቡድን": 5133,
      "ብል": 5134,
      "ቱርክ": 5135,
      "አህ": 5136,
      "ካታ": 5137,
      "ስተኛ": 5138,
      "àkọ́lé": 5139,
      "ወታደ": 5140,
      "michael": 5141,
      "yohane": 5142,
      "radi": 5143,
      "cheo": 5144,
      "ase": 5145,
      "h,": 5146,
      "our": 5147,
      "1991": 5148,
      "64": 5149,
      "ሕንድ": 5150,
      "ሳሰ": 5151,
      "ኝነት": 5152,
      "አና": 5153,
      "የዓለም": 5154,
      "jọba": 5155,
      "ስራቅ": 5156,
      "yaliyo": 5157,
      "32": 5158,
      "cts": 5159,
      "acikin": 5160,
      "ን፣": 5161,
      "ዝማች": 5162,
      "koyar": 5163,
      "1997": 5164,
      "olórí": 5165,
      "salaam": 5166,
      "ብሔራዊ": 5167,
      "hesabiwa": 5168,
      "zuri": 5169,
      "moni": 5170,
      "gui": 5171,
      "pope": 5172,
      "philoso": 5173,
      "bù": 5174,
      "ሙት": 5175,
      "ውሃ": 5176,
      "ዘዴ": 5177,
      "ጥበብ": 5178,
      "ፍቅር": 5179,
      "ọ́n": 5180,
      "huadhi": 5181,
      "ayẹyẹ": 5182,
      "wengi,": 5183,
      "የውጭ": 5184,
      "fina-finai": 5185,
      "ፍልስ": 5186,
      "misa": 5187,
      "ston": 5188,
      "-a": 5189,
      "kk": 5190,
      "kha": 5191,
      "alka": 5192,
      "ndogo": 5193,
      "ማት": 5194,
      "memba": 5195,
      "፲፱፻፶": 5196,
      "ma'aika": 5197,
      "kadhaa": 5198,
      "tural": 5199,
      "tm": 5200,
      "après": 5201,
      "twa": 5202,
      "yẹ̀": 5203,
      "ስቶ": 5204,
      "ያሳ": 5205,
      "ይዞ": 5206,
      "tics": 5207,
      "kálẹ̀": 5208,
      "ካሌንዳር": 5209,
      "ጎርጎርያን": 5210,
      "58": 5211,
      "sarki": 5212,
      "land,": 5213,
      "brazi": 5214,
      "hapo": 5215,
      "dd": 5216,
      "bio": 5217,
      "andre": 5218,
      "adar": 5219,
      "igbe": 5220,
      "ìbá": 5221,
      "ሥልጣን": 5222,
      "ራኤል": 5223,
      "ስል": 5224,
      "በኦ": 5225,
      "kowa": 5226,
      "jiho": 5227,
      "mexi": 5228,
      "ọ̀lù": 5229,
      "pewa": 5230,
      "ọjọ́aláìsí": 5231,
      "jinsi": 5232,
      "ሁለተኛ": 5233,
      "ድርጅት": 5234,
      "ወልደ": 5235,
      "alimfuata": 5236,
      "ሳይንሳዊ": 5237,
      "stin": 5238,
      "portu": 5239,
      "mat": 5240,
      "general": 5241,
      "development": 5242,
      "ችሁ": 5243,
      "ከላ": 5244,
      "የቆ": 5245,
      "የቀን": 5246,
      "kawo": 5247,
      "amani": 5248,
      "nollywood": 5249,
      "bákan": 5250,
      "gabas": 5251,
      "ዳንት": 5252,
      "covid-": 5253,
      "maga": 5254,
      "ra.": 5255,
      "pau": 5256,
      "2018,": 5257,
      "science": 5258,
      "alexander": 5259,
      "ller": 5260,
      "news": 5261,
      "mila": 5262,
      "መሬት": 5263,
      "ስድ": 5264,
      "በኢ": 5265,
      "waye": 5266,
      "kalẹ̀": 5267,
      "ቸው።": 5268,
      "wáyé": 5269,
      "fli": 5270,
      "ika": 5271,
      "tary": 5272,
      "rawar": 5273,
      "taniya": 5274,
      "fú": 5275,
      "zed": 5276,
      "ሥጋ": 5277,
      "nahi": 5278,
      "kowan": 5279,
      "patri": 5280,
      "sel": 5281,
      "shugaba": 5282,
      "kwamitin": 5283,
      "profes": 5284,
      "center": 5285,
      "ane": 5286,
      "(196": 5287,
      "ረጋ": 5288,
      "ርቶ": 5289,
      "ጊዮር": 5290,
      "to.": 5291,
      "ministan": 5292,
      "ከዚያም": 5293,
      "ከነዓ": 5294,
      "ጊዮርጊ": 5295,
      "place": 5296,
      "argent": 5297,
      "mà": 5298,
      "throu": 5299,
      "fita": 5300,
      "okun": 5301,
      "አቅ": 5302,
      "ዴት": 5303,
      "tawala": 5304,
      "huu": 5305,
      "makao": 5306,
      "አገራት": 5307,
      "የማይ": 5308,
      "lórílẹ̀": 5309,
      "ቀጥሎ": 5310,
      "kalenda": 5311,
      "dépar": 5312,
      "voi": 5313,
      "ለሁ": 5314,
      "ሰጥ": 5315,
      "ስቃ": 5316,
      "ቦት": 5317,
      "ያያ": 5318,
      "ጽሕ": 5319,
      "fafa": 5320,
      "shirika": 5321,
      "sakamakon": 5322,
      "nazarin": 5323,
      "shor": 5324,
      "1996": 5325,
      "150": 5326,
      "iki": 5327,
      "fra": 5328,
      "ተቃ": 5329,
      "ጠብ": 5330,
      "takwa": 5331,
      "chungu": 5332,
      "2091": 5333,
      "movie": 5334,
      "irú": 5335,
      "bọ́ọ̀lù": 5336,
      "later": 5337,
      "great": 5338,
      "(ya": 5339,
      "hìn": 5340,
      "lun": 5341,
      "ufalme": 5342,
      "ƙir": 5343,
      "ኪያ": 5344,
      "ካን": 5345,
      "ዛዝ": 5346,
      "ደጃ": 5347,
      "daida": 5348,
      "kijerumani": 5349,
      "yota": 5350,
      "ምንት": 5351,
      "፲፱፻፷": 5352,
      "ሥራቅ": 5353,
      "àìsàn": 5354,
      "kor": 5355,
      "cas": 5356,
      "ulio": 5357,
      "x,": 5358,
      "origin": 5359,
      "ል፡፡": 5360,
      "በጎርጎርያን": 5361,
      "ዝርያ": 5362,
      "የለ": 5363,
      "የኮ": 5364,
      "ጊዜም": 5365,
      "ስለሚ": 5366,
      "ደረሰ": 5367,
      "thomas": 5368,
      "richard": 5369,
      "ደራሲ": 5370,
      "mataimakin": 5371,
      "2015.": 5372,
      "t-": 5373,
      "these": 5374,
      "mvu": 5375,
      "àjẹ": 5376,
      "ሏል።": 5377,
      "የሆነው": 5378,
      "ድሮ": 5379,
      "ጠላ": 5380,
      "‎‎": 5381,
      "tobi": 5382,
      "ẹ̀rọ": 5383,
      "bang": 5384,
      "ትርጉም": 5385,
      "ológun": 5386,
      "delta": 5387,
      "round)": 5388,
      "55": 5389,
      "member": 5390,
      "1995": 5391,
      "(in": 5392,
      "47": 5393,
      "»)": 5394,
      "የለው": 5395,
      "ṣá": 5396,
      "arch": 5397,
      "maha": 5398,
      "shugabar": 5399,
      "ድረስ)": 5400,
      "የሚያስ": 5401,
      "ተከታ": 5402,
      "waziri": 5403,
      "ማስታወሻዎች": 5404,
      "ገንዘብ": 5405,
      "soma": 5406,
      "habi": 5407,
      "dik": 5408,
      "àjà": 5409,
      "ጋሪ": 5410,
      "tege": 5411,
      "wasanni": 5412,
      "niger": 5413,
      "%)": 5414,
      "biri": 5415,
      "ìwò": 5416,
      "ነቱን": 5417,
      "ገሩ": 5418,
      "teurs": 5419,
      "fiki": 5420,
      "graphi": 5421,
      "tarayya": 5422,
      "play": 5423,
      "sára": 5424,
      "መጻሕ": 5425,
      "ያንዳንዱ": 5426,
      "gwar": 5427,
      "ሙን": 5428,
      "ሱን": 5429,
      "ቤቱ": 5430,
      "ዋጋ": 5431,
      "ገት": 5432,
      "ጥቅ": 5433,
      "kan,": 5434,
      "ለ።": 5435,
      "ስ፣": 5436,
      "በራ": 5437,
      "ጠሩ": 5438,
      "duniani": 5439,
      "irun": 5440,
      "techno": 5441,
      "yunifásítì": 5442,
      "ci.": 5443,
      "tu.": 5444,
      "los": 5445,
      "sour": 5446,
      "central": 5447,
      "ji.": 5448,
      "peut": 5449,
      "\"the": 5450,
      "ናይት": 5451,
      "ክሲ": 5452,
      "tokana": 5453,
      "shafi": 5454,
      "tsohu": 5455,
      "ess": 5456,
      "zation": 5457,
      "ido": 5458,
      "àá": 5459,
      "kashe": 5460,
      "mako": 5461,
      "sheria": 5462,
      "oruko": 5463,
      "gomina": 5464,
      "ambapo": 5465,
      "peu": 5466,
      "belgi": 5467,
      "zara": 5468,
      "gombe": 5469,
      "ውል": 5470,
      "ዲዮ": 5471,
      "yakin": 5472,
      "tàgé": 5473,
      "wenyewe": 5474,
      "አውሮፓ": 5475,
      "bles": 5476,
      "tel": 5477,
      "gwi": 5478,
      "itan": 5479,
      "zen": 5480,
      "kanda": 5481,
      "300": 5482,
      "178": 5483,
      "ለጠ": 5484,
      "ነፍ": 5485,
      "mie": 5486,
      "oríṣi": 5487,
      "ƙasashen": 5488,
      "again": 5489,
      "odo": 5490,
      "mu,": 5491,
      "pakistan": 5492,
      "lip": 5493,
      "exis": 5494,
      "court": 5495,
      "(tí": 5496,
      "ቀይ": 5497,
      "made": 5498,
      "yanki": 5499,
      "የሚታወ": 5500,
      "tuntun": 5501,
      "ወይንም": 5502,
      "olùdarí": 5503,
      "festi": 5504,
      "ዕለተ": 5505,
      "abdulla": 5506,
      "(ከ1892": 5507,
      "pasi": 5508,
      "nar": 5509,
      "2014.": 5510,
      "uld": 5511,
      "èrè": 5512,
      "ዘው": 5513,
      "larab": 5514,
      "ማጣቀሻ": 5515,
      "sayensi": 5516,
      "gia": 5517,
      "og": 5518,
      "éle": 5519,
      "wase": 5520,
      "péri": 5521,
      "(i": 5522,
      "jẹ̀": 5523,
      "oyo": 5524,
      "z,": 5525,
      "ልጁ": 5526,
      "ማሽ": 5527,
      "፡በ": 5528,
      "wasi": 5529,
      "habari": 5530,
      "ils": 5531,
      "elezo": 5532,
      "multi": 5533,
      "dúró": 5534,
      "kubali": 5535,
      "ሌክትሪክ": 5536,
      "mir": 5537,
      "series": 5538,
      "ure": 5539,
      "1975": 5540,
      "pindu": 5541,
      "festival": 5542,
      "ws": 5543,
      "ሜዳ": 5544,
      "አሉ።": 5545,
      "watsa": 5546,
      "የአፍ": 5547,
      "shirikisho": 5548,
      "ṣíṣe": 5549,
      "ፈርዖን": 5550,
      "sakandare": 5551,
      "maris": 5552,
      "position": 5553,
      "lime": 5554,
      "56": 5555,
      "ctive": 5556,
      "oye": 5557,
      "ìtu": 5558,
      "ሊን": 5559,
      "ሥፍራ": 5560,
      "በስተ": 5561,
      "ቴሌ": 5562,
      "taken": 5563,
      "የተፈ": 5564,
      "compan": 5565,
      "finan": 5566,
      "በማለት": 5567,
      "ራሱን": 5568,
      "nis": 5569,
      "tè": 5570,
      "tanzania.": 5571,
      "làn": 5572,
      "von": 5573,
      "መላ": 5574,
      "kabisa": 5575,
      "jiogra": 5576,
      "media": 5577,
      "'ar": 5578,
      "::": 5579,
      "sudan": 5580,
      "1989": 5581,
      "ውሀ": 5582,
      "franci": 5583,
      "denti": 5584,
      "መሰረት": 5585,
      "classi": 5586,
      "</": 5587,
      "did": 5588,
      "ke,": 5589,
      "cewar": 5590,
      "akwa": 5591,
      "jwa": 5592,
      "ose": 5593,
      "kaka": 5594,
      "chen": 5595,
      "tọ": 5596,
      "òwò": 5597,
      "ሆይ": 5598,
      "ድና": 5599,
      "makuu": 5600,
      "guusu": 5601,
      "አገሮች": 5602,
      "púpọ̀": 5603,
      "congres": 5604,
      "région": 5605,
      "kore": 5606,
      "bul": 5607,
      "cifi": 5608,
      "obi": 5609,
      "ሜት": 5610,
      "ከም": 5611,
      "alli": 5612,
      "fikia": 5613,
      "shehu": 5614,
      "ክፍሎች": 5615,
      "በርካታ": 5616,
      "tsohuwar": 5617,
      "nam": 5618,
      "dera": 5619,
      "anda": 5620,
      "order": 5621,
      "visi": 5622,
      "(1": 5623,
      "a)": 5624,
      "madu": 5625,
      "rasu": 5626,
      "cap": 5627,
      "age": 5628,
      "ዶሮ": 5629,
      "ፈራ": 5630,
      "ẹrẹ": 5631,
      "fabra": 5632,
      "ትንሽ": 5633,
      "wakifuata": 5634,
      "rd2-": 5635,
      "መልክዓ": 5636,
      "bauchi": 5637,
      "bwe": 5638,
      "tu,": 5639,
      "français": 5640,
      "fron": 5641,
      "éga": 5642,
      "ቴክ": 5643,
      "ጸሐ": 5644,
      "arabi": 5645,
      "cir": 5646,
      "fada": 5647,
      "minira": 5648,
      "ainsi": 5649,
      "uishe": 5650,
      "huadhimisha": 5651,
      "nahiyar": 5652,
      "ver,": 5653,
      "ksi": 5654,
      "2013,": 5655,
      "ti.": 5656,
      "1982": 5657,
      "kìí": 5658,
      "ለቀ": 5659,
      "አራት": 5660,
      "ጉል": 5661,
      "hamia": 5662,
      "pays": 5663,
      "zinabaki": 5664,
      "mirefu).": 5665,
      "àjẹsára": 5666,
      "color": 5667,
      "gri": 5668,
      "sk": 5669,
      "eth": 5670,
      "ቡር": 5671,
      "ካባቢ": 5672,
      "ኮት": 5673,
      "ወራ": 5674,
      "gues": 5675,
      "power": 5676,
      "1966": 5677,
      "lọ́gbọ̀n": 5678,
      "ደረገው": 5679,
      "halafu": 5680,
      "swe": 5681,
      "2010,": 5682,
      "compo": 5683,
      "1976": 5684,
      "wikipe": 5685,
      "louis": 5686,
      "sty": 5687,
      "ጥብ": 5688,
      "karshe": 5689,
      "ing,": 5690,
      "harsunan": 5691,
      "ባቢሎን": 5692,
      "ጉዳይ": 5693,
      "mbunge": 5694,
      "rage": 5695,
      ");": 5696,
      "ei": 5697,
      "fle": 5698,
      "walla": 5699,
      "jọ̀": 5700,
      "ለሚ": 5701,
      "ታችን": 5702,
      "አጋ": 5703,
      "ክብር": 5704,
      "like": 5705,
      "shekarun": 5706,
      "ìdílé": 5707,
      "(he": 5708,
      "auth": 5709,
      "alum": 5710,
      "1=": 5711,
      "49": 5712,
      "alors": 5713,
      "46": 5714,
      "nya": 5715,
      "ሞን": 5716,
      "ዕድ": 5717,
      "ፍን": 5718,
      "sayari": 5719,
      "fazi": 5720,
      "wanao": 5721,
      "ግንኙ": 5722,
      "nàìjíríà,": 5723,
      "democratic": 5724,
      "saman": 5725,
      "ye,": 5726,
      "would": 5727,
      "hat": 5728,
      "c'est": 5729,
      "gini": 5730,
      "geni": 5731,
      "ɗi": 5732,
      "ቅርስ": 5733,
      "ት።": 5734,
      "dab": 5735,
      "death": 5736,
      "inganta": 5737,
      "german": 5738,
      "mẹ́ta": 5739,
      "ሁለቱ": 5740,
      "ትምህር": 5741,
      "ተራራ": 5742,
      "አቀፍ": 5743,
      "muni": 5744,
      "th,": 5745,
      "an.": 5746,
      "cara": 5747,
      "ibo": 5748,
      "mu.": 5749,
      "home": 5750,
      "ɗari": 5751,
      "መደ": 5752,
      "ቁጥ": 5753,
      "ተት": 5754,
      "waislamu": 5755,
      "liter": 5756,
      "off": 5757,
      "aure": 5758,
      "hou": 5759,
      "odò": 5760,
      "mont": 5761,
      "tengene": 5762,
      "ውንት": 5763,
      "ሳይንስ": 5764,
      "wòrán": 5765,
      "falsafa": 5766,
      "kúrò": 5767,
      "ìgbìmọ̀": 5768,
      "ምልክት": 5769,
      "jiografia": 5770,
      "maz": 5771,
      "istan": 5772,
      "actor": 5773,
      "oke": 5774,
      "mi.": 5775,
      "futa": 5776,
      "1992": 5777,
      "years": 5778,
      "ƙo": 5779,
      "ኑን": 5780,
      "የሌ": 5781,
      "ግባር": 5782,
      "anth": 5783,
      "ungani": 5784,
      "diyo": 5785,
      "colu": 5786,
      "yake.": 5787,
      "fuatwa": 5788,
      "57": 5789,
      "dare": 5790,
      "thir": 5791,
      "republic": 5792,
      "hudi": 5793,
      "1988": 5794,
      "ለተ": 5795,
      "kifaransa": 5796,
      "ment,": 5797,
      "sababisha": 5798,
      "free": 5799,
      "slo": 5800,
      "pale": 5801,
      "1918": 5802,
      "cô": 5803,
      "artic": 5804,
      "ሚሊዮን": 5805,
      "ሲቲ": 5806,
      "ወጡ": 5807,
      "hivi": 5808,
      "ruwan": 5809,
      "juma": 5810,
      "heshi": 5811,
      "akọrin": 5812,
      "ip": 5813,
      "bou": 5814,
      "president": 5815,
      "dwa": 5816,
      "koki": 5817,
      "esi": 5818,
      "በዚሁ": 5819,
      "ọpọ": 5820,
      "jiha": 5821,
      "shahar": 5822,
      "ly,": 5823,
      "ናት።": 5824,
      "እንስሳ": 5825,
      "nature": 5826,
      "org/": 5827,
      "htm": 5828,
      "envi": 5829,
      "three": 5830,
      "vide": 5831,
      "2011.": 5832,
      "1967": 5833,
      "ቃላት": 5834,
      "አቡ": 5835,
      "haka,": 5836,
      "ration": 5837,
      "matasa": 5838,
      "duniya,": 5839,
      "oluilu": 5840,
      "ድንጋይ": 5841,
      "born": 5842,
      "tẹli": 5843,
      "jam'iyyar": 5844,
      "67": 5845,
      "sus": 5846,
      "adminis": 5847,
      "177": 5848,
      "2=": 5849,
      "gwe": 5850,
      "òrì": 5851,
      "ቂት": 5852,
      "ኘት": 5853,
      "ጥና": 5854,
      "ጨዋ": 5855,
      "sashen": 5856,
      "muun": 5857,
      "የተባለ": 5858,
      "janar": 5859,
      "abdul": 5860,
      "jagoran": 5861,
      "ከነዓን": 5862,
      "tto": 5863,
      "ofu": 5864,
      "roni": 5865,
      "suf": 5866,
      "jade": 5867,
      "(p": 5868,
      "oòrùn": 5869,
      "ሎጂ": 5870,
      "መጫ": 5871,
      "ርን": 5872,
      "ቀስ": 5873,
      "ኮኖ": 5874,
      "ይላል።": 5875,
      "wame": 5876,
      "ma’": 5877,
      "makubwa": 5878,
      "table": 5879,
      "bali": 5880,
      "tout": 5881,
      "micro": 5882,
      "forme": 5883,
      "hannun": 5884,
      "የሚገኙ": 5885,
      "child": 5886,
      "-à": 5887,
      "became": 5888,
      "1984": 5889,
      "fitar": 5890,
      "late": 5891,
      "fofin": 5892,
      "igbo": 5893,
      "où": 5894,
      "yọ́": 5895,
      "ራም": 5896,
      "ሺህ": 5897,
      "ክሮ": 5898,
      "ዩናይት": 5899,
      "ጸባይ": 5900,
      "hizo": 5901,
      "usman": 5902,
      "akiwa": 5903,
      "pataki": 5904,
      "ọ̀nù": 5905,
      "back": 5906,
      "1950": 5907,
      "jal": 5908,
      "sene": 5909,
      "kaa": 5910,
      "constru": 5911,
      "dẹ́": 5912,
      "egy": 5913,
      "mme": 5914,
      "አሰ": 5915,
      "ዩስ": 5916,
      "lika": 5917,
      "key": 5918,
      "1979": 5919,
      "marekani.": 5920,
      "ንግድ": 5921,
      "msingi": 5922,
      "ጊዮርጊስ": 5923,
      "india": 5924,
      "ency": 5925,
      "kansa": 5926,
      "1983": 5927,
      "federal": 5928,
      "called": 5929,
      "également": 5930,
      "mshairi": 5931,
      "pín": 5932,
      "ምኒ": 5933,
      "ጭር": 5934,
      "fiimu": 5935,
      "kogin": 5936,
      "parí": 5937,
      "yanayi": 5938,
      "wàá": 5939,
      "ብርሃን": 5940,
      "bado": 5941,
      "rasha": 5942,
      "mande": 5943,
      "fois": 5944,
      "kuliko": 5945,
      "'ya": 5946,
      "amo": 5947,
      "bọ": 5948,
      "በሬ": 5949,
      "wahi": 5950,
      "pakana": 5951,
      "1986": 5952,
      "jenga": 5953,
      "የቀድሞ": 5954,
      "covid-19": 5955,
      "ዩናይትድ": 5956,
      "ace": 5957,
      "sc": 5958,
      "wester": 5959,
      "ሊቃ": 5960,
      "ሲቀ": 5961,
      "ቤቶች": 5962,
      "ታሪ": 5963,
      "አዋ": 5964,
      "ዘፋ": 5965,
      "የለም": 5966,
      "ገረ": 5967,
      "na,": 5968,
      "albu": 5969,
      "የአየር": 5970,
      "addini": 5971,
      "በመጨረሻ": 5972,
      "ገብረ": 5973,
      "tumiwa": 5974,
      "202": 5975,
      "johan": 5976,
      "austria": 5977,
      "huwa": 5978,
      "1974": 5979,
      "bì": 5980,
      "kuku": 5981,
      "respon": 5982,
      "progres": 5983,
      "96": 5984,
      "98": 5985,
      "ሲሆኑ": 5986,
      "ሳተ": 5987,
      "ኞቹ": 5988,
      "የኖ": 5989,
      "ጅም": 5990,
      "ፊዎች": 5991,
      "ẹ̀ka": 5992,
      "ariwa": 5993,
      "god": 5994,
      "chukua": 5995,
      "kejìlá": 5996,
      "ጠቅላይ": 5997,
      "tumika": 5998,
      "turanci": 5999,
      "gargajiya": 6000,
      "àríwá": 6001,
      "soja": 6002,
      "2006.": 6003,
      "nkan": 6004,
      "መታ": 6005,
      "ሰነ": 6006,
      "ባታ": 6007,
      "ከስ": 6008,
      "ወድ": 6009,
      "in.": 6010,
      "kiongozi": 6011,
      "ni:": 6012,
      "dokar": 6013,
      "cape": 6014,
      "dínlógún": 6015,
      "ifẹ̀": 6016,
      "kimiyya": 6017,
      "kalmar": 6018,
      "መሆኑን": 6019,
      "ክርስትና": 6020,
      "፲፰፻": 6021,
      "same": 6022,
      "desig": 6023,
      "fus": 6024,
      "t)": 6025,
      "inte": 6026,
      "noma": 6027,
      "lors": 6028,
      "km2": 6029,
      "òn": 6030,
      "sahara": 6031,
      "sema": 6032,
      "ብሔር": 6033,
      "ከረም": 6034,
      "ዕው": 6035,
      "ጻፈ": 6036,
      "maya": 6037,
      "anamb": 6038,
      "sanar": 6039,
      "haifar": 6040,
      "chemi": 6041,
      "ነበረው": 6042,
      "america": 6043,
      "(2005)": 6044,
      "ብሪታ": 6045,
      "old": 6046,
      "follow": 6047,
      "ash": 6048,
      "makon": 6049,
      "seed": 6050,
      "1977": 6051,
      "ስሞች": 6052,
      "ኢየሱስ": 6053,
      "ግም": 6054,
      "arts": 6055,
      "hayo": 6056,
      "shinda": 6057,
      "mc": 6058,
      "kusu": 6059,
      "ando": 6060,
      "gudu": 6061,
      "2007.": 6062,
      "ryen": 6063,
      "edo": 6064,
      "large": 6065,
      "partie": 6066,
      "ሎቹ": 6067,
      "፪፻": 6068,
      "shiryen": 6069,
      "ríṣi": 6070,
      "iyaka": 6071,
      "ታላቁ": 6072,
      "spishi": 6073,
      "cikak": 6074,
      "environ": 6075,
      "nd": 6076,
      "les.": 6077,
      "lingu": 6078,
      "1978": 6079,
      "ሊቀ": 6080,
      "ነግ": 6081,
      "ከና": 6082,
      "ጋን": 6083,
      "arzi": 6084,
      "kutumia": 6085,
      "kiasi": 6086,
      "ty,": 6087,
      "ጊዜው": 6088,
      "nufin": 6089,
      "ambazo": 6090,
      "díẹ̀": 6091,
      "ያለውን": 6092,
      "pur": 6093,
      "greek": 6094,
      "while": 6095,
      "actres": 6096,
      "mura": 6097,
      "anisha": 6098,
      "moham": 6099,
      "que.": 6100,
      "action": 6101,
      "gana": 6102,
      "ikú": 6103,
      "ois": 6104,
      "èrò": 6105,
      "መጡ": 6106,
      "influ": 6107,
      "uniyar": 6108,
      "1971": 6109,
      "mengi": 6110,
      "ባህል": 6111,
      "ìgbésí": 6112,
      "mfumo": 6113,
      "ስቃሴ": 6114,
      "frank": 6115,
      "cause": 6116,
      "ikan": 6117,
      "zao": 6118,
      "(«": 6119,
      "sán": 6120,
      "ሪስ": 6121,
      "በሳ": 6122,
      "በኮ": 6123,
      "አሉት": 6124,
      "ይቆ": 6125,
      "ፋርስ": 6126,
      "fihàn": 6127,
      "ney": 6128,
      "shawara": 6129,
      "tsakiyar": 6130,
      "1973": 6131,
      "watumwa": 6132,
      "òṣèrébìnrin": 6133,
      "turai": 6134,
      "ቢሆንም": 6135,
      "million": 6136,
      "leon": 6137,
      "rap": 6138,
      "berg": 6139,
      "ìwọ̀": 6140,
      "ማግ": 6141,
      "ከረ": 6142,
      "ዓላማ": 6143,
      "head": 6144,
      "አምባ": 6145,
      "amẹ́ríkà.": 6146,
      "school,": 6147,
      "ይሆናል።": 6148,
      "ndege": 6149,
      "tabbatar": 6150,
      "western": 6151,
      "rist": 6152,
      "1945": 6153,
      "particu": 6154,
      "ethiopi": 6155,
      "empire": 6156,
      "መጋ": 6157,
      "ye.": 6158,
      "misri": 6159,
      "ዩኒቨር": 6160,
      "እንቅስቃሴ": 6161,
      "44": 6162,
      "tent": 6163,
      "zani": 6164,
      "zimba": 6165,
      "osun": 6166,
      "kam": 6167,
      "ምፒ": 6168,
      "ቅል": 6169,
      "ቅን": 6170,
      "ተጽ": 6171,
      "ታም": 6172,
      "ጀት": 6173,
      "ga.": 6174,
      "buil": 6175,
      "እንዴት": 6176,
      "beau": 6177,
      "fupi": 6178,
      "kyauta": 6179,
      "dukkan": 6180,
      "holanzi": 6181,
      "ography": 6182,
      "ክለብ": 6183,
      "milki": 6184,
      "ይቀራሉ።": 6185,
      "አገልግሎት": 6186,
      "(18": 6187,
      "lling": 6188,
      "ology": 6189,
      "burg": 6190,
      "washing": 6191,
      "2017.": 6192,
      "edward": 6193,
      "gbi": 6194,
      "ald": 6195,
      "teau": 6196,
      "(,": 6197,
      "በኤ": 6198,
      "ፉት": 6199,
      "ẹran": 6200,
      "water": 6201,
      "maaru": 6202,
      "shaji": 6203,
      "በአን": 6204,
      "ንግል": 6205,
      "ምርጫ": 6206,
      "musulmai": 6207,
      "bincike": 6208,
      "ይመስላል።": 6209,
      "nuwamba": 6210,
      "alhaji": 6211,
      "ዕብራይስጥ": 6212,
      "maarufu": 6213,
      "mke": 6214,
      "any": 6215,
      "engine": 6216,
      "sanda": 6217,
      "tribu": 6218,
      "indepen": 6219,
      "zimbabwe": 6220,
      "ged": 6221,
      "country": 6222,
      "ሠራዊት": 6223,
      "ሪፐ": 6224,
      "ሰባ": 6225,
      "አክ": 6226,
      "ከሆነ": 6227,
      "ጥም": 6228,
      "yarje": 6229,
      "joto": 6230,
      "majimbo": 6231,
      "ከነዚህ": 6232,
      "nasarar": 6233,
      "larabci": 6234,
      "shaharar": 6235,
      "kui": 6236,
      "taire": 6237,
      "cia": 6238,
      "yaki": 6239,
      "tsun": 6240,
      "demokra": 6241,
      "በብዙ": 6242,
      "ወገ": 6243,
      "ጋት": 6244,
      "halin": 6245,
      "yanar": 6246,
      "chanzo": 6247,
      "kawai": 6248,
      "አለው።": 6249,
      "vel": 6250,
      "through": 6251,
      "95": 6252,
      "gn": 6253,
      "emi": 6254,
      "1985": 6255,
      "obje": 6256,
      "awa": 6257,
      "yì": 6258,
      "ńlá": 6259,
      "የኡ": 6260,
      "tashar": 6261,
      "rike": 6262,
      "1920": 6263,
      "koko": 6264,
      "fadin": 6265,
      "shule": 6266,
      "ቤተክርስቲያን": 6267,
      "lililo": 6268,
      "ukoloni": 6269,
      "asilimia": 6270,
      "መጻሕፍት": 6271,
      "yarjejeni": 6272,
      "(s": 6273,
      "then": 6274,
      "diff": 6275,
      "bib": 6276,
      "sum": 6277,
      "nement": 6278,
      "picha": 6279,
      "département": 6280,
      "cli": 6281,
      "unti": 6282,
      "2018.": 6283,
      "tradition": 6284,
      "ingawa": 6285,
      "baadhi": 6286,
      "ọ̀yọ́": 6287,
      "joko": 6288,
      "የተባ": 6289,
      "prote": 6290,
      "እውነት": 6291,
      "institute": 6292,
      "hapa": 6293,
      "gau": 6294,
      "point": 6295,
      "data": 6296,
      "kudi": 6297,
      "alle": 6298,
      "champi": 6299,
      "àpapọ̀": 6300,
      "òbí": 6301,
      "ማኅ": 6302,
      "ቀሳ": 6303,
      "mayar": 6304,
      "miwa": 6305,
      "go.": 6306,
      "ìjà": 6307,
      "በመሆን": 6308,
      "ምንጊዜም": 6309,
      "kẹfà": 6310,
      "መልኩ": 6311,
      "ìṣẹ́": 6312,
      "ተመሳ": 6313,
      "ign": 6314,
      "bangaren": 6315,
      "ographi": 6316,
      "iro": 6317,
      "mapa": 6318,
      "dia.": 6319,
      "yanke": 6320,
      "rus": 6321,
      "ìlà": 6322,
      "ሙያ": 6323,
      "በሱ": 6324,
      "ተክል": 6325,
      "ጣን": 6326,
      "dawa": 6327,
      "wanasayansi": 6328,
      "henry": 6329,
      "adarí": 6330,
      "fm": 6331,
      "vre": 6332,
      "anal": 6333,
      "being": 6334,
      "enter": 6335,
      "eti": 6336,
      "se.": 6337,
      "atta": 6338,
      "ር፣": 6339,
      "ẹ̀sìn": 6340,
      "zaune": 6341,
      "2006,": 6342,
      "bíbí": 6343,
      "uswi": 6344,
      "kundin": 6345,
      "found": 6346,
      "መንግሥታት": 6347,
      "ዘመኑ": 6348,
      "olóò": 6349,
      "andika": 6350,
      "ed.": 6351,
      "compu": 6352,
      "(d.": 6353,
      "ሞክራ": 6354,
      "ቂያ": 6355,
      "በ16": 6356,
      "ዝን": 6357,
      "ẹbí": 6358,
      "የአር": 6359,
      "ልማት": 6360,
      "bandari": 6361,
      "ተመሳሳይ": 6362,
      "kro": 6363,
      "mou": 6364,
      "1969": 6365,
      "administra": 6366,
      "avi": 6367,
      "puli": 6368,
      "yasa": 6369,
      "1914": 6370,
      "fundi": 6371,
      "ƴar": 6372,
      "ይሁን": 6373,
      "ግሪ": 6374,
      "ፍር": 6375,
      "ፎር": 6376,
      "kipindi": 6377,
      "tsara": 6378,
      "kóso": 6379,
      "ኛውም": 6380,
      "biyu,": 6381,
      "agri": 6382,
      "በተለይም": 6383,
      "williams": 6384,
      "ይቻላል።": 6385,
      "ike": 6386,
      "1981": 6387,
      "1965": 6388,
      "rasi": 6389,
      "alamu": 6390,
      "family": 6391,
      "education": 6392,
      "adi": 6393,
      "dò": 6394,
      "kasi": 6395,
      "nira": 6396,
      "civil": 6397,
      "1952": 6398,
      "tzer": 6399,
      "ሀብ": 6400,
      "ሉን": 6401,
      "ሩም": 6402,
      "ሰም": 6403,
      "ሳር": 6404,
      "ተካ": 6405,
      "የራ": 6406,
      "የጀርመን": 6407,
      "ዳም": 6408,
      "kakar": 6409,
      "hadin": 6410,
      "ing.": 6411,
      "ped": 6412,
      "now": 6413,
      "jumo": 6414,
      "አመታት": 6415,
      "siyasan": 6416,
      "était": 6417,
      "ጥቅምት": 6418,
      "wùjọ": 6419,
      "self": 6420,
      "land.": 6421,
      "aso": 6422,
      "ck,": 6423,
      "football": 6424,
      "(16": 6425,
      "85": 6426,
      "በካ": 6427,
      "ተጫ": 6428,
      "ከባ": 6429,
      "የዚህ": 6430,
      "ፖርት": 6431,
      "kuzaliwa": 6432,
      "gizo": 6433,
      "janairu": 6434,
      "très": 6435,
      "dévelop": 6436,
      "able": 6437,
      "42": 6438,
      "iku": 6439,
      "appli": 6440,
      "2019.": 6441,
      "pl": 6442,
      "dian": 6443,
      "urusi": 6444,
      "agusta": 6445,
      "ሶስት": 6446,
      "የል": 6447,
      "ደገ": 6448,
      "ፊያ": 6449,
      "ọkọ̀": 6450,
      "injini": 6451,
      "kibantu": 6452,
      "sea": 6453,
      "የአውሮፓ": 6454,
      "ìjẹ̀": 6455,
      "1930": 6456,
      "hausawa": 6457,
      "ሕዝቡ": 6458,
      "shirye-shiryen": 6459,
      "sabu": 6460,
      "ko.": 6461,
      "uren": 6462,
      "ice": 6463,
      "khali": 6464,
      "firi": 6465,
      "vement": 6466,
      "area": 6467,
      "html": 6468,
      "cn": 6469,
      "osi": 6470,
      "tif": 6471,
      "oru": 6472,
      "petro": 6473,
      "sée": 6474,
      "መሣ": 6475,
      "ሪቃ": 6476,
      "ቆይ": 6477,
      "ቸዋል።": 6478,
      "አጠ": 6479,
      "እኩል": 6480,
      "sab": 6481,
      "tocin": 6482,
      "howe": 6483,
      "1962": 6484,
      "10.": 6485,
      "mwanzo": 6486,
      "wọ̀nyí": 6487,
      "ሚካኤል": 6488,
      "n'": 6489,
      "1972": 6490,
      "including": 6491,
      "mathe": 6492,
      "nairo": 6493,
      "pí": 6494,
      "pana": 6495,
      "come": 6496,
      "before": 6497,
      "crip": 6498,
      "uwar": 6499,
      "በሩ": 6500,
      "version": 6501,
      "እስካ": 6502,
      "kàwé": 6503,
      "እንግዲህ": 6504,
      "binciken": 6505,
      "onyesha": 6506,
      "ix": 6507,
      "coast": 6508,
      "kwu": 6509,
      "bii": 6510,
      "code": 6511,
      "iwa": 6512,
      "በደ": 6513,
      "ቷን": 6514,
      "ቸዉ": 6515,
      "ነፃ": 6516,
      "ኤን": 6517,
      "ẹgbẹ": 6518,
      "nibi": 6519,
      "hukun": 6520,
      "be,": 6521,
      "ደርግ": 6522,
      "pasẹ": 6523,
      "vitabu": 6524,
      "የሚገኝበት": 6525,
      "kilatini": 6526,
      "ዩኒቨርሲቲ": 6527,
      "jiki": 6528,
      "66": 6529,
      "ህግ": 6530,
      "ርሱ": 6531,
      "ሸን": 6532,
      "ነሣ": 6533,
      "ወስ": 6534,
      "ዳሪ": 6535,
      "wale": 6536,
      "jumu": 6537,
      "mpuni": 6538,
      "wis": 6539,
      "riga": 6540,
      "dence": 6541,
      "----": 6542,
      "cross": 6543,
      "2020,": 6544,
      "christian": 6545,
      "ታር": 6546,
      "ዓፄ": 6547,
      "ዞች": 6548,
      "kadiri": 6549,
      "nitori": 6550,
      "bien": 6551,
      "sever": 6552,
      "human": 6553,
      "domini": 6554,
      "adun": 6555,
      "type": 6556,
      "ነገሥት": 6557,
      "አለ።": 6558,
      "ዘንድ፣": 6559,
      "ፈላጊ": 6560,
      "ዓይነት": 6561,
      "ፍልስፍና": 6562,
      "ጽሕፈት": 6563,
      "wasemaji": 6564,
      "top": 6565,
      "conne": 6566,
      "differ": 6567,
      "australia": 6568,
      "uwe": 6569,
      "stry": 6570,
      "languages": 6571,
      "adu": 6572,
      "lations": 6573,
      "àkọ": 6574,
      "àlà": 6575,
      "ájú": 6576,
      "écri": 6577,
      "በዛ": 6578,
      "ቦር": 6579,
      "የፈ": 6580,
      "ያስተ": 6581,
      "cell": 6582,
      "líà": 6583,
      "elimu": 6584,
      "television": 6585,
      "masalla": 6586,
      "années": 6587,
      "tegemea": 6588,
      "ግንኙነት": 6589,
      "letter": 6590,
      "depuis": 6591,
      "jack": 6592,
      "leta": 6593,
      "albert": 6594,
      "sultani": 6595,
      "»,": 6596,
      "ìṣe": 6597,
      "ረቱ": 6598,
      "ተመል": 6599,
      "አዘ": 6600,
      "nipasẹ": 6601,
      "hewa": 6602,
      "በመባል": 6603,
      "afrilu": 6604,
      "1964": 6605,
      "wenyeji": 6606,
      "daukar": 6607,
      "መለስ": 6608,
      "ተከታይ": 6609,
      "kilimo": 6610,
      "ስብስብ": 6611,
      "disamba": 6612,
      "cine": 6613,
      "simp": 6614,
      "ative": 6615,
      "ctori": 6616,
      "nne": 6617,
      "founda": 6618,
      "plusie": 6619,
      "d)": 6620,
      "èè": 6621,
      "ìwá": 6622,
      "ሚና": 6623,
      "ምነት": 6624,
      "ሳል።": 6625,
      "ስትር": 6626,
      "ኗሪ": 6627,
      "ኪሎ": 6628,
      "የዓመቱ": 6629,
      "ደሴት": 6630,
      "ድንግል": 6631,
      "taf": 6632,
      "simi": 6633,
      "ches": 6634,
      "aura": 6635,
      "yi.": 6636,
      "የሚሰራ": 6637,
      "olojia": 6638,
      "première": 6639,
      "director": 6640,
      "biblia": 6641,
      "basi": 6642,
      "1929": 6643,
      "dam": 6644,
      "pou": 6645,
      "(15": 6646,
      "aya": 6647,
      "gni": 6648,
      "hand": 6649,
      "alpha": 6650,
      "histoire": 6651,
      "ለዚህ": 6652,
      "በሻ": 6653,
      "mapindu": 6654,
      "cigaba": 6655,
      "chief": 6656,
      "እንደተ": 6657,
      "lélógún": 6658,
      "ulikuwa": 6659,
      "ilé-ìwé": 6660,
      "italia.": 6661,
      "ጎንደር": 6662,
      "ክፍላገር": 6663,
      "የነበሩት": 6664,
      "modern": 6665,
      "mapinduzi": 6666,
      "last": 6667,
      "plusieurs": 6668,
      "dida": 6669,
      "counci": 6670,
      "pari": 6671,
      "».": 6672,
      "indon": 6673,
      "simu": 6674,
      "1917": 6675,
      "karun": 6676,
      "2009,": 6677,
      "(13": 6678,
      "88": 6679,
      "gì": 6680,
      "ƙwarar": 6681,
      "መጀመሪያ": 6682,
      "ቢይ": 6683,
      "እያንዳንዱ": 6684,
      "ያላቸው": 6685,
      "ግኝ": 6686,
      "yankunan": 6687,
      "mò:": 6688,
      "kikatoliki": 6689,
      "ስያሜ": 6690,
      "chunguza": 6691,
      "semi": 6692,
      "make": 6693,
      "sit": 6694,
      "jus": 6695,
      "ንጉሡ": 6696,
      "(2004)": 6697,
      "asu": 6698,
      "kwara": 6699,
      "taur": 6700,
      "busin": 6701,
      "dur": 6702,
      "website": 6703,
      "califor": 6704,
      "ées": 6705,
      "ለስ": 6706,
      "ሸዋ": 6707,
      "የፊ": 6708,
      "የሙዚቃ": 6709,
      "ያዝ": 6710,
      "ጫወ": 6711,
      "ẹkọ": 6712,
      "rail": 6713,
      "matakin": 6714,
      "አንደ": 6715,
      "1959": 6716,
      "íríkà": 6717,
      "bendera": 6718,
      "አውራ": 6719,
      "llen": 6720,
      "mohammed": 6721,
      "against": 6722,
      "kulo": 6723,
      "profi": 6724,
      "johnson": 6725,
      "መኖ": 6726,
      "ወዘ": 6727,
      "ዳል": 6728,
      "ጨምሮ": 6729,
      "femi": 6730,
      "ለማስ": 6731,
      "kẹ́mí": 6732,
      "jamhuriyar": 6733,
      "production": 6734,
      "አስተዳደግ": 6735,
      "kowane": 6736,
      "77": 6737,
      "zz": 6738,
      "paulo": 6739,
      "lic": 6740,
      "gree": 6741,
      "gara": 6742,
      "anchi": 6743,
      "buka": 6744,
      "amini": 6745,
      "cup": 6746,
      "accor": 6747,
      "volution": 6748,
      "kán": 6749,
      "àyọ": 6750,
      "ተደር": 6751,
      "ትራ": 6752,
      "የህዝብ": 6753,
      "ጠት": 6754,
      "waingereza": 6755,
      "karshen": 6756,
      "dangane": 6757,
      "co.": 6758,
      "sant": 6759,
      "10,": 6760,
      "congress": 6761,
      "establi": 6762,
      "kodi": 6763,
      "pada": 6764,
      "améri": 6765,
      "exemp": 6766,
      "agbara": 6767,
      "ula": 6768,
      "ኪንግ": 6769,
      "kuja": 6770,
      "1925": 6771,
      "fiye": 6772,
      "ነው፤": 6773,
      "በአዲስ": 6774,
      "ግንቦት": 6775,
      "ìtì": 6776,
      "መስከረም": 6777,
      "ቅርብ": 6778,
      "indiya": 6779,
      "australi": 6780,
      "argentina": 6781,
      "uf": 6782,
      "lazi": 6783,
      "stre": 6784,
      "less": 6785,
      "bonde": 6786,
      "care": 6787,
      "ni.": 6788,
      "moun": 6789,
      "qu'il": 6790,
      "nyota": 6791,
      "sma": 6792,
      "ሀይ": 6793,
      "ሚን": 6794,
      "ኢትዮጵያን": 6795,
      "shughu": 6796,
      "jaridar": 6797,
      "tangaza": 6798,
      "ሚኒስትር": 6799,
      "yesu": 6800,
      "linguis": 6801,
      "54": 6802,
      "lizi": 6803,
      "langue": 6804,
      "dad": 6805,
      "bi.": 6806,
      "eux": 6807,
      "swi": 6808,
      "ch,": 6809,
      "ja,": 6810,
      "system": 6811,
      "fẹ̀": 6812,
      "ላላ": 6813,
      "ልፍ": 6814,
      "መብ": 6815,
      "ኪዳን": 6816,
      "ጊያ": 6817,
      "wapo": 6818,
      "kotun": 6819,
      "cel": 6820,
      "ọ̀gá": 6821,
      "እንድ": 6822,
      "catho": 6823,
      "program": 6824,
      "ardhi": 6825,
      "sojojin": 6826,
      "tẹlifí": 6827,
      "àyọkà": 6828,
      "contra": 6829,
      "lat": 6830,
      "row": 6831,
      "astron": 6832,
      "present": 6833,
      "59": 6834,
      "bere": 6835,
      "do,": 6836,
      "wei": 6837,
      "ming": 6838,
      "ሆድ": 6839,
      "ቤን": 6840,
      "ተል": 6841,
      "ዙፋ": 6842,
      "base": 6843,
      "raho": 6844,
      "alg": 6845,
      "logun": 6846,
      "ስተር": 6847,
      "አባላት": 6848,
      "kátó": 6849,
      "ወንጌ": 6850,
      "láàrin": 6851,
      "zungum": 6852,
      "ምኒልክ": 6853,
      "kida": 6854,
      "internet": 6855,
      "gg": 6856,
      "toa": 6857,
      "192": 6858,
      "both": 6859,
      "1961": 6860,
      "kufa": 6861,
      "(17": 6862,
      "economi": 6863,
      "በታል።": 6864,
      "ነኛ": 6865,
      "ኔት": 6866,
      "ካሬ": 6867,
      "ጳጳ": 6868,
      "‘yan": 6869,
      "madara": 6870,
      "olori": 6871,
      "ዘመቻ": 6872,
      "alama": 6873,
      "chake.": 6874,
      "fici": 6875,
      "cole": 6876,
      "ttun": 6877,
      "zza": 6878,
      "quar": 6879,
      "society": 6880,
      "say": 6881,
      "rafa": 6882,
      "mori": 6883,
      "ǹkan": 6884,
      "ማራ": 6885,
      "ረጃ": 6886,
      "ርዕ": 6887,
      "የወ": 6888,
      "ይሁ": 6889,
      "ይፈ": 6890,
      "kufanya": 6891,
      "lei": 6892,
      "de-": 6893,
      "llaye": 6894,
      "አንቀ": 6895,
      "mbobin": 6896,
      "elekea": 6897,
      "yìí.": 6898,
      "kingdom": 6899,
      "brother": 6900,
      "labarin": 6901,
      "takwas": 6902,
      "gala": 6903,
      "sts": 6904,
      "1963": 6905,
      "syn": 6906,
      "short": 6907,
      "company": 6908,
      "tains": 6909,
      "devi": 6910,
      "sol": 6911,
      "change": 6912,
      "former": 6913,
      "kirki": 6914,
      "diffé": 6915,
      "sina": 6916,
      "sọ̀rọ̀": 6917,
      "ywa": 6918,
      "ሎስ": 6919,
      "ከፈ": 6920,
      "ጥቁር": 6921,
      "waarabu": 6922,
      "bankin": 6923,
      "እናት": 6924,
      "appro": 6925,
      "tenis": 6926,
      "yàtọ̀": 6927,
      "kusini.": 6928,
      "ንዳንድ": 6929,
      "tẹ́nì": 6930,
      "jimillar": 6931,
      "(10": 6932,
      "mous": 6933,
      "2007,": 6934,
      "cations": 6935,
      "ghts": 6936,
      "er.": 6937,
      "board": 6938,
      "exam": 6939,
      "(193": 6940,
      "bis": 6941,
      "ports": 6942,
      "broad": 6943,
      "ikon": 6944,
      "ìler": 6945,
      "ሰቡ": 6946,
      "ቋቋ": 6947,
      "የዘ": 6948,
      "ጋዜ": 6949,
      "al'adu": 6950,
      "karùn": 6951,
      "የመጣ": 6952,
      "ዳግማዊ": 6953,
      "ìwòsàn": 6954,
      "tage": 6955,
      "league": 6956,
      "cc": 6957,
      "mche": 6958,
      "l'in": 6959,
      "3=": 6960,
      "]]": 6961,
      "jara": 6962,
      "kwana": 6963,
      "num": 6964,
      "ሰሜን": 6965,
      "ቁት": 6966,
      "ቤል": 6967,
      "ọgọ́": 6968,
      "unes": 6969,
      "cours": 6970,
      "waliwa": 6971,
      "በአሜሪካ": 6972,
      "አድርጎ": 6973,
      "chaguliwa": 6974,
      "pópù": 6975,
      "lìkì": 6976,
      "ውቅያ": 6977,
      "limited": 6978,
      "buni": 6979,
      "hé": 6980,
      "igi": 6981,
      "ray": 6982,
      "song": 6983,
      "káà": 6984,
      "òkú": 6985,
      "ሊያን": 6986,
      "ሐሴ": 6987,
      "ትክ": 6988,
      "ነፈ": 6989,
      "ያዙ": 6990,
      "ፕላ": 6991,
      "majina": 6992,
      "namba": 6993,
      "ra'a": 6994,
      "ẹ̀bùn": 6995,
      "chache": 6996,
      "commer": 6997,
      "undun": 6998,
      "dauke": 6999,
      "አማካ": 7000,
      "2010.": 7001,
      "eos": 7002,
      "fr": 7003,
      "ortho": 7004,
      "me.": 7005,
      "sans": 7006,
      "cated": 7007,
      "té,": 7008,
      "lled": 7009,
      "tali": 7010,
      "ide": 7011,
      "ደርስ": 7012,
      "ni,": 7013,
      "kanna": 7014,
      "uses": 7015,
      "asibi": 7016,
      "1958": 7017,
      "kẹjọ": 7018,
      "lenye": 7019,
      "primary": 7020,
      "fíl": 7021,
      "ሥርዓት": 7022,
      "እንኳን": 7023,
      "abdullahi": 7024,
      "ሪፐብሊክ": 7025,
      "jon": 7026,
      "sui": 7027,
      "since": 7028,
      "however,": 7029,
      "ilè": 7030,
      "2008,": 7031,
      "et,": 7032,
      "hydro": 7033,
      "koro": 7034,
      "ሊሆን": 7035,
      "ሰቦች": 7036,
      "በዓለም": 7037,
      "ክምና": 7038,
      "ጽዋት": 7039,
      "kuwe": 7040,
      "father": 7041,
      "we,": 7042,
      "aṣojú": 7043,
      "አስተዳደር": 7044,
      "nguvu": 7045,
      "jihohin": 7046,
      "arzikin": 7047,
      "fílmù": 7048,
      "armen": 7049,
      "liber": 7050,
      "nami": 7051,
      "sawa": 7052,
      "hama": 7053,
      "notam": 7054,
      "philip": 7055,
      "yya.": 7056,
      "buhari": 7057,
      "1948": 7058,
      "igb": 7059,
      "ለየ": 7060,
      "ቆየ": 7061,
      "እሱ": 7062,
      "የባ": 7063,
      "ገራ": 7064,
      "wafu": 7065,
      "nifi": 7066,
      "giga": 7067,
      "jagun": 7068,
      "kundu": 7069,
      "1968": 7070,
      "በተለያዩ": 7071,
      "kẹtà": 7072,
      "አምስት": 7073,
      "በዚህም": 7074,
      "watoto": 7075,
      "jagoranci": 7076,
      "kimiyyar": 7077,
      "ofishin": 7078,
      "kátólìkì": 7079,
      "tán": 7080,
      "section": 7081,
      "hip": 7082,
      "ii,": 7083,
      "kiko": 7084,
      "hami": 7085,
      "sẹ": 7086,
      "ማው": 7087,
      "ምሥራቅ": 7088,
      "ሥልጣ": 7089,
      "ቅና": 7090,
      "ቅኝ": 7091,
      "moto": 7092,
      "ግንባታ": 7093,
      "anzisha": 7094,
      "mìnira": 7095,
      "sókè": 7096,
      "ቅድመ": 7097,
      "brazil": 7098,
      "dabbo": 7099,
      "ọpọlọ": 7100,
      "ኮኖሚ": 7101,
      "(2": 7102,
      "ines": 7103,
      "social": 7104,
      "map": 7105,
      "dashi": 7106,
      "kie": 7107,
      "ket": 7108,
      "soke": 7109,
      "ist": 7110,
      "university,": 7111,
      ":-": 7112,
      "furu": 7113,
      "udi": 7114,
      "yọ̀": 7115,
      "ìyàn": 7116,
      "ሬን": 7117,
      "ቹን": 7118,
      "ኑሮ": 7119,
      "ከፋ": 7120,
      "mauri": 7121,
      "duwa": 7122,
      "hus": 7123,
      "maneno": 7124,
      "መንገ": 7125,
      "contro": 7126,
      "akafuatwa": 7127,
      "kòkò": 7128,
      "አልፋ": 7129,
      "mallaka": 7130,
      "takarar": 7131,
      "ክፍላገ": 7132,
      "voire": 7133,
      "centre": 7134,
      "notamment": 7135,
      "cru": 7136,
      "sele": 7137,
      "tes,": 7138,
      "1940": 7139,
      "turki": 7140,
      "généra": 7141,
      "information": 7142,
      "b,": 7143,
      "lais": 7144,
      "1957": 7145,
      "bè": 7146,
      "ìyàwó": 7147,
      "ረስ": 7148,
      "ራውያን": 7149,
      "ቡድ": 7150,
      "ዛፍ": 7151,
      "ያት": 7152,
      "ድሀ": 7153,
      "ጥቂት": 7154,
      "አባቱ": 7155,
      "ananan": 7156,
      "digirin": 7157,
      "ደጃዝማች": 7158,
      "sham": 7159,
      "sey": 7160,
      "(2006)": 7161,
      "hr": 7162,
      "chor": 7163,
      "them": 7164,
      "atre": 7165,
      "bani": 7166,
      "date": 7167,
      "kele": 7168,
      "possi": 7169,
      "acti": 7170,
      "ህዝ": 7171,
      "ሕገ": 7172,
      "ሶርያ": 7173,
      "የእንግሊዝ": 7174,
      "ጥል": 7175,
      "ጻፍ": 7176,
      "ጽሁ": 7177,
      "ፊደ": 7178,
      "ọkọ": 7179,
      "sam": 7180,
      "1919": 7181,
      "ẹ̀dá": 7182,
      "ciya": 7183,
      "muhimman": 7184,
      "boko": 7185,
      "እስራኤል": 7186,
      "lẹ́hìn": 7187,
      "barabara": 7188,
      "littatta": 7189,
      "ጥያቄ": 7190,
      "third": 7191,
      "tẹ́nìs": 7192,
      "miss": 7193,
      "auto": 7194,
      "86": 7195,
      "bibli": 7196,
      "fair": 7197,
      "leader": 7198,
      "n;": 7199,
      "hazi": 7200,
      "cate": 7201,
      "ater": 7202,
      "obinrin": 7203,
      "àpẹ": 7204,
      "ìwà": 7205,
      "አላቸው": 7206,
      "ዲሱ": 7207,
      "tude": 7208,
      "zir": 7209,
      "shiyar": 7210,
      "የሚኖር": 7211,
      "final": 7212,
      "ንግሥት": 7213,
      "dauki": 7214,
      "présent": 7215,
      "ndiyo": 7216,
      "kọkànlá": 7217,
      "eosentomon": 7218,
      "undi": 7219,
      "peti": 7220,
      "aci": 7221,
      "based": 7222,
      "2013.": 7223,
      "queen": 7224,
      "87": 7225,
      "zi,": 7226,
      "1955": 7227,
      "llow": 7228,
      "wì": 7229,
      "ሳለ": 7230,
      "ቡና": 7231,
      "ተማሪ": 7232,
      "ከው": 7233,
      "የፈረንሳይ": 7234,
      "ይኖ": 7235,
      "‹‹": 7236,
      "masanin": 7237,
      "bude": 7238,
      "yaren": 7239,
      "tarwa": 7240,
      "የሚባል": 7241,
      "unao": 7242,
      "እንዲያ": 7243,
      "ቤተሰብ": 7244,
      "kyautu": 7245,
      "press,": 7246,
      "jarida": 7247,
      "firamare": 7248,
      "district": 7249,
      "tangan": 7250,
      "jim": 7251,
      "gou": 7252,
      "term": 7253,
      "certain": 7254,
      "ature": 7255,
      "matar": 7256,
      "syst": 7257,
      "zane": 7258,
      ")።": 7259,
      "sof": 7260,
      "wol": 7261,
      "ረፈ": 7262,
      "ሰት": 7263,
      "ታማ": 7264,
      "የሐ": 7265,
      "ጻፈው": 7266,
      "››": 7267,
      "1922": 7268,
      "wọlé": 7269,
      "victori": 7270,
      "የተቀ": 7271,
      "ንድስና": 7272,
      "fesa": 7273,
      "oluko": 7274,
      "igbi": 7275,
      "kasuwancin": 7276,
      "mamaye": 7277,
      "ሚኒስቴ": 7278,
      "sadarwa": 7279,
      "oríṣiríṣi": 7280,
      "ሊቃውንት": 7281,
      "(e": 7282,
      "mac": 7283,
      "thur": 7284,
      "ine.": 7285,
      "analy": 7286,
      "(3": 7287,
      "(da": 7288,
      "meli": 7289,
      "hungari": 7290,
      "libr": 7291,
      "gà": 7292,
      "ṣu": 7293,
      "kwarar": 7294,
      "odi": 7295,
      "tti": 7296,
      "àsìkò": 7297,
      "መብት": 7298,
      "ሞተ": 7299,
      "ስቲ": 7300,
      "ስሜን": 7301,
      "ቲት": 7302,
      "ነጭ": 7303,
      "የሙ": 7304,
      "ያል።": 7305,
      "gbọn": 7306,
      "pay": 7307,
      "pokea": 7308,
      "ruki": 7309,
      "ነበር፡፡": 7310,
      "ìdín": 7311,
      "ibujoko": 7312,
      "mvua": 7313,
      "òrìṣà": 7314,
      "ወዘተ": 7315,
      "v,": 7316,
      "boy": 7317,
      "will": 7318,
      "standard": 7319,
      "project": 7320,
      "toni": 7321,
      "allo": 7322,
      "እሳት": 7323,
      "kuro": 7324,
      "ouest": 7325,
      "dìí": 7326,
      "ማክ": 7327,
      "ምሌ": 7328,
      "ሮን": 7329,
      "ሰላ": 7330,
      "ካራ": 7331,
      "የፖለቲካ": 7332,
      "ጣሪ": 7333,
      "ስተኛው": 7334,
      "biyu.": 7335,
      "kéde": 7336,
      "afirka.": 7337,
      "onímọ̀": 7338,
      "láàrín": 7339,
      "haihuwa": 7340,
      "(lafazi": 7341,
      "lami": 7342,
      "1900": 7343,
      "unin": 7344,
      "provin": 7345,
      "née": 7346,
      "gè": 7347,
      "(ወይም": 7348,
      "pungu": 7349,
      "w,": 7350,
      "àtò": 7351,
      "ɗe": 7352,
      "ልን": 7353,
      "ምልክ": 7354,
      "ካከለ": 7355,
      "ዋርያ": 7356,
      "ዝያ": 7357,
      "ጃፓን": 7358,
      "ጉር": 7359,
      "ጉን": 7360,
      "ጎች": 7361,
      "yada": 7362,
      "hakuna": 7363,
      "diyya": 7364,
      "dangin": 7365,
      "የአንድ": 7366,
      "ìjá": 7367,
      "በመስ": 7368,
      "170": 7369,
      "zamantake": 7370,
      "tattauna": 7371,
      "ዋንጫ": 7372,
      "ገበያ": 7373,
      "ng'": 7374,
      "period": 7375,
      "espa": 7376,
      "2012.": 7377,
      "1956": 7378,
      "43": 7379,
      "pren": 7380,
      "dary": 7381,
      "northern": 7382,
      "[[": 7383,
      "ሄደ": 7384,
      "መዘ": 7385,
      "በታሪክ": 7386,
      "በጥንታዊ": 7387,
      "ወላ": 7388,
      "ዚያን": 7389,
      "ፋል": 7390,
      "rawa": 7391,
      "alitokea": 7392,
      "látà": 7393,
      "የተወሰ": 7394,
      "adú": 7395,
      "tsakiya": 7396,
      "nusu": 7397,
      "bridge": 7398,
      "ስታን": 7399,
      "በሰሜን": 7400,
      "láàá": 7401,
      "ፖርቱ": 7402,
      "kes": 7403,
      "sensa": 7404,
      "daniel": 7405,
      "jona": 7406,
      "bamba": 7407,
      "zulu": 7408,
      "gr": 7409,
      "segun": 7410,
      "présen": 7411,
      "flor": 7412,
      "ìs": 7413,
      "መምህ": 7414,
      "ሞላ": 7415,
      "ሣይ": 7416,
      "ቀለ": 7417,
      "በሉ": 7418,
      "ቶን": 7419,
      "ዝግ": 7420,
      "የ«": 7421,
      "ጨት": 7422,
      "wanyama": 7423,
      "የሚጠ": 7424,
      "ነበር፤": 7425,
      "000.": 7426,
      "yìí,": 7427,
      "kyau": 7428,
      "otto": 7429,
      "initi": 7430,
      "distin": 7431,
      "12,": 7432,
      "1946": 7433,
      "amatsayin": 7434,
      "cè": 7435,
      "ccen": 7436,
      "ifi": 7437,
      "የቻይና": 7438,
      "ያላ": 7439,
      "bayana": 7440,
      "gudun": 7441,
      "huɗu": 7442,
      "nomba": 7443,
      "አልፎ": 7444,
      "gudanarwa": 7445,
      "መቀመጫ": 7446,
      "demokrasia": 7447,
      "ey": 7448,
      "us.": 7449,
      "selon": 7450,
      "um,": 7451,
      "senti": 7452,
      "signifi": 7453,
      "prince": 7454,
      "11,": 7455,
      "mọd": 7456,
      "ለዋል።": 7457,
      "ሊት": 7458,
      "ምድ": 7459,
      "በክ": 7460,
      "በፍ": 7461,
      "ተወለደ": 7462,
      "ንተ": 7463,
      "የእግዚአብሔር": 7464,
      "የግብጽ": 7465,
      "ዶን": 7466,
      "birin": 7467,
      "kansu": 7468,
      "alizaliwa": 7469,
      "2009.": 7470,
      "shekarar,": 7471,
      "ኢትዮጵያዊ": 7472,
      "አስተዋ": 7473,
      "መካከለ": 7474,
      "ስርዓት": 7475,
      "fina-finan": 7476,
      "blu": 7477,
      "dr.": 7478,
      "keb": 7479,
      "deu": 7480,
      "field": 7481,
      "tibu": 7482,
      "ghan": 7483,
      "fungu": 7484,
      "63": 7485,
      "ij": 7486,
      "ƙananan": 7487,
      "ተስፋ": 7488,
      "ትኩ": 7489,
      "ችሉ": 7490,
      "ኒት": 7491,
      "ፈቃ": 7492,
      "tashi": 7493,
      "on.": 7494,
      "የአለም": 7495,
      "adá": 7496,
      "በአንዳንድ": 7497,
      "ዘመናት": 7498,
      "okùn": 7499,
      "ስምምነት": 7500,
      "ምክር": 7501,
      "መነሻ": 7502,
      "daidai": 7503,
      "(au": 7504,
      "gement": 7505,
      "160": 7506,
      "15,": 7507,
      "trois": 7508,
      "hao": 7509,
      "llan": 7510,
      "lese": 7511,
      "1923": 7512,
      "-ò": 7513,
      "65": 7514,
      "uislamu": 7515,
      "ለአ": 7516,
      "መጽ": 7517,
      "ረር": 7518,
      "ተገ": 7519,
      "አነጋ": 7520,
      "ዞን": 7521,
      "የጎ": 7522,
      "ያተ": 7523,
      "ዮት": 7524,
      "ግና": 7525,
      "aris": 7526,
      "lishi": 7527,
      "mijin": 7528,
      "rah": 7529,
      "hidi": 7530,
      "ríà": 7531,
      "ወረራ": 7532,
      "múlẹ̀": 7533,
      "olùdá": 7534,
      "sauransu.": 7535,
      "kulob": 7536,
      "ars": 7537,
      "bala": 7538,
      "thing": 7539,
      "malawi": 7540,
      "ghana.": 7541,
      "dana": 7542,
      "diction": 7543,
      "notes": 7544,
      "1947": 7545,
      "trodu": 7546,
      "https": 7547,
      "dùn": 7548,
      "mdogo": 7549,
      "ufi": 7550,
      "ufu": 7551,
      "yò": 7552,
      "ሠብ": 7553,
      "ሳቸውን": 7554,
      "ንጥረ": 7555,
      "እጽዋት": 7556,
      "ከላይ": 7557,
      "ከአንድ": 7558,
      "hifa": 7559,
      "shiri": 7560,
      "jemi": 7561,
      "lásìkò": 7562,
      "julọ": 7563,
      "በት።": 7564,
      "16,": 7565,
      "1949": 7566,
      "አስፈላጊ": 7567,
      "ባህላዊ": 7568,
      "ገለግ": 7569,
      "hukumomi": 7570,
      "agbábọ́ọ̀lù": 7571,
      "áfíríkà": 7572,
      "yẹ̀wò": 7573,
      "wikipedia.": 7574,
      "turn": 7575,
      "effe": 7576,
      "jìdín": 7577,
      "tù": 7578,
      "urefu": 7579,
      "ቀደም": 7580,
      "በባ": 7581,
      "በኩ": 7582,
      "በጎ": 7583,
      "ተኞች": 7584,
      "እኛ": 7585,
      "ከን": 7586,
      "የሥ": 7587,
      "ṣì": 7588,
      "kwallaye": 7589,
      "yarda": 7590,
      "ority": 7591,
      "የተነሳ": 7592,
      "force": 7593,
      "adini": 7594,
      "kẹrìn": 7595,
      "በርግ": 7596,
      "military": 7597,
      "scienti": 7598,
      "-oòrùn": 7599,
      "àkókò": 7600,
      "ነጻነት": 7601,
      "ቀዳማዊ": 7602,
      "masana'antar": 7603,
      "jiragen": 7604,
      "መዋዕል": 7605,
      "binadamu": 7606,
      "látàrí": 7607,
      "600": 7608,
      "aa": 7609,
      "kle": 7610,
      "1951": 7611,
      "even": 7612,
      "gama": 7613,
      "yẹ́": 7614,
      "ሞቱ": 7615,
      "ስታት": 7616,
      "በድ": 7617,
      "እራ": 7618,
      "እዚህ": 7619,
      "ọkan": 7620,
      "kidogo": 7621,
      "jijini": 7622,
      "huitwa": 7623,
      "wananchi": 7624,
      "post": 7625,
      "ambalo": 7626,
      "ambaye": 7627,
      "mashariki.": 7628,
      "waɗannan": 7629,
      "አሜሪካዊ": 7630,
      "tẹ́lẹ̀.": 7631,
      "following": 7632,
      "pun": 7633,
      "grande": 7634,
      "lated": 7635,
      "hiki": 7636,
      "so,": 7637,
      "ents": 7638,
      "ልጋ": 7639,
      "ተሸ": 7640,
      "ናይ": 7641,
      "ና።": 7642,
      "kasan": 7643,
      "mapapa": 7644,
      "nas": 7645,
      "leurs": 7646,
      "kiru": 7647,
      "alichunguza": 7648,
      "sínú": 7649,
      "እንደነበር": 7650,
      "yake,": 7651,
      "ታወቀ": 7652,
      "olùkọ́": 7653,
      "ጣልያ": 7654,
      "mwendo": 7655,
      "service": 7656,
      "pendant": 7657,
      "anambra": 7658,
      "መሣሪያ": 7659,
      "six": 7660,
      "(2003)": 7661,
      "u.s.": 7662,
      "92": 7663,
      "kada": 7664,
      "bus": 7665,
      "protes": 7666,
      "heri": 7667,
      "lasi": 7668,
      "sali": 7669,
      "shika": 7670,
      "saint-": 7671,
      "awali": 7672,
      "kín": 7673,
      "ón": 7674,
      "ላቅ": 7675,
      "ልጆ": 7676,
      "ልምና": 7677,
      "ስሊ": 7678,
      "ተባለ": 7679,
      "dal": 7680,
      "ony": 7681,
      "haɓ": 7682,
      "gbí": 7683,
      "zime": 7684,
      "tunan": 7685,
      "አስቀድሞ": 7686,
      "ይገመ": 7687,
      "jama'": 7688,
      "dàgbà": 7689,
      "òṣèrékùnrin": 7690,
      "ግራም": 7691,
      "sokoto": 7692,
      "lànà": 7693,
      "gidi": 7694,
      "wealth": 7695,
      "fm,": 7696,
      "mikoa": 7697,
      "until": 7698,
      "nga": 7699,
      "ulu": 7700,
      "2021": 7701,
      "apple": 7702,
      "ìṣè": 7703,
      "òní": 7704,
      "ለምን": 7705,
      "ተገኝ": 7706,
      "tau": 7707,
      "tabia": 7708,
      "fawa": 7709,
      "kwatar": 7710,
      "rukun": 7711,
      "ologun": 7712,
      "girman": 7713,
      "kyawun": 7714,
      "ተቀም": 7715,
      "shari'a": 7716,
      "hesabu": 7717,
      "hifadhi": 7718,
      "tiques": 7719,
      "miran": 7720,
      "lée": 7721,
      "disco": 7722,
      "rian": 7723,
      "white": 7724,
      "lee": 7725,
      "railway": 7726,
      "ndio": 7727,
      "ለህ": 7728,
      "መተ": 7729,
      "መኮ": 7730,
      "ሰኔ": 7731,
      "ሰፊ": 7732,
      "ስነ": 7733,
      "ና፡": 7734,
      "እያለ": 7735,
      "ፉ።": 7736,
      "ፍላ": 7737,
      "ṣọ́": 7738,
      "lio": 7739,
      "sitì": 7740,
      "buri": 7741,
      "በመቀ": 7742,
      "በመጽሐ": 7743,
      "ጀመር": 7744,
      "mwamba": 7745,
      "kasuwa": 7746,
      "መሠረተ": 7747,
      "ይሆናል": 7748,
      "major": 7749,
      "mazingi": 7750,
      "አልፋቤት": 7751,
      "jonathan": 7752,
      "odu": 7753,
      "near": 7754,
      "sound": 7755,
      "20,": 7756,
      "karo": 7757,
      "pher": 7758,
      "gregori": 7759,
      "kalu": 7760,
      "aj": 7761,
      "ez": 7762,
      "ija": 7763,
      "ርሱም": 7764,
      "ቆብ": 7765,
      "ናገር": 7766,
      "አጼ": 7767,
      "የጥን": 7768,
      "ጨለማ": 7769,
      "ino": 7770,
      "kute": 7771,
      "kikubwa": 7772,
      "ነው፣": 7773,
      "pokuwa": 7774,
      "yanayo": 7775,
      "kanada": 7776,
      "አብዛኛው": 7777,
      "ድምጽ": 7778,
      "austrá": 7779,
      "àmì-ẹ̀yẹ": 7780,
      "ውድድር": 7781,
      "ስለሆነም": 7782,
      "ይርላንድ": 7783,
      "austrálíà": 7784,
      "ge.": 7785,
      "féren": 7786,
      "kolo": 7787,
      "club": 7788,
      "kwar": 7789,
      "mn": 7790,
      "battle": 7791,
      "sanjo": 7792,
      "1953": 7793,
      "-ኢ": 7794,
      "-ẹ̀kọ́": 7795,
      "kware": 7796,
      "ሃም": 7797,
      "ምሩ": 7798,
      "ትስ": 7799,
      "ትዕ": 7800,
      "ነሐሴ": 7801,
      "ዩት": 7802,
      "waandishi": 7803,
      "mato": 7804,
      "kurú": 7805,
      "padri": 7806,
      "lyn": 7807,
      "ለውጥ": 7808,
      "linalo": 7809,
      "dinkin": 7810,
      "matsayi": 7811,
      "kòó": 7812,
      "asilia": 7813,
      "undwa": 7814,
      "kúkurú": 7815,
      "mẹ́rin": 7816,
      "press": 7817,
      "wiki/": 7818,
      "àṣàyàn": 7819,
      "ፕሬዚዳንት": 7820,
      "ትውልድ": 7821,
      "each": 7822,
      "nyan": 7823,
      "fice": 7824,
      "moins": 7825,
      "hospi": 7826,
      "resear": 7827,
      "army": 7828,
      "20.": 7829,
      "poin": 7830,
      "ahmed": 7831,
      "introdu": 7832,
      "mamla": 7833,
      "live": 7834,
      "mann": 7835,
      "usale": 7836,
      "-ሲን": 7837,
      "sọ́": 7838,
      "ሆኗ": 7839,
      "ላህ": 7840,
      "መሃ": 7841,
      "መሆን": 7842,
      "ምግብ": 7843,
      "ቀም": 7844,
      "ብሄ": 7845,
      "ብረተ": 7846,
      "ችሎ": 7847,
      "የጦር": 7848,
      "ዳይ": 7849,
      "eren": 7850,
      "kiwon": 7851,
      "sex": 7852,
      "contre": 7853,
      "በአማርኛ": 7854,
      "larin": 7855,
      "ከተማዋ": 7856,
      "nìkan": 7857,
      "1939": 7858,
      "ርትራ": 7859,
      "እንዳይ": 7860,
      "rubutu": 7861,
      "ይታመ": 7862,
      "ሰማይ": 7863,
      "hakkin": 7864,
      "org/wiki/": 7865,
      "ተጫዋ": 7866,
      "ìlera": 7867,
      "https://": 7868,
      "(14": 7869,
      "vant": 7870,
      "sita": 7871,
      "baka": 7872,
      "d'i": 7873,
      "s-": 7874,
      "ter,": 7875,
      "continu": 7876,
      "-አ": 7877,
      "azu": 7878,
      "ሃያ": 7879,
      "ልዑ": 7880,
      "ሣሥ": 7881,
      "ስጋ": 7882,
      "አጠቃላይ": 7883,
      "ዳኛ": 7884,
      "፳፻": 7885,
      "bakin": 7886,
      "kano,": 7887,
      "santa": 7888,
      "doma": 7889,
      "የሚባለው": 7890,
      "mutuwan": 7891,
      "ahmadu": 7892,
      "ፕሬዚደን": 7893,
      "angola": 7894,
      "kituo": 7895,
      "wing": 7896,
      "dec": 7897,
      "wel": 7898,
      "vation": 7899,
      "tuni": 7900,
      "pierre": 7901,
      "cally": 7902,
      "space": 7903,
      "iti": 7904,
      "tten": 7905,
      "àṣẹ": 7906,
      "ƙe": 7907,
      "ሆናቸው": 7908,
      "ረጅም": 7909,
      "ችኹ": 7910,
      "ዲት": 7911,
      "tasi": 7912,
      "suite": 7913,
      "የሚሰ": 7914,
      "duniani.": 7915,
      "lọ́jọ́": 7916,
      "በኋላም": 7917,
      "tsaro": 7918,
      "ሌላው": 7919,
      "zamanin": 7920,
      "al'adun": 7921,
      "lissafi": 7922,
      "-iwe": 7923,
      "haihuwar": 7924,
      "ìtumò:": 7925,
      "fabrairu": 7926,
      "business": 7927,
      "p)": 7928,
      "liste": 7929,
      "fication": 7930,
      "homo": 7931,
      "kala": 7932,
      "bah": 7933,
      "nie": 7934,
      "desh": 7935,
      "cian": 7936,
      "1954": 7937,
      "eye": 7938,
      "mku": 7939,
      "poland": 7940,
      "cry": 7941,
      "kẹ̀": 7942,
      "ሄዱ": 7943,
      "መግ": 7944,
      "ርዝ": 7945,
      "በህ": 7946,
      "በለ": 7947,
      "ተም": 7948,
      "ተባ": 7949,
      "ውና": 7950,
      "ዥን": 7951,
      "ያዕ": 7952,
      "ደቅ": 7953,
      "የአሦር": 7954,
      "oni.": 7955,
      "kasashe": 7956,
      "word": 7957,
      "ድረስ፣": 7958,
      "afirka,": 7959,
      "ለን።": 7960,
      "ተራሮች": 7961,
      "wuraren": 7962,
      "የኤሌክትሪክ": 7963,
      "mwingine": 7964,
      "ርቶዶ": 7965,
      "video": 7966,
      "ይገመታል።": 7967,
      "ref": 7968,
      "villa": 7969,
      "ambo": 7970,
      "2002,": 7971,
      "xe": 7972,
      "le-": 7973,
      "pages": 7974,
      "could": 7975,
      "champion": 7976,
      "(pia": 7977,
      "(12": 7978,
      "bb": 7979,
      "ikiwa": 7980,
      "ome": 7981,
      "phe": 7982,
      "uzi": 7983,
      "መቃ": 7984,
      "ቡን": 7985,
      "ተዛ": 7986,
      "ቱት": 7987,
      "አደ": 7988,
      "አማርኛ": 7989,
      "maanisha": 7990,
      "karɓ": 7991,
      "የሚፈ": 7992,
      "gbajumo": 7993,
      "aikata": 7994,
      "shuka": 7995,
      "márùn": 7996,
      "tropi": 7997,
      "idije": 7998,
      "ግብፅ": 7999,
      "wake.": 8000,
      "ይገኛሉ።": 8001,
      "ፕሬዝ": 8002,
      "እንስሳት": 8003,
      "atlantiki": 8004,
      "wakiltar": 8005,
      "àjàkálẹ̀": 8006,
      "ብሪታንያ": 8007,
      "አንቀጽ": 8008,
      "anne": 8009,
      "dic": 8010,
      "(as": 8011,
      "equ": 8012,
      "llah": 8013,
      "around": 8014,
      "800": 8015,
      "rwanda": 8016,
      "mit": 8017,
      "ques,": 8018,
      "nigeria,": 8019,
      "mediter": 8020,
      "mrefu": 8021,
      "ራው": 8022,
      "ሰዓት": 8023,
      "ሻሻ": 8024,
      "እርስ": 8025,
      "የደ": 8026,
      "ይመ": 8027,
      "ጤና": 8028,
      "kaza": 8029,
      "orilẹ": 8030,
      "ador": 8031,
      "ƙashin": 8032,
      "itọ": 8033,
      "nations": 8034,
      "stein": 8035,
      "እንግሊዝኛ:": 8036,
      "ፈረንሣይ": 8037,
      "ongoza": 8038,
      "girmamawa": 8039,
      "ƙungi": 8040,
      "የግሪክ": 8041,
      "rd1-score": 8042,
      "978-": 8043,
      "ውቅያኖስ": 8044,
      "what": 8045,
      "achi": 8046,
      "jac": 8047,
      "ikh": 8048,
      "max": 8049,
      "because": 8050,
      "%),": 8051,
      "clai": 8052,
      "àwùjọ": 8053,
      "ምስራቅ": 8054,
      "ኅሣሥ": 8055,
      "የሁ": 8056,
      "ዳት": 8057,
      "kampuni": 8058,
      "ungiyar": 8059,
      "laarin": 8060,
      "le)": 8061,
      "kiwan": 8062,
      "kijeshi": 8063,
      "kiislamu": 8064,
      "faa": 8065,
      "due": 8066,
      "yeye": 8067,
      "የአገ": 8068,
      "shawarar": 8069,
      "garuru": 8070,
      "pinzani": 8071,
      "fransis": 8072,
      "ማለትም": 8073,
      "burtaniya": 8074,
      "mẹ́rìn": 8075,
      "ሚያዝያ": 8076,
      "ፍጥነት": 8077,
      "እስካሁን": 8078,
      "council": 8079,
      "kòkòrò": 8080,
      "1/": 8081,
      "aku": 8082,
      "side": 8083,
      "nisha": 8084,
      "stor": 8085,
      "2020.": 8086,
      "69": 8087,
      "album": 8088,
      "gand": 8089,
      "ena": 8090,
      "israeli": 8091,
      "entertain": 8092,
      "orthodo": 8093,
      "(mshindi": 8094,
      "tse": 8095,
      "ìta": 8096,
      "ìtàgé": 8097,
      "ògún": 8098,
      "ብረ": 8099,
      "አለመ": 8100,
      "ክፉ": 8101,
      "የእግር": 8102,
      "የጣልያን": 8103,
      "ፌዴ": 8104,
      "ይህንን": 8105,
      "የመሬት": 8106,
      "ለመጀመሪያ": 8107,
      "syl": 8108,
      "በሚል": 8109,
      "uingereza.": 8110,
      "ትልቁ": 8111,
      "ancient": 8112,
      "ዛሬው": 8113,
      "mukamin": 8114,
      "tẹlifíṣ": 8115,
      "mọdé": 8116,
      "anar": 8117,
      "bora": 8118,
      "rita": 8119,
      "jaru": 8120,
      "avant": 8121,
      "mamlaka": 8122,
      "fìdí": 8123,
      "frán": 8124,
      "mtun": 8125,
      "nǹkan": 8126,
      "لَ": 8127,
      "ሞስ": 8128,
      "ርቀት": 8129,
      "ስፒ": 8130,
      "ተጨማሪ": 8131,
      "ካለ": 8132,
      "ድቅ": 8133,
      "ጉዞ": 8134,
      "ፍተ": 8135,
      "ọna": 8136,
      "kitovu": 8137,
      "kitaifa": 8138,
      "fiadini": 8139,
      "yii": 8140,
      "በአፍ": 8141,
      "mtoto": 8142,
      "olùgbé": 8143,
      "musulmi": 8144,
      "aṣòfin": 8145,
      "volken": 8146,
      "èkó.": 8147,
      "rd1-score0": 8148,
      "የካቲት": 8149,
      "የእስፓንያ": 8150,
      "al'umma": 8151,
      "ውጤት": 8152,
      "unganisha": 8153,
      "አሉት።": 8154,
      "(4": 8155,
      "enta": 8156,
      "momi": 8157,
      "dered": 8158,
      "ela": 8159,
      "stron": 8160,
      "52": 8161,
      "squ": 8162,
      "li.": 8163,
      "ri.": 8164,
      "bill": 8165,
      "rome": 8166,
      "road": 8167,
      "coloni": 8168,
      "occu": 8169,
      "2019)": 8170,
      "hassan": 8171,
      "awu": 8172,
      "kìtì": 8173,
      "ሕን": 8174,
      "ስፍራ": 8175,
      "በ15": 8176,
      "ቢያን": 8177,
      "ክላ": 8178,
      "nata": 8179,
      "ọ̀jọ̀": 8180,
      "lum": 8181,
      "sarrafa": 8182,
      "concep": 8183,
      "abú": 8184,
      "ድርጊ": 8185,
      "ደረግ": 8186,
      "nijeriya,": 8187,
      "ተወላ": 8188,
      "kando": 8189,
      "gẹgẹ": 8190,
      "russia": 8191,
      "kayayya": 8192,
      "yarjejeniyar": 8193,
      "ngo": 8194,
      "o-": 8195,
      "political": 8196,
      "industri": 8197,
      "msu": 8198,
      "lier": 8199,
      "muse": 8200,
      "page": 8201,
      "victor": 8202,
      "ito": 8203,
      "p,": 8204,
      "’s": 8205,
      "sid": 8206,
      "gare": 8207,
      "ìf": 8208,
      "ሕል": 8209,
      "ቃት": 8210,
      "ተለ": 8211,
      "ጃም": 8212,
      "ግዳ": 8213,
      "የተገኘ": 8214,
      "elles": 8215,
      "17,": 8216,
      "matsayinta": 8217,
      "ibù": 8218,
      "jengwa": 8219,
      "አስተሳ": 8220,
      "ይልቅ": 8221,
      "kataba": 8222,
      "amurka,": 8223,
      "ብሔረ": 8224,
      "ፍጥረት": 8225,
      "nyumba": 8226,
      "ፓርቲዎች": 8227,
      "ጀመረ።": 8228,
      "wikipedia.org/wiki/": 8229,
      "lato": 8230,
      "cei": 8231,
      "autre": 8232,
      "chica": 8233,
      "hispani": 8234,
      "photo": 8235,
      "technology": 8236,
      "bran": 8237,
      "living": 8238,
      "sher": 8239,
      "ere,": 8240,
      "caract": 8241,
      "kadan": 8242,
      "tumo": 8243,
      "actu": 8244,
      "groupe": 8245,
      "11.": 8246,
      "mchan": 8247,
      "ሮሜ": 8248,
      "በእስ": 8249,
      "ነሽ": 8250,
      "የፀ": 8251,
      "ይነገ": 8252,
      "ዱን": 8253,
      "bamban": 8254,
      "ga-": 8255,
      "bisho": 8256,
      "model": 8257,
      "dokokin": 8258,
      "2008.": 8259,
      "ሳሌም": 8260,
      "proces": 8261,
      "አንዳን": 8262,
      "ayọ": 8263,
      "farko,": 8264,
      "የሚገኘው": 8265,
      "፲፱፻፵": 8266,
      "brown": 8267,
      "obasanjo": 8268,
      "amurka.": 8269,
      "mahaifinta": 8270,
      "gurbin": 8271,
      "ያያዣ": 8272,
      "washington": 8273,
      "ክፍላገራት": 8274,
      "nais": 8275,
      "capi": 8276,
      "lala": 8277,
      "safari": 8278,
      "moyen": 8279,
      "fut": 8280,
      "concer": 8281,
      "non-": 8282,
      "côte": 8283,
      "several": 8284,
      "kwi": 8285,
      "tambu": 8286,
      "anima": 8287,
      "solu": 8288,
      "young": 8289,
      "health": 8290,
      "ty.": 8291,
      "ndugu": 8292,
      "ukristo": 8293,
      "ìlànà": 8294,
      "ńì": 8295,
      "ሁንም": 8296,
      "ሮሞ": 8297,
      "ተመለ": 8298,
      "ዜማ": 8299,
      "የቅ": 8300,
      "laha": 8301,
      "tea": 8302,
      "stani": 8303,
      "pimo": 8304,
      "shahara": 8305,
      "ስተዳ": 8306,
      "matumizi": 8307,
      "sanata": 8308,
      "stance": 8309,
      "ገኙት": 8310,
      "ሮማይስጥ": 8311,
      "european": 8312,
      "በተጨማሪም": 8313,
      "ƙaramar": 8314,
      "ቴክኖ": 8315,
      "ሲቀሩ": 8316,
      "መኮንን": 8317,
      "fránsì": 8318,
      "smi": 8319,
      "lo,": 8320,
      "birth": 8321,
      "(7": 8322,
      "msa": 8323,
      "sise": 8324,
      "secre": 8325,
      "archite": 8326,
      "baban": 8327,
      "kufu": 8328,
      "1913": 8329,
      "arifa": 8330,
      "elizabe": 8331,
      "temps": 8332,
      "engineer": 8333,
      "(ki": 8334,
      "cum": 8335,
      "okan": 8336,
      "ሉ፣": 8337,
      "መሪዎች": 8338,
      "ሰላም": 8339,
      "ሴማዊ": 8340,
      "ቅረብ": 8341,
      "በጠ": 8342,
      "ነስ": 8343,
      "የሶ": 8344,
      "magi": 8345,
      "maende": 8346,
      "lieu": 8347,
      "kile": 8348,
      "kiki": 8349,
      "1928": 8350,
      "mother": 8351,
      "aliji": 8352,
      "የአን": 8353,
      "sha'a": 8354,
      "sunna": 8355,
      "rẹ,": 8356,
      "symbo": 8357,
      "'yancin": 8358,
      "ƙarƙashin": 8359,
      "ምዕራፍ": 8360,
      "akọkọ": 8361,
      "መሳሪያ": 8362,
      "ጨዋታ": 8363,
      "bayanai": 8364,
      "fransisko": 8365,
      "b)": 8366,
      "laire": 8367,
      "kuri": 8368,
      "mo,": 8369,
      "41": 8370,
      "lay": 8371,
      "niko": 8372,
      "19,": 8373,
      "hard": 8374,
      "green": 8375,
      "x.": 8376,
      "resul": 8377,
      "vol.": 8378,
      "principa": 8379,
      "computer": 8380,
      "research": 8381,
      "igbá": 8382,
      "qa": 8383,
      "rho": 8384,
      "ሎችን": 8385,
      "ሠሩ": 8386,
      "ሩስ": 8387,
      "በዋና": 8388,
      "ፊው": 8389,
      "ria,": 8390,
      "zafi": 8391,
      "bola": 8392,
      "katiba": 8393,
      "no.": 8394,
      "harkar": 8395,
      "tseren": 8396,
      "ነገሥቱ": 8397,
      "fano": 8398,
      "1943": 8399,
      "mpira": 8400,
      "kilicho": 8401,
      "speci": 8402,
      "ምህንድስና": 8403,
      "husiano": 8404,
      "kungiyoyin": 8405,
      "miezi": 8406,
      "sabuwar": 8407,
      "shughuli": 8408,
      "rukunin": 8409,
      "(na": 8410,
      "”.": 8411,
      "down": 8412,
      "mkon": 8413,
      "quent": 8414,
      "exten": 8415,
      "eastern": 8416,
      "organization": 8417,
      "foundation": 8418,
      "ibe": 8419,
      "mko": 8420,
      "ura": 8421,
      "wako": 8422,
      "record": 8423,
      "ctu": 8424,
      "nù": 8425,
      "ሆና": 8426,
      "ማል።": 8427,
      "ያሉት": 8428,
      "kisha": 8429,
      "ina,": 8430,
      "የሚታ": 8431,
      "lls": 8432,
      "በአብ": 8433,
      "መንግሥ": 8434,
      "olominira": 8435,
      "እርግጥ": 8436,
      "ወለድ": 8437,
      "ደረገ።": 8438,
      "ግድም)": 8439,
      "በታች": 8440,
      "ዕድሜ": 8441,
      "jusqu'": 8442,
      "káàkiri": 8443,
      "ሚኒስቴር": 8444,
      "ፕሬዚደንት": 8445,
      "):": 8446,
      "lit": 8447,
      "rain": 8448,
      "pose": 8449,
      "réali": 8450,
      "curi": 8451,
      "derni": 8452,
      "ayo": 8453,
      "zone": 8454,
      "matic": 8455,
      "read": 8456,
      "mean": 8457,
      "virgini": 8458,
      "53": 8459,
      "maye": 8460,
      "real": 8461,
      "secondary": 8462,
      "journal": 8463,
      "ለሰው": 8464,
      "ረድ": 8465,
      "በቆ": 8466,
      "ኅዳር": 8467,
      "አግኝ": 8468,
      "የታሪክ": 8469,
      "wazungu": 8470,
      "madola": 8471,
      "we.": 8472,
      "forces": 8473,
      "orílè": 8474,
      "wanasiasa": 8475,
      "አብር": 8476,
      "(2007)": 8477,
      "jam’i": 8478,
      "aikinta": 8479,
      "ጠቃሚ": 8480,
      "በግሪክ": 8481,
      "dalilin": 8482,
      "iraq": 8483,
      "መጀመርያው": 8484,
      "ongeze": 8485,
      "satumba": 8486,
      "ìjẹ̀bú": 8487,
      "àtòjọ": 8488,
      "ርቶዶክስ": 8489,
      "langues": 8490,
      "baha": 8491,
      "miya": 8492,
      "je,": 8493,
      "api": 8494,
      "nk": 8495,
      "organ": 8496,
      "mikuu": 8497,
      "musu": 8498,
      "vien": 8499,
      "luck": 8500,
      "s.a.": 8501,
      "d'é": 8502,
      "93": 8503,
      "pto": 8504,
      "ሩክ": 8505,
      "ቁም": 8506,
      "ነዉ": 8507,
      "ኛ፣": 8508,
      "ọjà": 8509,
      "sima": 8510,
      "alba": 8511,
      "wakatoliki": 8512,
      "afro": 8513,
      "ነበር፣": 8514,
      "lantar": 8515,
      "odù": 8516,
      "iyayen": 8517,
      "ተመራ": 8518,
      "መሰረ": 8519,
      "àkójọ": 8520,
      "en.wikipedia.org/wiki/": 8521,
      "àpẹẹrẹ": 8522,
      "mazingira": 8523,
      "abúlé": 8524,
      "nad": 8525,
      "chara": 8526,
      "congo": 8527,
      "langa": 8528,
      "mond": 8529,
      "trou": 8530,
      "erra": 8531,
      "duka": 8532,
      "zi.": 8533,
      "proper": 8534,
      "jean-": 8535,
      "gla": 8536,
      "yya,": 8537,
      "bad": 8538,
      "saur": 8539,
      "lo.": 8540,
      "guay": 8541,
      "college,": 8542,
      "-án": 8543,
      "ìṣà": 8544,
      "ራይ": 8545,
      "ቋሚ": 8546,
      "በዘ": 8547,
      "በሩት": 8548,
      "ዛም": 8549,
      "የጠ": 8550,
      "ፐር": 8551,
      "division": 8552,
      "momin": 8553,
      "ọ̀dọ̀": 8554,
      "2005.": 8555,
      "res,": 8556,
      "ዘመድ": 8557,
      "ታወቅ": 8558,
      "ibẹ̀": 8559,
      "taratibu": 8560,
      "፲፱፻፳": 8561,
      "lingana": 8562,
      "andikwa": 8563,
      "kupitia": 8564,
      "magan": 8565,
      "seas": 8566,
      "dole": 8567,
      "image": 8568,
      "miti": 8569,
      "warsa": 8570,
      "corpor": 8571,
      "tua": 8572,
      "phon": 8573,
      "angli": 8574,
      "rivers": 8575,
      "àwo": 8576,
      "àmọ́": 8577,
      "àwòrán": 8578,
      "ለቅ": 8579,
      "ለቆ": 8580,
      "ሚስ": 8581,
      "ሶስ": 8582,
      "ተክለ": 8583,
      "ችግር": 8584,
      "የዋ": 8585,
      "ይዛ": 8586,
      "ጎል": 8587,
      "ጣጣ": 8588,
      "kamili": 8589,
      "kewa": 8590,
      "pole": 8591,
      "lọwọ": 8592,
      "olóyè": 8593,
      "sarakunan": 8594,
      "oníṣ": 8595,
      "lẹhin": 8596,
      "ሥነ-": 8597,
      "ብሔሮች": 8598,
      "mtume": 8599,
      "(cc": 8600,
      "semble": 8601,
      "(እንግሊዝኛ)": 8602,
      "ስድስት": 8603,
      "jumuiya": 8604,
      "ይታመናል።": 8605,
      "-n": 8606,
      "sand": 8607,
      "permet": 8608,
      "people's": 8609,
      "\"a": 8610,
      "inno": 8611,
      "milan": 8612,
      "zauna": 8613,
      "isti": 8614,
      "conser": 8615,
      "show": 8616,
      "olympics": 8617,
      "spé": 8618,
      "review": 8619,
      "fa,": 8620,
      "umbo": 8621,
      "12.": 8622,
      "massa": 8623,
      "politique": 8624,
      "états": 8625,
      "importan": 8626,
      "guna": 8627,
      "ìṣèlú": 8628,
      "òkun": 8629,
      "ሕይወ": 8630,
      "ሠረተ": 8631,
      "በራዊ": 8632,
      "ተከተ": 8633,
      "ኃይ": 8634,
      "ና፣": 8635,
      "አዊ": 8636,
      "ወዲ": 8637,
      "kupan": 8638,
      "kupata": 8639,
      "gio": 8640,
      "mbaji": 8641,
      "እስኪ": 8642,
      "ስትሆን": 8643,
      "በማስ": 8644,
      "sauti": 8645,
      "፲፱፻፸": 8646,
      "፲፱፻፺": 8647,
      "èkó,": 8648,
      "ሮማውያን": 8649,
      "ቴክኖሎጂ": 8650,
      "(ma": 8651,
      "76": 8652,
      "gho": 8653,
      "vard": 8654,
      "kil": 8655,
      "14,": 8656,
      "e)": 8657,
      "reco": 8658,
      "origine": 8659,
      "aw": 8660,
      "basu": 8661,
      "mid": 8662,
      "gber": 8663,
      "fort": 8664,
      "el-": 8665,
      "souvent": 8666,
      "94": 8667,
      "l)": 8668,
      "nọ́": 8669,
      "ogún": 8670,
      "ሌት": 8671,
      "ሜክሲ": 8672,
      "ምባ": 8673,
      "ሰል": 8674,
      "ተገኘ": 8675,
      "አደጋ": 8676,
      "ጅብ": 8677,
      "ጣጫ": 8678,
      "kufika": 8679,
      "al,": 8680,
      "wiwa": 8681,
      "elementi": 8682,
      "ታወቀው": 8683,
      "nord": 8684,
      "darakta": 8685,
      "malamin": 8686,
      "amua": 8687,
      "tawagar": 8688,
      "ẹranko": 8689,
      "አውራጃ": 8690,
      "ያዕቆብ": 8691,
      "ik": 8692,
      "annu": 8693,
      "ku,": 8694,
      "diya": 8695,
      "d'ivoire": 8696,
      "pya": 8697,
      "vene": 8698,
      "southern": 8699,
      "athi": 8700,
      "cos": 8701,
      "capita": 8702,
      "azer": 8703,
      "ìkan": 8704,
      "ሐምሌ": 8705,
      "ሙር": 8706,
      "ረን": 8707,
      "ሰለ": 8708,
      "በይፋ": 8709,
      "ተግባር": 8710,
      "ዘይ": 8711,
      "የሲ": 8712,
      "ጉድ": 8713,
      "፡-": 8714,
      "፫፻": 8715,
      "sions": 8716,
      "wuri": 8717,
      "denmark": 8718,
      "gine-": 8719,
      "ያስፈል": 8720,
      "ሁለቱም": 8721,
      "ዋል፡፡": 8722,
      "atomu": 8723,
      "ማዕከል": 8724,
      "መቅደስ": 8725,
      "studies": 8726,
      "cikakken": 8727,
      "መጋቢት": 8728,
      "አስተሳሰብ": 8729,
      "mole": 8730,
      "guar": 8731,
      "rant": 8732,
      "afghan": 8733,
      "rée": 8734,
      "1937": 8735,
      "senegal": 8736,
      "nairobi": 8737,
      "',": 8738,
      "(),": 8739,
      "sp": 8740,
      "183": 8741,
      "onia": 8742,
      "encyclo": 8743,
      "américa": 8744,
      "mau": 8745,
      "daka": 8746,
      "yulin": 8747,
      "cini": 8748,
      "sm": 8749,
      "ም፤": 8750,
      "በጋ": 8751,
      "በሌሎች": 8752,
      "ጣል።": 8753,
      "ፊልም": 8754,
      "zamo": 8755,
      "fied": 8756,
      "kokarin": 8757,
      "issa.": 8758,
      "bed": 8759,
      "haifu": 8760,
      "አይሁ": 8761,
      "ክልት": 8762,
      "በማድረግ": 8763,
      "samuel": 8764,
      "daraja": 8765,
      "እ.ኤ.አ": 8766,
      "cultural": 8767,
      "ujerumani.": 8768,
      "ቀበሌ": 8769,
      "team0": 8770,
      "legas,": 8771,
      "ታሪኮች": 8772,
      "gli": 8773,
      "hal": 8774,
      "1910": 8775,
      "gie": 8776,
      "moha": 8777,
      "somali": 8778,
      "assemb": 8779,
      "ground": 8780,
      "francis": 8781,
      "-century": 8782,
      "jor": 8783,
      "peace": 8784,
      "bos": 8785,
      "boni": 8786,
      "furi": 8787,
      "2005,": 8788,
      "sv": 8789,
      "uliwa": 8790,
      "uholanzi": 8791,
      "ለካ": 8792,
      "ሠር": 8793,
      "ንጫ": 8794,
      "ከሌሎች": 8795,
      "ጉባ": 8796,
      "na.": 8797,
      "rock": 8798,
      "kwallo": 8799,
      "፲፱፻፴": 8800,
      "ወቅቱ": 8801,
      "mbalimbali.": 8802,
      "kaduna,": 8803,
      "ttuka": 8804,
      "ወታደራዊ": 8805,
      "ቴሌቪ": 8806,
      "rd2-score0": 8807,
      "maendeleo": 8808,
      "own": 8809,
      "uki": 8810,
      "hop": 8811,
      "u-": 8812,
      "meth": 8813,
      "fas": 8814,
      "guerre": 8815,
      "beli": 8816,
      "agbo": 8817,
      "tizo": 8818,
      "sud": 8819,
      "eritre": 8820,
      "lands": 8821,
      "sses": 8822,
      "(6": 8823,
      "ሲሉ": 8824,
      "ተዋና": 8825,
      "ድግ": 8826,
      "yawa,": 8827,
      "gawan": 8828,
      "19.": 8829,
      "fisi": 8830,
      "neja": 8831,
      "faru": 8832,
      "tóbi": 8833,
      "appar": 8834,
      "lauya": 8835,
      "gudumma": 8836,
      "ወንጌል": 8837,
      "%).": 8838,
      "yed": 8839,
      "woman": 8840,
      "ness": 8841,
      "suppor": 8842,
      "pr": 8843,
      "diver": 8844,
      "rudi": 8845,
      "78": 8846,
      "div": 8847,
      "figu": 8848,
      "mel": 8849,
      "exter": 8850,
      "opera": 8851,
      "oxford": 8852,
      "identi": 8853,
      "vy": 8854,
      "ልሳ": 8855,
      "በሙ": 8856,
      "ታና": 8857,
      "ዘሮ": 8858,
      "የኬ": 8859,
      "የፋ": 8860,
      "ጆሮ": 8861,
      "ገዙ": 8862,
      "ጎት": 8863,
      "ጠኝ": 8864,
      "mahimman": 8865,
      "labari": 8866,
      "kimo": 8867,
      "sist": 8868,
      "habu": 8869,
      "stone": 8870,
      "yemi": 8871,
      "uniya": 8872,
      "walimu": 8873,
      "walipo": 8874,
      "ውስት": 8875,
      "ሲሆን፤": 8876,
      "jangwa": 8877,
      "jengo": 8878,
      "mutuwa": 8879,
      "siwaju": 8880,
      "agbaye": 8881,
      "ይዘው": 8882,
      "sassan": 8883,
      "ተቋም": 8884,
      "wafuasi": 8885,
      "ọ̀jọ̀gbọ́n": 8886,
      "berlin": 8887,
      "burkina": 8888,
      "partir": 8889,
      "ahmad": 8890,
      "jani": 8891,
      "ole": 8892,
      "hed": 8893,
      "développe": 8894,
      "(8": 8895,
      "f,": 8896,
      "ije": 8897,
      "ubu": 8898,
      "1942": 8899,
      "1944": 8900,
      "1936": 8901,
      "minister": 8902,
      "johannes": 8903,
      "azerbai": 8904,
      "uhindi": 8905,
      "ìrìn": 8906,
      "ሆተ": 8907,
      "ማለ": 8908,
      "ማም": 8909,
      "ሲስ": 8910,
      "በ17": 8911,
      "ኖረው": 8912,
      "እዚያ": 8913,
      "ኪ.": 8914,
      "ጀም": 8915,
      "ጨር": 8916,
      "ọkùnrin": 8917,
      "yame": 8918,
      "tilẹ̀": 8919,
      "kihistoria": 8920,
      "rasa": 8921,
      "nílé": 8922,
      "jamus": 8923,
      "በአለም": 8924,
      "በአውሮፓ": 8925,
      "እንዳል": 8926,
      "èyí,": 8927,
      "sábà": 8928,
      "ƙarshen": 8929,
      "rubutun": 8930,
      "ለያየ": 8931,
      "ማዕረግ": 8932,
      "current": 8933,
      "ወዳጅ": 8934,
      "polytechni": 8935,
      "benedik": 8936,
      "korea": 8937,
      "actors": 8938,
      "pris": 8939,
      "urban": 8940,
      "camp": 8941,
      "golden": 8942,
      "ethno": 8943,
      "algeria": 8944,
      "(sa": 8945,
      "-un": 8946,
      "bern": 8947,
      "kéré": 8948,
      "(2016)": 8949,
      "isé": 8950,
      "barka": 8951,
      "carol": 8952,
      "plateau": 8953,
      "london,": 8954,
      "ikawa": 8955,
      "vye": 8956,
      "èkìtì": 8957,
      "ራሪ": 8958,
      "ተገደ": 8959,
      "ቻር": 8960,
      "ኩር": 8961,
      "ካቢ": 8962,
      "ካድ": 8963,
      "ውሮ": 8964,
      "የሕዝብ": 8965,
      "ይላል": 8966,
      "ዱት": 8967,
      "ጠባ": 8968,
      "፲፯": 8969,
      "tamba": 8970,
      "kigiriki": 8971,
      "fi,": 8972,
      "chakula": 8973,
      "አንተ": 8974,
      "benue": 8975,
      "መልስ": 8976,
      "ናቸውም": 8977,
      "makarantun": 8978,
      "ይችላል": 8979,
      "janairun": 8980,
      "የሚለውን": 8981,
      "although": 8982,
      "commonwealth": 8983,
      "title": 8984,
      "pasifiki": 8985,
      "volkeno": 8986,
      "turi": 8987,
      "iron": 8988,
      "films": 8989,
      "children": 8990,
      "lim": 8991,
      "often": 8992,
      "colo": 8993,
      "girl": 8994,
      "pp.": 8995,
      "sweden": 8996,
      "var": 8997,
      "celle": 8998,
      "wide": 8999,
      "1903": 9000,
      "zur": 9001,
      "èwe": 9002,
      "መቱ": 9003,
      "ረጥ": 9004,
      "ተወለዱ": 9005,
      "አነ": 9006,
      "ክቶ": 9007,
      "ጀራ": 9008,
      "ጋገ": 9009,
      "ጓደ": 9010,
      "wafalme": 9011,
      "ram": 9012,
      "bisi": 9013,
      "amú": 9014,
      "yarin": 9015,
      "yar'adu": 9016,
      "quali": 9017,
      "adadin": 9018,
      "dunia.": 9019,
      "አንጻ": 9020,
      "የመስ": 9021,
      "kenne": 9022,
      "አብዛ": 9023,
      "ባለቤት": 9024,
      "karibi": 9025,
      "paswa": 9026,
      "mẹ́fà": 9027,
      "አውሮ": 9028,
      "ወጣት": 9029,
      "በቀር": 9030,
      "ሀገሪቱ": 9031,
      "ile-iṣẹ": 9032,
      "ዝናብ": 9033,
      "kowace": 9034,
      "ma’aika": 9035,
      "karùn-ún": 9036,
      "kamu": 9037,
      "def": 9038,
      "1924": 9039,
      "alfred": 9040,
      "jes": 9041,
      "1916": 9042,
      "karl": 9043,
      "align": 9044,
      "ii.": 9045,
      "marie": 9046,
      "logie": 9047,
      "protestan": 9048,
      "elizabeth": 9049,
      "ijọba": 9050,
      "sùn": 9051,
      "ሉ፡": 9052,
      "ስዊ": 9053,
      "ቆር": 9054,
      "ኒክ": 9055,
      "ከ1892": 9056,
      "ዚል": 9057,
      "የቋንቋ": 9058,
      "የያዘ": 9059,
      "ዳቤ": 9060,
      "ጸሓ": 9061,
      "ፋር": 9062,
      "wafanya": 9063,
      "named": 9064,
      "zabi": 9065,
      "zambi": 9066,
      "solo": 9067,
      "tanni": 9068,
      "yo,": 9069,
      "wọ́pọ̀": 9070,
      "farfesa": 9071,
      "lines": 9072,
      "ደረሱ": 9073,
      "ሮችን": 9074,
      "chukwu": 9075,
      "gidauniyar": 9076,
      "dínlọ́gbọ̀n": 9077,
      "ፈላስፋ": 9078,
      "ṣáájú": 9079,
      "mchezaji": 9080,
      "አነጋገር": 9081,
      "pona": 9082,
      "georgia": 9083,
      "scot": 9084,
      "différent": 9085,
      "{{": 9086,
      "cibi": 9087,
      "governor": 9088,
      "andrew": 9089,
      "clima": 9090,
      "ebon": 9091,
      "pe,": 9092,
      "pic": 9093,
      "magaz": 9094,
      "meri": 9095,
      "rer": 9096,
      "መሥ": 9097,
      "ምሁ": 9098,
      "የሳ": 9099,
      "ጣቢያ": 9100,
      "ፍርድ": 9101,
      "ẹnu": 9102,
      "onin": 9103,
      "bit": 9104,
      "christ": 9105,
      "al’": 9106,
      "kofar": 9107,
      "soit": 9108,
      "የአካባቢ": 9109,
      "kasa,": 9110,
      "አልጋ": 9111,
      "kaizari": 9112,
      "pẹ̀pẹ̀": 9113,
      "ojú-": 9114,
      "sciences": 9115,
      "http://en.wikipedia.org/wiki/": 9116,
      "ተወዳ": 9117,
      "ጠረዥ": 9118,
      "አድርገው": 9119,
      "የአፍሪካ": 9120,
      "(ccm)": 9121,
      "cing": 9122,
      "rani": 9123,
      "thu": 9124,
      "haj": 9125,
      "seu": 9126,
      "vidu": 9127,
      "guil": 9128,
      "published": 9129,
      "lopo": 9130,
      "fata": 9131,
      "état": 9132,
      "influence": 9133,
      "\">": 9134,
      "deri": 9135,
      "za,": 9136,
      "celui": 9137,
      "co,": 9138,
      "stantin": 9139,
      "entertainment": 9140,
      "cteur": 9141,
      "oǹ": 9142,
      "ìwọ̀n": 9143,
      "ማቸው": 9144,
      "በሁለት": 9145,
      "ቾች": 9146,
      "ነች።": 9147,
      "አሁንም": 9148,
      "zam": 9149,
      "ke.": 9150,
      "erial": 9151,
      "láyé": 9152,
      "መንበር": 9153,
      "shekarata": 9154,
      "ንጉሱ": 9155,
      "መስመር": 9156,
      "አብያተ": 9157,
      "ከዚህም": 9158,
      "ṣẹlẹ̀": 9159,
      "zinare": 9160,
      "nigbati": 9161,
      "iwoorun": 9162,
      "láàárín": 9163,
      "haɓaka": 9164,
      "(o": 9165,
      "hani": 9166,
      "yau,": 9167,
      "tous": 9168,
      "domo": 9169,
      "justi": 9170,
      "référen": 9171,
      "commen": 9172,
      "oni,": 9173,
      "els": 9174,
      "emplo": 9175,
      "references": 9176,
      "tanganyika": 9177,
      "21,": 9178,
      "ordina": 9179,
      "\").": 9180,
      "2003,": 9181,
      "bwana": 9182,
      "ሄደው": 9183,
      "ሉም": 9184,
      "ሙ።": 9185,
      "ማስተ": 9186,
      "ስጦ": 9187,
      "ተሳ": 9188,
      "የና": 9189,
      "ያቸው": 9190,
      "ዲን": 9191,
      "maandishi": 9192,
      "taarifa": 9193,
      "lambobin": 9194,
      "ric": 9195,
      "riwa": 9196,
      "isele": 9197,
      "jigawa": 9198,
      "duro": 9199,
      "lura": 9200,
      "እናንተ": 9201,
      "ማርቆ": 9202,
      "tunde": 9203,
      "d's": 9204,
      "shugabannin": 9205,
      "obser": 9206,
      "certains": 9207,
      "jaribu": 9208,
      "ገደማ": 9209,
      "ረብኛ": 9210,
      "article": 9211,
      "seed0": 9212,
      "tsuntsu": 9213,
      "ተደርጎ": 9214,
      "victoria": 9215,
      "scientifi": 9216,
      "mtunzi": 9217,
      "ቴሌቪዥን": 9218,
      "700": 9219,
      "arthur": 9220,
      "know": 9221,
      "compa": 9222,
      "paris,": 9223,
      "défini": 9224,
      "société": 9225,
      "frederi": 9226,
      "mkatoliki": 9227,
      "ndo": 9228,
      "vun": 9229,
      "ላፊ": 9230,
      "ሌሎቹ": 9231,
      "ቁስ": 9232,
      "ተከተለው": 9233,
      "ቷል": 9234,
      "ነብ": 9235,
      "አዛ": 9236,
      "እ.አ": 9237,
      "ኮር": 9238,
      "የኪ": 9239,
      "ይድ": 9240,
      "ደሴቶች": 9241,
      "፡ግን": 9242,
      "kidemokrasia": 9243,
      "haƙ": 9244,
      "miiran": 9245,
      "በመጀመሪያ": 9246,
      "1941": 9247,
      "within": 9248,
      "ደብዳቤ": 9249,
      "aṣọ": 9250,
      "olú-": 9251,
      "ilaorun": 9252,
      "òṣìṣẹ́": 9253,
      "kìíní": 9254,
      "ofuata": 9255,
      "የአየርላንድ": 9256,
      "ulaya.": 9257,
      "activi": 9258,
      "khan": 9259,
      "un.": 9260,
      "local": 9261,
      "62": 9262,
      "fc": 9263,
      "lles": 9264,
      "tas": 9265,
      "sain": 9266,
      "sian": 9267,
      "hab": 9268,
      "koya": 9269,
      "mano": 9270,
      "khalifa": 9271,
      "ልስ": 9272,
      "2004.": 9273,
      "yin,": 9274,
      "pulitzer": 9275,
      "different": 9276,
      "according": 9277,
      "73": 9278,
      "ሉ፡፡": 9279,
      "መ።": 9280,
      "ማማ": 9281,
      "ተብ": 9282,
      "ቶሎ": 9283,
      "አዲሱ": 9284,
      "ው።": 9285,
      "ዎስ": 9286,
      "ጣዊ": 9287,
      "ጥላ": 9288,
      "ṣọ̀": 9289,
      "masha": 9290,
      "madaga": 9291,
      "da:": 9292,
      "lisha": 9293,
      "kufikia": 9294,
      "salon": 9295,
      "jamai": 9296,
      "among": 9297,
      "yaran": 9298,
      "boolu": 9299,
      "yuli": 9300,
      "በተሰ": 9301,
      "መልዕ": 9302,
      "ሆኑ።": 9303,
      "wataalamu": 9304,
      "mẹ́tà": 9305,
      "ዘርፍ": 9306,
      "spain": 9307,
      "ይመስላል": 9308,
      "ns": 9309,
      "vana": 9310,
      "mach": 9311,
      "togo": 9312,
      "connu": 9313,
      "how": 9314,
      "ry,": 9315,
      "journa": 9316,
      "dr": 9317,
      "esia": 9318,
      "k)": 9319,
      "depart": 9320,
      "died": 9321,
      "mos": 9322,
      "dos": 9323,
      "mental": 9324,
      "13,": 9325,
      "valent": 9326,
      "kogi": 9327,
      "soli": 9328,
      "donc": 9329,
      "1931": 9330,
      "25,": 9331,
      "julius": 9332,
      "74": 9333,
      "emb": 9334,
      "gga": 9335,
      "lọ̀": 9336,
      "ìlù": 9337,
      "ሌስ": 9338,
      "ማንም": 9339,
      "ቀለም": 9340,
      "በ18": 9341,
      "ነዋ": 9342,
      "ነጥብ": 9343,
      "አወ": 9344,
      "አጭር": 9345,
      "ከያ": 9346,
      "ውሻ": 9347,
      "ጂኦ": 9348,
      "ግያ": 9349,
      "ግብር": 9350,
      "wajerumani": 9351,
      "kash": 9352,
      "kisiasa": 9353,
      "nico": 9354,
      "anaye": 9355,
      "tutu": 9356,
      "tulus": 9357,
      "mum": 9358,
      "gbùn": 9359,
      "yio": 9360,
      "የሚነገር": 9361,
      "እንዲሆን": 9362,
      "በኋላ፣": 9363,
      "saidia": 9364,
      "መልካም": 9365,
      "sultan": 9366,
      "yẹn": 9367,
      "ቅርጽ": 9368,
      "siyasar": 9369,
      "zilikuwa": 9370,
      "ወሰን": 9371,
      "fasahar": 9372,
      "ስፋት": 9373,
      "''(": 9374,
      "ዘጋጀ": 9375,
      "makka": 9376,
      "wakilci": 9377,
      "lórílẹ̀-èdè": 9378,
      "sources": 9379,
      "ጽሁፍ": 9380,
      "tail": 9381,
      "mata,": 9382,
      "(5": 9383,
      "comb": 9384,
      "gue.": 9385,
      "abí": 9386,
      "nent": 9387,
      "temi": 9388,
      "sheikh": 9389,
      "feli": 9390,
      "républi": 9391,
      "15.": 9392,
      "1932": 9393,
      "1901": 9394,
      "dyna": 9395,
      "arabic": 9396,
      "economic": 9397,
      "ላስ": 9398,
      "ራሽ": 9399,
      "ራኒ": 9400,
      "በ2": 9401,
      "ኤስ": 9402,
      "ኦርቶዶክስ": 9403,
      "ወራት": 9404,
      "ጥፋት": 9405,
      "wadogo": 9406,
      "magun": 9407,
      "mabiya": 9408,
      "namna": 9409,
      "colon": 9410,
      "ories": 9411,
      "እስፓን": 9412,
      "lówó": 9413,
      "enea": 9414,
      "asiya": 9415,
      "turawa": 9416,
      "ጀርመ": 9417,
      "tsibirin": 9418,
      "aliyekuwa": 9419,
      "ማቴዎስ፣": 9420,
      "profession": 9421,
      "tobijulo": 9422,
      "ጸሐፊ": 9423,
      "olóòtú": 9424,
      "ayọrí": 9425,
      "aven": 9426,
      "vas": 9427,
      "noun": 9428,
      "actress": 9429,
      "zy": 9430,
      "inté": 9431,
      "online": 9432,
      "fati": 9433,
      "2004,": 9434,
      "d'autres": 9435,
      "religion": 9436,
      "independent": 9437,
      "soft": 9438,
      "right": 9439,
      "tely": 9440,
      "ofan": 9441,
      "tendo": 9442,
      "fonction": 9443,
      "columbia": 9444,
      "profile": 9445,
      "capital": 9446,
      "mkataba": 9447,
      "s:": 9448,
      "ugiriki": 9449,
      "àbú": 9450,
      "ሃይል": 9451,
      "ራች": 9452,
      "ሸት": 9453,
      "በፊ": 9454,
      "ቦችን": 9455,
      "ታኅሣሥ": 9456,
      "ቴን": 9457,
      "ኢያ": 9458,
      "የደቡብ": 9459,
      "የትምህርት": 9460,
      "ይበ": 9461,
      "ግኘት": 9462,
      "waafrika": 9463,
      "ense": 9464,
      "kuishi": 9465,
      "kulingana": 9466,
      "1927": 9467,
      "pius": 9468,
      "aiwa": 9469,
      "garet": 9470,
      "stati": 9471,
      "makai": 9472,
      "gabas,": 9473,
      "mánì": 9474,
      "hadithi": 9475,
      "wakilai": 9476,
      "የሚያሳይ": 9477,
      "ተቀባይ": 9478,
      "ተመሠረተ": 9479,
      "ፍራን": 9480,
      "structure": 9481,
      "bẹrẹ": 9482,
      "wayahudi": 9483,
      "abeo": 9484,
      "taimakawa": 9485,
      "ዘፋኝ": 9486,
      "የሚኖርበት": 9487,
      "ተቀምጦ": 9488,
      "kiwango": 9489,
      "jam’iyyar": 9490,
      "ወዲያው": 9491,
      "aland": 9492,
      "issu": 9493,
      "war,": 9494,
      "hehe": 9495,
      "vention": 9496,
      "schol": 9497,
      "mka": 9498,
      "little": 9499,
      "kumi": 9500,
      "du,": 9501,
      "ment.": 9502,
      "prize": 9503,
      "important": 9504,
      "unesco": 9505,
      "(ዘመነ": 9506,
      "auren": 9507,
      "gno": 9508,
      "ifá": 9509,
      "vingine": 9510,
      "ሃን": 9511,
      "መፍ": 9512,
      "ሠን": 9513,
      "በ14": 9514,
      "ባሪ": 9515,
      "የወጣ": 9516,
      "kisi": 9517,
      "hitaji": 9518,
      "coup": 9519,
      "formed": 9520,
      "asofin": 9521,
      "ƙabi": 9522,
      "ውስጡ": 9523,
      "kòró": 9524,
      "አገኘ": 9525,
      "olómìnira": 9526,
      "moroko": 9527,
      "አስረ": 9528,
      "ነበሩት": 9529,
      "እንዳለ": 9530,
      "እንዳለው": 9531,
      "እርሻ": 9532,
      "ƙarni": 9533,
      "imepakana": 9534,
      "ìdìbò": 9535,
      "አዳድ": 9536,
      "galibi": 9537,
      "ondoka": 9538,
      "(እንግሊዝኛ፦": 9539,
      "አይደለም።": 9540,
      "ግዛቶች": 9541,
      "የለውም": 9542,
      "masallacin": 9543,
      "kidayar": 9544,
      "kirkiro": 9545,
      "ọpọlọpọ": 9546,
      "adúlá": 9547,
      "makaizari": 9548,
      "ajo": 9549,
      "native": 9550,
      "ley,": 9551,
      "or,": 9552,
      "diplo": 9553,
      "ating": 9554,
      "1890": 9555,
      "(2015)": 9556,
      "office": 9557,
      "considé": 9558,
      "kw": 9559,
      "light": 9560,
      "18,": 9561,
      "1938": 9562,
      "blan": 9563,
      "eme": 9564,
      "ግዕዝ": 9565,
      "inji": 9566,
      "billi": 9567,
      "movement": 9568,
      "frança": 9569,
      "vietnam": 9570,
      "système": 9571,
      ":ተረትና": 9572,
      "zer": 9573,
      "መያያዣ": 9574,
      "ስልጣን": 9575,
      "ቀላ": 9576,
      "ቦን": 9577,
      "ጆን": 9578,
      "ገላ": 9579,
      "ጉም": 9580,
      "ጣሊያን": 9581,
      "ጨው": 9582,
      "ጽላት": 9583,
      "ọmọdé": 9584,
      "kujenga": 9585,
      "leda": 9586,
      "tolewa": 9587,
      "katikati": 9588,
      "ared": 9589,
      "shindwa": 9590,
      "rikicin": 9591,
      "አበበ": 9592,
      "የነበረውን": 9593,
      "nauyin": 9594,
      "abubuwa": 9595,
      "እድሜ": 9596,
      "gundumar": 9597,
      "በዓል": 9598,
      "jagorancin": 9599,
      "mediterane": 9600,
      "ማርቆስና": 9601,
      "51": 9602,
      "gest": 9603,
      "saki": 9604,
      "demi": 9605,
      "alaba": 9606,
      "original": 9607,
      "horo": 9608,
      "fila": 9609,
      "established": 9610,
      "psy": 9611,
      "tina": 9612,
      "enga": 9613,
      "bibi": 9614,
      "margaret": 9615,
      "bob": 9616,
      "carbon": 9617,
      "spani": 9618,
      "veni": 9619,
      "ão": 9620,
      "መክ": 9621,
      "ራክ": 9622,
      "በ1": 9623,
      "በሆነ": 9624,
      "ቧል።": 9625,
      "አሞ": 9626,
      "የራሱ": 9627,
      "ፋስ": 9628,
      "kisan": 9629,
      "mikubwa": 9630,
      "along": 9631,
      "albarka": 9632,
      "teach": 9633,
      "jamu": 9634,
      "jahar": 9635,
      "st,": 9636,
      "ziyar": 9637,
      "yancin": 9638,
      "jo,": 9639,
      "descri": 9640,
      "donné": 9641,
      "በተባለ": 9642,
      "médi": 9643,
      "ናቸው፡፡": 9644,
      "antoni": 9645,
      "sana.": 9646,
      "wake,": 9647,
      "individu": 9648,
      "fasiti": 9649,
      "masomo": 9650,
      "ዘርላንድ": 9651,
      "magharibi.": 9652,
      "አፍሪቃ": 9653,
      "በመሆኑ)": 9654,
      "ሰነድ": 9655,
      "አጠገብ": 9656,
      "uwezo": 9657,
      "የሥግር": 9658,
      "nadhari": 9659,
      "ኪ.ሜ": 9660,
      "እ.አ.አ.": 9661,
      "every": 9662,
      "1933": 9663,
      "azi": 9664,
      "oi": 9665,
      "dail": 9666,
      "dies": 9667,
      "1912": 9668,
      "big": 9669,
      "sure": 9670,
      "jos": 9671,
      "ginin": 9672,
      "utilisé": 9673,
      "(ti": 9674,
      "kulu": 9675,
      "ana,": 9676,
      "sura": 9677,
      "reno": 9678,
      "small": 9679,
      "mr": 9680,
      "xes": 9681,
      "ለጥ": 9682,
      "ላር": 9683,
      "መኔ": 9684,
      "ማድረግ": 9685,
      "ብኝ": 9686,
      "እመ": 9687,
      "ከኤ": 9688,
      "ክረም": 9689,
      "ዕት": 9690,
      "የገዛ": 9691,
      "ድራ": 9692,
      "gbìn": 9693,
      "níà": 9694,
      "níbẹ̀": 9695,
      "hijira": 9696,
      "kanu": 9697,
      "karfafa": 9698,
      "viongozi": 9699,
      "ini.": 9700,
      "mance": 9701,
      "yiko": 9702,
      "ነትና": 9703,
      "mbà": 9704,
      "ìnlẹ̀": 9705,
      "lóri": 9706,
      "canza": 9707,
      "said": 9708,
      "rẹ.": 9709,
      "kẹwàá": 9710,
      "ይገል": 9711,
      "bunkasa": 9712,
      "malamai": 9713,
      "politi": 9714,
      "የሱመር": 9715,
      "agbára": 9716,
      "ሕዝቦች": 9717,
      "pàápàá": 9718,
      "munici": 9719,
      "literature": 9720,
      "began": 9721,
      "oth": 9722,
      "oga": 9723,
      "insta": 9724,
      "instru": 9725,
      "using": 9726,
      "(2017)": 9727,
      "city,": 9728,
      "writing": 9729,
      "ologie": 9730,
      "beri": 9731,
      "vingi": 9732,
      "poet": 9733,
      "2003.": 9734,
      "des,": 9735,
      "girls": 9736,
      "ashirin": 9737,
      "àbí": 9738,
      "ìbò": 9739,
      "ህና": 9740,
      "ለኛ": 9741,
      "ሙና": 9742,
      "ሰባት": 9743,
      "ሻለ": 9744,
      "ቆረ": 9745,
      "እቃ": 9746,
      "ከሁሉ": 9747,
      "የጋ": 9748,
      "የነገሠ": 9749,
      "ይነ": 9750,
      "ዳቦ": 9751,
      "ጋል።": 9752,
      "inv": 9753,
      "mamba": 9754,
      "encore": 9755,
      "kudin": 9756,
      "midd": 9757,
      "ọ̀dọ́": 9758,
      "pembe": 9759,
      "manzon": 9760,
      "በመጠቀም": 9761,
      "imekuwa": 9762,
      "uawa": 9763,
      "ሲያዊ": 9764,
      "ይታስ": 9765,
      "ምክንያቱም": 9766,
      "ይባላል": 9767,
      "olúìlú": 9768,
      "sóde": 9769,
      "imam": 9770,
      "kemistri": 9771,
      "bangare": 9772,
      "ኪንግደም": 9773,
      "kebbi": 9774,
      "ecu": 9775,
      "go-": 9776,
      "%,": 9777,
      "ifo": 9778,
      "œu": 9779,
      "commission": 9780,
      "(20": 9781,
      "yaba": 9782,
      "diyar": 9783,
      "tsari": 9784,
      "abra": 9785,
      "cancan": 9786,
      "trouve": 9787,
      "1902": 9788,
      "uha": 9789,
      "»፣": 9790,
      "átà": 9791,
      "ìfi": 9792,
      "በኞች": 9793,
      "ናዳ": 9794,
      "ዓቢይ": 9795,
      "የሀ": 9796,
      "ግቢ": 9797,
      "ጎረ": 9798,
      "insu": 9799,
      "tasiri": 9800,
      "kike": 9801,
      "sierra": 9802,
      "gban": 9803,
      "juyin": 9804,
      "እናቱ": 9805,
      "ṣepọ̀": 9806,
      "በአጠቃላይ": 9807,
      "kókó": 9808,
      "አይነቶች": 9809,
      "jihar.": 9810,
      "ይገኙ": 9811,
      "darak": 9812,
      "ፈረስ": 9813,
      "minista": 9814,
      "ƙarin": 9815,
      "pátá": 9816,
      "የሚታወቀው": 9817,
      "ኮትላንድ": 9818,
      "መኖሪያ": 9819,
      "olùdásílẹ̀": 9820,
      "benedikto": 9821,
      "tle": 9822,
      "é,": 9823,
      "ism": 9824,
      "1905": 9825,
      "offici": 9826,
      "camero": 9827,
      "'u": 9828,
      "(9": 9829,
      "eff": 9830,
      "tay": 9831,
      "five": 9832,
      "bayi": 9833,
      "riko": 9834,
      "zaga": 9835,
      "amina": 9836,
      "lower": 9837,
      "global": 9838,
      "/ር": 9839,
      "cke": 9840,
      "rere": 9841,
      "test": 9842,
      "yán": 9843,
      "ሙከራ": 9844,
      "ሪን": 9845,
      "ራቢ": 9846,
      "ሮም": 9847,
      "በሰው": 9848,
      "ባላ": 9849,
      "ተግባ": 9850,
      "እክት": 9851,
      "እሱም": 9852,
      "ከሩ": 9853,
      "ኪና": 9854,
      "የሉ": 9855,
      "ፈጸ": 9856,
      "ፈጥሮ": 9857,
      "፡ከ": 9858,
      "፲፭": 9859,
      "tajwa": 9860,
      "lii": 9861,
      "ener": 9862,
      "bapti": 9863,
      "lezi": 9864,
      "sugbon": 9865,
      "muhim": 9866,
      "kopa": 9867,
      "paa": 9868,
      "nemi": 9869,
      "yan'": 9870,
      "ዎች፣": 9871,
      "ilivyo": 9872,
      "kunshi": 9873,
      "watau": 9874,
      "mutuwar": 9875,
      "ጨረቃ": 9876,
      "turawan": 9877,
      "kasuwar": 9878,
      "የውሃ": 9879,
      "ማህበረ": 9880,
      "ጉልበት": 9881,
      "example": 9882,
      "funguvisiwa": 9883,
      "kòrónà": 9884,
      "nyi": 9885,
      "arri": 9886,
      "relati": 9887,
      "just": 9888,
      "another": 9889,
      "fried": 9890,
      "gouver": 9891,
      "clar": 9892,
      "pere": 9893,
      "étu": 9894,
      "kamata": 9895,
      "sif": 9896,
      "deci": 9897,
      "terme": 9898,
      "17.": 9899,
      "britanni": 9900,
      "jr.": 9901,
      "begin": 9902,
      "adana": 9903,
      "propo": 9904,
      "monde": 9905,
      "trava": 9906,
      "nationale": 9907,
      "23,": 9908,
      "diale": 9909,
      "61": 9910,
      "acha": 9911,
      "agano": 9912,
      "àdá": 9913,
      "élé": 9914,
      "ህይወት": 9915,
      "ምት": 9916,
      "አታ": 9917,
      "ከቱ": 9918,
      "ክተር": 9919,
      "የስራ": 9920,
      "ጦች": 9921,
      "lagba": 9922,
      "leban": 9923,
      "silẹ": 9924,
      "mua": 9925,
      "ropo": 9926,
      "duwà": 9927,
      "gbajà": 9928,
      "maidugu": 9929,
      "alagba": 9930,
      "tt,": 9931,
      "ìdàgbà": 9932,
      "wuce": 9933,
      "kọ̀ọ̀kan": 9934,
      "ድንጋ": 9935,
      "፲፱፻፹": 9936,
      "mbele": 9937,
      "pasẹ̀": 9938,
      "ƙasashe": 9939,
      "yorùbá.": 9940,
      "ወንድሙ": 9941,
      "አስተዳዳሪ": 9942,
      "fasihi,": 9943,
      "የምትገኝ": 9944,
      "አቅጣጫ": 9945,
      "àárín": 9946,
      "orilẹ-ede": 9947,
      "ried": 9948,
      "1926": 9949,
      "sule": 9950,
      "faire": 9951,
      "hur": 9952,
      "yusuf": 9953,
      "nen": 9954,
      "jawa": 9955,
      "ca,": 9956,
      "zee": 9957,
      "lagos,": 9958,
      "emper": 9959,
      "ological": 9960,
      "72": 9961,
      "epo": 9962,
      "épo": 9963,
      "in-": 9964,
      "baby": 9965,
      "kul": 9966,
      "al.": 9967,
      "alber": 9968,
      "robo": 9969,
      "advan": 9970,
      "l'ex": 9971,
      "1960,": 9972,
      "earth": 9973,
      "source": 9974,
      "spo": 9975,
      "umbali": 9976,
      "àyẹ̀wò": 9977,
      "òrò": 9978,
      "ƙan": 9979,
      "ሄር": 9980,
      "ሉይ": 9981,
      "ልቅ": 9982,
      "ልና": 9983,
      "በሐ": 9984,
      "በርስ": 9985,
      "በወቅቱ": 9986,
      "ቻቸውን": 9987,
      "ነኝ": 9988,
      "ኑም": 9989,
      "ንጥር": 9990,
      "አዕ": 9991,
      "የብ": 9992,
      "ይቱ": 9993,
      "ጥታ": 9994,
      "ọrọ": 9995,
      "kasí": 9996,
      "mawaki": 9997,
      "daji": 9998,
      "bahar": 9999
    },
    "merges": [
      [
        "a",
        "n"
      ],
      [
        "a",
        "r"
      ],
      [
        "i",
        "n"
      ],
      [
        "w",
        "a"
      ],
      [
        "k",
        "a"
      ],
      [
        "m",
        "a"
      ],
      [
        "y",
        "a"
      ],
      [
        "d",
        "a"
      ],
      [
        "t",
        "a"
      ],
      [
        "t",
        "i"
      ],
      [
        "o",
        "n"
      ],
      [
        "e",
        "r"
      ],
      [
        "l",
        "i"
      ],
      [
        "e",
        "n"
      ],
      [
        "u",
        "n"
      ],
      [
        "l",
        "a"
      ],
      [
        "b",
        "a"
      ],
      [
        "s",
        "h"
      ],
      [
        "n",
        "a"
      ],
      [
        "k",
        "u"
      ],
      [
        "s",
        "a"
      ],
      [
        "l",
        "e"
      ],
      [
        "o",
        "r"
      ],
      [
        "k",
        "i"
      ],
      [
        "t",
        "h"
      ],
      [
        "s",
        "i"
      ],
      [
        "e",
        "s"
      ],
      [
        "h",
        "a"
      ],
      [
        "t",
        "o"
      ],
      [
        "n",
        "i"
      ],
      [
        "r",
        "i"
      ],
      [
        "d",
        "e"
      ],
      [
        "d",
        "i"
      ],
      [
        "g",
        "a"
      ],
      [
        "m",
        "i"
      ],
      [
        "r",
        "a"
      ],
      [
        "1",
        "9"
      ],
      [
        "b",
[...]
